#ifndef HAR_3XCNN2D_QUANTIZED_H
#define HAR_3XCNN2D_QUANTIZED_H

#define APP_ACTIVITY_MODEL_NAME har_3xCNN2d_quantized
#define APP_ACTIVITY_RECOGNITION_PRECISION_FLOAT (0)
#define APP_ACTIVITY_RECOGNITION_SENSOR_SCALE (2)
#define APP_ACTIVITY_RECOGNITION_SENSOR_RESOLUTION (8)
#define APP_ACTIVITY_RECOGNITION_SAMPLING_FREQUENCY (10)
#define APP_ACTIVITY_RECOGNITION_FREQUENCY_DIVIDER (1)
#define APP_ACTIVITY_RECOGNITION_HIGHPASS_ORDER (3)
#define APP_ACTIVITY_RECOGNITION_STEP_SIZE (12)
#define APP_ACTIVITY_RECOGNITION_CLASS_COUNT (7)

#ifdef INCLUDE_MODEL
static const float highpass_coefficients[] = {0.2069928239055942f, -0.2069928239055942f, 0.0f, 0.2068179864931189f, -0.0f, 0.25f, -0.5f, 0.25f, 0.4490699651581907f, -0.2071676613180694f};
static const char* APP_ACTIVITY_RECOGNITION_CLASSES[] = {"aufstehen","downstairs","gehen","setzen","sitzen","stehen","upstairs"};
static const size_t har_3xCNN2d_quantized_len = 14048;
static const uint8_t har_3xCNN2d_quantized[] = {
 0x1c, 0x00, 0x00, 0x00, 0x54, 0x46, 0x4c, 0x33, 0x14, 0x00, 0x20, 0x00,
  0x04, 0x00, 0x08, 0x00, 0x0c, 0x00, 0x10, 0x00, 0x14, 0x00, 0x00, 0x00,
  0x18, 0x00, 0x1c, 0x00, 0x14, 0x00, 0x00, 0x00, 0x03, 0x00, 0x00, 0x00,
  0x18, 0x00, 0x00, 0x00, 0x34, 0x00, 0x00, 0x00, 0xec, 0x00, 0x00, 0x00,
  0x34, 0x00, 0x00, 0x00, 0x94, 0x00, 0x00, 0x00, 0x8c, 0x00, 0x00, 0x00,
  0x07, 0x00, 0x00, 0x00, 0x0c, 0x34, 0x00, 0x00, 0x64, 0x28, 0x00, 0x00,
  0x5c, 0x27, 0x00, 0x00, 0x34, 0x06, 0x00, 0x00, 0x10, 0x03, 0x00, 0x00,
  0x48, 0x02, 0x00, 0x00, 0xc0, 0x01, 0x00, 0x00, 0x01, 0x00, 0x00, 0x00,
  0xdc, 0x00, 0x00, 0x00, 0x17, 0x00, 0x00, 0x00, 0x74, 0x36, 0x00, 0x00,
  0x70, 0x36, 0x00, 0x00, 0x8c, 0x35, 0x00, 0x00, 0x68, 0x36, 0x00, 0x00,
  0xdc, 0x2d, 0x00, 0x00, 0x50, 0x29, 0x00, 0x00, 0x5c, 0x36, 0x00, 0x00,
  0x58, 0x36, 0x00, 0x00, 0x74, 0x14, 0x00, 0x00, 0xe8, 0x11, 0x00, 0x00,
  0x4c, 0x36, 0x00, 0x00, 0x48, 0x36, 0x00, 0x00, 0x2c, 0x0a, 0x00, 0x00,
  0xa0, 0x08, 0x00, 0x00, 0x3c, 0x36, 0x00, 0x00, 0x38, 0x36, 0x00, 0x00,
  0x34, 0x36, 0x00, 0x00, 0x0c, 0x04, 0x00, 0x00, 0x60, 0x03, 0x00, 0x00,
  0x28, 0x36, 0x00, 0x00, 0x24, 0x36, 0x00, 0x00, 0x20, 0x36, 0x00, 0x00,
  0x3c, 0x00, 0x00, 0x00, 0x00, 0x00, 0x00, 0x00, 0x01, 0x00, 0x00, 0x00,
  0x0c, 0x00, 0x00, 0x00, 0x08, 0x00, 0x0c, 0x00, 0x04, 0x00, 0x08, 0x00,
  0x08, 0x00, 0x00, 0x00, 0x08, 0x00, 0x00, 0x00, 0x16, 0x00, 0x00, 0x00,
  0x13, 0x00, 0x00, 0x00, 0x6d, 0x69, 0x6e, 0x5f, 0x72, 0x75, 0x6e, 0x74,
  0x69, 0x6d, 0x65, 0x5f, 0x76, 0x65, 0x72, 0x73, 0x69, 0x6f, 0x6e, 0x00,
  0x06, 0xcb, 0xff, 0xff, 0x04, 0x00, 0x00, 0x00, 0x10, 0x00, 0x00, 0x00,
  0x31, 0x2e, 0x31, 0x34, 0x2e, 0x30, 0x00, 0x00, 0x00, 0x00, 0x00, 0x00,
  0x00, 0x00, 0x00, 0x00, 0x0f, 0x00, 0x00, 0x00, 0x4d, 0x4c, 0x49, 0x52,
  0x20, 0x43, 0x6f, 0x6e, 0x76, 0x65, 0x72, 0x74, 0x65, 0x64, 0x2e, 0x00,
  0x00, 0x00, 0x0e, 0x00, 0x18, 0x00, 0x04, 0x00, 0x08, 0x00, 0x0c, 0x00,
  0x10, 0x00, 0x14, 0x00, 0x0e, 0x00, 0x00, 0x00, 0x14, 0x00, 0x00, 0x00,
  0x68, 0x00, 0x00, 0x00, 0x6c, 0x00, 0x00, 0x00, 0x70, 0x00, 0x00, 0x00,
  0x9c, 0x00, 0x00, 0x00, 0x15, 0x00, 0x00, 0x00, 0x28, 0x35, 0x00, 0x00,
  0xc4, 0x34, 0x00, 0x00, 0x10, 0x33, 0x00, 0x00, 0xfc, 0x2e, 0x00, 0x00,
  0x70, 0x29, 0x00, 0x00, 0x4c, 0x27, 0x00, 0x00, 0x44, 0x26, 0x00, 0x00,
  0x94, 0x23, 0x00, 0x00, 0x88, 0x11, 0x00, 0x00, 0xe4, 0x0f, 0x00, 0x00,
  0x0c, 0x0f, 0x00, 0x00, 0x4c, 0x0d, 0x00, 0x00, 0x00, 0x08, 0x00, 0x00,
  0x9c, 0x06, 0x00, 0x00, 0xc4, 0x05, 0x00, 0x00, 0xfc, 0x04, 0x00, 0x00,
  0x0c, 0x04, 0x00, 0x00, 0x9c, 0x02, 0x00, 0x00, 0xd0, 0x01, 0x00, 0x00,
  0x08, 0x01, 0x00, 0x00, 0x80, 0x00, 0x00, 0x00, 0x01, 0x00, 0x00, 0x00,
  0x00, 0x00, 0x00, 0x00, 0x01, 0x00, 0x00, 0x00, 0x14, 0x00, 0x00, 0x00,
  0x0b, 0x00, 0x00, 0x00, 0x64, 0x32, 0x00, 0x00, 0x98, 0x26, 0x00, 0x00,
  0x8c, 0x25, 0x00, 0x00, 0x54, 0x0f, 0x00, 0x00, 0x7c, 0x0e, 0x00, 0x00,
  0x14, 0x06, 0x00, 0x00, 0x3c, 0x05, 0x00, 0x00, 0x80, 0x04, 0x00, 0x00,
  0x4c, 0x01, 0x00, 0x00, 0x88, 0x00, 0x00, 0x00, 0x10, 0x00, 0x00, 0x00,
  0x04, 0x00, 0x00, 0x00, 0x6d, 0x61, 0x69, 0x6e, 0x00, 0x00, 0x00, 0x00,
  0xa6, 0xfb, 0xff, 0xff, 0x06, 0x00, 0x00, 0x00, 0x10, 0x00, 0x00, 0x00,
  0x04, 0x00, 0x00, 0x00, 0x01, 0x00, 0x00, 0x00, 0x14, 0x00, 0x00, 0x00,
  0x01, 0x00, 0x00, 0x00, 0x13, 0x00, 0x00, 0x00, 0xd8, 0xcd, 0xff, 0xff,
  0x06, 0x00, 0x00, 0x00, 0x00, 0x00, 0x00, 0x06, 0x02, 0x00, 0x00, 0x00,
  0xbc, 0xcb, 0xff, 0xff, 0x14, 0x00, 0x00, 0x00, 0x15, 0x00, 0x00, 0x00,
  0x24, 0x00, 0x00, 0x00, 0x30, 0x00, 0x00, 0x00, 0x10, 0x00, 0x00, 0x00,
  0x02, 0x00, 0x00, 0x00, 0x01, 0x00, 0x00, 0x00, 0x07, 0x00, 0x00, 0x00,
  0x02, 0x00, 0x00, 0x00, 0xff, 0xff, 0xff, 0xff, 0x07, 0x00, 0x00, 0x00,
  0x08, 0x00, 0x00, 0x00, 0x49, 0x64, 0x65, 0x6e, 0x74, 0x69, 0x74, 0x79,
  0x00, 0x00, 0x00, 0x00, 0x90, 0xcb, 0xff, 0xff, 0x1e, 0xda, 0xff, 0xff,
  0x00, 0x00, 0x00, 0x09, 0x05, 0x00, 0x00, 0x00, 0x1c, 0x00, 0x00, 0x00,
  0x10, 0x00, 0x00, 0x00, 0x04, 0x00, 0x00, 0x00, 0x8e, 0xcc, 0xff, 0xff,
  0x00, 0x00, 0x80, 0x3f, 0x01, 0x00, 0x00, 0x00, 0x13, 0x00, 0x00, 0x00,
  0x01, 0x00, 0x00, 0x00, 0x12, 0x00, 0x00, 0x00, 0x5c, 0xce, 0xff, 0xff,
  0x19, 0x00, 0x00, 0x00, 0x00, 0x00, 0x00, 0x19, 0x02, 0x00, 0x00, 0x00,
  0x50, 0xce, 0xff, 0xff, 0x00, 0x00, 0x00, 0x09, 0x14, 0x00, 0x00, 0x00,
  0x14, 0x00, 0x00, 0x00, 0x24, 0x00, 0x00, 0x00, 0x48, 0x00, 0x00, 0x00,
  0x10, 0x00, 0x00, 0x00, 0x02, 0x00, 0x00, 0x00, 0x01, 0x00, 0x00, 0x00,
  0x07, 0x00, 0x00, 0x00, 0x02, 0x00, 0x00, 0x00, 0xff, 0xff, 0xff, 0xff,
  0x07, 0x00, 0x00, 0x00, 0x22, 0x00, 0x00, 0x00, 0x73, 0x65, 0x71, 0x75,
  0x65, 0x6e, 0x74, 0x69, 0x61, 0x6c, 0x5f, 0x39, 0x2f, 0x71, 0x75, 0x61,
  0x6e, 0x74, 0x5f, 0x64, 0x65, 0x6e, 0x73, 0x65, 0x5f, 0x39, 0x2f, 0x53,
  0x6f, 0x66, 0x74, 0x6d, 0x61, 0x78, 0x00, 0x00, 0x44, 0xcd, 0xff, 0xff,
  0x08, 0x00, 0x00, 0x00, 0x0c, 0x00, 0x00, 0x00, 0x01, 0x00, 0x00, 0x00,
  0x00, 0x00, 0x80, 0x3b, 0x01, 0x00, 0x00, 0x00, 0x80, 0xff, 0xff, 0xff,
  0xff, 0xff, 0xff, 0xff, 0x00, 0x00, 0x00, 0x00, 0xde, 0xda, 0xff, 0xff,
  0x00, 0x00, 0x00, 0x08, 0x04, 0x00, 0x00, 0x00, 0x18, 0x00, 0x00, 0x00,
  0x0c, 0x00, 0x00, 0x00, 0x04, 0x00, 0x00, 0x00, 0x6c, 0xcc, 0xff, 0xff,
  0x01, 0x00, 0x00, 0x00, 0x12, 0x00, 0x00, 0x00, 0x03, 0x00, 0x00, 0x00,
  0x0f, 0x00, 0x00, 0x00, 0x10, 0x00, 0x00, 0x00, 0x11, 0x00, 0x00, 0x00,
  0x20, 0xcf, 0xff, 0xff, 0x09, 0x00, 0x00, 0x00, 0x00, 0x00, 0x00, 0x09,
  0x04, 0x00, 0x00, 0x00, 0x14, 0xcf, 0xff, 0xff, 0x00, 0x00, 0x00, 0x09,
  0x14, 0x00, 0x00, 0x00, 0x13, 0x00, 0x00, 0x00, 0x24, 0x00, 0x00, 0x00,
  0x6c, 0x00, 0x00, 0x00, 0x10, 0x00, 0x00, 0x00, 0x02, 0x00, 0x00, 0x00,
  0x01, 0x00, 0x00, 0x00, 0x07, 0x00, 0x00, 0x00, 0x02, 0x00, 0x00, 0x00,
  0xff, 0xff, 0xff, 0xff, 0x07, 0x00, 0x00, 0x00, 0x44, 0x00, 0x00, 0x00,
  0x73, 0x65, 0x71, 0x75, 0x65, 0x6e, 0x74, 0x69, 0x61, 0x6c, 0x5f, 0x39,
  0x2f, 0x71, 0x75, 0x61, 0x6e, 0x74, 0x5f, 0x64, 0x65, 0x6e, 0x73, 0x65,
  0x5f, 0x39, 0x2f, 0x4d, 0x61, 0x74, 0x4d, 0x75, 0x6c, 0x3b, 0x73, 0x65,
  0x71, 0x75, 0x65, 0x6e, 0x74, 0x69, 0x61, 0x6c, 0x5f, 0x39, 0x2f, 0x71,
  0x75, 0x61, 0x6e, 0x74, 0x5f, 0x64, 0x65, 0x6e, 0x73, 0x65, 0x5f, 0x39,
  0x2f, 0x42, 0x69, 0x61, 0x73, 0x41, 0x64, 0x64, 0x00, 0x00, 0x00, 0x00,
  0x2c, 0xce, 0xff, 0xff, 0x08, 0x00, 0x00, 0x00, 0x0c, 0x00, 0x00, 0x00,
  0x01, 0x00, 0x00, 0x00, 0x3d, 0x1d, 0xaa, 0x3d, 0x01, 0x00, 0x00, 0x00,
  0x70, 0x00, 0x00, 0x00, 0x00, 0x00, 0x00, 0x00, 0x1a, 0xce, 0xff, 0xff,
  0x04, 0x00, 0x00, 0x00, 0x1c, 0x00, 0x00, 0x00, 0x03, 0xfe, 0xff, 0xff,
  0xa1, 0xfc, 0xff, 0xff, 0x69, 0xfd, 0xff, 0xff, 0xdf, 0xfe, 0xff, 0xff,
  0xe5, 0xfd, 0xff, 0xff, 0x8c, 0xfc, 0xff, 0xff, 0xc7, 0xfc, 0xff, 0xff,
  0x26, 0xce, 0xff, 0xff, 0x00, 0x00, 0x00, 0x02, 0x10, 0x00, 0x00, 0x00,
  0x12, 0x00, 0x00, 0x00, 0x10, 0x00, 0x00, 0x00, 0x4c, 0x00, 0x00, 0x00,
  0x01, 0x00, 0x00, 0x00, 0x07, 0x00, 0x00, 0x00, 0x3a, 0x00, 0x00, 0x00,
  0x73, 0x65, 0x71, 0x75, 0x65, 0x6e, 0x74, 0x69, 0x61, 0x6c, 0x5f, 0x39,
  0x2f, 0x71, 0x75, 0x61, 0x6e, 0x74, 0x5f, 0x64, 0x65, 0x6e, 0x73, 0x65,
  0x5f, 0x39, 0x2f, 0x42, 0x69, 0x61, 0x73, 0x41, 0x64, 0x64, 0x2f, 0x52,
  0x65, 0x61, 0x64, 0x56, 0x61, 0x72, 0x69, 0x61, 0x62, 0x6c, 0x65, 0x4f,
  0x70, 0x2f, 0x72, 0x65, 0x73, 0x6f, 0x75, 0x72, 0x63, 0x65, 0x00, 0x00,
  0xd4, 0xce, 0xff, 0xff, 0x08, 0x00, 0x00, 0x00, 0x0c, 0x00, 0x00, 0x00,
  0x01, 0x00, 0x00, 0x00, 0xb2, 0xb7, 0xd4, 0x39, 0x01, 0x00, 0x00, 0x00,
  0x00, 0x00, 0x00, 0x00, 0x00, 0x00, 0x00, 0x00, 0xc2, 0xce, 0xff, 0xff,
  0x04, 0x00, 0x00, 0x00, 0xe0, 0x00, 0x00, 0x00, 0xc5, 0xfe, 0xe6, 0xfe,
  0x05, 0xe7, 0x15, 0xd3, 0xe4, 0xfd, 0xe1, 0xd5, 0x28, 0xd9, 0xef, 0xe4,
  0xec, 0xf9, 0xfd, 0xfe, 0x04, 0xeb, 0x19, 0xeb, 0xfa, 0xfb, 0x07, 0xdc,
  0x21, 0xca, 0x0e, 0xe3, 0xc7, 0xfb, 0xf6, 0x0d, 0xdb, 0xb2, 0xd4, 0x18,
  0x13, 0xbf, 0xac, 0xe7, 0xc8, 0x04, 0x98, 0xc0, 0x04, 0xf0, 0xf2, 0xe5,
  0xbf, 0xf4, 0x20, 0xea, 0x15, 0xf2, 0x97, 0xf4, 0xca, 0xef, 0x97, 0xcf,
  0x01, 0xf6, 0xf6, 0x01, 0xf3, 0xda, 0xdf, 0xf0, 0x03, 0x0a, 0x90, 0xd4,
  0xfd, 0xef, 0xa4, 0xf3, 0x10, 0xf5, 0xf8, 0xff, 0x0a, 0xc2, 0xb0, 0x17,
  0xf0, 0xce, 0x8a, 0x04, 0xff, 0xee, 0x81, 0x04, 0x01, 0xee, 0x0f, 0xd4,
  0xef, 0xfb, 0x16, 0xc7, 0xf3, 0x02, 0x89, 0x02, 0xcc, 0xfa, 0x9f, 0x0b,
  0x0e, 0xdc, 0xf8, 0xb6, 0xf2, 0x02, 0x18, 0xe0, 0xf6, 0xf3, 0xc5, 0x0b,
  0xa6, 0xf0, 0xcd, 0x08, 0x09, 0xd1, 0xf3, 0x17, 0x0a, 0x01, 0x05, 0xed,
  0xdf, 0x01, 0x01, 0xf5, 0xcf, 0xd0, 0xf6, 0xfb, 0x0f, 0xd2, 0xfa, 0x07,
  0x20, 0xfe, 0x03, 0x0c, 0xde, 0xf9, 0x1a, 0xf5, 0xca, 0xcc, 0x14, 0xfe,
  0x06, 0xe2, 0xf4, 0xd9, 0xaa, 0x09, 0x04, 0xf7, 0xe8, 0xf5, 0x0a, 0xd5,
  0x01, 0x07, 0xf8, 0xe5, 0x12, 0xf6, 0x13, 0xf1, 0xd0, 0xf3, 0xf9, 0xf1,
  0xd9, 0xef, 0x02, 0xe2, 0xfe, 0xf7, 0xff, 0xf4, 0xc2, 0xfb, 0x04, 0x0f,
  0x19, 0xc8, 0xfa, 0x01, 0xc3, 0xb4, 0xd2, 0x0a, 0x17, 0xf4, 0x18, 0x06,
  0xdd, 0xef, 0x0d, 0xf3, 0xf3, 0xc2, 0xf8, 0xfd, 0x02, 0xd7, 0xc4, 0xed,
  0xf7, 0xe5, 0x09, 0xf1, 0x92, 0xcf, 0xff, 0xff, 0x00, 0x00, 0x00, 0x09,
  0x10, 0x00, 0x00, 0x00, 0x11, 0x00, 0x00, 0x00, 0x14, 0x00, 0x00, 0x00,
  0x78, 0x00, 0x00, 0x00, 0x02, 0x00, 0x00, 0x00, 0x07, 0x00, 0x00, 0x00,
  0x20, 0x00, 0x00, 0x00, 0x63, 0x00, 0x00, 0x00, 0x73, 0x65, 0x71, 0x75,
  0x65, 0x6e, 0x74, 0x69, 0x61, 0x6c, 0x5f, 0x39, 0x2f, 0x71, 0x75, 0x61,
  0x6e, 0x74, 0x5f, 0x64, 0x65, 0x6e, 0x73, 0x65, 0x5f, 0x39, 0x2f, 0x4d,
  0x61, 0x74, 0x4d, 0x75, 0x6c, 0x3b, 0x73, 0x65, 0x71, 0x75, 0x65, 0x6e,
  0x74, 0x69, 0x61, 0x6c, 0x5f, 0x39, 0x2f, 0x71, 0x75, 0x61, 0x6e, 0x74,
  0x5f, 0x64, 0x65, 0x6e, 0x73, 0x65, 0x5f, 0x39, 0x2f, 0x4c, 0x61, 0x73,
  0x74, 0x56, 0x61, 0x6c, 0x75, 0x65, 0x51, 0x75, 0x61, 0x6e, 0x74, 0x2f,
  0x46, 0x61, 0x6b, 0x65, 0x51, 0x75, 0x61, 0x6e, 0x74, 0x57, 0x69, 0x74,
  0x68, 0x4d, 0x69, 0x6e, 0x4d, 0x61, 0x78, 0x56, 0x61, 0x72, 0x73, 0x00,
  0x6c, 0xd0, 0xff, 0xff, 0x08, 0x00, 0x00, 0x00, 0x0c, 0x00, 0x00, 0x00,
  0x01, 0x00, 0x00, 0x00, 0xf0, 0x24, 0x6f, 0x3c, 0x01, 0x00, 0x00, 0x00,
  0x00, 0x00, 0x00, 0x00, 0x00, 0x00, 0x00, 0x00, 0x00, 0x00, 0x0a, 0x00,
  0x10, 0x00, 0x04, 0x00, 0x08, 0x00, 0x0c, 0x00, 0x0a, 0x00, 0x00, 0x00,
  0x03, 0x00, 0x00, 0x00, 0x10, 0x00, 0x00, 0x00, 0x04, 0x00, 0x00, 0x00,
  0x01, 0x00, 0x00, 0x00, 0x0f, 0x00, 0x00, 0x00, 0x02, 0x00, 0x00, 0x00,
  0x0e, 0x00, 0x00, 0x00, 0x01, 0x00, 0x00, 0x00, 0x40, 0xd2, 0xff, 0xff,
  0x16, 0x00, 0x00, 0x00, 0x00, 0x00, 0x00, 0x16, 0x01, 0x00, 0x00, 0x00,
  0x34, 0xd2, 0xff, 0xff, 0x00, 0x00, 0x00, 0x09, 0x14, 0x00, 0x00, 0x00,
  0x10, 0x00, 0x00, 0x00, 0x24, 0x00, 0x00, 0x00, 0x4c, 0x00, 0x00, 0x00,
  0x10, 0x00, 0x00, 0x00, 0x02, 0x00, 0x00, 0x00, 0x01, 0x00, 0x00, 0x00,
  0x20, 0x00, 0x00, 0x00, 0x02, 0x00, 0x00, 0x00, 0xff, 0xff, 0xff, 0xff,
  0x20, 0x00, 0x00, 0x00, 0x24, 0x00, 0x00, 0x00, 0x73, 0x65, 0x71, 0x75,
  0x65, 0x6e, 0x74, 0x69, 0x61, 0x6c, 0x5f, 0x39, 0x2f, 0x71, 0x75, 0x61,
  0x6e, 0x74, 0x5f, 0x66, 0x6c, 0x61, 0x74, 0x74, 0x65, 0x6e, 0x5f, 0x39,
  0x2f, 0x52, 0x65, 0x73, 0x68, 0x61, 0x70, 0x65, 0x00, 0x00, 0x00, 0x00,
  0x2c, 0xd1, 0xff, 0xff, 0x08, 0x00, 0x00, 0x00, 0x0c, 0x00, 0x00, 0x00,
  0x01, 0x00, 0x00, 0x00, 0xec, 0xb5, 0xe3, 0x3c, 0x01, 0x00, 0x00, 0x00,
  0x90, 0xff, 0xff, 0xff, 0xff, 0xff, 0xff, 0xff, 0x00, 0x00, 0x00, 0x00,
  0xc6, 0xde, 0xff, 0xff, 0x00, 0x00, 0x00, 0x05, 0x02, 0x00, 0x00, 0x00,
  0x2c, 0x00, 0x00, 0x00, 0x20, 0x00, 0x00, 0x00, 0x04, 0x00, 0x00, 0x00,
  0xbe, 0xdf, 0xff, 0xff, 0x02, 0x00, 0x00, 0x00, 0x01, 0x00, 0x00, 0x00,
  0x02, 0x00, 0x00, 0x00, 0x01, 0x00, 0x00, 0x00, 0x00, 0x00, 0x00, 0x01,
  0x01, 0x00, 0x00, 0x00, 0x0e, 0x00, 0x00, 0x00, 0x01, 0x00, 0x00, 0x00,
  0x0d, 0x00, 0x00, 0x00, 0xf8, 0xd2, 0xff, 0xff, 0x00, 0x00, 0x00, 0x09,
  0x14, 0x00, 0x00, 0x00, 0x0f, 0x00, 0x00, 0x00, 0x34, 0x00, 0x00, 0x00,
  0x60, 0x00, 0x00, 0x00, 0x18, 0x00, 0x00, 0x00, 0x04, 0x00, 0x00, 0x00,
  0x01, 0x00, 0x00, 0x00, 0x01, 0x00, 0x00, 0x00, 0x02, 0x00, 0x00, 0x00,
  0x10, 0x00, 0x00, 0x00, 0x04, 0x00, 0x00, 0x00, 0xff, 0xff, 0xff, 0xff,
  0x01, 0x00, 0x00, 0x00, 0x02, 0x00, 0x00, 0x00, 0x10, 0x00, 0x00, 0x00,
  0x2b, 0x00, 0x00, 0x00, 0x73, 0x65, 0x71, 0x75, 0x65, 0x6e, 0x74, 0x69,
  0x61, 0x6c, 0x5f, 0x39, 0x2f, 0x71, 0x75, 0x61, 0x6e, 0x74, 0x5f, 0x6d,
  0x61, 0x78, 0x5f, 0x70, 0x6f, 0x6f, 0x6c, 0x69, 0x6e, 0x67, 0x32, 0x64,
  0x5f, 0x32, 0x39, 0x2f, 0x4d, 0x61, 0x78, 0x50, 0x6f, 0x6f, 0x6c, 0x00,
  0x04, 0xd2, 0xff, 0xff, 0x08, 0x00, 0x00, 0x00, 0x0c, 0x00, 0x00, 0x00,
  0x01, 0x00, 0x00, 0x00, 0xec, 0xb5, 0xe3, 0x3c, 0x01, 0x00, 0x00, 0x00,
  0x90, 0xff, 0xff, 0xff, 0xff, 0xff, 0xff, 0xff, 0x9a, 0xdf, 0xff, 0xff,
  0x00, 0x00, 0x00, 0x01, 0x01, 0x00, 0x00, 0x00, 0x24, 0x00, 0x00, 0x00,
  0x18, 0x00, 0x00, 0x00, 0x04, 0x00, 0x00, 0x00, 0x8c, 0xdf, 0xff, 0xff,
  0x01, 0x00, 0x00, 0x00, 0x01, 0x00, 0x00, 0x00, 0x00, 0x00, 0x01, 0x01,
  0x01, 0x00, 0x00, 0x00, 0x0d, 0x00, 0x00, 0x00, 0x03, 0x00, 0x00, 0x00,
  0x0a, 0x00, 0x00, 0x00, 0x0b, 0x00, 0x00, 0x00, 0x0c, 0x00, 0x00, 0x00,
  0xcc, 0xd3, 0xff, 0xff, 0x00, 0x00, 0x00, 0x09, 0x14, 0x00, 0x00, 0x00,
  0x0e, 0x00, 0x00, 0x00, 0x34, 0x00, 0x00, 0x00, 0xdc, 0x00, 0x00, 0x00,
  0x18, 0x00, 0x00, 0x00, 0x04, 0x00, 0x00, 0x00, 0x01, 0x00, 0x00, 0x00,
  0x02, 0x00, 0x00, 0x00, 0x02, 0x00, 0x00, 0x00, 0x10, 0x00, 0x00, 0x00,
  0x04, 0x00, 0x00, 0x00, 0xff, 0xff, 0xff, 0xff, 0x02, 0x00, 0x00, 0x00,
  0x02, 0x00, 0x00, 0x00, 0x10, 0x00, 0x00, 0x00, 0xa7, 0x00, 0x00, 0x00,
  0x73, 0x65, 0x71, 0x75, 0x65, 0x6e, 0x74, 0x69, 0x61, 0x6c, 0x5f, 0x39,
  0x2f, 0x71, 0x75, 0x61, 0x6e, 0x74, 0x5f, 0x63, 0x6f, 0x6e, 0x76, 0x32,
  0x64, 0x5f, 0x32, 0x39, 0x2f, 0x52, 0x65, 0x6c, 0x75, 0x3b, 0x73, 0x65,
  0x71, 0x75, 0x65, 0x6e, 0x74, 0x69, 0x61, 0x6c, 0x5f, 0x39, 0x2f, 0x71,
  0x75, 0x61, 0x6e, 0x74, 0x5f, 0x63, 0x6f, 0x6e, 0x76, 0x32, 0x64, 0x5f,
  0x32, 0x39, 0x2f, 0x42, 0x69, 0x61, 0x73, 0x41, 0x64, 0x64, 0x3b, 0x73,
  0x65, 0x71, 0x75, 0x65, 0x6e, 0x74, 0x69, 0x61, 0x6c, 0x5f, 0x39, 0x2f,
  0x71, 0x75, 0x61, 0x6e, 0x74, 0x5f, 0x63, 0x6f, 0x6e, 0x76, 0x32, 0x64,
  0x5f, 0x32, 0x39, 0x2f, 0x43, 0x6f, 0x6e, 0x76, 0x32, 0x44, 0x3b, 0x73,
  0x65, 0x71, 0x75, 0x65, 0x6e, 0x74, 0x69, 0x61, 0x6c, 0x5f, 0x39, 0x2f,
  0x71, 0x75, 0x61, 0x6e, 0x74, 0x5f, 0x63, 0x6f, 0x6e, 0x76, 0x32, 0x64,
  0x5f, 0x32, 0x39, 0x2f, 0x42, 0x69, 0x61, 0x73, 0x41, 0x64, 0x64, 0x2f,
  0x52, 0x65, 0x61, 0x64, 0x56, 0x61, 0x72, 0x69, 0x61, 0x62, 0x6c, 0x65,
  0x4f, 0x70, 0x2f, 0x72, 0x65, 0x73, 0x6f, 0x75, 0x72, 0x63, 0x65, 0x00,
  0x54, 0xd3, 0xff, 0xff, 0x08, 0x00, 0x00, 0x00, 0x0c, 0x00, 0x00, 0x00,
  0x01, 0x00, 0x00, 0x00, 0xec, 0xb5, 0xe3, 0x3c, 0x01, 0x00, 0x00, 0x00,
  0x90, 0xff, 0xff, 0xff, 0xff, 0xff, 0xff, 0xff, 0x00, 0x00, 0x00, 0x00,
  0x46, 0xd3, 0xff, 0xff, 0x04, 0x00, 0x00, 0x00, 0x40, 0x00, 0x00, 0x00,
  0x86, 0x01, 0x00, 0x00, 0x92, 0x05, 0x00, 0x00, 0xdc, 0xfe, 0xff, 0xff,
  0x28, 0xf5, 0xff, 0xff, 0x68, 0xf6, 0xff, 0xff, 0xc5, 0x0e, 0x00, 0x00,
  0x77, 0x06, 0x00, 0x00, 0xcb, 0xfa, 0xff, 0xff, 0x2a, 0x0b, 0x00, 0x00,
  0x2e, 0x0c, 0x00, 0x00, 0xe8, 0x09, 0x00, 0x00, 0x68, 0x03, 0x00, 0x00,
  0x72, 0xfe, 0xff, 0xff, 0xb8, 0x06, 0x00, 0x00, 0xd2, 0x0a, 0x00, 0x00,
  0x31, 0x04, 0x00, 0x00, 0x76, 0xd3, 0xff, 0xff, 0x00, 0x00, 0x00, 0x02,
  0x10, 0x00, 0x00, 0x00, 0x0d, 0x00, 0x00, 0x00, 0x10, 0x00, 0x00, 0x00,
  0x50, 0x00, 0x00, 0x00, 0x01, 0x00, 0x00, 0x00, 0x10, 0x00, 0x00, 0x00,
  0x3c, 0x00, 0x00, 0x00, 0x73, 0x65, 0x71, 0x75, 0x65, 0x6e, 0x74, 0x69,
  0x61, 0x6c, 0x5f, 0x39, 0x2f, 0x71, 0x75, 0x61, 0x6e, 0x74, 0x5f, 0x63,
  0x6f, 0x6e, 0x76, 0x32, 0x64, 0x5f, 0x32, 0x39, 0x2f, 0x42, 0x69, 0x61,
  0x73, 0x41, 0x64, 0x64, 0x2f, 0x52, 0x65, 0x61, 0x64, 0x56, 0x61, 0x72,
  0x69, 0x61, 0x62, 0x6c, 0x65, 0x4f, 0x70, 0x2f, 0x72, 0x65, 0x73, 0x6f,
  0x75, 0x72, 0x63, 0x65, 0x00, 0x00, 0x00, 0x00, 0x28, 0xd4, 0xff, 0xff,
  0x08, 0x00, 0x00, 0x00, 0x48, 0x00, 0x00, 0x00, 0x10, 0x00, 0x00, 0x00,
  0x2b, 0x73, 0x21, 0x38, 0xf2, 0x65, 0x69, 0x38, 0x17, 0x18, 0xac, 0x37,
  0xbe, 0xb8, 0x55, 0x38, 0x20, 0x5c, 0x3c, 0x38, 0x48, 0x6f, 0x83, 0x38,
  0x3c, 0xa9, 0x46, 0x38, 0xe6, 0xc7, 0x89, 0x38, 0x27, 0xb7, 0x71, 0x38,
  0x46, 0x35, 0x72, 0x38, 0x9c, 0x61, 0x97, 0x38, 0x63, 0xfe, 0x5c, 0x38,
  0x27, 0xc2, 0x8f, 0x38, 0x32, 0x35, 0x69, 0x38, 0xc2, 0x5b, 0x8e, 0x38,
  0x2f, 0x13, 0x81, 0x38, 0x10, 0x00, 0x00, 0x00, 0x00, 0x00, 0x00, 0x00,
  0x00, 0x00, 0x00, 0x00, 0x00, 0x00, 0x00, 0x00, 0x00, 0x00, 0x00, 0x00,
  0x00, 0x00, 0x00, 0x00, 0x00, 0x00, 0x00, 0x00, 0x00, 0x00, 0x00, 0x00,
  0x00, 0x00, 0x00, 0x00, 0x00, 0x00, 0x00, 0x00, 0x00, 0x00, 0x00, 0x00,
  0x00, 0x00, 0x00, 0x00, 0x00, 0x00, 0x00, 0x00, 0x00, 0x00, 0x00, 0x00,
  0x00, 0x00, 0x00, 0x00, 0x00, 0x00, 0x00, 0x00, 0x00, 0x00, 0x00, 0x00,
  0x00, 0x00, 0x00, 0x00, 0x00, 0x00, 0x00, 0x00, 0x00, 0x00, 0x00, 0x00,
  0x00, 0x00, 0x00, 0x00, 0x00, 0x00, 0x00, 0x00, 0x00, 0x00, 0x00, 0x00,
  0x00, 0x00, 0x00, 0x00, 0x00, 0x00, 0x00, 0x00, 0x00, 0x00, 0x00, 0x00,
  0x00, 0x00, 0x00, 0x00, 0x00, 0x00, 0x00, 0x00, 0x00, 0x00, 0x00, 0x00,
  0x00, 0x00, 0x00, 0x00, 0x00, 0x00, 0x00, 0x00, 0x00, 0x00, 0x00, 0x00,
  0x00, 0x00, 0x00, 0x00, 0x00, 0x00, 0x00, 0x00, 0xce, 0xd4, 0xff, 0xff,
  0x04, 0x00, 0x00, 0x00, 0x00, 0x04, 0x00, 0x00, 0x4b, 0xcf, 0x15, 0x4e,
  0xf6, 0x18, 0x5b, 0x42, 0xf9, 0xf8, 0x19, 0xe3, 0x14, 0x15, 0xfe, 0xe2,
  0x3e, 0x3d, 0x02, 0x77, 0xcc, 0x19, 0x1e, 0x7f, 0x20, 0x0a, 0x00, 0x1a,
  0xe9, 0xed, 0x3f, 0x94, 0xb9, 0x18, 0x1c, 0xf3, 0x3e, 0x96, 0x9e, 0xe2,
  0x08, 0xb7, 0xac, 0xde, 0xff, 0xa7, 0x9a, 0xf3, 0xe4, 0xd9, 0x13, 0xe9,
  0xed, 0xb0, 0xc6, 0x1d, 0x9c, 0x3a, 0x0e, 0xce, 0x68, 0x08, 0xec, 0xdc,
  0x15, 0x23, 0x0d, 0xd3, 0x04, 0xcd, 0x0f, 0xed, 0xf9, 0xd8, 0x0e, 0xfe,
  0xfc, 0xd1, 0xdb, 0x0f, 0x0b, 0xee, 0xf8, 0x1e, 0x2c, 0xdf, 0x08, 0xfd,
  0xe1, 0x05, 0x09, 0xd3, 0x08, 0x2c, 0xdd, 0x2a, 0x66, 0x0a, 0x02, 0xda,
  0xeb, 0x0c, 0x33, 0x5d, 0xef, 0x53, 0x45, 0x0a, 0x2c, 0x22, 0x3e, 0xed,
  0xee, 0x7f, 0x00, 0x2a, 0xe2, 0x75, 0x61, 0x1f, 0x5b, 0x0b, 0xf6, 0x1e,
  0xfb, 0x5c, 0x43, 0x30, 0x01, 0xb5, 0xc3, 0xc4, 0x69, 0xc8, 0x47, 0xa4,
  0xc9, 0xb1, 0x09, 0xdc, 0xe3, 0xb4, 0x4e, 0x2b, 0xae, 0xac, 0x3a, 0xfd,
  0x5d, 0x28, 0xda, 0x29, 0xfb, 0xc2, 0x88, 0x19, 0xb5, 0x3e, 0x30, 0x63,
  0x1b, 0x15, 0x81, 0x9d, 0xb0, 0xd5, 0x09, 0x26, 0xf1, 0x57, 0xd3, 0xba,
  0x14, 0x53, 0x97, 0x30, 0x56, 0xb4, 0xa5, 0xf6, 0xfc, 0x11, 0x2b, 0xc8,
  0x0d, 0x96, 0xff, 0xea, 0x14, 0x8f, 0xa2, 0x94, 0x10, 0xeb, 0xed, 0xf5,
  0xcb, 0x24, 0x15, 0xf3, 0xc7, 0x20, 0x05, 0x00, 0xfe, 0x06, 0x14, 0xf3,
  0xde, 0xdb, 0xb3, 0xca, 0xbe, 0x08, 0x13, 0x23, 0x2e, 0xe5, 0xf9, 0x18,
  0x1e, 0xd6, 0x2a, 0xf1, 0x37, 0xce, 0xd6, 0x18, 0xb5, 0x3b, 0x3a, 0x15,
  0x82, 0x2b, 0x23, 0x0f, 0xef, 0x06, 0x30, 0xf7, 0xf9, 0x34, 0x81, 0x0e,
  0x6e, 0x19, 0x33, 0xbf, 0x00, 0xc0, 0x3f, 0x22, 0xda, 0x00, 0x37, 0xde,
  0x1d, 0xc2, 0xd9, 0x42, 0x3c, 0x65, 0x1a, 0x14, 0xe8, 0xe7, 0x13, 0xc1,
  0x27, 0x3f, 0x19, 0xf6, 0xdc, 0xf3, 0xbc, 0xc9, 0x65, 0xf7, 0x0a, 0xf5,
  0x27, 0xe0, 0xca, 0x28, 0x45, 0x00, 0x26, 0xb2, 0x2d, 0x9d, 0xb8, 0x02,
  0x38, 0x67, 0x05, 0xf8, 0xa2, 0x32, 0x26, 0xb1, 0xf4, 0x49, 0x23, 0xf2,
  0xfa, 0xe9, 0xa8, 0xe1, 0x78, 0xf2, 0xe8, 0x03, 0x1e, 0xe0, 0xf6, 0x40,
  0x7f, 0xfa, 0x3a, 0xb8, 0xf9, 0x45, 0x22, 0x13, 0xe9, 0xe2, 0x0c, 0x1b,
  0x0e, 0xee, 0xe8, 0x23, 0x28, 0xdc, 0x0e, 0xe1, 0xe1, 0xfe, 0x2f, 0x0d,
  0xd5, 0x05, 0x14, 0x27, 0x1d, 0x0a, 0xf0, 0xf3, 0x27, 0x06, 0xfb, 0x27,
  0xc7, 0xfe, 0x4b, 0xff, 0x59, 0xe9, 0xd9, 0xf3, 0x36, 0xec, 0xcd, 0xfe,
  0x2d, 0xfc, 0xd1, 0x0b, 0xe2, 0xe1, 0x5a, 0xef, 0x81, 0xd5, 0xee, 0xff,
  0xc6, 0x43, 0xf2, 0x15, 0x0e, 0x06, 0xf0, 0x17, 0x00, 0x3b, 0x3f, 0xd4,
  0x3e, 0xbd, 0xd2, 0x0a, 0x57, 0xf8, 0xd0, 0xf4, 0x0d, 0xad, 0xed, 0xfe,
  0x26, 0xff, 0x46, 0x13, 0xa9, 0xed, 0x12, 0xff, 0x08, 0x2d, 0x4e, 0xe4,
  0xd2, 0x00, 0xba, 0x40, 0x10, 0x1d, 0xfd, 0xae, 0x03, 0xc2, 0xf3, 0x35,
  0x81, 0xe3, 0xde, 0x06, 0x14, 0xa8, 0xfa, 0x17, 0x0d, 0x01, 0x96, 0x03,
  0x99, 0x11, 0x27, 0xcf, 0x2a, 0x4d, 0x51, 0x01, 0x16, 0xf6, 0xca, 0x6d,
  0x16, 0xf3, 0xf3, 0x17, 0xc5, 0xf0, 0x2b, 0x0e, 0xb1, 0x12, 0x14, 0xfd,
  0x18, 0xf5, 0xf3, 0xf1, 0x08, 0x0b, 0xae, 0x0c, 0x21, 0x06, 0xec, 0x02,
  0x0d, 0xe2, 0xb3, 0xff, 0x07, 0x12, 0x05, 0xc8, 0xee, 0x0e, 0xc9, 0x05,
  0xd9, 0xd8, 0xf1, 0x12, 0x89, 0xf9, 0x20, 0xf3, 0x0f, 0xe1, 0x18, 0xed,
  0xf9, 0x14, 0x81, 0x0b, 0x34, 0x15, 0x0b, 0xf1, 0x16, 0xdb, 0xbe, 0x29,
  0x16, 0x16, 0x04, 0xe8, 0xf8, 0x4a, 0x27, 0x12, 0x18, 0xa6, 0x06, 0x11,
  0xf4, 0xf2, 0x12, 0x50, 0x03, 0xdf, 0xfc, 0xe0, 0xfe, 0x17, 0x06, 0x5f,
  0xc4, 0x01, 0x00, 0x2f, 0xe2, 0x62, 0x13, 0xb8, 0xe8, 0x08, 0x12, 0x26,
  0xfa, 0x63, 0x46, 0x04, 0x3d, 0x81, 0x22, 0xfb, 0xe1, 0xed, 0xdf, 0x2d,
  0x1e, 0xad, 0x02, 0xfd, 0xf6, 0x18, 0xd8, 0x50, 0x94, 0x13, 0x02, 0xf7,
  0xfc, 0x6b, 0x27, 0xb3, 0xec, 0xff, 0xe4, 0x4c, 0x06, 0x30, 0x4b, 0x18,
  0x39, 0xd7, 0x01, 0xf5, 0x48, 0xea, 0xef, 0xfb, 0xf6, 0xfe, 0xf4, 0x09,
  0xfb, 0xe4, 0x25, 0x20, 0xcc, 0xf4, 0xe7, 0x49, 0x0f, 0x65, 0x7f, 0xcf,
  0x1e, 0xe7, 0x2d, 0x0f, 0x0c, 0x3e, 0x30, 0x2b, 0x29, 0xed, 0xfc, 0xf9,
  0x58, 0xf9, 0xe9, 0xd6, 0xff, 0x03, 0xfa, 0xe8, 0xe9, 0xf4, 0x37, 0x32,
  0xb7, 0xfc, 0xeb, 0x3b, 0xf8, 0x21, 0x6b, 0xbd, 0x34, 0xf3, 0x1e, 0xfe,
  0xe1, 0x25, 0x2a, 0x49, 0x32, 0xf2, 0x18, 0xf9, 0x17, 0xb8, 0xdf, 0x47,
  0x22, 0x02, 0xd2, 0xf9, 0x12, 0xdc, 0x40, 0x42, 0x02, 0xa7, 0xc3, 0x0a,
  0xb0, 0x36, 0x08, 0xf0, 0xf8, 0xf8, 0x25, 0x1e, 0x8c, 0x0c, 0x1c, 0xe0,
  0x2d, 0xb6, 0xc6, 0x96, 0x0f, 0xb0, 0x8f, 0x02, 0x25, 0xe7, 0x8f, 0xe3,
  0xea, 0xb6, 0x0f, 0x1a, 0xc9, 0x9a, 0x83, 0xf0, 0x81, 0x0b, 0x02, 0xdb,
  0x2c, 0xe9, 0xa0, 0xf9, 0x0d, 0xe1, 0x03, 0xf3, 0x0e, 0x4b, 0xd6, 0x11,
  0xef, 0x30, 0x0d, 0xe9, 0x4c, 0xef, 0xea, 0xf1, 0x06, 0x42, 0xf5, 0xcd,
  0x57, 0x0c, 0x37, 0x1c, 0xf8, 0x11, 0xaf, 0x55, 0x47, 0x27, 0xf1, 0xc0,
  0xef, 0xda, 0x33, 0x0e, 0x4c, 0x3f, 0xc6, 0x11, 0xe4, 0x06, 0x2d, 0xa9,
  0x2d, 0x12, 0xe9, 0x01, 0xf0, 0x0a, 0x21, 0xbe, 0x7f, 0xf9, 0x1d, 0x0e,
  0xfa, 0xe6, 0x9b, 0x56, 0x40, 0x17, 0xee, 0xd2, 0xcc, 0xff, 0xfa, 0x81,
  0x3f, 0x32, 0xaa, 0xd6, 0x08, 0xd6, 0xd8, 0xb4, 0xdc, 0x05, 0xd5, 0xef,
  0xf2, 0xbd, 0x13, 0xdb, 0x58, 0xe7, 0xce, 0xd3, 0xee, 0x03, 0x12, 0xf2,
  0x39, 0xb8, 0xbb, 0xfd, 0x35, 0x05, 0xf9, 0x08, 0xf0, 0x30, 0x23, 0x0d,
  0xee, 0x3c, 0x3e, 0x27, 0xed, 0x27, 0x42, 0x0f, 0x1c, 0x10, 0xf9, 0x0f,
  0x21, 0x2e, 0x21, 0xec, 0x33, 0xf8, 0x2e, 0xd2, 0x0a, 0xee, 0x05, 0x2f,
  0x32, 0x16, 0x19, 0x34, 0xf4, 0xd2, 0x15, 0x36, 0xd3, 0x2a, 0xfe, 0x77,
  0x3c, 0xff, 0x22, 0x19, 0xe6, 0x54, 0xe7, 0x0c, 0x31, 0x0f, 0x0a, 0xfa,
  0x01, 0x08, 0x83, 0x0d, 0xd0, 0x7f, 0x18, 0x2f, 0xfa, 0x1c, 0x28, 0xcb,
  0x1a, 0xec, 0xeb, 0xfc, 0xee, 0xd0, 0x00, 0x1b, 0x4b, 0xbe, 0xd0, 0x20,
  0x07, 0x2c, 0x06, 0xe5, 0x4f, 0xf3, 0x0f, 0xe8, 0xf6, 0x1c, 0x95, 0x42,
  0xf9, 0x3b, 0xc4, 0x09, 0xad, 0x39, 0x1a, 0xed, 0x39, 0xe4, 0xd4, 0xac,
  0x4a, 0xb6, 0xb1, 0x1b, 0x20, 0xc2, 0x81, 0x18, 0x0f, 0x9f, 0x23, 0x1e,
  0xf0, 0x99, 0x8f, 0x10, 0x90, 0x3e, 0x2e, 0xf0, 0x41, 0x98, 0xc8, 0x20,
  0xd6, 0x26, 0x02, 0xf3, 0xf8, 0xc2, 0x1a, 0x1e, 0x14, 0x10, 0xc6, 0x2f,
  0x04, 0xef, 0xff, 0x03, 0xf7, 0xfa, 0x33, 0x30, 0x33, 0xf0, 0xd7, 0x0a,
  0xe1, 0x20, 0x12, 0xc1, 0x2c, 0xfc, 0xec, 0x24, 0x13, 0xe7, 0xea, 0x27,
  0x20, 0x0e, 0xf6, 0xfb, 0xf0, 0x0d, 0x28, 0xea, 0x23, 0x20, 0xfe, 0xed,
  0x01, 0xf1, 0xfd, 0x04, 0x31, 0x23, 0x18, 0x2e, 0x0b, 0xf3, 0x0b, 0x28,
  0x2b, 0x1f, 0x2d, 0xd6, 0xf5, 0xc9, 0xd8, 0x0d, 0x46, 0x4e, 0xd4, 0xeb,
  0x13, 0xfb, 0x04, 0xb0, 0x2f, 0x1b, 0x07, 0xdb, 0xfe, 0x09, 0x1a, 0xf0,
  0x39, 0xeb, 0x0d, 0x21, 0x08, 0x26, 0xf2, 0x7f, 0x6d, 0xf5, 0xe0, 0xce,
  0xbe, 0xd8, 0xff, 0xff, 0x00, 0x00, 0x00, 0x09, 0x10, 0x00, 0x00, 0x00,
  0x0c, 0x00, 0x00, 0x00, 0x1c, 0x00, 0x00, 0x00, 0x90, 0x00, 0x00, 0x00,
  0x04, 0x00, 0x00, 0x00, 0x10, 0x00, 0x00, 0x00, 0x02, 0x00, 0x00, 0x00,
  0x01, 0x00, 0x00, 0x00, 0x20, 0x00, 0x00, 0x00, 0x71, 0x00, 0x00, 0x00,
  0x73, 0x65, 0x71, 0x75, 0x65, 0x6e, 0x74, 0x69, 0x61, 0x6c, 0x5f, 0x39,
  0x2f, 0x71, 0x75, 0x61, 0x6e, 0x74, 0x5f, 0x63, 0x6f, 0x6e, 0x76, 0x32,
  0x64, 0x5f, 0x32, 0x39, 0x2f, 0x43, 0x6f, 0x6e, 0x76, 0x32, 0x44, 0x3b,
  0x73, 0x65, 0x71, 0x75, 0x65, 0x6e, 0x74, 0x69, 0x61, 0x6c, 0x5f, 0x39,
  0x2f, 0x71, 0x75, 0x61, 0x6e, 0x74, 0x5f, 0x63, 0x6f, 0x6e, 0x76, 0x32,
  0x64, 0x5f, 0x32, 0x39, 0x2f, 0x4c, 0x61, 0x73, 0x74, 0x56, 0x61, 0x6c,
  0x75, 0x65, 0x51, 0x75, 0x61, 0x6e, 0x74, 0x2f, 0x46, 0x61, 0x6b, 0x65,
  0x51, 0x75, 0x61, 0x6e, 0x74, 0x57, 0x69, 0x74, 0x68, 0x4d, 0x69, 0x6e,
  0x4d, 0x61, 0x78, 0x56, 0x61, 0x72, 0x73, 0x50, 0x65, 0x72, 0x43, 0x68,
  0x61, 0x6e, 0x6e, 0x65, 0x6c, 0x00, 0x00, 0x00, 0xb0, 0xd9, 0xff, 0xff,
  0x08, 0x00, 0x00, 0x00, 0x48, 0x00, 0x00, 0x00, 0x10, 0x00, 0x00, 0x00,
  0xe5, 0x8f, 0x8a, 0x3b, 0x8d, 0x4f, 0xc8, 0x3b, 0x85, 0xb2, 0x13, 0x3b,
  0x71, 0x6c, 0xb7, 0x3b, 0x3e, 0xa8, 0xa1, 0x3b, 0x9c, 0x9a, 0xe1, 0x3b,
  0x82, 0x7f, 0xaa, 0x3b, 0x39, 0x7f, 0xec, 0x3b, 0xea, 0x72, 0xcf, 0x3b,
  0x27, 0xdf, 0xcf, 0x3b, 0xbd, 0xeb, 0x01, 0x3c, 0x2c, 0xaa, 0xbd, 0x3b,
  0xdc, 0xc1, 0xf6, 0x3b, 0xb6, 0x25, 0xc8, 0x3b, 0xb0, 0x5a, 0xf4, 0x3b,
  0xb2, 0x8d, 0xdd, 0x3b, 0x10, 0x00, 0x00, 0x00, 0x00, 0x00, 0x00, 0x00,
  0x00, 0x00, 0x00, 0x00, 0x00, 0x00, 0x00, 0x00, 0x00, 0x00, 0x00, 0x00,
  0x00, 0x00, 0x00, 0x00, 0x00, 0x00, 0x00, 0x00, 0x00, 0x00, 0x00, 0x00,
  0x00, 0x00, 0x00, 0x00, 0x00, 0x00, 0x00, 0x00, 0x00, 0x00, 0x00, 0x00,
  0x00, 0x00, 0x00, 0x00, 0x00, 0x00, 0x00, 0x00, 0x00, 0x00, 0x00, 0x00,
  0x00, 0x00, 0x00, 0x00, 0x00, 0x00, 0x00, 0x00, 0x00, 0x00, 0x00, 0x00,
  0x00, 0x00, 0x00, 0x00, 0x00, 0x00, 0x00, 0x00, 0x00, 0x00, 0x00, 0x00,
  0x00, 0x00, 0x00, 0x00, 0x00, 0x00, 0x00, 0x00, 0x00, 0x00, 0x00, 0x00,
  0x00, 0x00, 0x00, 0x00, 0x00, 0x00, 0x00, 0x00, 0x00, 0x00, 0x00, 0x00,
  0x00, 0x00, 0x00, 0x00, 0x00, 0x00, 0x00, 0x00, 0x00, 0x00, 0x00, 0x00,
  0x00, 0x00, 0x00, 0x00, 0x00, 0x00, 0x00, 0x00, 0x00, 0x00, 0x00, 0x00,
  0x00, 0x00, 0x00, 0x00, 0x00, 0x00, 0x00, 0x00, 0xfe, 0xe7, 0xff, 0xff,
  0x00, 0x00, 0x00, 0x05, 0x02, 0x00, 0x00, 0x00, 0x2c, 0x00, 0x00, 0x00,
  0x20, 0x00, 0x00, 0x00, 0x04, 0x00, 0x00, 0x00, 0xf6, 0xe8, 0xff, 0xff,
  0x02, 0x00, 0x00, 0x00, 0x01, 0x00, 0x00, 0x00, 0x02, 0x00, 0x00, 0x00,
  0x01, 0x00, 0x00, 0x00, 0x00, 0x00, 0x00, 0x01, 0x01, 0x00, 0x00, 0x00,
  0x0a, 0x00, 0x00, 0x00, 0x01, 0x00, 0x00, 0x00, 0x09, 0x00, 0x00, 0x00,
  0x30, 0xdc, 0xff, 0xff, 0x00, 0x00, 0x00, 0x09, 0x14, 0x00, 0x00, 0x00,
  0x0b, 0x00, 0x00, 0x00, 0x34, 0x00, 0x00, 0x00, 0x60, 0x00, 0x00, 0x00,
  0x18, 0x00, 0x00, 0x00, 0x04, 0x00, 0x00, 0x00, 0x01, 0x00, 0x00, 0x00,
  0x03, 0x00, 0x00, 0x00, 0x02, 0x00, 0x00, 0x00, 0x20, 0x00, 0x00, 0x00,
  0x04, 0x00, 0x00, 0x00, 0xff, 0xff, 0xff, 0xff, 0x03, 0x00, 0x00, 0x00,
  0x02, 0x00, 0x00, 0x00, 0x20, 0x00, 0x00, 0x00, 0x2b, 0x00, 0x00, 0x00,
  0x73, 0x65, 0x71, 0x75, 0x65, 0x6e, 0x74, 0x69, 0x61, 0x6c, 0x5f, 0x39,
  0x2f, 0x71, 0x75, 0x61, 0x6e, 0x74, 0x5f, 0x6d, 0x61, 0x78, 0x5f, 0x70,
  0x6f, 0x6f, 0x6c, 0x69, 0x6e, 0x67, 0x32, 0x64, 0x5f, 0x32, 0x38, 0x2f,
  0x4d, 0x61, 0x78, 0x50, 0x6f, 0x6f, 0x6c, 0x00, 0x3c, 0xdb, 0xff, 0xff,
  0x08, 0x00, 0x00, 0x00, 0x0c, 0x00, 0x00, 0x00, 0x01, 0x00, 0x00, 0x00,
  0xa5, 0x24, 0x15, 0x3c, 0x01, 0x00, 0x00, 0x00, 0xb1, 0xff, 0xff, 0xff,
  0xff, 0xff, 0xff, 0xff, 0xd2, 0xe8, 0xff, 0xff, 0x00, 0x00, 0x00, 0x01,
  0x01, 0x00, 0x00, 0x00, 0x24, 0x00, 0x00, 0x00, 0x18, 0x00, 0x00, 0x00,
  0x04, 0x00, 0x00, 0x00, 0xc4, 0xe8, 0xff, 0xff, 0x01, 0x00, 0x00, 0x00,
  0x01, 0x00, 0x00, 0x00, 0x00, 0x00, 0x01, 0x01, 0x01, 0x00, 0x00, 0x00,
  0x09, 0x00, 0x00, 0x00, 0x03, 0x00, 0x00, 0x00, 0x06, 0x00, 0x00, 0x00,
  0x07, 0x00, 0x00, 0x00, 0x08, 0x00, 0x00, 0x00, 0x04, 0xdd, 0xff, 0xff,
  0x00, 0x00, 0x00, 0x09, 0x14, 0x00, 0x00, 0x00, 0x0a, 0x00, 0x00, 0x00,
  0x34, 0x00, 0x00, 0x00, 0xdc, 0x00, 0x00, 0x00, 0x18, 0x00, 0x00, 0x00,
  0x04, 0x00, 0x00, 0x00, 0x01, 0x00, 0x00, 0x00, 0x06, 0x00, 0x00, 0x00,
  0x02, 0x00, 0x00, 0x00, 0x20, 0x00, 0x00, 0x00, 0x04, 0x00, 0x00, 0x00,
  0xff, 0xff, 0xff, 0xff, 0x06, 0x00, 0x00, 0x00, 0x02, 0x00, 0x00, 0x00,
  0x20, 0x00, 0x00, 0x00, 0xa7, 0x00, 0x00, 0x00, 0x73, 0x65, 0x71, 0x75,
  0x65, 0x6e, 0x74, 0x69, 0x61, 0x6c, 0x5f, 0x39, 0x2f, 0x71, 0x75, 0x61,
  0x6e, 0x74, 0x5f, 0x63, 0x6f, 0x6e, 0x76, 0x32, 0x64, 0x5f, 0x32, 0x38,
  0x2f, 0x52, 0x65, 0x6c, 0x75, 0x3b, 0x73, 0x65, 0x71, 0x75, 0x65, 0x6e,
  0x74, 0x69, 0x61, 0x6c, 0x5f, 0x39, 0x2f, 0x71, 0x75, 0x61, 0x6e, 0x74,
  0x5f, 0x63, 0x6f, 0x6e, 0x76, 0x32, 0x64, 0x5f, 0x32, 0x38, 0x2f, 0x42,
  0x69, 0x61, 0x73, 0x41, 0x64, 0x64, 0x3b, 0x73, 0x65, 0x71, 0x75, 0x65,
  0x6e, 0x74, 0x69, 0x61, 0x6c, 0x5f, 0x39, 0x2f, 0x71, 0x75, 0x61, 0x6e,
  0x74, 0x5f, 0x63, 0x6f, 0x6e, 0x76, 0x32, 0x64, 0x5f, 0x32, 0x38, 0x2f,
  0x43, 0x6f, 0x6e, 0x76, 0x32, 0x44, 0x3b, 0x73, 0x65, 0x71, 0x75, 0x65,
  0x6e, 0x74, 0x69, 0x61, 0x6c, 0x5f, 0x39, 0x2f, 0x71, 0x75, 0x61, 0x6e,
  0x74, 0x5f, 0x63, 0x6f, 0x6e, 0x76, 0x32, 0x64, 0x5f, 0x32, 0x38, 0x2f,
  0x42, 0x69, 0x61, 0x73, 0x41, 0x64, 0x64, 0x2f, 0x52, 0x65, 0x61, 0x64,
  0x56, 0x61, 0x72, 0x69, 0x61, 0x62, 0x6c, 0x65, 0x4f, 0x70, 0x2f, 0x72,
  0x65, 0x73, 0x6f, 0x75, 0x72, 0x63, 0x65, 0x00, 0x8c, 0xdc, 0xff, 0xff,
  0x08, 0x00, 0x00, 0x00, 0x0c, 0x00, 0x00, 0x00, 0x01, 0x00, 0x00, 0x00,
  0xa5, 0x24, 0x15, 0x3c, 0x01, 0x00, 0x00, 0x00, 0xb1, 0xff, 0xff, 0xff,
  0xff, 0xff, 0xff, 0xff, 0x00, 0x00, 0x00, 0x00, 0x7e, 0xdc, 0xff, 0xff,
  0x04, 0x00, 0x00, 0x00, 0x80, 0x00, 0x00, 0x00, 0xb4, 0xfa, 0xff, 0xff,
  0x91, 0x09, 0x00, 0x00, 0x51, 0x0c, 0x00, 0x00, 0xa3, 0xfd, 0xff, 0xff,
  0x36, 0x1a, 0x00, 0x00, 0xb1, 0x02, 0x00, 0x00, 0xf6, 0xf8, 0xff, 0xff,
  0x65, 0xf9, 0xff, 0xff, 0x90, 0x13, 0x00, 0x00, 0x6c, 0xf8, 0xff, 0xff,
  0x45, 0xfb, 0xff, 0xff, 0x43, 0x02, 0x00, 0x00, 0xca, 0x0c, 0x00, 0x00,
  0x77, 0xfb, 0xff, 0xff, 0x89, 0xf9, 0xff, 0xff, 0x7e, 0xfb, 0xff, 0xff,
  0x3b, 0xf2, 0xff, 0xff, 0x9e, 0xf9, 0xff, 0xff, 0x11, 0x17, 0x00, 0x00,
  0xfe, 0x03, 0x00, 0x00, 0xd1, 0xf0, 0xff, 0xff, 0x1f, 0xf9, 0xff, 0xff,
  0x4c, 0xfa, 0xff, 0xff, 0x33, 0x04, 0x00, 0x00, 0x6b, 0xfa, 0xff, 0xff,
  0xbc, 0x0a, 0x00, 0x00, 0xd9, 0x00, 0x00, 0x00, 0xfe, 0x04, 0x00, 0x00,
  0x6f, 0x1f, 0x00, 0x00, 0xae, 0xfb, 0xff, 0xff, 0x83, 0xf8, 0xff, 0xff,
  0xd5, 0x00, 0x00, 0x00, 0xee, 0xdc, 0xff, 0xff, 0x00, 0x00, 0x00, 0x02,
  0x10, 0x00, 0x00, 0x00, 0x09, 0x00, 0x00, 0x00, 0x10, 0x00, 0x00, 0x00,
  0x50, 0x00, 0x00, 0x00, 0x01, 0x00, 0x00, 0x00, 0x20, 0x00, 0x00, 0x00,
  0x3c, 0x00, 0x00, 0x00, 0x73, 0x65, 0x71, 0x75, 0x65, 0x6e, 0x74, 0x69,
  0x61, 0x6c, 0x5f, 0x39, 0x2f, 0x71, 0x75, 0x61, 0x6e, 0x74, 0x5f, 0x63,
  0x6f, 0x6e, 0x76, 0x32, 0x64, 0x5f, 0x32, 0x38, 0x2f, 0x42, 0x69, 0x61,
  0x73, 0x41, 0x64, 0x64, 0x2f, 0x52, 0x65, 0x61, 0x64, 0x56, 0x61, 0x72,
  0x69, 0x61, 0x62, 0x6c, 0x65, 0x4f, 0x70, 0x2f, 0x72, 0x65, 0x73, 0x6f,
  0x75, 0x72, 0x63, 0x65, 0x00, 0x00, 0x00, 0x00, 0xa0, 0xdd, 0xff, 0xff,
  0x08, 0x00, 0x00, 0x00, 0x88, 0x00, 0x00, 0x00, 0x20, 0x00, 0x00, 0x00,
  0x07, 0xe3, 0xab, 0x37, 0xd0, 0x59, 0xd8, 0x37, 0x01, 0x5f, 0xfb, 0x37,
  0x04, 0x7c, 0xda, 0x37, 0xc4, 0x73, 0x04, 0x38, 0x9e, 0x83, 0xcd, 0x37,
  0x8c, 0xd3, 0xb0, 0x37, 0xc4, 0x92, 0xf3, 0x37, 0x1d, 0x74, 0xc2, 0x37,
  0x15, 0x63, 0xbf, 0x37, 0xbc, 0x16, 0xb1, 0x37, 0x7d, 0xfe, 0xbb, 0x37,
  0xf1, 0x59, 0xb2, 0x37, 0x49, 0xb6, 0xa9, 0x37, 0x09, 0xb7, 0xbe, 0x37,
  0x9f, 0x2f, 0xff, 0x36, 0x45, 0x4a, 0xda, 0x36, 0x90, 0x8c, 0xce, 0x37,
  0x55, 0x35, 0xc7, 0x37, 0x22, 0x49, 0xfc, 0x37, 0x4f, 0x18, 0xf8, 0x37,
  0x8c, 0x62, 0xa9, 0x37, 0xeb, 0x81, 0xad, 0x37, 0x8c, 0xd8, 0xdc, 0x37,
  0x4c, 0x44, 0xe7, 0x37, 0x47, 0x49, 0x04, 0x38, 0x9e, 0xe1, 0xda, 0x37,
  0xac, 0x7e, 0xf6, 0x37, 0x83, 0xe7, 0xe1, 0x37, 0xa5, 0x4c, 0x00, 0x38,
  0xd1, 0xed, 0xb0, 0x37, 0x57, 0xe4, 0xfe, 0x37, 0x20, 0x00, 0x00, 0x00,
  0x00, 0x00, 0x00, 0x00, 0x00, 0x00, 0x00, 0x00, 0x00, 0x00, 0x00, 0x00,
  0x00, 0x00, 0x00, 0x00, 0x00, 0x00, 0x00, 0x00, 0x00, 0x00, 0x00, 0x00,
  0x00, 0x00, 0x00, 0x00, 0x00, 0x00, 0x00, 0x00, 0x00, 0x00, 0x00, 0x00,
  0x00, 0x00, 0x00, 0x00, 0x00, 0x00, 0x00, 0x00, 0x00, 0x00, 0x00, 0x00,
  0x00, 0x00, 0x00, 0x00, 0x00, 0x00, 0x00, 0x00, 0x00, 0x00, 0x00, 0x00,
  0x00, 0x00, 0x00, 0x00, 0x00, 0x00, 0x00, 0x00, 0x00, 0x00, 0x00, 0x00,
  0x00, 0x00, 0x00, 0x00, 0x00, 0x00, 0x00, 0x00, 0x00, 0x00, 0x00, 0x00,
  0x00, 0x00, 0x00, 0x00, 0x00, 0x00, 0x00, 0x00, 0x00, 0x00, 0x00, 0x00,
  0x00, 0x00, 0x00, 0x00, 0x00, 0x00, 0x00, 0x00, 0x00, 0x00, 0x00, 0x00,
  0x00, 0x00, 0x00, 0x00, 0x00, 0x00, 0x00, 0x00, 0x00, 0x00, 0x00, 0x00,
  0x00, 0x00, 0x00, 0x00, 0x00, 0x00, 0x00, 0x00, 0x00, 0x00, 0x00, 0x00,
  0x00, 0x00, 0x00, 0x00, 0x00, 0x00, 0x00, 0x00, 0x00, 0x00, 0x00, 0x00,
  0x00, 0x00, 0x00, 0x00, 0x00, 0x00, 0x00, 0x00, 0x00, 0x00, 0x00, 0x00,
  0x00, 0x00, 0x00, 0x00, 0x00, 0x00, 0x00, 0x00, 0x00, 0x00, 0x00, 0x00,
  0x00, 0x00, 0x00, 0x00, 0x00, 0x00, 0x00, 0x00, 0x00, 0x00, 0x00, 0x00,
  0x00, 0x00, 0x00, 0x00, 0x00, 0x00, 0x00, 0x00, 0x00, 0x00, 0x00, 0x00,
  0x00, 0x00, 0x00, 0x00, 0x00, 0x00, 0x00, 0x00, 0x00, 0x00, 0x00, 0x00,
  0x00, 0x00, 0x00, 0x00, 0x00, 0x00, 0x00, 0x00, 0x00, 0x00, 0x00, 0x00,
  0x00, 0x00, 0x00, 0x00, 0x00, 0x00, 0x00, 0x00, 0x00, 0x00, 0x00, 0x00,
  0x00, 0x00, 0x00, 0x00, 0x00, 0x00, 0x00, 0x00, 0x00, 0x00, 0x00, 0x00,
  0x00, 0x00, 0x00, 0x00, 0x00, 0x00, 0x00, 0x00, 0x00, 0x00, 0x00, 0x00,
  0x00, 0x00, 0x00, 0x00, 0x00, 0x00, 0x00, 0x00, 0x06, 0xdf, 0xff, 0xff,
  0x04, 0x00, 0x00, 0x00, 0x00, 0x10, 0x00, 0x00, 0x20, 0x04, 0x0b, 0x0a,
  0x14, 0x28, 0x2f, 0x22, 0x0e, 0xf7, 0xe6, 0x14, 0x00, 0xdf, 0xfc, 0x5c,
  0x33, 0x1d, 0xe6, 0xf7, 0xf0, 0x44, 0x40, 0x44, 0x2c, 0x58, 0x37, 0xd7,
  0x31, 0xe3, 0x03, 0x0c, 0x41, 0xfe, 0x11, 0x0a, 0x2b, 0xff, 0x29, 0x16,
  0x1c, 0x00, 0xdc, 0x2e, 0x23, 0xf5, 0xf9, 0x0a, 0xe8, 0x20, 0xf2, 0x12,
  0x28, 0x15, 0x13, 0x0c, 0x35, 0xef, 0x47, 0x30, 0xf1, 0x09, 0x09, 0xed,
  0x08, 0x37, 0x08, 0xff, 0x2a, 0x3c, 0x4e, 0xf4, 0x07, 0x03, 0xf6, 0x2e,
  0x18, 0x1f, 0xff, 0x27, 0x61, 0x21, 0xfb, 0xf6, 0xea, 0x42, 0x2b, 0xf9,
  0x17, 0x44, 0x79, 0x1c, 0x40, 0x10, 0x3b, 0x16, 0x7f, 0x08, 0x48, 0x29,
  0x2e, 0xfb, 0x5b, 0x1e, 0x28, 0xe7, 0x15, 0x08, 0x14, 0x42, 0x26, 0x1f,
  0x26, 0x53, 0x31, 0x11, 0x2d, 0x57, 0x41, 0xea, 0x2d, 0x3f, 0x42, 0x20,
  0xec, 0x2e, 0x1c, 0xf3, 0x00, 0x16, 0x15, 0x04, 0xaf, 0x04, 0x0e, 0xa3,
  0x19, 0x10, 0x22, 0xd6, 0x8e, 0x04, 0xfa, 0xa0, 0xdd, 0x15, 0x06, 0x18,
  0x17, 0xdd, 0xcb, 0xb2, 0x34, 0x08, 0xa5, 0x3b, 0x02, 0xf4, 0x27, 0xef,
  0xf2, 0x1f, 0x45, 0x15, 0xa0, 0x1e, 0x8c, 0x2d, 0xf9, 0xff, 0x3d, 0xa5,
  0x20, 0x27, 0x1c, 0xf8, 0xc9, 0xd6, 0x15, 0x01, 0xa8, 0xdf, 0x13, 0x08,
  0x0b, 0xbf, 0xb5, 0x81, 0x2f, 0x38, 0x1d, 0x2d, 0xf7, 0x0a, 0x10, 0x08,
  0xe2, 0x3d, 0x27, 0x97, 0x2a, 0x18, 0x2e, 0x04, 0xc7, 0xe6, 0x1e, 0xbc,
  0x20, 0xe8, 0x0d, 0x0e, 0x04, 0xd9, 0xeb, 0x87, 0xe7, 0x1a, 0xc8, 0x24,
  0xbf, 0x0f, 0x14, 0x1f, 0xf2, 0xfe, 0xff, 0x0b, 0x93, 0x0c, 0xa1, 0x08,
  0x11, 0x24, 0x1e, 0xc8, 0x02, 0x29, 0x13, 0x0b, 0xe9, 0xb5, 0x0c, 0xdd,
  0xf3, 0x1b, 0x0a, 0xe6, 0x0b, 0xb2, 0x03, 0xaa, 0x09, 0x0a, 0xef, 0x14,
  0x09, 0xee, 0x29, 0x1a, 0xaf, 0xd2, 0xf5, 0x88, 0x13, 0x0a, 0x25, 0xe9,
  0xf8, 0x07, 0xff, 0xc3, 0xdd, 0xe1, 0x26, 0x02, 0x26, 0xd6, 0xd2, 0x9e,
  0x17, 0xd7, 0xe8, 0x07, 0xd8, 0xeb, 0x22, 0xc3, 0xe3, 0x0a, 0x19, 0xec,
  0xe5, 0xfd, 0xc4, 0x21, 0x15, 0x00, 0x1d, 0xac, 0x26, 0x31, 0xfe, 0x1e,
  0x02, 0x03, 0xea, 0xdb, 0xd3, 0xd4, 0xfd, 0x32, 0xe6, 0x17, 0xc7, 0xc4,
  0x10, 0x03, 0x22, 0x10, 0x1e, 0xf2, 0x00, 0x1e, 0xe9, 0xef, 0x26, 0xb2,
  0x13, 0xee, 0x25, 0x20, 0xde, 0xfa, 0xf6, 0xdb, 0xf2, 0x14, 0x1a, 0xf3,
  0x19, 0xaf, 0xf9, 0x89, 0x11, 0xe9, 0xe9, 0x0d, 0xbd, 0x08, 0x08, 0xe2,
  0xaf, 0x2d, 0xf8, 0xda, 0xc0, 0xf2, 0xeb, 0xf1, 0x18, 0x0f, 0x03, 0x81,
  0x23, 0x0b, 0x05, 0x26, 0xef, 0xf0, 0xf1, 0x93, 0xd9, 0xdb, 0xec, 0xf9,
  0xf5, 0xff, 0xea, 0xba, 0x02, 0xe1, 0x05, 0x25, 0x12, 0x3c, 0x2c, 0x02,
  0xb9, 0x25, 0x25, 0xcd, 0x33, 0x57, 0x41, 0xc0, 0x02, 0xff, 0xc9, 0x1f,
  0x2d, 0x19, 0xea, 0xff, 0x14, 0x0e, 0x33, 0xdf, 0x7f, 0x50, 0x45, 0x0d,
  0x02, 0xf1, 0x30, 0x2d, 0x1f, 0x28, 0x4e, 0x15, 0x3d, 0x04, 0x05, 0x24,
  0xe0, 0x22, 0x28, 0x39, 0x14, 0x43, 0xfc, 0x08, 0x2b, 0x5f, 0x34, 0x29,
  0xa4, 0x34, 0x13, 0x0d, 0x3b, 0x53, 0xdf, 0x12, 0x2c, 0x59, 0x06, 0xf3,
  0x17, 0x4e, 0xfb, 0xf8, 0xde, 0x12, 0xde, 0xc2, 0xff, 0x1d, 0x13, 0x9c,
  0xaf, 0x11, 0xb1, 0x02, 0xf2, 0x13, 0xeb, 0x18, 0x05, 0x18, 0x09, 0x21,
  0x59, 0x0a, 0x37, 0x0c, 0xdb, 0xfd, 0x05, 0xc5, 0xfa, 0x1c, 0x75, 0xff,
  0x09, 0x10, 0xd0, 0x17, 0xd1, 0x04, 0xee, 0x0a, 0xfb, 0x36, 0x06, 0xe6,
  0xfd, 0x25, 0x13, 0x04, 0xb0, 0xeb, 0x04, 0x24, 0xf4, 0x1a, 0xcc, 0x19,
  0x2c, 0x3e, 0x35, 0x08, 0x1d, 0xca, 0x16, 0x25, 0xe8, 0xcb, 0xf1, 0x9f,
  0xf6, 0xc0, 0xba, 0x1a, 0x0f, 0xce, 0x03, 0xcc, 0xcc, 0xf1, 0x05, 0x17,
  0x2b, 0xcb, 0xe5, 0x82, 0xe5, 0xc0, 0x09, 0x09, 0xb6, 0x03, 0xe3, 0xde,
  0xca, 0x15, 0xde, 0xe3, 0xe9, 0xb5, 0xff, 0xfe, 0x26, 0x19, 0xcd, 0xb4,
  0x03, 0xf9, 0x2e, 0x0a, 0x1b, 0xe5, 0xe9, 0xb8, 0xe0, 0xad, 0xf5, 0x04,
  0xe5, 0x28, 0xeb, 0xd1, 0x10, 0xbe, 0x11, 0x00, 0x1f, 0xc7, 0xef, 0xfb,
  0x29, 0xf4, 0x04, 0xe3, 0x0a, 0xbe, 0xc0, 0x04, 0x07, 0xc8, 0x09, 0xf6,
  0x14, 0x0e, 0x2b, 0x05, 0x15, 0x90, 0x2c, 0xe8, 0x99, 0xfb, 0xe2, 0xfd,
  0xa7, 0x25, 0xcf, 0x07, 0xa4, 0x12, 0xd1, 0xe5, 0xd8, 0x9f, 0xf2, 0xf7,
  0x1f, 0x05, 0xa8, 0xae, 0x09, 0xf2, 0x1f, 0x14, 0x05, 0xe3, 0xe8, 0x81,
  0x19, 0xe4, 0xcf, 0x02, 0x0d, 0x10, 0x0a, 0xd4, 0xfc, 0xad, 0x1f, 0x28,
  0xee, 0xc2, 0xeb, 0xf3, 0x34, 0x81, 0xf3, 0x36, 0xc5, 0x8a, 0xc1, 0x0a,
  0x26, 0xbb, 0x2a, 0x2c, 0xa2, 0x05, 0xf6, 0xe9, 0xd9, 0xea, 0x0a, 0x43,
  0xd3, 0xce, 0xf7, 0xf8, 0xda, 0x1e, 0xe5, 0xc0, 0x1a, 0xd0, 0xcd, 0xf7,
  0x43, 0xb9, 0x04, 0xce, 0xfa, 0xe1, 0x97, 0x3a, 0xd5, 0xe8, 0xfe, 0x19,
  0xfd, 0x36, 0xc6, 0xcf, 0x15, 0xda, 0xec, 0x0f, 0xa4, 0x0f, 0x09, 0xe9,
  0xc2, 0xad, 0xbc, 0xf2, 0xf0, 0x02, 0x09, 0x2e, 0x1b, 0x20, 0x27, 0x3b,
  0xde, 0xef, 0x00, 0x08, 0x62, 0xc2, 0xf4, 0x37, 0xf9, 0x19, 0x06, 0xe5,
  0x0f, 0x2a, 0x60, 0x3c, 0x01, 0x18, 0x34, 0xe7, 0x37, 0x01, 0x27, 0x24,
  0x2e, 0xf1, 0x10, 0x13, 0x2b, 0x04, 0x56, 0x23, 0x18, 0xda, 0xcc, 0xf6,
  0xf5, 0x0f, 0x09, 0xef, 0x2f, 0x14, 0x0e, 0x12, 0x3a, 0x21, 0x2a, 0x1d,
  0x1f, 0x2d, 0x0f, 0x21, 0xff, 0xe8, 0xff, 0x0a, 0x11, 0x71, 0x19, 0x12,
  0xe5, 0x05, 0xcd, 0xa9, 0x27, 0x3a, 0x36, 0xd7, 0xa7, 0x2b, 0x0c, 0xfc,
  0x22, 0x17, 0x16, 0x11, 0xfa, 0x1e, 0xf5, 0xb8, 0x51, 0x01, 0x29, 0x0b,
  0x25, 0xe9, 0xd9, 0x25, 0x3c, 0x0f, 0x2c, 0x30, 0xe8, 0x3c, 0xfb, 0x1d,
  0xf2, 0x3e, 0x3e, 0x40, 0x0a, 0x25, 0xe9, 0xf1, 0xe5, 0xe1, 0x2b, 0x56,
  0x11, 0xfa, 0x2b, 0x18, 0x0b, 0xd0, 0xf4, 0xe4, 0x0a, 0x3c, 0x0b, 0x13,
  0x21, 0x7b, 0x0b, 0xf2, 0xab, 0x0f, 0x01, 0x86, 0x06, 0x7c, 0x66, 0xcd,
  0xaf, 0x4e, 0x1d, 0xee, 0xf6, 0x14, 0xed, 0x1f, 0xfb, 0x1a, 0x07, 0xb2,
  0x46, 0x53, 0x19, 0x4a, 0x2a, 0xe6, 0x3a, 0x00, 0x29, 0x08, 0x68, 0x09,
  0xf1, 0x5a, 0xc0, 0x16, 0xe4, 0x0d, 0x67, 0x26, 0x1a, 0x40, 0xfe, 0xfc,
  0xff, 0xe2, 0x0c, 0x62, 0x0f, 0x06, 0x03, 0x11, 0x2a, 0xe4, 0xdf, 0xdf,
  0x26, 0x7f, 0x1f, 0xf1, 0xf0, 0xf8, 0xfa, 0xf0, 0x35, 0x25, 0x28, 0xea,
  0x12, 0x52, 0x51, 0x52, 0x00, 0xf2, 0x2e, 0x0a, 0x42, 0xf3, 0x12, 0xe7,
  0x12, 0x18, 0x36, 0x10, 0x45, 0x2c, 0x1d, 0x0d, 0x0d, 0xff, 0x52, 0x32,
  0xf4, 0xfb, 0x0e, 0x4b, 0xda, 0x21, 0x0d, 0xfe, 0x13, 0x00, 0x47, 0xe1,
  0x05, 0x25, 0xf9, 0xf1, 0x1a, 0x29, 0xd6, 0xfe, 0x01, 0x09, 0x64, 0x08,
  0x3c, 0x08, 0x31, 0xdf, 0xfb, 0x3c, 0xeb, 0xf3, 0xee, 0x36, 0x16, 0xfd,
  0x4f, 0x1a, 0x49, 0xf0, 0xe5, 0x31, 0x30, 0x7f, 0x11, 0x07, 0x34, 0xe0,
  0x47, 0x17, 0x0c, 0xef, 0x05, 0x01, 0x21, 0xe0, 0x39, 0x13, 0x26, 0x0b,
  0x13, 0x0b, 0x6e, 0x4b, 0x23, 0x17, 0x20, 0x4d, 0x02, 0x45, 0x1b, 0xfc,
  0x14, 0x08, 0x59, 0xea, 0x18, 0x0d, 0xfa, 0xf3, 0xf3, 0x22, 0xe2, 0x28,
  0x08, 0x11, 0x31, 0x1d, 0x2f, 0x1c, 0x4a, 0xbf, 0x0a, 0x2b, 0x0f, 0x0f,
  0x01, 0xf4, 0x18, 0x02, 0x84, 0xd7, 0xd1, 0x84, 0x2d, 0x11, 0x0c, 0xa2,
  0x34, 0xbc, 0xca, 0x2b, 0xc6, 0xff, 0x01, 0xeb, 0x05, 0xd2, 0xe3, 0xc6,
  0xf1, 0xe7, 0x06, 0xec, 0xb5, 0x15, 0xf7, 0xe5, 0x02, 0xfa, 0x17, 0xdc,
  0x32, 0xa6, 0x13, 0x32, 0x13, 0x33, 0xcc, 0xea, 0x3d, 0xdf, 0x07, 0x1e,
  0x47, 0x3a, 0x1f, 0xf5, 0xbf, 0xe5, 0xd7, 0x29, 0xec, 0x3f, 0x95, 0xe8,
  0x1d, 0xe6, 0x08, 0x05, 0x2a, 0xdb, 0xfd, 0x1a, 0xa4, 0xbf, 0xe7, 0xa0,
  0x0f, 0xfe, 0x01, 0xaf, 0x16, 0xf5, 0xbe, 0xe0, 0xa9, 0x12, 0x04, 0x19,
  0x25, 0xa6, 0xbb, 0x94, 0xfb, 0xf4, 0xe8, 0x4b, 0x9e, 0xf7, 0xf0, 0xac,
  0xb9, 0xfd, 0xf0, 0xc7, 0xe9, 0xb5, 0xc7, 0xf7, 0xe4, 0xfc, 0xd9, 0xca,
  0x2d, 0xf5, 0x11, 0x32, 0x10, 0x00, 0x35, 0xd6, 0x9c, 0xee, 0xb0, 0x1f,
  0xc9, 0x25, 0x81, 0x0d, 0x13, 0xce, 0x32, 0x1b, 0xe3, 0xe1, 0xff, 0x12,
  0x1b, 0x02, 0x1f, 0x7f, 0x03, 0xf3, 0xf4, 0x13, 0x3d, 0xfc, 0x0e, 0x19,
  0x11, 0x0d, 0xfe, 0xfc, 0xed, 0x03, 0xf4, 0x54, 0x01, 0x0a, 0xe8, 0xc9,
  0x1b, 0xe1, 0x09, 0xf2, 0x11, 0xda, 0xfe, 0x14, 0x14, 0xf5, 0x4f, 0x09,
  0x1a, 0xdf, 0xed, 0x12, 0x11, 0xc9, 0x26, 0xfc, 0x16, 0x17, 0xf4, 0x15,
  0x2b, 0x09, 0x28, 0x0d, 0x2d, 0x2f, 0x0b, 0x0e, 0xe2, 0xe2, 0xf5, 0x07,
  0x2c, 0x03, 0x33, 0x1b, 0x23, 0xf5, 0x2c, 0x50, 0xd1, 0x0a, 0xfd, 0x26,
  0x32, 0xef, 0x0f, 0x2d, 0xef, 0x08, 0x05, 0xe7, 0x08, 0x55, 0x1a, 0x32,
  0x03, 0x0e, 0x2b, 0x22, 0x5a, 0xec, 0x0e, 0x1c, 0x4e, 0xfe, 0xdb, 0x47,
  0x05, 0x08, 0x6c, 0x12, 0xf1, 0xe0, 0x08, 0x15, 0x35, 0x0a, 0xed, 0xf5,
  0x11, 0x0a, 0x0d, 0x2b, 0xec, 0x3f, 0x2a, 0x22, 0x1c, 0x4a, 0x1c, 0x0a,
  0xf8, 0x06, 0x29, 0x1f, 0xe9, 0x07, 0x00, 0x07, 0x1f, 0x10, 0x22, 0x73,
  0xfb, 0x01, 0xf5, 0xea, 0x09, 0xd8, 0xe2, 0x49, 0x1b, 0x06, 0xeb, 0xf3,
  0x03, 0x1a, 0x03, 0x7f, 0x04, 0x08, 0xf6, 0xf2, 0x3f, 0x04, 0xed, 0x02,
  0x11, 0xde, 0x0c, 0x14, 0x3b, 0xe0, 0x41, 0x20, 0xf5, 0x18, 0xd6, 0x13,
  0x0a, 0xfd, 0x21, 0xfc, 0x33, 0x12, 0xd5, 0xec, 0x20, 0x32, 0x1f, 0x06,
  0x2a, 0x10, 0x23, 0x38, 0x08, 0x27, 0x20, 0x1a, 0x13, 0xf4, 0x16, 0xfa,
  0x27, 0x28, 0x17, 0x65, 0x0d, 0x04, 0xf8, 0x4a, 0x30, 0xec, 0x06, 0x1a,
  0x32, 0x04, 0x0d, 0x12, 0x02, 0x44, 0x1b, 0x6a, 0xfc, 0x3f, 0x2f, 0x12,
  0x49, 0xdc, 0xe0, 0xfd, 0x47, 0x01, 0xe9, 0x3f, 0x3f, 0xd5, 0x61, 0xeb,
  0x44, 0x23, 0x00, 0x08, 0xef, 0xfe, 0x01, 0x25, 0x38, 0x04, 0x0b, 0x23,
  0xfa, 0x0a, 0x17, 0xf0, 0x01, 0x25, 0x01, 0x1f, 0x11, 0x07, 0xff, 0xef,
  0x0b, 0x19, 0x09, 0xfd, 0xb8, 0xf9, 0x08, 0xe0, 0x30, 0x46, 0x75, 0xd5,
  0xdc, 0x4a, 0xf1, 0xca, 0xf1, 0xfd, 0xfe, 0xf3, 0x09, 0xfe, 0xd8, 0x9b,
  0x36, 0x06, 0xde, 0x2a, 0x34, 0x01, 0x69, 0xde, 0x04, 0x0c, 0x0d, 0x4a,
  0xb7, 0x36, 0xb9, 0x0a, 0x1a, 0x4c, 0x50, 0xb9, 0x4a, 0x02, 0xf3, 0xe9,
  0x02, 0xe6, 0x2f, 0xfc, 0xfc, 0x22, 0x6d, 0x34, 0x09, 0xc8, 0xdd, 0xab,
  0x21, 0x2c, 0xf4, 0x0b, 0x03, 0x37, 0xdf, 0xf5, 0xe6, 0xf5, 0xff, 0xe4,
  0x2e, 0x48, 0x7f, 0xea, 0xe3, 0x31, 0x20, 0xaf, 0xf3, 0x15, 0xf6, 0xee,
  0x0e, 0x0b, 0xba, 0xad, 0x14, 0xf2, 0xc7, 0x32, 0x19, 0x08, 0x4a, 0x0a,
  0xfe, 0x32, 0x01, 0x31, 0x8d, 0x52, 0xa6, 0xf8, 0xd7, 0x25, 0x7d, 0x97,
  0x24, 0x20, 0x26, 0xf3, 0xcc, 0xa1, 0x28, 0x24, 0xed, 0xfb, 0x4f, 0x26,
  0x0f, 0xd0, 0x17, 0x95, 0xe7, 0x37, 0x16, 0x13, 0xe1, 0xe0, 0x09, 0x26,
  0x23, 0x33, 0x5d, 0x1a, 0xf8, 0x16, 0x28, 0x76, 0x59, 0xbf, 0x07, 0xfd,
  0x11, 0x08, 0x22, 0x1e, 0x19, 0xd7, 0x18, 0x42, 0x36, 0xdf, 0x32, 0xca,
  0x1b, 0x07, 0x50, 0x13, 0xfc, 0x20, 0x0e, 0xfa, 0x0c, 0xfb, 0x23, 0xfc,
  0x27, 0x28, 0x0d, 0xca, 0x41, 0x3c, 0x12, 0xfd, 0x2d, 0x2e, 0xc8, 0xe1,
  0xed, 0xe8, 0x3a, 0x2b, 0x10, 0x6d, 0x4a, 0xfa, 0x07, 0x36, 0x13, 0x1b,
  0xd4, 0xac, 0xdc, 0x1d, 0x0b, 0xf9, 0x07, 0x3b, 0x03, 0xf2, 0x35, 0x27,
  0x1f, 0xc4, 0x18, 0x24, 0xe7, 0xff, 0xf8, 0xe7, 0xf9, 0x8b, 0xea, 0x4b,
  0x0c, 0xda, 0xe7, 0xf0, 0xa4, 0x0e, 0x24, 0x22, 0xd5, 0x14, 0xe1, 0xe1,
  0xf5, 0xd4, 0x03, 0xcf, 0xed, 0x17, 0x08, 0x9a, 0x2c, 0xe3, 0x1c, 0x0c,
  0x27, 0xf8, 0x81, 0x8a, 0x0d, 0xd6, 0x02, 0xe6, 0x3e, 0x47, 0x09, 0x11,
  0xce, 0xf0, 0x00, 0x23, 0xfe, 0xe1, 0x02, 0x13, 0x4e, 0xda, 0xeb, 0x48,
  0xd0, 0x81, 0xdc, 0xdd, 0x13, 0xe6, 0x1b, 0x2e, 0xed, 0x04, 0x11, 0x01,
  0x18, 0x35, 0x0b, 0x3e, 0xbd, 0xfb, 0x43, 0xf1, 0x10, 0x10, 0xc1, 0xcb,
  0x1d, 0xe1, 0xf4, 0xf5, 0x47, 0xd1, 0x29, 0x35, 0x2b, 0xee, 0xd4, 0x56,
  0xee, 0x0a, 0x09, 0xfd, 0x0b, 0x21, 0x35, 0x04, 0x06, 0x35, 0xe2, 0x14,
  0xd8, 0x3c, 0x06, 0x42, 0xfd, 0xac, 0xfa, 0xff, 0x16, 0x0b, 0xe2, 0x0b,
  0x18, 0x04, 0x01, 0x06, 0xd2, 0xd0, 0xe7, 0xda, 0x67, 0xd5, 0xcc, 0x6a,
  0xee, 0x00, 0x04, 0x0e, 0x08, 0x39, 0x30, 0x39, 0xea, 0x23, 0x75, 0xeb,
  0x3e, 0x08, 0xe4, 0x09, 0x60, 0x12, 0x10, 0x21, 0x35, 0xe6, 0x4d, 0x35,
  0xfd, 0xe7, 0xde, 0x25, 0x0a, 0x07, 0xe8, 0xf5, 0x2d, 0x28, 0x45, 0x2c,
  0xeb, 0x0f, 0xf4, 0x26, 0xef, 0x2c, 0xee, 0x33, 0x1b, 0x0a, 0xf5, 0xe4,
  0x14, 0xf3, 0xdd, 0x15, 0x27, 0xf1, 0x10, 0x3c, 0xec, 0xe6, 0x0a, 0xeb,
  0x1c, 0x27, 0xfe, 0x10, 0x08, 0xfb, 0xec, 0x1e, 0x14, 0x20, 0x15, 0x49,
  0x08, 0x03, 0xd9, 0xf6, 0x31, 0x0f, 0x08, 0x09, 0x32, 0xd7, 0xff, 0x1e,
  0xf7, 0x2a, 0x14, 0x08, 0x28, 0xfe, 0xe8, 0x1e, 0xe1, 0xfc, 0x13, 0xe4,
  0x0b, 0x0e, 0x23, 0x30, 0x23, 0x1e, 0x40, 0xf0, 0xde, 0x14, 0x15, 0x0d,
  0xf8, 0xf3, 0xed, 0xf5, 0x2b, 0x2c, 0x18, 0x20, 0x1e, 0x26, 0x12, 0x12,
  0x10, 0x0c, 0x09, 0x0c, 0x3d, 0x42, 0x20, 0x43, 0x01, 0x16, 0xf8, 0x00,
  0x23, 0x7e, 0x12, 0xf1, 0x1b, 0x55, 0x58, 0x0b, 0x7f, 0xea, 0x09, 0x0a,
  0x67, 0x00, 0x1e, 0x26, 0x43, 0x52, 0x5f, 0x1b, 0x28, 0xfb, 0x32, 0x2c,
  0xfe, 0x08, 0x01, 0xf8, 0x04, 0x02, 0x46, 0x6a, 0x1d, 0x33, 0x3f, 0x20,
  0x08, 0x33, 0x32, 0x37, 0x1b, 0xf0, 0x01, 0xe6, 0xaa, 0x4d, 0xd8, 0x54,
  0xfe, 0xbf, 0x30, 0x9d, 0x12, 0x1b, 0xf4, 0x37, 0xdd, 0x1d, 0xc3, 0x86,
  0x1b, 0x53, 0x98, 0xb6, 0x03, 0x9f, 0xe5, 0xec, 0x1c, 0x85, 0x15, 0xda,
  0x36, 0xe1, 0xf5, 0xd6, 0xf2, 0xb6, 0x50, 0x55, 0xda, 0x08, 0x2e, 0x9a,
  0xae, 0x50, 0xf5, 0x21, 0x0b, 0x94, 0xa1, 0x17, 0x89, 0xfc, 0x51, 0x4e,
  0xe0, 0x21, 0xd6, 0x25, 0x33, 0xf1, 0x91, 0xbb, 0x1b, 0xe0, 0x38, 0x06,
  0xa6, 0x87, 0xd1, 0x29, 0xb3, 0x10, 0xcd, 0x25, 0xe2, 0x4c, 0x59, 0xa2,
  0x16, 0x17, 0x2d, 0xab, 0x47, 0x38, 0x08, 0x05, 0x81, 0xf0, 0xe6, 0xe3,
  0xf1, 0x53, 0x24, 0xcd, 0xb2, 0xcb, 0x14, 0x12, 0x99, 0xe1, 0xe7, 0x8b,
  0xae, 0xd6, 0xac, 0xdf, 0xe9, 0x50, 0xaf, 0xa7, 0x9b, 0x26, 0x1a, 0x42,
  0x38, 0x53, 0x13, 0xc0, 0x2f, 0x2d, 0x92, 0x9b, 0xa8, 0x0c, 0x5f, 0x0c,
  0xbe, 0x2b, 0xba, 0x9c, 0xd6, 0xa4, 0x3f, 0x46, 0xff, 0x9b, 0x6b, 0x96,
  0x6b, 0x11, 0x71, 0x99, 0x09, 0xd2, 0xbf, 0x2b, 0xc9, 0xf4, 0x9f, 0x9a,
  0x0e, 0x5d, 0xd7, 0xa0, 0x47, 0xb4, 0xc7, 0xe9, 0x9e, 0xbe, 0xe2, 0x52,
  0x3b, 0xfb, 0xb7, 0xe0, 0x08, 0x1c, 0x72, 0xd9, 0xb4, 0x9e, 0xbc, 0x9a,
  0xdc, 0x9d, 0x29, 0x46, 0x08, 0xeb, 0xbb, 0xb8, 0x81, 0xae, 0xb2, 0xe5,
  0x95, 0x91, 0x8f, 0x28, 0xb1, 0xae, 0x5f, 0xf5, 0x18, 0xd8, 0x3d, 0x0c,
  0x4c, 0xf6, 0xb0, 0x33, 0x40, 0xd4, 0xf7, 0x36, 0x5c, 0xad, 0x36, 0xdd,
  0x19, 0x0d, 0x5d, 0x44, 0xbc, 0x46, 0xdc, 0xc1, 0x8e, 0xbf, 0x44, 0x91,
  0x8b, 0xc4, 0x30, 0x3b, 0x04, 0xef, 0x06, 0xb5, 0x06, 0x18, 0xba, 0x8b,
  0x9d, 0xad, 0xca, 0x03, 0x26, 0x98, 0x19, 0x3b, 0xbd, 0xbc, 0xe9, 0x59,
  0xa8, 0xa5, 0x97, 0x00, 0xc5, 0xf3, 0x3a, 0xe3, 0x90, 0xbe, 0xd0, 0xe4,
  0x04, 0x1a, 0xe4, 0x12, 0x02, 0x48, 0x51, 0x7f, 0x1a, 0x41, 0x51, 0x34,
  0x02, 0xf2, 0x04, 0x0c, 0x30, 0xfc, 0x02, 0xfe, 0xfd, 0xea, 0x04, 0x50,
  0x7a, 0x11, 0x10, 0xe9, 0x07, 0x19, 0x7c, 0x48, 0xf3, 0x0d, 0x18, 0x7d,
  0xeb, 0x48, 0x02, 0x05, 0xe8, 0x16, 0x51, 0xcc, 0x1d, 0x07, 0xec, 0x0c,
  0x0f, 0x12, 0xf0, 0xf5, 0xf1, 0x1b, 0x72, 0x22, 0x2e, 0x3c, 0x4a, 0x01,
  0x0c, 0x44, 0xfc, 0xf4, 0x05, 0xeb, 0x04, 0x05, 0x19, 0x51, 0x38, 0x56,
  0x06, 0x1a, 0x3a, 0x35, 0x07, 0xe7, 0x23, 0xe6, 0x3e, 0xfa, 0x09, 0x05,
  0xf4, 0x05, 0xf6, 0x32, 0x44, 0xfa, 0x15, 0xf0, 0x22, 0x05, 0x54, 0x5b,
  0x2b, 0x0f, 0x07, 0x45, 0xe5, 0x45, 0x2e, 0xd4, 0xe9, 0x00, 0x45, 0xb9,
  0xf3, 0xe3, 0x1a, 0x17, 0xe5, 0xd5, 0xa4, 0x17, 0xff, 0x09, 0x64, 0x19,
  0x42, 0x0a, 0x22, 0xcf, 0xda, 0x1e, 0xe9, 0x0b, 0xf6, 0xf9, 0x28, 0x21,
  0x8f, 0xc8, 0xe2, 0x86, 0x0e, 0xf1, 0xee, 0xae, 0x12, 0xd1, 0xc9, 0xec,
  0xd4, 0x1d, 0x15, 0x0c, 0x05, 0xb7, 0xd5, 0xa7, 0x1c, 0xe2, 0x1a, 0x26,
  0xc1, 0x10, 0xf3, 0xe2, 0xfb, 0x22, 0x28, 0xd2, 0xf1, 0xd0, 0x05, 0x11,
  0xfd, 0x00, 0xd8, 0xd0, 0x06, 0xf3, 0x28, 0x0a, 0x33, 0x41, 0x06, 0xd4,
  0xa6, 0xcf, 0xe9, 0x40, 0xe1, 0x24, 0xa3, 0xf5, 0x0e, 0xf1, 0x20, 0x24,
  0x02, 0xb8, 0x00, 0x1d, 0xa9, 0xb1, 0x0d, 0xa4, 0xfb, 0xc8, 0xdb, 0xe6,
  0x09, 0xcc, 0xe0, 0xed, 0xb0, 0x1c, 0x2d, 0x14, 0x2f, 0xb1, 0xcf, 0xbb,
  0xdd, 0xcb, 0xdd, 0x29, 0x81, 0x1c, 0xf1, 0xcf, 0xd4, 0xfd, 0xad, 0xdc,
  0xe6, 0xd8, 0xd8, 0xee, 0x19, 0x1b, 0xbc, 0xcc, 0x0f, 0xf7, 0xfa, 0x2c,
  0x2b, 0x06, 0x02, 0x8c, 0xda, 0xda, 0xbc, 0x08, 0xc6, 0x1e, 0xae, 0xc6,
  0x20, 0xb7, 0x16, 0xfe, 0x0d, 0x2c, 0x05, 0x0a, 0xb6, 0x17, 0xe9, 0x81,
  0x3a, 0x35, 0x01, 0xc6, 0x90, 0x1a, 0x06, 0xd1, 0xf8, 0x0f, 0x01, 0x02,
  0xff, 0xf4, 0xbf, 0xa1, 0x35, 0x1a, 0xff, 0x0e, 0xcb, 0x1f, 0x08, 0xff,
  0x14, 0x03, 0x11, 0xdf, 0xd9, 0x1a, 0xab, 0x1f, 0x09, 0x1f, 0x33, 0x04,
  0x06, 0x27, 0x10, 0x01, 0x02, 0x15, 0x2f, 0xf2, 0xbf, 0x01, 0xe8, 0x13,
  0x16, 0xe5, 0xc7, 0xbf, 0x39, 0x37, 0x23, 0x10, 0x25, 0x4e, 0x1e, 0x0d,
  0xd9, 0x13, 0xe2, 0x9d, 0x1b, 0x1c, 0x2c, 0xd7, 0xab, 0x4d, 0xf2, 0xd1,
  0x0b, 0xf7, 0xfc, 0x14, 0x1c, 0xeb, 0xf2, 0xb7, 0x62, 0x04, 0xdb, 0x3a,
  0x05, 0x1f, 0x44, 0xf3, 0xff, 0x34, 0x71, 0xf2, 0xce, 0x35, 0xbe, 0x10,
  0xfe, 0xee, 0x37, 0xe3, 0xf9, 0x46, 0xf0, 0xf3, 0xd3, 0xe8, 0x12, 0x2a,
  0xd9, 0x06, 0xde, 0x02, 0x0c, 0xd5, 0xd4, 0xc6, 0x16, 0x47, 0xfd, 0xf3,
  0xf0, 0xf2, 0xe6, 0x06, 0x05, 0x0e, 0x20, 0x57, 0xec, 0xf9, 0xf9, 0x0b,
  0x42, 0xc4, 0xeb, 0x31, 0x0a, 0x06, 0xe1, 0xed, 0xe1, 0x1c, 0x45, 0x7f,
  0x11, 0x4f, 0x06, 0xc8, 0x35, 0xdc, 0x24, 0x46, 0xfe, 0xf5, 0x15, 0x1a,
  0x3b, 0xf3, 0x46, 0xfc, 0xf3, 0xd4, 0xd4, 0x05, 0x25, 0x0d, 0xe5, 0x09,
  0x1b, 0x01, 0xd0, 0xe5, 0x03, 0x25, 0x1c, 0x17, 0x37, 0x30, 0x1f, 0x1d,
  0xf1, 0x20, 0xfa, 0xf0, 0xfc, 0xb0, 0xe7, 0xf8, 0x4b, 0x28, 0x3c, 0x5a,
  0xf1, 0x15, 0x13, 0x31, 0x09, 0xb4, 0xd7, 0x45, 0x2e, 0x05, 0xf4, 0xda,
  0xf7, 0xfc, 0x27, 0x4d, 0xeb, 0x12, 0x04, 0xcf, 0x00, 0xd4, 0x24, 0x1b,
  0xf0, 0x07, 0xe8, 0x3e, 0x28, 0xab, 0x07, 0xd5, 0x2d, 0x21, 0x02, 0xf9,
  0x10, 0xf5, 0x1a, 0x03, 0x10, 0x04, 0xe6, 0xca, 0xf3, 0x19, 0x31, 0xe3,
  0x38, 0x1f, 0x28, 0x40, 0x11, 0xd0, 0x1b, 0xe2, 0xe5, 0x0d, 0xf7, 0x1c,
  0x3c, 0xdd, 0xe0, 0x30, 0xf9, 0xe0, 0x14, 0x13, 0x04, 0xfb, 0xfb, 0xdb,
  0x2a, 0xfb, 0x0b, 0xfe, 0xef, 0x15, 0x35, 0x1d, 0x1e, 0x2a, 0x0f, 0x0c,
  0x32, 0xf2, 0x08, 0x1f, 0x06, 0x07, 0x29, 0x21, 0xe4, 0x0b, 0x44, 0xed,
  0x0a, 0xe9, 0xf1, 0xcb, 0xf8, 0xed, 0x12, 0xf8, 0xf8, 0xfa, 0xf2, 0x1d,
  0x3c, 0xf7, 0x37, 0x07, 0x25, 0x0b, 0x59, 0xe6, 0xf7, 0xf8, 0x09, 0xed,
  0x08, 0x32, 0x31, 0x1b, 0x2f, 0x2a, 0x0a, 0xf9, 0xf2, 0x35, 0x41, 0x65,
  0x0b, 0x4a, 0x0b, 0x13, 0x46, 0xe7, 0xfa, 0x08, 0x14, 0x61, 0x38, 0xce,
  0x29, 0x22, 0x61, 0x29, 0x3a, 0x2a, 0x2d, 0x16, 0x7f, 0x0f, 0x3e, 0x3a,
  0x1f, 0x6e, 0x5a, 0x03, 0xf0, 0xf9, 0x59, 0x04, 0x1e, 0x28, 0x01, 0xed,
  0x13, 0x28, 0xe9, 0x45, 0x35, 0x45, 0x6a, 0x0b, 0x28, 0x15, 0x5b, 0xf3,
  0x25, 0x11, 0x32, 0xed, 0xf1, 0xd4, 0xd3, 0x0e, 0x66, 0x2d, 0x50, 0x73,
  0xfb, 0xdc, 0x35, 0x2e, 0x51, 0xb4, 0x11, 0x29, 0x33, 0x0b, 0x00, 0x09,
  0xfd, 0x24, 0x4b, 0x57, 0x10, 0x37, 0x25, 0xe6, 0x0d, 0x05, 0x3a, 0x45,
  0x10, 0xed, 0xca, 0x2c, 0xfe, 0xd9, 0x26, 0xdf, 0x23, 0x13, 0xee, 0xd4,
  0xf5, 0x0f, 0xfa, 0x05, 0x0f, 0x25, 0xf6, 0xec, 0x1e, 0x09, 0x69, 0xfe,
  0x2b, 0x34, 0x3c, 0x15, 0xf0, 0xf7, 0x1c, 0x14, 0x0b, 0xd8, 0x01, 0xea,
  0x60, 0x27, 0x6d, 0x37, 0x0b, 0x0e, 0x18, 0x7f, 0x60, 0xd4, 0x27, 0xff,
  0x56, 0x20, 0x0f, 0xf6, 0xfc, 0x21, 0x2e, 0x42, 0x1a, 0x46, 0x4c, 0xe8,
  0x31, 0xfc, 0x4c, 0x51, 0x68, 0xf4, 0xd0, 0x28, 0x19, 0xfb, 0x3b, 0xd8,
  0x2a, 0xff, 0xf8, 0xcd, 0x16, 0x17, 0xe9, 0x24, 0x17, 0x35, 0x12, 0x00,
  0x40, 0x13, 0x47, 0xde, 0x5c, 0x66, 0x5f, 0xf6, 0xe1, 0x04, 0x16, 0x07,
  0x1c, 0x28, 0x0e, 0x0e, 0xf2, 0x2e, 0x0b, 0x81, 0x2e, 0x16, 0x1d, 0x02,
  0xe5, 0xfa, 0xf5, 0x03, 0x1c, 0xff, 0xf4, 0x13, 0xee, 0xc3, 0x2e, 0xb6,
  0x0e, 0x1a, 0x1e, 0xfd, 0xc4, 0x1b, 0x12, 0x24, 0xfd, 0x25, 0x0e, 0xc8,
  0xf3, 0xf5, 0xea, 0xf7, 0xdb, 0x02, 0x14, 0xe1, 0x08, 0x36, 0x13, 0xe0,
  0x1d, 0x40, 0xf0, 0x08, 0xef, 0xfa, 0xd4, 0x1d, 0xfd, 0x2e, 0x03, 0x01,
  0x0c, 0x1d, 0x08, 0x0d, 0x0b, 0x14, 0x06, 0xf6, 0x05, 0xf6, 0xcc, 0xa3,
  0x13, 0xde, 0xd5, 0xf0, 0xea, 0xf9, 0xd7, 0x02, 0xdf, 0xe6, 0x18, 0x13,
  0xfe, 0xb8, 0xfc, 0xdc, 0x33, 0xdd, 0x39, 0xf6, 0xc6, 0xfb, 0x16, 0xd2,
  0x0d, 0xf3, 0x10, 0xeb, 0x03, 0xd9, 0x11, 0x03, 0xff, 0x1b, 0xde, 0xeb,
  0x0c, 0x38, 0x1c, 0x07, 0x30, 0x1c, 0xef, 0xfc, 0xc8, 0xce, 0xdb, 0xfb,
  0xe5, 0x44, 0xdd, 0x00, 0x10, 0x27, 0x04, 0x19, 0x01, 0xb8, 0x08, 0xf4,
  0x27, 0xf6, 0x1a, 0x1e, 0xf0, 0xc4, 0xbf, 0x10, 0x14, 0xe9, 0x1b, 0x28,
  0x0f, 0xef, 0xf3, 0x18, 0x12, 0x33, 0x47, 0x2f, 0xfa, 0x22, 0x16, 0xec,
  0x1f, 0xfd, 0xc2, 0x1c, 0x13, 0xec, 0xf2, 0x0d, 0x0d, 0xef, 0x2e, 0xfe,
  0x10, 0x0b, 0xcf, 0x2f, 0xe8, 0xf1, 0x0c, 0x04, 0x13, 0xfc, 0xef, 0xf1,
  0x3d, 0x19, 0x02, 0xf0, 0x1a, 0x0d, 0x1a, 0x0a, 0xed, 0xd2, 0x08, 0x0e,
  0x1a, 0x10, 0x1b, 0xf6, 0x43, 0x36, 0x11, 0xf2, 0xf1, 0xef, 0x0d, 0x54,
  0x30, 0x05, 0x35, 0x2d, 0x3c, 0xed, 0xf7, 0x01, 0x02, 0x5f, 0x42, 0x06,
  0xf8, 0x37, 0x71, 0x13, 0x59, 0xf7, 0xfb, 0x2d, 0x7f, 0x0c, 0xeb, 0x34,
  0x21, 0x0e, 0x54, 0x01, 0x0c, 0x0d, 0xf0, 0x0b, 0x05, 0x0b, 0x02, 0x05,
  0x1d, 0x28, 0x08, 0x3f, 0x14, 0x02, 0xfa, 0xf9, 0x0c, 0x2f, 0x52, 0x22,
  0x19, 0xe8, 0x1a, 0xf1, 0x1d, 0xfa, 0x26, 0x15, 0xe1, 0x04, 0xea, 0x93,
  0x0c, 0xf6, 0x0e, 0xe8, 0xc3, 0xe9, 0xfe, 0xbc, 0xdd, 0xf3, 0x24, 0x16,
  0xff, 0xd3, 0xf6, 0x81, 0x2c, 0xd4, 0xd0, 0x0b, 0xbd, 0xfb, 0x07, 0xef,
  0xc2, 0x0a, 0x14, 0x0a, 0xc9, 0xe5, 0xbd, 0x20, 0x06, 0x0d, 0x06, 0xa0,
  0x19, 0x15, 0x0a, 0x25, 0xf5, 0xf6, 0xfc, 0xd3, 0xc8, 0xc0, 0xe8, 0x1a,
  0xd0, 0xe9, 0xd5, 0xa5, 0x1a, 0x01, 0x29, 0x23, 0x12, 0xe9, 0xe2, 0xfd,
  0xf4, 0x16, 0x19, 0xa9, 0x00, 0x01, 0xf3, 0x0b, 0xcc, 0xe5, 0x1e, 0xc0,
  0x1d, 0xf9, 0x1c, 0xfd, 0x0d, 0xcd, 0x28, 0xad, 0xf0, 0xf9, 0xb6, 0x0b,
  0xc5, 0x0b, 0xe3, 0x13, 0x96, 0x0d, 0x0f, 0xd3, 0x97, 0xe4, 0xcc, 0x1a,
  0x21, 0x08, 0xd2, 0x88, 0x12, 0x30, 0x11, 0x1d, 0xcb, 0xd0, 0x19, 0xc2,
  0xea, 0xf4, 0xcd, 0xdd, 0x0b, 0xe4, 0x23, 0xa3, 0x19, 0xf0, 0xfd, 0xf8,
  0x08, 0x01, 0x11, 0xe7, 0xf3, 0x0b, 0xf5, 0x99, 0xfc, 0xed, 0xc7, 0xec,
  0xaa, 0xe0, 0xf9, 0xe4, 0x31, 0xf3, 0xff, 0xe7, 0x12, 0xe6, 0x13, 0x93,
  0x8a, 0x0f, 0x0d, 0x1c, 0xf1, 0x06, 0xc6, 0xea, 0x00, 0xe8, 0xd7, 0x9a,
  0xcf, 0xaf, 0xd2, 0x43, 0x04, 0x10, 0xf3, 0xfe, 0x0f, 0x14, 0xe5, 0x16,
  0xf4, 0x0a, 0x2c, 0xcb, 0xf7, 0x20, 0x8c, 0xda, 0xf1, 0xdd, 0xff, 0xe2,
  0x28, 0xb3, 0x0c, 0xf0, 0x2a, 0x52, 0x04, 0xef, 0x1e, 0x28, 0xe2, 0x84,
  0x1a, 0xeb, 0xdd, 0xeb, 0xa6, 0x54, 0xe8, 0x0d, 0x20, 0xef, 0xfb, 0x17,
  0xfe, 0x0b, 0x46, 0x81, 0x09, 0x36, 0xfe, 0x46, 0x0a, 0x1c, 0xf7, 0xe3,
  0xe6, 0x27, 0x38, 0xd4, 0xfe, 0xf9, 0xc8, 0x27, 0x0b, 0x11, 0x01, 0x24,
  0xf2, 0x22, 0x20, 0x0f, 0xd7, 0x01, 0x48, 0x28, 0x16, 0x1d, 0xc4, 0xda,
  0x09, 0xe7, 0x0e, 0x16, 0x11, 0x21, 0x2a, 0xff, 0xc8, 0x0b, 0xcf, 0xe9,
  0x1f, 0x03, 0x1f, 0x18, 0x19, 0x3a, 0x04, 0x17, 0xd6, 0xbf, 0x07, 0x18,
  0x15, 0xef, 0x06, 0x0a, 0x08, 0xd6, 0x02, 0x00, 0x11, 0x01, 0xf0, 0xb9,
  0xf0, 0xec, 0xf5, 0x28, 0xfa, 0x02, 0x21, 0x07, 0x24, 0xf8, 0x0a, 0x08,
  0x17, 0x2a, 0x35, 0x1f, 0x33, 0x0d, 0xf3, 0xf4, 0xf3, 0x1a, 0x0b, 0x00,
  0x0b, 0x04, 0xe6, 0x05, 0x0d, 0x07, 0x1a, 0x2a, 0x2c, 0x29, 0x05, 0x18,
  0x9f, 0xf8, 0xab, 0xf4, 0xea, 0xc6, 0xd2, 0xff, 0xe2, 0x0e, 0xd0, 0x08,
  0xfb, 0xf2, 0x1d, 0xf2, 0xed, 0xe5, 0xf8, 0xf7, 0xcb, 0xcc, 0x05, 0xf7,
  0xd4, 0xcf, 0xb0, 0xca, 0xe3, 0x00, 0xf3, 0x0f, 0xed, 0xdb, 0xf3, 0xd4,
  0xd6, 0xe7, 0xd7, 0x81, 0xf7, 0x02, 0x19, 0xd2, 0xe3, 0xfd, 0xe9, 0xde,
  0xd3, 0xd7, 0xae, 0xf1, 0x14, 0xac, 0xcf, 0xea, 0xe0, 0xc3, 0x25, 0xf3,
  0xb6, 0xfe, 0xa3, 0xe0, 0x20, 0xd4, 0x04, 0xfa, 0x24, 0x9d, 0xaf, 0x92,
  0xed, 0x9f, 0x81, 0x18, 0x21, 0xd2, 0x4f, 0xe5, 0xd6, 0xfd, 0x06, 0x2a,
  0x16, 0xd9, 0xe1, 0xaa, 0x9b, 0x9b, 0xee, 0x01, 0xfe, 0x37, 0x9b, 0xdc,
  0x05, 0xe2, 0xdd, 0xdc, 0xa3, 0xd2, 0xfa, 0xe8, 0x35, 0x18, 0xd5, 0x93,
  0xf5, 0x07, 0x35, 0x31, 0x28, 0xea, 0xc3, 0xd6, 0x1d, 0xa3, 0x9b, 0xf7,
  0x82, 0xed, 0x0e, 0xba, 0xe8, 0x9c, 0x0b, 0x2b, 0x1d, 0xda, 0x00, 0x12,
  0x23, 0x9f, 0xb1, 0xa1, 0xce, 0x93, 0x91, 0xfe, 0x2c, 0xcc, 0x31, 0x0b,
  0xe4, 0x08, 0x2e, 0x18, 0x25, 0xf2, 0x55, 0xc7, 0xf3, 0xb7, 0xf4, 0xee,
  0xe0, 0xfc, 0x9c, 0xdf, 0xcb, 0x09, 0x0b, 0xc5, 0x02, 0xa5, 0x20, 0x0f,
  0x13, 0x03, 0x85, 0xe0, 0x08, 0xd8, 0x04, 0x0e, 0x1d, 0x07, 0x01, 0xe0,
  0x29, 0xb9, 0xd1, 0x20, 0xc7, 0x0f, 0xf8, 0xd0, 0xdd, 0xdd, 0x20, 0x0e,
  0xef, 0xed, 0x05, 0xfb, 0xff, 0x17, 0x5f, 0x7f, 0x15, 0x2c, 0x74, 0x25,
  0x49, 0x0b, 0x02, 0x11, 0x12, 0xf4, 0x00, 0x06, 0xfc, 0x13, 0xe8, 0x75,
  0x3e, 0x2c, 0x0b, 0xe9, 0x09, 0xf1, 0x73, 0x1d, 0x09, 0x25, 0x03, 0x65,
  0xed, 0x34, 0x3f, 0xf0, 0x11, 0x0d, 0x28, 0xcd, 0x23, 0x00, 0xf0, 0x13,
  0x10, 0x02, 0xd4, 0x06, 0xf6, 0x38, 0x7c, 0x25, 0x2d, 0x25, 0x24, 0x1a,
  0xf5, 0x47, 0x11, 0x16, 0xf3, 0xde, 0xe8, 0xf4, 0x1d, 0x0e, 0x2b, 0x59,
  0x00, 0x1a, 0x3d, 0x39, 0xf8, 0xf9, 0x08, 0xec, 0x0a, 0x16, 0x13, 0x09,
  0xf7, 0xea, 0xf1, 0x57, 0x2c, 0xd7, 0xe6, 0xf1, 0xe5, 0xfd, 0x47, 0x17,
  0xe2, 0x02, 0xf5, 0x37, 0xfc, 0xff, 0xf8, 0xdb, 0x02, 0x1a, 0x24, 0xc6,
  0x0f, 0x0b, 0x00, 0x07, 0x0e, 0x05, 0xda, 0xd4, 0xf0, 0x03, 0x5f, 0x0b,
  0x26, 0xf0, 0x1a, 0xe8, 0x0e, 0x02, 0xf1, 0x02, 0x08, 0x6f, 0x12, 0x10,
  0xd4, 0x27, 0xe2, 0xa5, 0x14, 0x55, 0x1a, 0xa0, 0xc7, 0x26, 0xa7, 0x5e,
  0x38, 0xf6, 0xe1, 0x03, 0x1a, 0x20, 0x53, 0xf4, 0x5b, 0x46, 0x4c, 0x16,
  0xde, 0xe8, 0x0b, 0x14, 0x1f, 0x1d, 0x4e, 0xd7, 0x7f, 0xe1, 0x2d, 0x37,
  0xf9, 0x36, 0x18, 0x77, 0x07, 0x19, 0x18, 0x0b, 0x0a, 0x4d, 0x39, 0x13,
  0xe9, 0x21, 0xf1, 0xf7, 0x39, 0x40, 0xcd, 0x36, 0x23, 0x38, 0x23, 0x0f,
  0x2a, 0x56, 0x25, 0x29, 0xc8, 0xf9, 0xc0, 0xb8, 0x0e, 0x36, 0xf4, 0x8d,
  0xaf, 0x1e, 0xc1, 0x2f, 0x05, 0xe6, 0x03, 0x01, 0x21, 0x52, 0x29, 0xd0,
  0x58, 0x0c, 0x7f, 0x2b, 0x1f, 0xf9, 0x04, 0xc5, 0x44, 0x1e, 0x54, 0xff,
  0x02, 0xfc, 0xff, 0x60, 0xc8, 0x1f, 0x43, 0x20, 0x28, 0x6b, 0xec, 0x13,
  0xf8, 0x49, 0x35, 0x36, 0xb0, 0x01, 0xe6, 0x2a, 0xea, 0x10, 0xd5, 0x20,
  0x18, 0x5d, 0x28, 0xfa, 0x16, 0xdd, 0x16, 0xf5, 0xbe, 0x07, 0x16, 0xd4,
  0x1d, 0x2e, 0x14, 0x06, 0xc7, 0x13, 0xfb, 0x98, 0xf9, 0xf2, 0xef, 0xf7,
  0x11, 0xf4, 0xcd, 0xa2, 0xf3, 0x1c, 0xa9, 0x2c, 0xf5, 0x1b, 0x09, 0x0e,
  0xbe, 0x18, 0xe7, 0x0a, 0x98, 0x0e, 0xb0, 0x1b, 0xe3, 0x16, 0xfb, 0xdd,
  0x1b, 0x09, 0x0d, 0x16, 0xce, 0xa7, 0x24, 0xdd, 0xee, 0x0f, 0xf6, 0xfd,
  0xf6, 0xb0, 0xe8, 0x81, 0x06, 0x06, 0x11, 0xf6, 0xf9, 0xfa, 0xe6, 0xef,
  0x10, 0x1b, 0x03, 0xe6, 0x34, 0x18, 0x38, 0x1b, 0xcd, 0x16, 0x16, 0xa5,
  0x2b, 0xfa, 0x1a, 0x05, 0x04, 0x08, 0xfd, 0xc2, 0x02, 0x31, 0xe1, 0x0d,
  0x0d, 0x0d, 0x31, 0x04, 0xeb, 0x13, 0x09, 0x32, 0xa7, 0x24, 0xc0, 0x06,
  0x14, 0x1a, 0x2c, 0xcd, 0xfd, 0x1e, 0x0c, 0x12, 0xf3, 0xc0, 0x24, 0x16,
  0x1c, 0x19, 0x38, 0xfe, 0x09, 0xb5, 0x0d, 0xb6, 0xf6, 0x11, 0xf6, 0xfd,
  0xf6, 0xee, 0xff, 0xff, 0x00, 0x00, 0x00, 0x09, 0x10, 0x00, 0x00, 0x00,
  0x08, 0x00, 0x00, 0x00, 0x1c, 0x00, 0x00, 0x00, 0x90, 0x00, 0x00, 0x00,
  0x04, 0x00, 0x00, 0x00, 0x20, 0x00, 0x00, 0x00, 0x02, 0x00, 0x00, 0x00,
  0x01, 0x00, 0x00, 0x00, 0x40, 0x00, 0x00, 0x00, 0x71, 0x00, 0x00, 0x00,
  0x73, 0x65, 0x71, 0x75, 0x65, 0x6e, 0x74, 0x69, 0x61, 0x6c, 0x5f, 0x39,
  0x2f, 0x71, 0x75, 0x61, 0x6e, 0x74, 0x5f, 0x63, 0x6f, 0x6e, 0x76, 0x32,
  0x64, 0x5f, 0x32, 0x38, 0x2f, 0x43, 0x6f, 0x6e, 0x76, 0x32, 0x44, 0x3b,
  0x73, 0x65, 0x71, 0x75, 0x65, 0x6e, 0x74, 0x69, 0x61, 0x6c, 0x5f, 0x39,
  0x2f, 0x71, 0x75, 0x61, 0x6e, 0x74, 0x5f, 0x63, 0x6f, 0x6e, 0x76, 0x32,
  0x64, 0x5f, 0x32, 0x38, 0x2f, 0x4c, 0x61, 0x73, 0x74, 0x56, 0x61, 0x6c,
  0x75, 0x65, 0x51, 0x75, 0x61, 0x6e, 0x74, 0x2f, 0x46, 0x61, 0x6b, 0x65,
  0x51, 0x75, 0x61, 0x6e, 0x74, 0x57, 0x69, 0x74, 0x68, 0x4d, 0x69, 0x6e,
  0x4d, 0x61, 0x78, 0x56, 0x61, 0x72, 0x73, 0x50, 0x65, 0x72, 0x43, 0x68,
  0x61, 0x6e, 0x6e, 0x65, 0x6c, 0x00, 0x00, 0x00, 0xe8, 0xef, 0xff, 0xff,
  0x08, 0x00, 0x00, 0x00, 0x88, 0x00, 0x00, 0x00, 0x20, 0x00, 0x00, 0x00,
  0x33, 0xcf, 0x9b, 0x3b, 0x4d, 0x1d, 0xc4, 0x3b, 0xee, 0xdb, 0xe3, 0x3b,
  0x6a, 0x0c, 0xc6, 0x3b, 0x68, 0x20, 0xf0, 0x3b, 0x96, 0x4a, 0xba, 0x3b,
  0x72, 0x49, 0xa0, 0x3b, 0x69, 0xca, 0xdc, 0x3b, 0xee, 0x43, 0xb0, 0x3b,
  0x54, 0x7c, 0xad, 0x3b, 0x59, 0x86, 0xa0, 0x3b, 0xfa, 0x68, 0xaa, 0x3b,
  0x53, 0xab, 0xa1, 0x3b, 0x89, 0xd6, 0x99, 0x3b, 0x5f, 0xe0, 0xac, 0x3b,
  0x33, 0x51, 0xe7, 0x3a, 0x52, 0xdf, 0xc5, 0x3a, 0xc1, 0x3a, 0xbb, 0x3b,
  0x4c, 0x93, 0xb4, 0x3b, 0x29, 0xb0, 0xe4, 0x3b, 0xae, 0xe3, 0xe0, 0x3b,
  0xa1, 0x8a, 0x99, 0x3b, 0x4a, 0x47, 0x9d, 0x3b, 0x66, 0x30, 0xc8, 0x3b,
  0x9f, 0xa2, 0xd1, 0x3b, 0x60, 0xd3, 0xef, 0x3b, 0x83, 0x68, 0xc6, 0x3b,
  0x5d, 0x70, 0xdf, 0x3b, 0x3d, 0xc6, 0xcc, 0x3b, 0x09, 0x99, 0xe8, 0x3b,
  0x42, 0x61, 0xa0, 0x3b, 0xf6, 0x0c, 0xe7, 0x3b, 0x20, 0x00, 0x00, 0x00,
  0x00, 0x00, 0x00, 0x00, 0x00, 0x00, 0x00, 0x00, 0x00, 0x00, 0x00, 0x00,
  0x00, 0x00, 0x00, 0x00, 0x00, 0x00, 0x00, 0x00, 0x00, 0x00, 0x00, 0x00,
  0x00, 0x00, 0x00, 0x00, 0x00, 0x00, 0x00, 0x00, 0x00, 0x00, 0x00, 0x00,
  0x00, 0x00, 0x00, 0x00, 0x00, 0x00, 0x00, 0x00, 0x00, 0x00, 0x00, 0x00,
  0x00, 0x00, 0x00, 0x00, 0x00, 0x00, 0x00, 0x00, 0x00, 0x00, 0x00, 0x00,
  0x00, 0x00, 0x00, 0x00, 0x00, 0x00, 0x00, 0x00, 0x00, 0x00, 0x00, 0x00,
  0x00, 0x00, 0x00, 0x00, 0x00, 0x00, 0x00, 0x00, 0x00, 0x00, 0x00, 0x00,
  0x00, 0x00, 0x00, 0x00, 0x00, 0x00, 0x00, 0x00, 0x00, 0x00, 0x00, 0x00,
  0x00, 0x00, 0x00, 0x00, 0x00, 0x00, 0x00, 0x00, 0x00, 0x00, 0x00, 0x00,
  0x00, 0x00, 0x00, 0x00, 0x00, 0x00, 0x00, 0x00, 0x00, 0x00, 0x00, 0x00,
  0x00, 0x00, 0x00, 0x00, 0x00, 0x00, 0x00, 0x00, 0x00, 0x00, 0x00, 0x00,
  0x00, 0x00, 0x00, 0x00, 0x00, 0x00, 0x00, 0x00, 0x00, 0x00, 0x00, 0x00,
  0x00, 0x00, 0x00, 0x00, 0x00, 0x00, 0x00, 0x00, 0x00, 0x00, 0x00, 0x00,
  0x00, 0x00, 0x00, 0x00, 0x00, 0x00, 0x00, 0x00, 0x00, 0x00, 0x00, 0x00,
  0x00, 0x00, 0x00, 0x00, 0x00, 0x00, 0x00, 0x00, 0x00, 0x00, 0x00, 0x00,
  0x00, 0x00, 0x00, 0x00, 0x00, 0x00, 0x00, 0x00, 0x00, 0x00, 0x00, 0x00,
  0x00, 0x00, 0x00, 0x00, 0x00, 0x00, 0x00, 0x00, 0x00, 0x00, 0x00, 0x00,
  0x00, 0x00, 0x00, 0x00, 0x00, 0x00, 0x00, 0x00, 0x00, 0x00, 0x00, 0x00,
  0x00, 0x00, 0x00, 0x00, 0x00, 0x00, 0x00, 0x00, 0x00, 0x00, 0x00, 0x00,
  0x00, 0x00, 0x00, 0x00, 0x00, 0x00, 0x00, 0x00, 0x00, 0x00, 0x00, 0x00,
  0x00, 0x00, 0x00, 0x00, 0x00, 0x00, 0x00, 0x00, 0x00, 0x00, 0x00, 0x00,
  0x00, 0x00, 0x00, 0x00, 0x00, 0x00, 0x00, 0x00, 0x00, 0x00, 0x0e, 0x00,
  0x1a, 0x00, 0x08, 0x00, 0x0c, 0x00, 0x10, 0x00, 0x07, 0x00, 0x14, 0x00,
  0x0e, 0x00, 0x00, 0x00, 0x00, 0x00, 0x00, 0x05, 0x02, 0x00, 0x00, 0x00,
  0x3c, 0x00, 0x00, 0x00, 0x30, 0x00, 0x00, 0x00, 0x14, 0x00, 0x00, 0x00,
  0x00, 0x00, 0x0e, 0x00, 0x18, 0x00, 0x17, 0x00, 0x10, 0x00, 0x0c, 0x00,
  0x08, 0x00, 0x04, 0x00, 0x0e, 0x00, 0x00, 0x00, 0x03, 0x00, 0x00, 0x00,
  0x01, 0x00, 0x00, 0x00, 0x03, 0x00, 0x00, 0x00, 0x01, 0x00, 0x00, 0x00,
  0x00, 0x00, 0x00, 0x01, 0x01, 0x00, 0x00, 0x00, 0x06, 0x00, 0x00, 0x00,
  0x01, 0x00, 0x00, 0x00, 0x05, 0x00, 0x00, 0x00, 0x64, 0xf3, 0xff, 0xff,
  0x11, 0x00, 0x00, 0x00, 0x00, 0x00, 0x00, 0x11, 0x02, 0x00, 0x00, 0x00,
  0x58, 0xf3, 0xff, 0xff, 0x00, 0x00, 0x00, 0x09, 0x14, 0x00, 0x00, 0x00,
  0x07, 0x00, 0x00, 0x00, 0x34, 0x00, 0x00, 0x00, 0x60, 0x00, 0x00, 0x00,
  0x18, 0x00, 0x00, 0x00, 0x04, 0x00, 0x00, 0x00, 0x01, 0x00, 0x00, 0x00,
  0x07, 0x00, 0x00, 0x00, 0x02, 0x00, 0x00, 0x00, 0x40, 0x00, 0x00, 0x00,
  0x04, 0x00, 0x00, 0x00, 0xff, 0xff, 0xff, 0xff, 0x07, 0x00, 0x00, 0x00,
  0x02, 0x00, 0x00, 0x00, 0x40, 0x00, 0x00, 0x00, 0x2b, 0x00, 0x00, 0x00,
  0x73, 0x65, 0x71, 0x75, 0x65, 0x6e, 0x74, 0x69, 0x61, 0x6c, 0x5f, 0x39,
  0x2f, 0x71, 0x75, 0x61, 0x6e, 0x74, 0x5f, 0x6d, 0x61, 0x78, 0x5f, 0x70,
  0x6f, 0x6f, 0x6c, 0x69, 0x6e, 0x67, 0x32, 0x64, 0x5f, 0x32, 0x37, 0x2f,
  0x4d, 0x61, 0x78, 0x50, 0x6f, 0x6f, 0x6c, 0x00, 0x64, 0xf2, 0xff, 0xff,
  0x08, 0x00, 0x00, 0x00, 0x0c, 0x00, 0x00, 0x00, 0x01, 0x00, 0x00, 0x00,
  0x38, 0x35, 0x8d, 0x3b, 0x01, 0x00, 0x00, 0x00, 0xe8, 0xff, 0xff, 0xff,
  0xff, 0xff, 0xff, 0xff, 0x00, 0x00, 0x00, 0x00, 0x00, 0x00, 0x0e, 0x00,
  0x18, 0x00, 0x08, 0x00, 0x0c, 0x00, 0x10, 0x00, 0x07, 0x00, 0x14, 0x00,
  0x0e, 0x00, 0x00, 0x00, 0x00, 0x00, 0x00, 0x01, 0x01, 0x00, 0x00, 0x00,
  0x30, 0x00, 0x00, 0x00, 0x24, 0x00, 0x00, 0x00, 0x10, 0x00, 0x00, 0x00,
  0x0c, 0x00, 0x10, 0x00, 0x0e, 0x00, 0x04, 0x00, 0x08, 0x00, 0x0f, 0x00,
  0x0c, 0x00, 0x00, 0x00, 0x01, 0x00, 0x00, 0x00, 0x01, 0x00, 0x00, 0x00,
  0x00, 0x00, 0x01, 0x01, 0x01, 0x00, 0x00, 0x00, 0x05, 0x00, 0x00, 0x00,
  0x03, 0x00, 0x00, 0x00, 0x02, 0x00, 0x00, 0x00, 0x03, 0x00, 0x00, 0x00,
  0x04, 0x00, 0x00, 0x00, 0x68, 0xf4, 0xff, 0xff, 0x03, 0x00, 0x00, 0x00,
  0x00, 0x00, 0x00, 0x03, 0x03, 0x00, 0x00, 0x00, 0x5c, 0xf4, 0xff, 0xff,
  0x00, 0x00, 0x00, 0x09, 0x14, 0x00, 0x00, 0x00, 0x06, 0x00, 0x00, 0x00,
  0x34, 0x00, 0x00, 0x00, 0xdc, 0x00, 0x00, 0x00, 0x18, 0x00, 0x00, 0x00,
  0x04, 0x00, 0x00, 0x00, 0x01, 0x00, 0x00, 0x00, 0x15, 0x00, 0x00, 0x00,
  0x02, 0x00, 0x00, 0x00, 0x40, 0x00, 0x00, 0x00, 0x04, 0x00, 0x00, 0x00,
  0xff, 0xff, 0xff, 0xff, 0x15, 0x00, 0x00, 0x00, 0x02, 0x00, 0x00, 0x00,
  0x40, 0x00, 0x00, 0x00, 0xa7, 0x00, 0x00, 0x00, 0x73, 0x65, 0x71, 0x75,
  0x65, 0x6e, 0x74, 0x69, 0x61, 0x6c, 0x5f, 0x39, 0x2f, 0x71, 0x75, 0x61,
  0x6e, 0x74, 0x5f, 0x63, 0x6f, 0x6e, 0x76, 0x32, 0x64, 0x5f, 0x32, 0x37,
  0x2f, 0x52, 0x65, 0x6c, 0x75, 0x3b, 0x73, 0x65, 0x71, 0x75, 0x65, 0x6e,
  0x74, 0x69, 0x61, 0x6c, 0x5f, 0x39, 0x2f, 0x71, 0x75, 0x61, 0x6e, 0x74,
  0x5f, 0x63, 0x6f, 0x6e, 0x76, 0x32, 0x64, 0x5f, 0x32, 0x37, 0x2f, 0x42,
  0x69, 0x61, 0x73, 0x41, 0x64, 0x64, 0x3b, 0x73, 0x65, 0x71, 0x75, 0x65,
  0x6e, 0x74, 0x69, 0x61, 0x6c, 0x5f, 0x39, 0x2f, 0x71, 0x75, 0x61, 0x6e,
  0x74, 0x5f, 0x63, 0x6f, 0x6e, 0x76, 0x32, 0x64, 0x5f, 0x32, 0x37, 0x2f,
  0x43, 0x6f, 0x6e, 0x76, 0x32, 0x44, 0x3b, 0x73, 0x65, 0x71, 0x75, 0x65,
  0x6e, 0x74, 0x69, 0x61, 0x6c, 0x5f, 0x39, 0x2f, 0x71, 0x75, 0x61, 0x6e,
  0x74, 0x5f, 0x63, 0x6f, 0x6e, 0x76, 0x32, 0x64, 0x5f, 0x32, 0x37, 0x2f,
  0x42, 0x69, 0x61, 0x73, 0x41, 0x64, 0x64, 0x2f, 0x52, 0x65, 0x61, 0x64,
  0x56, 0x61, 0x72, 0x69, 0x61, 0x62, 0x6c, 0x65, 0x4f, 0x70, 0x2f, 0x72,
  0x65, 0x73, 0x6f, 0x75, 0x72, 0x63, 0x65, 0x00, 0xe4, 0xf3, 0xff, 0xff,
  0x08, 0x00, 0x00, 0x00, 0x0c, 0x00, 0x00, 0x00, 0x01, 0x00, 0x00, 0x00,
  0x38, 0x35, 0x8d, 0x3b, 0x01, 0x00, 0x00, 0x00, 0xe8, 0xff, 0xff, 0xff,
  0xff, 0xff, 0xff, 0xff, 0x00, 0x00, 0x00, 0x00, 0xd6, 0xf3, 0xff, 0xff,
  0x04, 0x00, 0x00, 0x00, 0x00, 0x01, 0x00, 0x00, 0xf1, 0x03, 0x00, 0x00,
  0x66, 0x00, 0x00, 0x00, 0xc1, 0x08, 0x00, 0x00, 0x1b, 0x13, 0x00, 0x00,
  0x28, 0xfc, 0xff, 0xff, 0x99, 0xff, 0xff, 0xff, 0x3e, 0xfa, 0xff, 0xff,
  0xce, 0xda, 0xff, 0xff, 0x8f, 0x04, 0x00, 0x00, 0x0d, 0xfd, 0xff, 0xff,
  0xfb, 0xff, 0xff, 0xff, 0xda, 0xfd, 0xff, 0xff, 0x3a, 0xfe, 0xff, 0xff,
  0xbb, 0xf9, 0xff, 0xff, 0x49, 0x08, 0x00, 0x00, 0xca, 0xef, 0xff, 0xff,
  0xc3, 0xfd, 0xff, 0xff, 0x68, 0x91, 0xff, 0xff, 0xc4, 0x52, 0x00, 0x00,
  0xa6, 0x1a, 0x00, 0x00, 0x6d, 0x1f, 0x00, 0x00, 0x20, 0xfc, 0xff, 0xff,
  0xf8, 0xfe, 0xff, 0xff, 0x4e, 0xe8, 0xff, 0xff, 0xf4, 0x00, 0x00, 0x00,
  0xd0, 0xff, 0xff, 0xff, 0x66, 0xff, 0xff, 0xff, 0x0b, 0xf7, 0xff, 0xff,
  0xf4, 0xfe, 0xff, 0xff, 0xe9, 0x1e, 0x00, 0x00, 0xae, 0x00, 0x00, 0x00,
  0x43, 0xf1, 0xff, 0xff, 0x01, 0xf8, 0xff, 0xff, 0xd9, 0xfd, 0xff, 0xff,
  0xfa, 0x02, 0x00, 0x00, 0x2e, 0xfd, 0xff, 0xff, 0x7a, 0xf6, 0xff, 0xff,
  0x8b, 0xff, 0xff, 0xff, 0x88, 0xe2, 0xff, 0xff, 0x94, 0x06, 0x00, 0x00,
  0x6e, 0x08, 0x00, 0x00, 0x8e, 0x06, 0x00, 0x00, 0x81, 0x00, 0x00, 0x00,
  0x16, 0xee, 0xff, 0xff, 0xfe, 0x0d, 0x00, 0x00, 0xfd, 0x01, 0x00, 0x00,
  0x6f, 0x28, 0x00, 0x00, 0xee, 0x33, 0x00, 0x00, 0x9a, 0xff, 0xff, 0xff,
  0x57, 0xff, 0xff, 0xff, 0x3d, 0x01, 0x00, 0x00, 0x84, 0xfe, 0xff, 0xff,
  0xc0, 0x08, 0x00, 0x00, 0xa1, 0xfe, 0xff, 0xff, 0xe8, 0xfe, 0xff, 0xff,
  0x2c, 0x13, 0x00, 0x00, 0x04, 0xf0, 0xff, 0xff, 0x3f, 0xff, 0xff, 0xff,
  0x57, 0xfd, 0xff, 0xff, 0x23, 0xee, 0xff, 0xff, 0xe0, 0x09, 0x00, 0x00,
  0x86, 0x02, 0x00, 0x00, 0x66, 0x0a, 0x00, 0x00, 0x12, 0x2e, 0x00, 0x00,
  0xc6, 0xf4, 0xff, 0xff, 0x00, 0x00, 0x00, 0x02, 0x10, 0x00, 0x00, 0x00,
  0x05, 0x00, 0x00, 0x00, 0x10, 0x00, 0x00, 0x00, 0x50, 0x00, 0x00, 0x00,
  0x01, 0x00, 0x00, 0x00, 0x40, 0x00, 0x00, 0x00, 0x3c, 0x00, 0x00, 0x00,
  0x73, 0x65, 0x71, 0x75, 0x65, 0x6e, 0x74, 0x69, 0x61, 0x6c, 0x5f, 0x39,
  0x2f, 0x71, 0x75, 0x61, 0x6e, 0x74, 0x5f, 0x63, 0x6f, 0x6e, 0x76, 0x32,
  0x64, 0x5f, 0x32, 0x37, 0x2f, 0x42, 0x69, 0x61, 0x73, 0x41, 0x64, 0x64,
  0x2f, 0x52, 0x65, 0x61, 0x64, 0x56, 0x61, 0x72, 0x69, 0x61, 0x62, 0x6c,
  0x65, 0x4f, 0x70, 0x2f, 0x72, 0x65, 0x73, 0x6f, 0x75, 0x72, 0x63, 0x65,
  0x00, 0x00, 0x00, 0x00, 0x78, 0xf5, 0xff, 0xff, 0x08, 0x00, 0x00, 0x00,
  0x08, 0x01, 0x00, 0x00, 0x40, 0x00, 0x00, 0x00, 0x41, 0xe3, 0xf3, 0x36,
  0xb5, 0x5e, 0xe4, 0x36, 0xa1, 0x4d, 0xd7, 0x36, 0x69, 0x6d, 0xb3, 0x36,
  0xb7, 0xa5, 0x08, 0x37, 0x50, 0xfd, 0xdb, 0x36, 0x55, 0x5b, 0xbc, 0x36,
  0x85, 0xf5, 0xe8, 0x36, 0xb5, 0x08, 0x0c, 0x37, 0xdd, 0x19, 0xdc, 0x36,
  0x57, 0xaf, 0x00, 0x37, 0x24, 0x4c, 0x04, 0x37, 0xbe, 0xd5, 0xbb, 0x36,
  0xc1, 0x46, 0xe5, 0x36, 0x31, 0xdd, 0x31, 0x37, 0xf4, 0xe5, 0xd6, 0x36,
  0x82, 0x3a, 0xc7, 0x36, 0xc9, 0xfa, 0x8f, 0x35, 0x2f, 0x09, 0x26, 0x36,
  0x3c, 0x28, 0x34, 0x36, 0x29, 0x36, 0xac, 0x36, 0x4a, 0xfc, 0x17, 0x37,
  0x44, 0xba, 0xec, 0x36, 0x87, 0xce, 0x0c, 0x37, 0xa4, 0x86, 0xf8, 0x36,
  0x0e, 0xdb, 0x02, 0x37, 0x09, 0x4e, 0xfe, 0x36, 0x11, 0xcd, 0x0c, 0x37,
  0xa7, 0xb4, 0x27, 0x37, 0x01, 0x6a, 0x70, 0x36, 0x9f, 0xeb, 0xff, 0x36,
  0xc2, 0x02, 0xb2, 0x36, 0x69, 0x09, 0x0f, 0x37, 0x50, 0x52, 0xcb, 0x36,
  0x72, 0x0f, 0xd3, 0x36, 0x56, 0xc7, 0xe2, 0x36, 0xf4, 0xbf, 0x08, 0x37,
  0xaa, 0x1a, 0xf7, 0x36, 0x3c, 0xc3, 0xde, 0x36, 0x83, 0xe7, 0x11, 0x37,
  0xb2, 0x59, 0x02, 0x37, 0xe5, 0x9e, 0xef, 0x36, 0x8b, 0x2b, 0xeb, 0x36,
  0x68, 0x5c, 0xe1, 0x36, 0x92, 0xee, 0xea, 0x36, 0x6b, 0x69, 0xcc, 0x36,
  0x98, 0xe2, 0x99, 0x36, 0xcc, 0x22, 0x5e, 0x36, 0x5e, 0xbe, 0xf1, 0x36,
  0x1e, 0x72, 0x05, 0x37, 0x74, 0xcc, 0xee, 0x36, 0x00, 0x19, 0x24, 0x37,
  0xb2, 0x28, 0x04, 0x37, 0x5f, 0x8e, 0xd3, 0x36, 0x64, 0xf4, 0x15, 0x37,
  0x1e, 0x4a, 0x15, 0x37, 0xd5, 0x4e, 0xc4, 0x36, 0xba, 0x15, 0x0d, 0x37,
  0x06, 0x7d, 0xdd, 0x36, 0x59, 0xd9, 0x0b, 0x37, 0x7b, 0xe0, 0x18, 0x37,
  0x55, 0x6f, 0xc1, 0x36, 0xa3, 0xb9, 0x08, 0x37, 0x42, 0xa5, 0x7f, 0x36,
  0x40, 0x00, 0x00, 0x00, 0x00, 0x00, 0x00, 0x00, 0x00, 0x00, 0x00, 0x00,
  0x00, 0x00, 0x00, 0x00, 0x00, 0x00, 0x00, 0x00, 0x00, 0x00, 0x00, 0x00,
  0x00, 0x00, 0x00, 0x00, 0x00, 0x00, 0x00, 0x00, 0x00, 0x00, 0x00, 0x00,
  0x00, 0x00, 0x00, 0x00, 0x00, 0x00, 0x00, 0x00, 0x00, 0x00, 0x00, 0x00,
  0x00, 0x00, 0x00, 0x00, 0x00, 0x00, 0x00, 0x00, 0x00, 0x00, 0x00, 0x00,
  0x00, 0x00, 0x00, 0x00, 0x00, 0x00, 0x00, 0x00, 0x00, 0x00, 0x00, 0x00,
  0x00, 0x00, 0x00, 0x00, 0x00, 0x00, 0x00, 0x00, 0x00, 0x00, 0x00, 0x00,
  0x00, 0x00, 0x00, 0x00, 0x00, 0x00, 0x00, 0x00, 0x00, 0x00, 0x00, 0x00,
  0x00, 0x00, 0x00, 0x00, 0x00, 0x00, 0x00, 0x00, 0x00, 0x00, 0x00, 0x00,
  0x00, 0x00, 0x00, 0x00, 0x00, 0x00, 0x00, 0x00, 0x00, 0x00, 0x00, 0x00,
  0x00, 0x00, 0x00, 0x00, 0x00, 0x00, 0x00, 0x00, 0x00, 0x00, 0x00, 0x00,
  0x00, 0x00, 0x00, 0x00, 0x00, 0x00, 0x00, 0x00, 0x00, 0x00, 0x00, 0x00,
  0x00, 0x00, 0x00, 0x00, 0x00, 0x00, 0x00, 0x00, 0x00, 0x00, 0x00, 0x00,
  0x00, 0x00, 0x00, 0x00, 0x00, 0x00, 0x00, 0x00, 0x00, 0x00, 0x00, 0x00,
  0x00, 0x00, 0x00, 0x00, 0x00, 0x00, 0x00, 0x00, 0x00, 0x00, 0x00, 0x00,
  0x00, 0x00, 0x00, 0x00, 0x00, 0x00, 0x00, 0x00, 0x00, 0x00, 0x00, 0x00,
  0x00, 0x00, 0x00, 0x00, 0x00, 0x00, 0x00, 0x00, 0x00, 0x00, 0x00, 0x00,
  0x00, 0x00, 0x00, 0x00, 0x00, 0x00, 0x00, 0x00, 0x00, 0x00, 0x00, 0x00,
  0x00, 0x00, 0x00, 0x00, 0x00, 0x00, 0x00, 0x00, 0x00, 0x00, 0x00, 0x00,
  0x00, 0x00, 0x00, 0x00, 0x00, 0x00, 0x00, 0x00, 0x00, 0x00, 0x00, 0x00,
  0x00, 0x00, 0x00, 0x00, 0x00, 0x00, 0x00, 0x00, 0x00, 0x00, 0x00, 0x00,
  0x00, 0x00, 0x00, 0x00, 0x00, 0x00, 0x00, 0x00, 0x00, 0x00, 0x00, 0x00,
  0x00, 0x00, 0x00, 0x00, 0x00, 0x00, 0x00, 0x00, 0x00, 0x00, 0x00, 0x00,
  0x00, 0x00, 0x00, 0x00, 0x00, 0x00, 0x00, 0x00, 0x00, 0x00, 0x00, 0x00,
  0x00, 0x00, 0x00, 0x00, 0x00, 0x00, 0x00, 0x00, 0x00, 0x00, 0x00, 0x00,
  0x00, 0x00, 0x00, 0x00, 0x00, 0x00, 0x00, 0x00, 0x00, 0x00, 0x00, 0x00,
  0x00, 0x00, 0x00, 0x00, 0x00, 0x00, 0x00, 0x00, 0x00, 0x00, 0x00, 0x00,
  0x00, 0x00, 0x00, 0x00, 0x00, 0x00, 0x00, 0x00, 0x00, 0x00, 0x00, 0x00,
  0x00, 0x00, 0x00, 0x00, 0x00, 0x00, 0x00, 0x00, 0x00, 0x00, 0x00, 0x00,
  0x00, 0x00, 0x00, 0x00, 0x00, 0x00, 0x00, 0x00, 0x00, 0x00, 0x00, 0x00,
  0x00, 0x00, 0x00, 0x00, 0x00, 0x00, 0x00, 0x00, 0x00, 0x00, 0x00, 0x00,
  0x00, 0x00, 0x00, 0x00, 0x00, 0x00, 0x00, 0x00, 0x00, 0x00, 0x00, 0x00,
  0x00, 0x00, 0x00, 0x00, 0x00, 0x00, 0x00, 0x00, 0x00, 0x00, 0x00, 0x00,
  0x00, 0x00, 0x00, 0x00, 0x00, 0x00, 0x00, 0x00, 0x00, 0x00, 0x00, 0x00,
  0x00, 0x00, 0x00, 0x00, 0x00, 0x00, 0x00, 0x00, 0x00, 0x00, 0x00, 0x00,
  0x00, 0x00, 0x00, 0x00, 0x00, 0x00, 0x00, 0x00, 0x00, 0x00, 0x00, 0x00,
  0x00, 0x00, 0x00, 0x00, 0x00, 0x00, 0x00, 0x00, 0x00, 0x00, 0x00, 0x00,
  0x00, 0x00, 0x00, 0x00, 0x00, 0x00, 0x00, 0x00, 0x00, 0x00, 0x00, 0x00,
  0x00, 0x00, 0x00, 0x00, 0x00, 0x00, 0x00, 0x00, 0x00, 0x00, 0x00, 0x00,
  0x00, 0x00, 0x00, 0x00, 0x00, 0x00, 0x00, 0x00, 0x00, 0x00, 0x00, 0x00,
  0x00, 0x00, 0x00, 0x00, 0x00, 0x00, 0x00, 0x00, 0x00, 0x00, 0x00, 0x00,
  0x00, 0x00, 0x00, 0x00, 0x00, 0x00, 0x00, 0x00, 0x00, 0x00, 0x00, 0x00,
  0x00, 0x00, 0x00, 0x00, 0x00, 0x00, 0x00, 0x00, 0x00, 0x00, 0x00, 0x00,
  0x00, 0x00, 0x00, 0x00, 0x5e, 0xf8, 0xff, 0xff, 0x04, 0x00, 0x00, 0x00,
  0x00, 0x02, 0x00, 0x00, 0xee, 0x14, 0x0b, 0xc3, 0x41, 0xf0, 0x7f, 0x2c,
  0xe0, 0x41, 0x81, 0xc2, 0x2e, 0x9f, 0x33, 0x7a, 0xf7, 0x17, 0x0d, 0xc7,
  0x1e, 0x03, 0x73, 0x7f, 0xd1, 0x7f, 0xf3, 0x17, 0xf6, 0x3f, 0x3a, 0x67,
  0xf1, 0x91, 0xe9, 0x81, 0xe2, 0x91, 0xf4, 0xa3, 0x44, 0x52, 0x07, 0x3b,
  0x04, 0x81, 0xd1, 0x8a, 0x2b, 0x73, 0x64, 0x0b, 0x60, 0x88, 0xc9, 0x81,
  0x2a, 0x76, 0x7f, 0x5f, 0x4b, 0xa2, 0xd2, 0x9a, 0x7f, 0x2d, 0xeb, 0x01,
  0xdf, 0xe5, 0x21, 0xdd, 0x7f, 0x57, 0xde, 0x87, 0xab, 0x52, 0x63, 0xe5,
  0x2b, 0x12, 0x92, 0xcf, 0x7f, 0x6b, 0xd9, 0xad, 0x22, 0xf6, 0x73, 0xda,
  0x25, 0x81, 0x9e, 0x91, 0x96, 0x75, 0x97, 0x5d, 0xc5, 0x62, 0x02, 0x7f,
  0xe8, 0xde, 0xa4, 0x53, 0xd6, 0x93, 0x7f, 0x4c, 0x14, 0xc2, 0xd2, 0xb2,
  0x8c, 0xd5, 0x81, 0xfe, 0x30, 0x0a, 0x38, 0x78, 0x18, 0x7f, 0xe0, 0x15,
  0x5d, 0x66, 0x13, 0xe7, 0xe0, 0x81, 0xbb, 0x98, 0x19, 0x02, 0xbf, 0x32,
  0x63, 0xbc, 0x86, 0x7f, 0x7f, 0x28, 0x60, 0x81, 0x6a, 0x46, 0x2b, 0x07,
  0x81, 0x10, 0x49, 0xe1, 0x77, 0xc6, 0x50, 0x70, 0x05, 0x0e, 0x2d, 0xc6,
  0x50, 0x2c, 0x7f, 0x3b, 0x1c, 0xbe, 0x10, 0xed, 0x26, 0xe8, 0x18, 0x7f,
  0xc7, 0x28, 0xab, 0x83, 0xc0, 0xa2, 0x19, 0x81, 0x17, 0x7f, 0x46, 0x3e,
  0x1c, 0xae, 0xef, 0xc1, 0xbb, 0x7f, 0x59, 0xb7, 0xb4, 0xde, 0x1e, 0x5d,
  0x10, 0x7f, 0xdf, 0x19, 0xf1, 0xad, 0xfa, 0x9a, 0x25, 0xfd, 0x39, 0x47,
  0x39, 0x65, 0x07, 0x7f, 0xe4, 0x09, 0xef, 0x1d, 0xe6, 0xa2, 0x7f, 0x2f,
  0x0b, 0xbc, 0xf7, 0xe8, 0x0c, 0xf2, 0x01, 0x7f, 0x7f, 0xf3, 0xfa, 0xe3,
  0xb6, 0x3c, 0x81, 0x94, 0xf7, 0xde, 0x96, 0x17, 0x5e, 0x7f, 0xf6, 0xb4,
  0x64, 0x73, 0x23, 0xb6, 0xeb, 0x81, 0xad, 0xcc, 0xfd, 0xf0, 0xf7, 0x01,
  0x06, 0x48, 0xb1, 0x7f, 0x1f, 0x3a, 0xf7, 0x81, 0xcd, 0x3b, 0x5d, 0x1e,
  0xdd, 0x7f, 0xdf, 0x98, 0xf1, 0x9a, 0x30, 0x79, 0x81, 0xfc, 0x30, 0x44,
  0x36, 0x4e, 0x35, 0x8c, 0x21, 0x4d, 0x17, 0x7f, 0xeb, 0x1c, 0xd5, 0x0c,
  0x09, 0xa2, 0xdf, 0x5d, 0x8a, 0xc3, 0x7f, 0x30, 0xfe, 0x2d, 0xf5, 0x43,
  0x01, 0x7d, 0x16, 0x7f, 0x53, 0x81, 0x74, 0x1d, 0x4a, 0x4a, 0x04, 0x1f,
  0x16, 0xb4, 0x4f, 0xbc, 0x4f, 0x84, 0x07, 0x81, 0x7f, 0x18, 0xf5, 0x03,
  0xee, 0xf1, 0x19, 0xdc, 0xba, 0xaf, 0x73, 0x6c, 0x42, 0xcc, 0x81, 0x29,
  0x47, 0x47, 0x3e, 0x7d, 0xe3, 0x7f, 0x8d, 0x01, 0x52, 0x7f, 0x0e, 0xa5,
  0xef, 0x24, 0x5a, 0x22, 0x42, 0x88, 0x04, 0x47, 0x08, 0x68, 0xf5, 0x81,
  0xe5, 0x11, 0x21, 0x08, 0x15, 0x81, 0x19, 0xde, 0x3a, 0x52, 0x5d, 0xab,
  0x7f, 0xb8, 0x37, 0xcd, 0x15, 0x7c, 0x01, 0x7f, 0x08, 0x3c, 0x1b, 0x66,
  0x4f, 0x45, 0x40, 0x7f, 0x01, 0x69, 0xf1, 0x33, 0x09, 0x87, 0x7f, 0x0a,
  0x63, 0x34, 0xf0, 0x2b, 0xd7, 0xce, 0xd5, 0xe7, 0x2d, 0xdb, 0x27, 0x7f,
  0x99, 0xa7, 0x81, 0xc1, 0x92, 0xe2, 0xf3, 0xbb, 0x0e, 0x7f, 0xed, 0x2f,
  0xfe, 0xb3, 0xd5, 0x9e, 0x81, 0xf5, 0x36, 0x47, 0x1b, 0x48, 0x30, 0xa2,
  0xfa, 0x70, 0x26, 0x47, 0xe0, 0xf6, 0x1f, 0x7f, 0x53, 0x7f, 0x2b, 0xcf,
  0xf0, 0x91, 0xf2, 0xc5, 0x0d, 0x70, 0x07, 0x7f, 0x18, 0x41, 0x28, 0x5d,
  0x3f, 0x08, 0x27, 0x93, 0xb7, 0x81, 0xa1, 0xb7, 0x2f, 0x39, 0x3a, 0x7f,
  0x11, 0x4c, 0xe4, 0xec, 0x7f, 0xff, 0x20, 0x47, 0xfd, 0x14, 0x19, 0xc5,
  0x3d, 0x7f, 0x95, 0xa3, 0x56, 0x8b, 0xd0, 0x6d, 0x0d, 0x16, 0x22, 0xc5,
  0x26, 0xfe, 0x7f, 0xfd, 0x54, 0x3a, 0x1a, 0x81, 0x1e, 0x4f, 0x24, 0x20,
  0x4e, 0xfa, 0xff, 0xff, 0x00, 0x00, 0x00, 0x09, 0x10, 0x00, 0x00, 0x00,
  0x04, 0x00, 0x00, 0x00, 0x1c, 0x00, 0x00, 0x00, 0x90, 0x00, 0x00, 0x00,
  0x04, 0x00, 0x00, 0x00, 0x40, 0x00, 0x00, 0x00, 0x04, 0x00, 0x00, 0x00,
  0x02, 0x00, 0x00, 0x00, 0x01, 0x00, 0x00, 0x00, 0x71, 0x00, 0x00, 0x00,
  0x73, 0x65, 0x71, 0x75, 0x65, 0x6e, 0x74, 0x69, 0x61, 0x6c, 0x5f, 0x39,
  0x2f, 0x71, 0x75, 0x61, 0x6e, 0x74, 0x5f, 0x63, 0x6f, 0x6e, 0x76, 0x32,
  0x64, 0x5f, 0x32, 0x37, 0x2f, 0x43, 0x6f, 0x6e, 0x76, 0x32, 0x44, 0x3b,
  0x73, 0x65, 0x71, 0x75, 0x65, 0x6e, 0x74, 0x69, 0x61, 0x6c, 0x5f, 0x39,
  0x2f, 0x71, 0x75, 0x61, 0x6e, 0x74, 0x5f, 0x63, 0x6f, 0x6e, 0x76, 0x32,
  0x64, 0x5f, 0x32, 0x37, 0x2f, 0x4c, 0x61, 0x73, 0x74, 0x56, 0x61, 0x6c,
  0x75, 0x65, 0x51, 0x75, 0x61, 0x6e, 0x74, 0x2f, 0x46, 0x61, 0x6b, 0x65,
  0x51, 0x75, 0x61, 0x6e, 0x74, 0x57, 0x69, 0x74, 0x68, 0x4d, 0x69, 0x6e,
  0x4d, 0x61, 0x78, 0x56, 0x61, 0x72, 0x73, 0x50, 0x65, 0x72, 0x43, 0x68,
  0x61, 0x6e, 0x6e, 0x65, 0x6c, 0x00, 0x00, 0x00, 0x40, 0xfb, 0xff, 0xff,
  0x08, 0x00, 0x00, 0x00, 0x08, 0x01, 0x00, 0x00, 0x40, 0x00, 0x00, 0x00,
  0xf3, 0x14, 0xa7, 0x3b, 0x73, 0x73, 0x9c, 0x3b, 0xd0, 0x7f, 0x93, 0x3b,
  0xd5, 0xd7, 0x75, 0x3b, 0x54, 0x3a, 0xbb, 0x3b, 0xb0, 0xb5, 0x96, 0x3b,
  0xf3, 0x09, 0x81, 0x3b, 0x49, 0x98, 0x9f, 0x3b, 0x3d, 0xde, 0xbf, 0x3b,
  0x3f, 0xc9, 0x96, 0x3b, 0x71, 0x51, 0xb0, 0x3b, 0x8f, 0x44, 0xb5, 0x3b,
  0x6e, 0xae, 0x80, 0x3b, 0x6b, 0x12, 0x9d, 0x3b, 0x79, 0xb3, 0xf3, 0x3b,
  0xca, 0x38, 0x93, 0x3b, 0xa3, 0x7c, 0x88, 0x3b, 0x33, 0x46, 0x45, 0x3a,
  0xa3, 0x7e, 0xe3, 0x3a, 0xd0, 0xd7, 0xf6, 0x3a, 0xd2, 0xf4, 0x6b, 0x3b,
  0x56, 0x3e, 0xd0, 0x3b, 0x35, 0x2d, 0xa2, 0x3b, 0x49, 0xed, 0xc0, 0x3b,
  0x66, 0x42, 0xaa, 0x3b, 0xdb, 0x4a, 0xb3, 0x3b, 0xe6, 0x37, 0xae, 0x3b,
  0x49, 0xeb, 0xc0, 0x3b, 0x56, 0xc8, 0xe5, 0x3b, 0xbe, 0xb3, 0x24, 0x3b,
  0x3c, 0x53, 0xaf, 0x3b, 0xf1, 0xe6, 0x73, 0x3b, 0x7b, 0xfb, 0xc3, 0x3b,
  0x77, 0x4a, 0x8b, 0x3b, 0xb1, 0x97, 0x90, 0x3b, 0x5e, 0x5c, 0x9b, 0x3b,
  0x48, 0x5e, 0xbb, 0x3b, 0x0c, 0x49, 0xa9, 0x3b, 0x0a, 0x9c, 0x98, 0x3b,
  0x51, 0xe9, 0xc7, 0x3b, 0x9c, 0x99, 0xb2, 0x3b, 0x99, 0x28, 0xa4, 0x3b,
  0x0e, 0x1c, 0xa1, 0x3b, 0xbb, 0x63, 0x9a, 0x3b, 0x49, 0xf2, 0xa0, 0x3b,
  0xac, 0x09, 0x8c, 0x3b, 0xa6, 0xd8, 0x52, 0x3b, 0x20, 0x2e, 0x18, 0x3b,
  0xeb, 0x9c, 0xa5, 0x3b, 0x5b, 0xd7, 0xb6, 0x3b, 0x6e, 0x98, 0xa3, 0x3b,
  0xca, 0xd6, 0xe0, 0x3b, 0xff, 0x13, 0xb5, 0x3b, 0xa5, 0xee, 0x90, 0x3b,
  0xff, 0x75, 0xcd, 0x3b, 0xb1, 0x8c, 0xcc, 0x3b, 0x6c, 0x7c, 0x86, 0x3b,
  0xd7, 0x4e, 0xc1, 0x3b, 0x8f, 0xbc, 0x97, 0x3b, 0x5a, 0x9d, 0xbf, 0x3b,
  0xfe, 0x76, 0xd1, 0x3b, 0x8c, 0x84, 0x84, 0x3b, 0x9f, 0x55, 0xbb, 0x3b,
  0x08, 0x23, 0x2f, 0x3b, 0x40, 0x00, 0x00, 0x00, 0x00, 0x00, 0x00, 0x00,
  0x00, 0x00, 0x00, 0x00, 0x00, 0x00, 0x00, 0x00, 0x00, 0x00, 0x00, 0x00,
  0x00, 0x00, 0x00, 0x00, 0x00, 0x00, 0x00, 0x00, 0x00, 0x00, 0x00, 0x00,
  0x00, 0x00, 0x00, 0x00, 0x00, 0x00, 0x00, 0x00, 0x00, 0x00, 0x00, 0x00,
  0x00, 0x00, 0x00, 0x00, 0x00, 0x00, 0x00, 0x00, 0x00, 0x00, 0x00, 0x00,
  0x00, 0x00, 0x00, 0x00, 0x00, 0x00, 0x00, 0x00, 0x00, 0x00, 0x00, 0x00,
  0x00, 0x00, 0x00, 0x00, 0x00, 0x00, 0x00, 0x00, 0x00, 0x00, 0x00, 0x00,
  0x00, 0x00, 0x00, 0x00, 0x00, 0x00, 0x00, 0x00, 0x00, 0x00, 0x00, 0x00,
  0x00, 0x00, 0x00, 0x00, 0x00, 0x00, 0x00, 0x00, 0x00, 0x00, 0x00, 0x00,
  0x00, 0x00, 0x00, 0x00, 0x00, 0x00, 0x00, 0x00, 0x00, 0x00, 0x00, 0x00,
  0x00, 0x00, 0x00, 0x00, 0x00, 0x00, 0x00, 0x00, 0x00, 0x00, 0x00, 0x00,
  0x00, 0x00, 0x00, 0x00, 0x00, 0x00, 0x00, 0x00, 0x00, 0x00, 0x00, 0x00,
  0x00, 0x00, 0x00, 0x00, 0x00, 0x00, 0x00, 0x00, 0x00, 0x00, 0x00, 0x00,
  0x00, 0x00, 0x00, 0x00, 0x00, 0x00, 0x00, 0x00, 0x00, 0x00, 0x00, 0x00,
  0x00, 0x00, 0x00, 0x00, 0x00, 0x00, 0x00, 0x00, 0x00, 0x00, 0x00, 0x00,
  0x00, 0x00, 0x00, 0x00, 0x00, 0x00, 0x00, 0x00, 0x00, 0x00, 0x00, 0x00,
  0x00, 0x00, 0x00, 0x00, 0x00, 0x00, 0x00, 0x00, 0x00, 0x00, 0x00, 0x00,
  0x00, 0x00, 0x00, 0x00, 0x00, 0x00, 0x00, 0x00, 0x00, 0x00, 0x00, 0x00,
  0x00, 0x00, 0x00, 0x00, 0x00, 0x00, 0x00, 0x00, 0x00, 0x00, 0x00, 0x00,
  0x00, 0x00, 0x00, 0x00, 0x00, 0x00, 0x00, 0x00, 0x00, 0x00, 0x00, 0x00,
  0x00, 0x00, 0x00, 0x00, 0x00, 0x00, 0x00, 0x00, 0x00, 0x00, 0x00, 0x00,
  0x00, 0x00, 0x00, 0x00, 0x00, 0x00, 0x00, 0x00, 0x00, 0x00, 0x00, 0x00,
  0x00, 0x00, 0x00, 0x00, 0x00, 0x00, 0x00, 0x00, 0x00, 0x00, 0x00, 0x00,
  0x00, 0x00, 0x00, 0x00, 0x00, 0x00, 0x00, 0x00, 0x00, 0x00, 0x00, 0x00,
  0x00, 0x00, 0x00, 0x00, 0x00, 0x00, 0x00, 0x00, 0x00, 0x00, 0x00, 0x00,
  0x00, 0x00, 0x00, 0x00, 0x00, 0x00, 0x00, 0x00, 0x00, 0x00, 0x00, 0x00,
  0x00, 0x00, 0x00, 0x00, 0x00, 0x00, 0x00, 0x00, 0x00, 0x00, 0x00, 0x00,
  0x00, 0x00, 0x00, 0x00, 0x00, 0x00, 0x00, 0x00, 0x00, 0x00, 0x00, 0x00,
  0x00, 0x00, 0x00, 0x00, 0x00, 0x00, 0x00, 0x00, 0x00, 0x00, 0x00, 0x00,
  0x00, 0x00, 0x00, 0x00, 0x00, 0x00, 0x00, 0x00, 0x00, 0x00, 0x00, 0x00,
  0x00, 0x00, 0x00, 0x00, 0x00, 0x00, 0x00, 0x00, 0x00, 0x00, 0x00, 0x00,
  0x00, 0x00, 0x00, 0x00, 0x00, 0x00, 0x00, 0x00, 0x00, 0x00, 0x00, 0x00,
  0x00, 0x00, 0x00, 0x00, 0x00, 0x00, 0x00, 0x00, 0x00, 0x00, 0x00, 0x00,
  0x00, 0x00, 0x00, 0x00, 0x00, 0x00, 0x00, 0x00, 0x00, 0x00, 0x00, 0x00,
  0x00, 0x00, 0x00, 0x00, 0x00, 0x00, 0x00, 0x00, 0x00, 0x00, 0x00, 0x00,
  0x00, 0x00, 0x00, 0x00, 0x00, 0x00, 0x00, 0x00, 0x00, 0x00, 0x00, 0x00,
  0x00, 0x00, 0x00, 0x00, 0x00, 0x00, 0x00, 0x00, 0x00, 0x00, 0x00, 0x00,
  0x00, 0x00, 0x00, 0x00, 0x00, 0x00, 0x00, 0x00, 0x00, 0x00, 0x00, 0x00,
  0x00, 0x00, 0x00, 0x00, 0x00, 0x00, 0x00, 0x00, 0x00, 0x00, 0x00, 0x00,
  0x00, 0x00, 0x00, 0x00, 0x00, 0x00, 0x00, 0x00, 0x00, 0x00, 0x00, 0x00,
  0x00, 0x00, 0x00, 0x00, 0x00, 0x00, 0x00, 0x00, 0x00, 0x00, 0x00, 0x00,
  0x00, 0x00, 0x00, 0x00, 0x00, 0x00, 0x00, 0x00, 0x00, 0x00, 0x00, 0x00,
  0x00, 0x00, 0x00, 0x00, 0x00, 0x00, 0x00, 0x00, 0x00, 0x00, 0x00, 0x00,
  0x00, 0x00, 0x00, 0x00, 0x00, 0x00, 0x0a, 0x00, 0x0c, 0x00, 0x00, 0x00,
  0x04, 0x00, 0x08, 0x00, 0x0a, 0x00, 0x00, 0x00, 0x10, 0x00, 0x00, 0x00,
  0x04, 0x00, 0x00, 0x00, 0x01, 0x00, 0x00, 0x00, 0x02, 0x00, 0x00, 0x00,
  0x01, 0x00, 0x00, 0x00, 0x00, 0x00, 0x00, 0x00, 0x0c, 0x00, 0x10, 0x00,
  0x0b, 0x00, 0x00, 0x00, 0x0c, 0x00, 0x04, 0x00, 0x0c, 0x00, 0x00, 0x00,
  0x72, 0x00, 0x00, 0x00, 0x00, 0x00, 0x00, 0x72, 0x01, 0x00, 0x00, 0x00,
  0x14, 0x00, 0x1c, 0x00, 0x08, 0x00, 0x07, 0x00, 0x0c, 0x00, 0x10, 0x00,
  0x14, 0x00, 0x00, 0x00, 0x00, 0x00, 0x18, 0x00, 0x14, 0x00, 0x00, 0x00,
  0x00, 0x00, 0x00, 0x09, 0x14, 0x00, 0x00, 0x00, 0x03, 0x00, 0x00, 0x00,
  0x34, 0x00, 0x00, 0x00, 0x4c, 0x01, 0x00, 0x00, 0x18, 0x00, 0x00, 0x00,
  0x04, 0x00, 0x00, 0x00, 0x01, 0x00, 0x00, 0x00, 0x18, 0x00, 0x00, 0x00,
  0x03, 0x00, 0x00, 0x00, 0x01, 0x00, 0x00, 0x00, 0x04, 0x00, 0x00, 0x00,
  0xff, 0xff, 0xff, 0xff, 0x18, 0x00, 0x00, 0x00, 0x03, 0x00, 0x00, 0x00,
  0x01, 0x00, 0x00, 0x00, 0x09, 0x01, 0x00, 0x00, 0x73, 0x65, 0x71, 0x75,
  0x65, 0x6e, 0x74, 0x69, 0x61, 0x6c, 0x5f, 0x39, 0x2f, 0x71, 0x75, 0x61,
  0x6e, 0x74, 0x69, 0x7a, 0x65, 0x5f, 0x6c, 0x61, 0x79, 0x65, 0x72, 0x5f,
  0x32, 0x2f, 0x41, 0x6c, 0x6c, 0x56, 0x61, 0x6c, 0x75, 0x65, 0x73, 0x51,
  0x75, 0x61, 0x6e, 0x74, 0x69, 0x7a, 0x65, 0x2f, 0x46, 0x61, 0x6b, 0x65,
  0x51, 0x75, 0x61, 0x6e, 0x74, 0x57, 0x69, 0x74, 0x68, 0x4d, 0x69, 0x6e,
  0x4d, 0x61, 0x78, 0x56, 0x61, 0x72, 0x73, 0x3b, 0x73, 0x65, 0x71, 0x75,
  0x65, 0x6e, 0x74, 0x69, 0x61, 0x6c, 0x5f, 0x39, 0x2f, 0x71, 0x75, 0x61,
  0x6e, 0x74, 0x69, 0x7a, 0x65, 0x5f, 0x6c, 0x61, 0x79, 0x65, 0x72, 0x5f,
  0x32, 0x2f, 0x41, 0x6c, 0x6c, 0x56, 0x61, 0x6c, 0x75, 0x65, 0x73, 0x51,
  0x75, 0x61, 0x6e, 0x74, 0x69, 0x7a, 0x65, 0x2f, 0x46, 0x61, 0x6b, 0x65,
  0x51, 0x75, 0x61, 0x6e, 0x74, 0x57, 0x69, 0x74, 0x68, 0x4d, 0x69, 0x6e,
  0x4d, 0x61, 0x78, 0x56, 0x61, 0x72, 0x73, 0x2f, 0x52, 0x65, 0x61, 0x64,
  0x56, 0x61, 0x72, 0x69, 0x61, 0x62, 0x6c, 0x65, 0x4f, 0x70, 0x2f, 0x72,
  0x65, 0x73, 0x6f, 0x75, 0x72, 0x63, 0x65, 0x3b, 0x73, 0x65, 0x71, 0x75,
  0x65, 0x6e, 0x74, 0x69, 0x61, 0x6c, 0x5f, 0x39, 0x2f, 0x71, 0x75, 0x61,
  0x6e, 0x74, 0x69, 0x7a, 0x65, 0x5f, 0x6c, 0x61, 0x79, 0x65, 0x72, 0x5f,
  0x32, 0x2f, 0x41, 0x6c, 0x6c, 0x56, 0x61, 0x6c, 0x75, 0x65, 0x73, 0x51,
  0x75, 0x61, 0x6e, 0x74, 0x69, 0x7a, 0x65, 0x2f, 0x46, 0x61, 0x6b, 0x65,
  0x51, 0x75, 0x61, 0x6e, 0x74, 0x57, 0x69, 0x74, 0x68, 0x4d, 0x69, 0x6e,
  0x4d, 0x61, 0x78, 0x56, 0x61, 0x72, 0x73, 0x2f, 0x52, 0x65, 0x61, 0x64,
  0x56, 0x61, 0x72, 0x69, 0x61, 0x62, 0x6c, 0x65, 0x4f, 0x70, 0x5f, 0x31,
  0x2f, 0x72, 0x65, 0x73, 0x6f, 0x75, 0x72, 0x63, 0x65, 0x00, 0x00, 0x00,
  0x0c, 0x00, 0x0c, 0x00, 0x00, 0x00, 0x00, 0x00, 0x04, 0x00, 0x08, 0x00,
  0x0c, 0x00, 0x00, 0x00, 0x08, 0x00, 0x00, 0x00, 0x0c, 0x00, 0x00, 0x00,
  0x01, 0x00, 0x00, 0x00, 0x21, 0xd7, 0xba, 0x3a, 0x01, 0x00, 0x00, 0x00,
  0xf5, 0xff, 0xff, 0xff, 0xff, 0xff, 0xff, 0xff, 0x00, 0x00, 0x00, 0x00,
  0x00, 0x00, 0x06, 0x00, 0x08, 0x00, 0x04, 0x00, 0x06, 0x00, 0x00, 0x00,
  0x04, 0x00, 0x00, 0x00, 0x08, 0x00, 0x00, 0x00, 0xff, 0xff, 0xff, 0xff,
  0x20, 0x00, 0x00, 0x00, 0x00, 0x00, 0x0e, 0x00, 0x18, 0x00, 0x08, 0x00,
  0x07, 0x00, 0x0c, 0x00, 0x10, 0x00, 0x14, 0x00, 0x0e, 0x00, 0x00, 0x00,
  0x00, 0x00, 0x00, 0x02, 0x10, 0x00, 0x00, 0x00, 0x02, 0x00, 0x00, 0x00,
  0x10, 0x00, 0x00, 0x00, 0x34, 0x00, 0x00, 0x00, 0x01, 0x00, 0x00, 0x00,
  0x02, 0x00, 0x00, 0x00, 0x22, 0x00, 0x00, 0x00, 0x73, 0x65, 0x71, 0x75,
  0x65, 0x6e, 0x74, 0x69, 0x61, 0x6c, 0x5f, 0x39, 0x2f, 0x71, 0x75, 0x61,
  0x6e, 0x74, 0x5f, 0x66, 0x6c, 0x61, 0x74, 0x74, 0x65, 0x6e, 0x5f, 0x39,
  0x2f, 0x43, 0x6f, 0x6e, 0x73, 0x74, 0x00, 0x00, 0x90, 0xff, 0xff, 0xff,
  0x14, 0x00, 0x18, 0x00, 0x04, 0x00, 0x00, 0x00, 0x08, 0x00, 0x0c, 0x00,
  0x10, 0x00, 0x00, 0x00, 0x00, 0x00, 0x14, 0x00, 0x14, 0x00, 0x00, 0x00,
  0x14, 0x00, 0x00, 0x00, 0x01, 0x00, 0x00, 0x00, 0x34, 0x00, 0x00, 0x00,
  0x44, 0x00, 0x00, 0x00, 0x18, 0x00, 0x00, 0x00, 0x04, 0x00, 0x00, 0x00,
  0x01, 0x00, 0x00, 0x00, 0x18, 0x00, 0x00, 0x00, 0x03, 0x00, 0x00, 0x00,
  0x01, 0x00, 0x00, 0x00, 0x04, 0x00, 0x00, 0x00, 0xff, 0xff, 0xff, 0xff,
  0x18, 0x00, 0x00, 0x00, 0x03, 0x00, 0x00, 0x00, 0x01, 0x00, 0x00, 0x00,
  0x0f, 0x00, 0x00, 0x00, 0x63, 0x6f, 0x6e, 0x76, 0x32, 0x64, 0x5f, 0x32,
  0x37, 0x5f, 0x69, 0x6e, 0x70, 0x75, 0x74, 0x00, 0xfc, 0xff, 0xff, 0xff,
  0x04, 0x00, 0x04, 0x00, 0x04, 0x00, 0x00, 0x00
};

#endif // INCLUDE_MODEL

#endif //HAR_3XCNN2D_QUANTIZED_H