#ifndef HAR_3XCNN2D_QUANTIZED_H
#define HAR_3XCNN2D_QUANTIZED_H

#define APP_ACTIVITY_MODEL_NAME har_3xCNN2d_quantized
#define APP_ACTIVITY_RECOGNITION_PRECISION_FLOAT (0)
#define APP_ACTIVITY_RECOGNITION_SENSOR_SCALE (2)
#define APP_ACTIVITY_RECOGNITION_SENSOR_RESOLUTION (12)
#define APP_ACTIVITY_RECOGNITION_SAMPLING_FREQUENCY (10)
#define APP_ACTIVITY_RECOGNITION_FREQUENCY_DIVIDER (1)
#define APP_ACTIVITY_RECOGNITION_HIGHPASS_ORDER (3)
#define APP_ACTIVITY_RECOGNITION_HIGHPASS_CUTOFF (0.300000)

#ifdef INCLUDE_MODEL
static const char* APP_ACTIVITY_RECOGNITION_CLASSES[] = {"aufstehen","downstairs","gehen","setzen","sitzen","stehen","upstairs"};
static const size_t har_3xCNN2d_quantized_len = 13280;
static const uint8_t har_3xCNN2d_quantized[] = {
 0x1c, 0x00, 0x00, 0x00, 0x54, 0x46, 0x4c, 0x33, 0x14, 0x00, 0x20, 0x00,
  0x04, 0x00, 0x08, 0x00, 0x0c, 0x00, 0x10, 0x00, 0x14, 0x00, 0x00, 0x00,
  0x18, 0x00, 0x1c, 0x00, 0x14, 0x00, 0x00, 0x00, 0x03, 0x00, 0x00, 0x00,
  0x18, 0x00, 0x00, 0x00, 0x34, 0x00, 0x00, 0x00, 0xec, 0x00, 0x00, 0x00,
  0x34, 0x00, 0x00, 0x00, 0x94, 0x00, 0x00, 0x00, 0x8c, 0x00, 0x00, 0x00,
  0x07, 0x00, 0x00, 0x00, 0x04, 0x0b, 0x00, 0x00, 0xc8, 0x09, 0x00, 0x00,
  0xc8, 0x08, 0x00, 0x00, 0xcc, 0x03, 0x00, 0x00, 0xf4, 0x02, 0x00, 0x00,
  0x48, 0x02, 0x00, 0x00, 0xc0, 0x01, 0x00, 0x00, 0x01, 0x00, 0x00, 0x00,
  0xdc, 0x00, 0x00, 0x00, 0x17, 0x00, 0x00, 0x00, 0x74, 0x33, 0x00, 0x00,
  0x70, 0x33, 0x00, 0x00, 0x90, 0x32, 0x00, 0x00, 0x08, 0x2d, 0x00, 0x00,
  0x84, 0x28, 0x00, 0x00, 0x8c, 0x16, 0x00, 0x00, 0x0c, 0x14, 0x00, 0x00,
  0xd4, 0x0e, 0x00, 0x00, 0x54, 0x0d, 0x00, 0x00, 0xfc, 0x0b, 0x00, 0x00,
  0x54, 0x0b, 0x00, 0x00, 0x48, 0x33, 0x00, 0x00, 0x44, 0x33, 0x00, 0x00,
  0x40, 0x33, 0x00, 0x00, 0x3c, 0x33, 0x00, 0x00, 0x38, 0x33, 0x00, 0x00,
  0x34, 0x33, 0x00, 0x00, 0x30, 0x33, 0x00, 0x00, 0x2c, 0x33, 0x00, 0x00,
  0x28, 0x33, 0x00, 0x00, 0x24, 0x33, 0x00, 0x00, 0x20, 0x33, 0x00, 0x00,
  0x3c, 0x00, 0x00, 0x00, 0x00, 0x00, 0x00, 0x00, 0x01, 0x00, 0x00, 0x00,
  0x0c, 0x00, 0x00, 0x00, 0x08, 0x00, 0x0c, 0x00, 0x04, 0x00, 0x08, 0x00,
  0x08, 0x00, 0x00, 0x00, 0x08, 0x00, 0x00, 0x00, 0x16, 0x00, 0x00, 0x00,
  0x13, 0x00, 0x00, 0x00, 0x6d, 0x69, 0x6e, 0x5f, 0x72, 0x75, 0x6e, 0x74,
  0x69, 0x6d, 0x65, 0x5f, 0x76, 0x65, 0x72, 0x73, 0x69, 0x6f, 0x6e, 0x00,
  0x02, 0xce, 0xff, 0xff, 0x04, 0x00, 0x00, 0x00, 0x10, 0x00, 0x00, 0x00,
  0x31, 0x2e, 0x31, 0x34, 0x2e, 0x30, 0x00, 0x00, 0x00, 0x00, 0x00, 0x00,
  0x00, 0x00, 0x00, 0x00, 0x0f, 0x00, 0x00, 0x00, 0x4d, 0x4c, 0x49, 0x52,
  0x20, 0x43, 0x6f, 0x6e, 0x76, 0x65, 0x72, 0x74, 0x65, 0x64, 0x2e, 0x00,
  0x00, 0x00, 0x0e, 0x00, 0x18, 0x00, 0x04, 0x00, 0x08, 0x00, 0x0c, 0x00,
  0x10, 0x00, 0x14, 0x00, 0x0e, 0x00, 0x00, 0x00, 0x14, 0x00, 0x00, 0x00,
  0x68, 0x00, 0x00, 0x00, 0x6c, 0x00, 0x00, 0x00, 0x70, 0x00, 0x00, 0x00,
  0x9c, 0x00, 0x00, 0x00, 0x15, 0x00, 0x00, 0x00, 0x28, 0x32, 0x00, 0x00,
  0xc8, 0x31, 0x00, 0x00, 0x28, 0x2e, 0x00, 0x00, 0xa4, 0x28, 0x00, 0x00,
  0xac, 0x25, 0x00, 0x00, 0xac, 0x13, 0x00, 0x00, 0xf4, 0x11, 0x00, 0x00,
  0xb4, 0x0c, 0x00, 0x00, 0xfc, 0x0b, 0x00, 0x00, 0x90, 0x0a, 0x00, 0x00,
  0xe8, 0x09, 0x00, 0x00, 0x98, 0x08, 0x00, 0x00, 0x98, 0x07, 0x00, 0x00,
  0x30, 0x06, 0x00, 0x00, 0x58, 0x05, 0x00, 0x00, 0x20, 0x04, 0x00, 0x00,
  0x48, 0x03, 0x00, 0x00, 0x8c, 0x02, 0x00, 0x00, 0xb4, 0x01, 0x00, 0x00,
  0x08, 0x01, 0x00, 0x00, 0x80, 0x00, 0x00, 0x00, 0x01, 0x00, 0x00, 0x00,
  0x00, 0x00, 0x00, 0x00, 0x01, 0x00, 0x00, 0x00, 0x14, 0x00, 0x00, 0x00,
  0x0b, 0x00, 0x00, 0x00, 0x5c, 0x09, 0x00, 0x00, 0xfc, 0x07, 0x00, 0x00,
  0xf8, 0x06, 0x00, 0x00, 0xb0, 0x05, 0x00, 0x00, 0xd8, 0x04, 0x00, 0x00,
  0xa0, 0x03, 0x00, 0x00, 0xc8, 0x02, 0x00, 0x00, 0x18, 0x02, 0x00, 0x00,
  0x30, 0x01, 0x00, 0x00, 0x88, 0x00, 0x00, 0x00, 0x10, 0x00, 0x00, 0x00,
  0x04, 0x00, 0x00, 0x00, 0x6d, 0x61, 0x69, 0x6e, 0x00, 0x00, 0x00, 0x00,
  0x0e, 0xfe, 0xff, 0xff, 0x06, 0x00, 0x00, 0x00, 0x10, 0x00, 0x00, 0x00,
  0x04, 0x00, 0x00, 0x00, 0x01, 0x00, 0x00, 0x00, 0x14, 0x00, 0x00, 0x00,
  0x01, 0x00, 0x00, 0x00, 0x13, 0x00, 0x00, 0x00, 0xe0, 0xf6, 0xff, 0xff,
  0x06, 0x00, 0x00, 0x00, 0x00, 0x00, 0x00, 0x06, 0x02, 0x00, 0x00, 0x00,
  0xbc, 0xce, 0xff, 0xff, 0x14, 0x00, 0x00, 0x00, 0x15, 0x00, 0x00, 0x00,
  0x24, 0x00, 0x00, 0x00, 0x30, 0x00, 0x00, 0x00, 0x10, 0x00, 0x00, 0x00,
  0x02, 0x00, 0x00, 0x00, 0x01, 0x00, 0x00, 0x00, 0x07, 0x00, 0x00, 0x00,
  0x02, 0x00, 0x00, 0x00, 0xff, 0xff, 0xff, 0xff, 0x07, 0x00, 0x00, 0x00,
  0x08, 0x00, 0x00, 0x00, 0x49, 0x64, 0x65, 0x6e, 0x74, 0x69, 0x74, 0x79,
  0x00, 0x00, 0x00, 0x00, 0x90, 0xce, 0xff, 0xff, 0xba, 0xf8, 0xff, 0xff,
  0x00, 0x00, 0x00, 0x09, 0x05, 0x00, 0x00, 0x00, 0x1c, 0x00, 0x00, 0x00,
  0x10, 0x00, 0x00, 0x00, 0x04, 0x00, 0x00, 0x00, 0x8a, 0xcf, 0xff, 0xff,
  0x00, 0x00, 0x80, 0x3f, 0x01, 0x00, 0x00, 0x00, 0x13, 0x00, 0x00, 0x00,
  0x01, 0x00, 0x00, 0x00, 0x12, 0x00, 0x00, 0x00, 0x64, 0xf7, 0xff, 0xff,
  0x19, 0x00, 0x00, 0x00, 0x00, 0x00, 0x00, 0x19, 0x02, 0x00, 0x00, 0x00,
  0x58, 0xf7, 0xff, 0xff, 0x00, 0x00, 0x00, 0x09, 0x14, 0x00, 0x00, 0x00,
  0x14, 0x00, 0x00, 0x00, 0x24, 0x00, 0x00, 0x00, 0x30, 0x00, 0x00, 0x00,
  0x10, 0x00, 0x00, 0x00, 0x02, 0x00, 0x00, 0x00, 0x01, 0x00, 0x00, 0x00,
  0x07, 0x00, 0x00, 0x00, 0x02, 0x00, 0x00, 0x00, 0xff, 0xff, 0xff, 0xff,
  0x07, 0x00, 0x00, 0x00, 0x09, 0x00, 0x00, 0x00, 0x49, 0x64, 0x65, 0x6e,
  0x74, 0x69, 0x74, 0x79, 0x31, 0x00, 0x00, 0x00, 0x18, 0xd3, 0xff, 0xff,
  0x08, 0x00, 0x00, 0x00, 0x0c, 0x00, 0x00, 0x00, 0x01, 0x00, 0x00, 0x00,
  0x00, 0x00, 0x80, 0x3b, 0x01, 0x00, 0x00, 0x00, 0x80, 0xff, 0xff, 0xff,
  0xff, 0xff, 0xff, 0xff, 0x5e, 0xf9, 0xff, 0xff, 0x00, 0x00, 0x00, 0x08,
  0x04, 0x00, 0x00, 0x00, 0x18, 0x00, 0x00, 0x00, 0x0c, 0x00, 0x00, 0x00,
  0x04, 0x00, 0x00, 0x00, 0x50, 0xcf, 0xff, 0xff, 0x01, 0x00, 0x00, 0x00,
  0x12, 0x00, 0x00, 0x00, 0x03, 0x00, 0x00, 0x00, 0x11, 0x00, 0x00, 0x00,
  0x08, 0x00, 0x00, 0x00, 0x09, 0x00, 0x00, 0x00, 0x0c, 0xf8, 0xff, 0xff,
  0x09, 0x00, 0x00, 0x00, 0x00, 0x00, 0x00, 0x09, 0x04, 0x00, 0x00, 0x00,
  0x00, 0xf8, 0xff, 0xff, 0x00, 0x00, 0x00, 0x09, 0x14, 0x00, 0x00, 0x00,
  0x13, 0x00, 0x00, 0x00, 0x24, 0x00, 0x00, 0x00, 0x60, 0x00, 0x00, 0x00,
  0x10, 0x00, 0x00, 0x00, 0x02, 0x00, 0x00, 0x00, 0x01, 0x00, 0x00, 0x00,
  0x07, 0x00, 0x00, 0x00, 0x02, 0x00, 0x00, 0x00, 0xff, 0xff, 0xff, 0xff,
  0x07, 0x00, 0x00, 0x00, 0x38, 0x00, 0x00, 0x00, 0x73, 0x65, 0x71, 0x75,
  0x65, 0x6e, 0x74, 0x69, 0x61, 0x6c, 0x5f, 0x31, 0x2f, 0x64, 0x65, 0x6e,
  0x73, 0x65, 0x5f, 0x31, 0x2f, 0x4d, 0x61, 0x74, 0x4d, 0x75, 0x6c, 0x3b,
  0x73, 0x65, 0x71, 0x75, 0x65, 0x6e, 0x74, 0x69, 0x61, 0x6c, 0x5f, 0x31,
  0x2f, 0x64, 0x65, 0x6e, 0x73, 0x65, 0x5f, 0x31, 0x2f, 0x42, 0x69, 0x61,
  0x73, 0x41, 0x64, 0x64, 0x00, 0x00, 0x00, 0x00, 0xf0, 0xd3, 0xff, 0xff,
  0x08, 0x00, 0x00, 0x00, 0x0c, 0x00, 0x00, 0x00, 0x01, 0x00, 0x00, 0x00,
  0xb4, 0x4d, 0xcb, 0x3c, 0x01, 0x00, 0x00, 0x00, 0x25, 0x00, 0x00, 0x00,
  0x00, 0x00, 0x00, 0x00, 0x00, 0x00, 0x0a, 0x00, 0x10, 0x00, 0x04, 0x00,
  0x08, 0x00, 0x0c, 0x00, 0x0a, 0x00, 0x00, 0x00, 0x03, 0x00, 0x00, 0x00,
  0x10, 0x00, 0x00, 0x00, 0x04, 0x00, 0x00, 0x00, 0x01, 0x00, 0x00, 0x00,
  0x11, 0x00, 0x00, 0x00, 0x02, 0x00, 0x00, 0x00, 0x10, 0x00, 0x00, 0x00,
  0x01, 0x00, 0x00, 0x00, 0xe0, 0xf8, 0xff, 0xff, 0x16, 0x00, 0x00, 0x00,
  0x00, 0x00, 0x00, 0x16, 0x01, 0x00, 0x00, 0x00, 0xd4, 0xf8, 0xff, 0xff,
  0x00, 0x00, 0x00, 0x09, 0x14, 0x00, 0x00, 0x00, 0x12, 0x00, 0x00, 0x00,
  0x24, 0x00, 0x00, 0x00, 0x44, 0x00, 0x00, 0x00, 0x10, 0x00, 0x00, 0x00,
  0x02, 0x00, 0x00, 0x00, 0x01, 0x00, 0x00, 0x00, 0x20, 0x00, 0x00, 0x00,
  0x02, 0x00, 0x00, 0x00, 0xff, 0xff, 0xff, 0xff, 0x20, 0x00, 0x00, 0x00,
  0x1e, 0x00, 0x00, 0x00, 0x73, 0x65, 0x71, 0x75, 0x65, 0x6e, 0x74, 0x69,
  0x61, 0x6c, 0x5f, 0x31, 0x2f, 0x66, 0x6c, 0x61, 0x74, 0x74, 0x65, 0x6e,
  0x5f, 0x31, 0x2f, 0x52, 0x65, 0x73, 0x68, 0x61, 0x70, 0x65, 0x00, 0x00,
  0xa8, 0xd4, 0xff, 0xff, 0x08, 0x00, 0x00, 0x00, 0x0c, 0x00, 0x00, 0x00,
  0x01, 0x00, 0x00, 0x00, 0x26, 0x52, 0x05, 0x3d, 0x01, 0x00, 0x00, 0x00,
  0x80, 0xff, 0xff, 0xff, 0xff, 0xff, 0xff, 0xff, 0xee, 0xfa, 0xff, 0xff,
  0x00, 0x00, 0x00, 0x05, 0x02, 0x00, 0x00, 0x00, 0x2c, 0x00, 0x00, 0x00,
  0x20, 0x00, 0x00, 0x00, 0x04, 0x00, 0x00, 0x00, 0xde, 0xfb, 0xff, 0xff,
  0x02, 0x00, 0x00, 0x00, 0x01, 0x00, 0x00, 0x00, 0x02, 0x00, 0x00, 0x00,
  0x01, 0x00, 0x00, 0x00, 0x00, 0x00, 0x00, 0x01, 0x01, 0x00, 0x00, 0x00,
  0x10, 0x00, 0x00, 0x00, 0x01, 0x00, 0x00, 0x00, 0x0f, 0x00, 0x00, 0x00,
  0x8c, 0xf9, 0xff, 0xff, 0x00, 0x00, 0x00, 0x09, 0x14, 0x00, 0x00, 0x00,
  0x11, 0x00, 0x00, 0x00, 0x34, 0x00, 0x00, 0x00, 0x5c, 0x00, 0x00, 0x00,
  0x18, 0x00, 0x00, 0x00, 0x04, 0x00, 0x00, 0x00, 0x01, 0x00, 0x00, 0x00,
  0x01, 0x00, 0x00, 0x00, 0x02, 0x00, 0x00, 0x00, 0x10, 0x00, 0x00, 0x00,
  0x04, 0x00, 0x00, 0x00, 0xff, 0xff, 0xff, 0xff, 0x01, 0x00, 0x00, 0x00,
  0x02, 0x00, 0x00, 0x00, 0x10, 0x00, 0x00, 0x00, 0x24, 0x00, 0x00, 0x00,
  0x73, 0x65, 0x71, 0x75, 0x65, 0x6e, 0x74, 0x69, 0x61, 0x6c, 0x5f, 0x31,
  0x2f, 0x6d, 0x61, 0x78, 0x5f, 0x70, 0x6f, 0x6f, 0x6c, 0x69, 0x6e, 0x67,
  0x32, 0x64, 0x5f, 0x35, 0x2f, 0x4d, 0x61, 0x78, 0x50, 0x6f, 0x6f, 0x6c,
  0x00, 0x00, 0x00, 0x00, 0x78, 0xd5, 0xff, 0xff, 0x08, 0x00, 0x00, 0x00,
  0x0c, 0x00, 0x00, 0x00, 0x01, 0x00, 0x00, 0x00, 0x26, 0x52, 0x05, 0x3d,
  0x01, 0x00, 0x00, 0x00, 0x80, 0xff, 0xff, 0xff, 0xff, 0xff, 0xff, 0xff,
  0x00, 0x00, 0x00, 0x00, 0xc2, 0xfb, 0xff, 0xff, 0x00, 0x00, 0x00, 0x01,
  0x01, 0x00, 0x00, 0x00, 0x24, 0x00, 0x00, 0x00, 0x18, 0x00, 0x00, 0x00,
  0x04, 0x00, 0x00, 0x00, 0xb4, 0xfb, 0xff, 0xff, 0x01, 0x00, 0x00, 0x00,
  0x01, 0x00, 0x00, 0x00, 0x00, 0x00, 0x01, 0x01, 0x01, 0x00, 0x00, 0x00,
  0x0f, 0x00, 0x00, 0x00, 0x03, 0x00, 0x00, 0x00, 0x0e, 0x00, 0x00, 0x00,
  0x06, 0x00, 0x00, 0x00, 0x07, 0x00, 0x00, 0x00, 0x60, 0xfa, 0xff, 0xff,
  0x00, 0x00, 0x00, 0x09, 0x14, 0x00, 0x00, 0x00, 0x10, 0x00, 0x00, 0x00,
  0x34, 0x00, 0x00, 0x00, 0xc0, 0x00, 0x00, 0x00, 0x18, 0x00, 0x00, 0x00,
  0x04, 0x00, 0x00, 0x00, 0x01, 0x00, 0x00, 0x00, 0x02, 0x00, 0x00, 0x00,
  0x02, 0x00, 0x00, 0x00, 0x10, 0x00, 0x00, 0x00, 0x04, 0x00, 0x00, 0x00,
  0xff, 0xff, 0xff, 0xff, 0x02, 0x00, 0x00, 0x00, 0x02, 0x00, 0x00, 0x00,
  0x10, 0x00, 0x00, 0x00, 0x8b, 0x00, 0x00, 0x00, 0x73, 0x65, 0x71, 0x75,
  0x65, 0x6e, 0x74, 0x69, 0x61, 0x6c, 0x5f, 0x31, 0x2f, 0x63, 0x6f, 0x6e,
  0x76, 0x32, 0x64, 0x5f, 0x35, 0x2f, 0x52, 0x65, 0x6c, 0x75, 0x3b, 0x73,
  0x65, 0x71, 0x75, 0x65, 0x6e, 0x74, 0x69, 0x61, 0x6c, 0x5f, 0x31, 0x2f,
  0x63, 0x6f, 0x6e, 0x76, 0x32, 0x64, 0x5f, 0x35, 0x2f, 0x42, 0x69, 0x61,
  0x73, 0x41, 0x64, 0x64, 0x3b, 0x73, 0x65, 0x71, 0x75, 0x65, 0x6e, 0x74,
  0x69, 0x61, 0x6c, 0x5f, 0x31, 0x2f, 0x63, 0x6f, 0x6e, 0x76, 0x32, 0x64,
  0x5f, 0x35, 0x2f, 0x43, 0x6f, 0x6e, 0x76, 0x32, 0x44, 0x3b, 0x73, 0x65,
  0x71, 0x75, 0x65, 0x6e, 0x74, 0x69, 0x61, 0x6c, 0x5f, 0x31, 0x2f, 0x63,
  0x6f, 0x6e, 0x76, 0x32, 0x64, 0x5f, 0x35, 0x2f, 0x42, 0x69, 0x61, 0x73,
  0x41, 0x64, 0x64, 0x2f, 0x52, 0x65, 0x61, 0x64, 0x56, 0x61, 0x72, 0x69,
  0x61, 0x62, 0x6c, 0x65, 0x4f, 0x70, 0x2f, 0x72, 0x65, 0x73, 0x6f, 0x75,
  0x72, 0x63, 0x65, 0x00, 0xb0, 0xd6, 0xff, 0xff, 0x08, 0x00, 0x00, 0x00,
  0x0c, 0x00, 0x00, 0x00, 0x01, 0x00, 0x00, 0x00, 0x26, 0x52, 0x05, 0x3d,
  0x01, 0x00, 0x00, 0x00, 0x80, 0xff, 0xff, 0xff, 0xff, 0xff, 0xff, 0xff,
  0xf6, 0xfc, 0xff, 0xff, 0x00, 0x00, 0x00, 0x05, 0x02, 0x00, 0x00, 0x00,
  0x2c, 0x00, 0x00, 0x00, 0x20, 0x00, 0x00, 0x00, 0x04, 0x00, 0x00, 0x00,
  0xe6, 0xfd, 0xff, 0xff, 0x02, 0x00, 0x00, 0x00, 0x01, 0x00, 0x00, 0x00,
  0x02, 0x00, 0x00, 0x00, 0x01, 0x00, 0x00, 0x00, 0x00, 0x00, 0x00, 0x01,
  0x01, 0x00, 0x00, 0x00, 0x0e, 0x00, 0x00, 0x00, 0x01, 0x00, 0x00, 0x00,
  0x0d, 0x00, 0x00, 0x00, 0x94, 0xfb, 0xff, 0xff, 0x00, 0x00, 0x00, 0x09,
  0x14, 0x00, 0x00, 0x00, 0x0f, 0x00, 0x00, 0x00, 0x34, 0x00, 0x00, 0x00,
  0x5c, 0x00, 0x00, 0x00, 0x18, 0x00, 0x00, 0x00, 0x04, 0x00, 0x00, 0x00,
  0x01, 0x00, 0x00, 0x00, 0x03, 0x00, 0x00, 0x00, 0x02, 0x00, 0x00, 0x00,
  0x20, 0x00, 0x00, 0x00, 0x04, 0x00, 0x00, 0x00, 0xff, 0xff, 0xff, 0xff,
  0x03, 0x00, 0x00, 0x00, 0x02, 0x00, 0x00, 0x00, 0x20, 0x00, 0x00, 0x00,
  0x24, 0x00, 0x00, 0x00, 0x73, 0x65, 0x71, 0x75, 0x65, 0x6e, 0x74, 0x69,
  0x61, 0x6c, 0x5f, 0x31, 0x2f, 0x6d, 0x61, 0x78, 0x5f, 0x70, 0x6f, 0x6f,
  0x6c, 0x69, 0x6e, 0x67, 0x32, 0x64, 0x5f, 0x34, 0x2f, 0x4d, 0x61, 0x78,
  0x50, 0x6f, 0x6f, 0x6c, 0x00, 0x00, 0x00, 0x00, 0x80, 0xd7, 0xff, 0xff,
  0x08, 0x00, 0x00, 0x00, 0x0c, 0x00, 0x00, 0x00, 0x01, 0x00, 0x00, 0x00,
  0xe6, 0xca, 0x85, 0x3d, 0x01, 0x00, 0x00, 0x00, 0x80, 0xff, 0xff, 0xff,
  0xff, 0xff, 0xff, 0xff, 0x00, 0x00, 0x00, 0x00, 0xca, 0xfd, 0xff, 0xff,
  0x00, 0x00, 0x00, 0x01, 0x01, 0x00, 0x00, 0x00, 0x24, 0x00, 0x00, 0x00,
  0x18, 0x00, 0x00, 0x00, 0x04, 0x00, 0x00, 0x00, 0xbc, 0xfd, 0xff, 0xff,
  0x01, 0x00, 0x00, 0x00, 0x01, 0x00, 0x00, 0x00, 0x00, 0x00, 0x01, 0x01,
  0x01, 0x00, 0x00, 0x00, 0x0d, 0x00, 0x00, 0x00, 0x03, 0x00, 0x00, 0x00,
  0x0c, 0x00, 0x00, 0x00, 0x04, 0x00, 0x00, 0x00, 0x05, 0x00, 0x00, 0x00,
  0x68, 0xfc, 0xff, 0xff, 0x00, 0x00, 0x00, 0x09, 0x14, 0x00, 0x00, 0x00,
  0x0e, 0x00, 0x00, 0x00, 0x34, 0x00, 0x00, 0x00, 0xc0, 0x00, 0x00, 0x00,
  0x18, 0x00, 0x00, 0x00, 0x04, 0x00, 0x00, 0x00, 0x01, 0x00, 0x00, 0x00,
  0x06, 0x00, 0x00, 0x00, 0x02, 0x00, 0x00, 0x00, 0x20, 0x00, 0x00, 0x00,
  0x04, 0x00, 0x00, 0x00, 0xff, 0xff, 0xff, 0xff, 0x06, 0x00, 0x00, 0x00,
  0x02, 0x00, 0x00, 0x00, 0x20, 0x00, 0x00, 0x00, 0x8b, 0x00, 0x00, 0x00,
  0x73, 0x65, 0x71, 0x75, 0x65, 0x6e, 0x74, 0x69, 0x61, 0x6c, 0x5f, 0x31,
  0x2f, 0x63, 0x6f, 0x6e, 0x76, 0x32, 0x64, 0x5f, 0x34, 0x2f, 0x52, 0x65,
  0x6c, 0x75, 0x3b, 0x73, 0x65, 0x71, 0x75, 0x65, 0x6e, 0x74, 0x69, 0x61,
  0x6c, 0x5f, 0x31, 0x2f, 0x63, 0x6f, 0x6e, 0x76, 0x32, 0x64, 0x5f, 0x34,
  0x2f, 0x42, 0x69, 0x61, 0x73, 0x41, 0x64, 0x64, 0x3b, 0x73, 0x65, 0x71,
  0x75, 0x65, 0x6e, 0x74, 0x69, 0x61, 0x6c, 0x5f, 0x31, 0x2f, 0x63, 0x6f,
  0x6e, 0x76, 0x32, 0x64, 0x5f, 0x34, 0x2f, 0x43, 0x6f, 0x6e, 0x76, 0x32,
  0x44, 0x3b, 0x73, 0x65, 0x71, 0x75, 0x65, 0x6e, 0x74, 0x69, 0x61, 0x6c,
  0x5f, 0x31, 0x2f, 0x63, 0x6f, 0x6e, 0x76, 0x32, 0x64, 0x5f, 0x34, 0x2f,
  0x42, 0x69, 0x61, 0x73, 0x41, 0x64, 0x64, 0x2f, 0x52, 0x65, 0x61, 0x64,
  0x56, 0x61, 0x72, 0x69, 0x61, 0x62, 0x6c, 0x65, 0x4f, 0x70, 0x2f, 0x72,
  0x65, 0x73, 0x6f, 0x75, 0x72, 0x63, 0x65, 0x00, 0xb8, 0xd8, 0xff, 0xff,
  0x08, 0x00, 0x00, 0x00, 0x0c, 0x00, 0x00, 0x00, 0x01, 0x00, 0x00, 0x00,
  0xe6, 0xca, 0x85, 0x3d, 0x01, 0x00, 0x00, 0x00, 0x80, 0xff, 0xff, 0xff,
  0xff, 0xff, 0xff, 0xff, 0x00, 0x00, 0x0e, 0x00, 0x1a, 0x00, 0x08, 0x00,
  0x0c, 0x00, 0x10, 0x00, 0x07, 0x00, 0x14, 0x00, 0x0e, 0x00, 0x00, 0x00,
  0x00, 0x00, 0x00, 0x05, 0x02, 0x00, 0x00, 0x00, 0x3c, 0x00, 0x00, 0x00,
  0x30, 0x00, 0x00, 0x00, 0x14, 0x00, 0x00, 0x00, 0x00, 0x00, 0x0e, 0x00,
  0x18, 0x00, 0x17, 0x00, 0x10, 0x00, 0x0c, 0x00, 0x08, 0x00, 0x04, 0x00,
  0x0e, 0x00, 0x00, 0x00, 0x03, 0x00, 0x00, 0x00, 0x01, 0x00, 0x00, 0x00,
  0x03, 0x00, 0x00, 0x00, 0x01, 0x00, 0x00, 0x00, 0x00, 0x00, 0x00, 0x01,
  0x01, 0x00, 0x00, 0x00, 0x0c, 0x00, 0x00, 0x00, 0x01, 0x00, 0x00, 0x00,
  0x0b, 0x00, 0x00, 0x00, 0xd8, 0xfd, 0xff, 0xff, 0x11, 0x00, 0x00, 0x00,
  0x00, 0x00, 0x00, 0x11, 0x02, 0x00, 0x00, 0x00, 0xcc, 0xfd, 0xff, 0xff,
  0x00, 0x00, 0x00, 0x09, 0x14, 0x00, 0x00, 0x00, 0x0d, 0x00, 0x00, 0x00,
  0x34, 0x00, 0x00, 0x00, 0x5c, 0x00, 0x00, 0x00, 0x18, 0x00, 0x00, 0x00,
  0x04, 0x00, 0x00, 0x00, 0x01, 0x00, 0x00, 0x00, 0x07, 0x00, 0x00, 0x00,
  0x02, 0x00, 0x00, 0x00, 0x40, 0x00, 0x00, 0x00, 0x04, 0x00, 0x00, 0x00,
  0xff, 0xff, 0xff, 0xff, 0x07, 0x00, 0x00, 0x00, 0x02, 0x00, 0x00, 0x00,
  0x40, 0x00, 0x00, 0x00, 0x24, 0x00, 0x00, 0x00, 0x73, 0x65, 0x71, 0x75,
  0x65, 0x6e, 0x74, 0x69, 0x61, 0x6c, 0x5f, 0x31, 0x2f, 0x6d, 0x61, 0x78,
  0x5f, 0x70, 0x6f, 0x6f, 0x6c, 0x69, 0x6e, 0x67, 0x32, 0x64, 0x5f, 0x33,
  0x2f, 0x4d, 0x61, 0x78, 0x50, 0x6f, 0x6f, 0x6c, 0x00, 0x00, 0x00, 0x00,
  0xb8, 0xd9, 0xff, 0xff, 0x08, 0x00, 0x00, 0x00, 0x0c, 0x00, 0x00, 0x00,
  0x01, 0x00, 0x00, 0x00, 0xa8, 0x67, 0x04, 0x3e, 0x01, 0x00, 0x00, 0x00,
  0x80, 0xff, 0xff, 0xff, 0xff, 0xff, 0xff, 0xff, 0x00, 0x00, 0x0e, 0x00,
  0x18, 0x00, 0x08, 0x00, 0x0c, 0x00, 0x10, 0x00, 0x07, 0x00, 0x14, 0x00,
  0x0e, 0x00, 0x00, 0x00, 0x00, 0x00, 0x00, 0x01, 0x01, 0x00, 0x00, 0x00,
  0x30, 0x00, 0x00, 0x00, 0x24, 0x00, 0x00, 0x00, 0x10, 0x00, 0x00, 0x00,
  0x0c, 0x00, 0x10, 0x00, 0x0e, 0x00, 0x04, 0x00, 0x08, 0x00, 0x0f, 0x00,
  0x0c, 0x00, 0x00, 0x00, 0x01, 0x00, 0x00, 0x00, 0x01, 0x00, 0x00, 0x00,
  0x00, 0x00, 0x01, 0x01, 0x01, 0x00, 0x00, 0x00, 0x0b, 0x00, 0x00, 0x00,
  0x03, 0x00, 0x00, 0x00, 0x0a, 0x00, 0x00, 0x00, 0x02, 0x00, 0x00, 0x00,
  0x03, 0x00, 0x00, 0x00, 0xd4, 0xfe, 0xff, 0xff, 0x03, 0x00, 0x00, 0x00,
  0x00, 0x00, 0x00, 0x03, 0x03, 0x00, 0x00, 0x00, 0xc8, 0xfe, 0xff, 0xff,
  0x00, 0x00, 0x00, 0x09, 0x14, 0x00, 0x00, 0x00, 0x0c, 0x00, 0x00, 0x00,
  0x34, 0x00, 0x00, 0x00, 0xc0, 0x00, 0x00, 0x00, 0x18, 0x00, 0x00, 0x00,
  0x04, 0x00, 0x00, 0x00, 0x01, 0x00, 0x00, 0x00, 0x15, 0x00, 0x00, 0x00,
  0x02, 0x00, 0x00, 0x00, 0x40, 0x00, 0x00, 0x00, 0x04, 0x00, 0x00, 0x00,
  0xff, 0xff, 0xff, 0xff, 0x15, 0x00, 0x00, 0x00, 0x02, 0x00, 0x00, 0x00,
  0x40, 0x00, 0x00, 0x00, 0x8b, 0x00, 0x00, 0x00, 0x73, 0x65, 0x71, 0x75,
  0x65, 0x6e, 0x74, 0x69, 0x61, 0x6c, 0x5f, 0x31, 0x2f, 0x63, 0x6f, 0x6e,
  0x76, 0x32, 0x64, 0x5f, 0x33, 0x2f, 0x52, 0x65, 0x6c, 0x75, 0x3b, 0x73,
  0x65, 0x71, 0x75, 0x65, 0x6e, 0x74, 0x69, 0x61, 0x6c, 0x5f, 0x31, 0x2f,
  0x63, 0x6f, 0x6e, 0x76, 0x32, 0x64, 0x5f, 0x33, 0x2f, 0x42, 0x69, 0x61,
  0x73, 0x41, 0x64, 0x64, 0x3b, 0x73, 0x65, 0x71, 0x75, 0x65, 0x6e, 0x74,
  0x69, 0x61, 0x6c, 0x5f, 0x31, 0x2f, 0x63, 0x6f, 0x6e, 0x76, 0x32, 0x64,
  0x5f, 0x33, 0x2f, 0x43, 0x6f, 0x6e, 0x76, 0x32, 0x44, 0x3b, 0x73, 0x65,
  0x71, 0x75, 0x65, 0x6e, 0x74, 0x69, 0x61, 0x6c, 0x5f, 0x31, 0x2f, 0x63,
  0x6f, 0x6e, 0x76, 0x32, 0x64, 0x5f, 0x33, 0x2f, 0x42, 0x69, 0x61, 0x73,
  0x41, 0x64, 0x64, 0x2f, 0x52, 0x65, 0x61, 0x64, 0x56, 0x61, 0x72, 0x69,
  0x61, 0x62, 0x6c, 0x65, 0x4f, 0x70, 0x2f, 0x72, 0x65, 0x73, 0x6f, 0x75,
  0x72, 0x63, 0x65, 0x00, 0x18, 0xdb, 0xff, 0xff, 0x08, 0x00, 0x00, 0x00,
  0x0c, 0x00, 0x00, 0x00, 0x01, 0x00, 0x00, 0x00, 0xa8, 0x67, 0x04, 0x3e,
  0x01, 0x00, 0x00, 0x00, 0x80, 0xff, 0xff, 0xff, 0xff, 0xff, 0xff, 0xff,
  0x00, 0x00, 0x0a, 0x00, 0x0c, 0x00, 0x00, 0x00, 0x04, 0x00, 0x08, 0x00,
  0x0a, 0x00, 0x00, 0x00, 0x10, 0x00, 0x00, 0x00, 0x04, 0x00, 0x00, 0x00,
  0x01, 0x00, 0x00, 0x00, 0x0a, 0x00, 0x00, 0x00, 0x01, 0x00, 0x00, 0x00,
  0x00, 0x00, 0x00, 0x00, 0x0c, 0x00, 0x10, 0x00, 0x0b, 0x00, 0x00, 0x00,
  0x0c, 0x00, 0x04, 0x00, 0x0c, 0x00, 0x00, 0x00, 0x72, 0x00, 0x00, 0x00,
  0x00, 0x00, 0x00, 0x72, 0x01, 0x00, 0x00, 0x00, 0x14, 0x00, 0x1c, 0x00,
  0x08, 0x00, 0x07, 0x00, 0x0c, 0x00, 0x10, 0x00, 0x14, 0x00, 0x00, 0x00,
  0x00, 0x00, 0x18, 0x00, 0x14, 0x00, 0x00, 0x00, 0x00, 0x00, 0x00, 0x09,
  0x14, 0x00, 0x00, 0x00, 0x0b, 0x00, 0x00, 0x00, 0x34, 0x00, 0x00, 0x00,
  0x44, 0x00, 0x00, 0x00, 0x18, 0x00, 0x00, 0x00, 0x04, 0x00, 0x00, 0x00,
  0x01, 0x00, 0x00, 0x00, 0x18, 0x00, 0x00, 0x00, 0x03, 0x00, 0x00, 0x00,
  0x01, 0x00, 0x00, 0x00, 0x04, 0x00, 0x00, 0x00, 0xff, 0xff, 0xff, 0xff,
  0x18, 0x00, 0x00, 0x00, 0x03, 0x00, 0x00, 0x00, 0x01, 0x00, 0x00, 0x00,
  0x0c, 0x00, 0x00, 0x00, 0x74, 0x66, 0x6c, 0x2e, 0x71, 0x75, 0x61, 0x6e,
  0x74, 0x69, 0x7a, 0x65, 0x00, 0x00, 0x00, 0x00, 0xe8, 0xdb, 0xff, 0xff,
  0x08, 0x00, 0x00, 0x00, 0x0c, 0x00, 0x00, 0x00, 0x01, 0x00, 0x00, 0x00,
  0xb4, 0x4c, 0x19, 0x3f, 0x01, 0x00, 0x00, 0x00, 0x26, 0x00, 0x00, 0x00,
  0x00, 0x00, 0x00, 0x00, 0x00, 0x00, 0x00, 0x00, 0xea, 0xd8, 0xff, 0xff,
  0x04, 0x00, 0x00, 0x00, 0x1c, 0x00, 0x00, 0x00, 0xee, 0x01, 0x00, 0x00,
  0x67, 0xf9, 0xff, 0xff, 0xef, 0xfe, 0xff, 0xff, 0x05, 0xf6, 0xff, 0xff,
  0x11, 0x05, 0x00, 0x00, 0x18, 0x04, 0x00, 0x00, 0xd5, 0xf5, 0xff, 0xff,
  0xf6, 0xd8, 0xff, 0xff, 0x00, 0x00, 0x00, 0x02, 0x10, 0x00, 0x00, 0x00,
  0x0a, 0x00, 0x00, 0x00, 0x10, 0x00, 0x00, 0x00, 0x48, 0x00, 0x00, 0x00,
  0x01, 0x00, 0x00, 0x00, 0x07, 0x00, 0x00, 0x00, 0x34, 0x00, 0x00, 0x00,
  0x73, 0x65, 0x71, 0x75, 0x65, 0x6e, 0x74, 0x69, 0x61, 0x6c, 0x5f, 0x31,
  0x2f, 0x64, 0x65, 0x6e, 0x73, 0x65, 0x5f, 0x31, 0x2f, 0x42, 0x69, 0x61,
  0x73, 0x41, 0x64, 0x64, 0x2f, 0x52, 0x65, 0x61, 0x64, 0x56, 0x61, 0x72,
  0x69, 0x61, 0x62, 0x6c, 0x65, 0x4f, 0x70, 0x2f, 0x72, 0x65, 0x73, 0x6f,
  0x75, 0x72, 0x63, 0x65, 0x00, 0x00, 0x00, 0x00, 0x90, 0xdc, 0xff, 0xff,
  0x08, 0x00, 0x00, 0x00, 0x0c, 0x00, 0x00, 0x00, 0x01, 0x00, 0x00, 0x00,
  0xf5, 0x06, 0x4c, 0x39, 0x01, 0x00, 0x00, 0x00, 0x00, 0x00, 0x00, 0x00,
  0x00, 0x00, 0x00, 0x00, 0x8e, 0xd9, 0xff, 0xff, 0x04, 0x00, 0x00, 0x00,
  0xe0, 0x00, 0x00, 0x00, 0xf9, 0xee, 0xa6, 0xef, 0x26, 0xdc, 0x0d, 0xdb,
  0xf3, 0xec, 0x0d, 0x2c, 0xdc, 0xf2, 0xef, 0xc9, 0xe1, 0x0d, 0xc4, 0x2c,
  0x2e, 0xd5, 0x0c, 0xd1, 0x03, 0x03, 0xc8, 0x3c, 0xd1, 0x0b, 0xd8, 0xeb,
  0xcb, 0xbc, 0x25, 0x26, 0xd4, 0x12, 0x03, 0xfb, 0x0e, 0xd7, 0xfd, 0xf7,
  0x34, 0xd6, 0xf3, 0xe1, 0xf1, 0xc6, 0x33, 0xe8, 0xd7, 0xfd, 0xe0, 0xeb,
  0xe0, 0xf2, 0xe8, 0xd1, 0xf9, 0xfd, 0xcd, 0x1c, 0xd8, 0xd3, 0xf3, 0xf4,
  0xec, 0x02, 0x1f, 0xfd, 0xde, 0xc2, 0xed, 0x2b, 0x0f, 0xc8, 0x0f, 0xff,
  0x0b, 0xba, 0x1d, 0xf8, 0xf7, 0xdb, 0xd0, 0x18, 0x1e, 0xe0, 0x19, 0x24,
  0xf3, 0xe1, 0x21, 0xe3, 0xb4, 0x1f, 0xd2, 0x27, 0x13, 0x2b, 0x08, 0xf3,
  0x07, 0xfd, 0xef, 0xd4, 0xe4, 0x3b, 0xca, 0x00, 0xb5, 0xf0, 0x05, 0x0a,
  0x3b, 0x38, 0xce, 0x18, 0x07, 0xb7, 0xf5, 0xfd, 0x10, 0xc8, 0xd4, 0x34,
  0x35, 0x14, 0xc5, 0xf0, 0xf2, 0xf9, 0x0b, 0xec, 0xe2, 0x34, 0xff, 0x01,
  0xce, 0xc7, 0xea, 0xf9, 0x3e, 0x1d, 0xb7, 0xf0, 0xf6, 0xfc, 0xe8, 0xd7,
  0xe2, 0x2f, 0x8a, 0x09, 0xf2, 0x24, 0x15, 0x24, 0x04, 0x13, 0xf1, 0x07,
  0xf5, 0xc9, 0xa6, 0xff, 0xf9, 0x35, 0xe5, 0xe4, 0xeb, 0x32, 0xcd, 0xc4,
  0x0e, 0xcc, 0xf8, 0x0a, 0x30, 0xcc, 0x81, 0x16, 0xee, 0x4e, 0x2a, 0xd6,
  0xac, 0x14, 0xb3, 0x0f, 0xe0, 0xab, 0xe4, 0xc4, 0xd5, 0x1b, 0x34, 0xe7,
  0x0e, 0x07, 0x00, 0x13, 0xe3, 0x3a, 0x1e, 0xe5, 0x18, 0xc3, 0x29, 0xc6,
  0x0b, 0x2e, 0x19, 0xe4, 0x15, 0xbb, 0xe1, 0xf5, 0xcc, 0x2f, 0x14, 0x0a,
  0x5e, 0xda, 0xff, 0xff, 0x00, 0x00, 0x00, 0x09, 0x10, 0x00, 0x00, 0x00,
  0x09, 0x00, 0x00, 0x00, 0x14, 0x00, 0x00, 0x00, 0x30, 0x00, 0x00, 0x00,
  0x02, 0x00, 0x00, 0x00, 0x07, 0x00, 0x00, 0x00, 0x20, 0x00, 0x00, 0x00,
  0x1b, 0x00, 0x00, 0x00, 0x73, 0x65, 0x71, 0x75, 0x65, 0x6e, 0x74, 0x69,
  0x61, 0x6c, 0x5f, 0x31, 0x2f, 0x64, 0x65, 0x6e, 0x73, 0x65, 0x5f, 0x31,
  0x2f, 0x4d, 0x61, 0x74, 0x4d, 0x75, 0x6c, 0x00, 0xe0, 0xdd, 0xff, 0xff,
  0x08, 0x00, 0x00, 0x00, 0x0c, 0x00, 0x00, 0x00, 0x01, 0x00, 0x00, 0x00,
  0x66, 0xe2, 0xc3, 0x3b, 0x01, 0x00, 0x00, 0x00, 0x00, 0x00, 0x00, 0x00,
  0x00, 0x00, 0x00, 0x00, 0x00, 0x00, 0x00, 0x00, 0xe2, 0xda, 0xff, 0xff,
  0x04, 0x00, 0x00, 0x00, 0x40, 0x00, 0x00, 0x00, 0x14, 0x08, 0x00, 0x00,
  0x88, 0x05, 0x00, 0x00, 0x6d, 0xfc, 0xff, 0xff, 0x4c, 0xfe, 0xff, 0xff,
  0x0f, 0x02, 0x00, 0x00, 0xba, 0xf8, 0xff, 0xff, 0xa7, 0xff, 0xff, 0xff,
  0xee, 0x03, 0x00, 0x00, 0x99, 0xfb, 0xff, 0xff, 0x07, 0x0b, 0x00, 0x00,
  0xd0, 0x01, 0x00, 0x00, 0x0d, 0x01, 0x00, 0x00, 0xfc, 0xfe, 0xff, 0xff,
  0xff, 0xfc, 0xff, 0xff, 0xc3, 0xfa, 0xff, 0xff, 0x09, 0x04, 0x00, 0x00,
  0x12, 0xdb, 0xff, 0xff, 0x00, 0x00, 0x00, 0x02, 0x10, 0x00, 0x00, 0x00,
  0x08, 0x00, 0x00, 0x00, 0x10, 0x00, 0x00, 0x00, 0x48, 0x00, 0x00, 0x00,
  0x01, 0x00, 0x00, 0x00, 0x10, 0x00, 0x00, 0x00, 0x35, 0x00, 0x00, 0x00,
  0x73, 0x65, 0x71, 0x75, 0x65, 0x6e, 0x74, 0x69, 0x61, 0x6c, 0x5f, 0x31,
  0x2f, 0x63, 0x6f, 0x6e, 0x76, 0x32, 0x64, 0x5f, 0x35, 0x2f, 0x42, 0x69,
  0x61, 0x73, 0x41, 0x64, 0x64, 0x2f, 0x52, 0x65, 0x61, 0x64, 0x56, 0x61,
  0x72, 0x69, 0x61, 0x62, 0x6c, 0x65, 0x4f, 0x70, 0x2f, 0x72, 0x65, 0x73,
  0x6f, 0x75, 0x72, 0x63, 0x65, 0x00, 0x00, 0x00, 0xac, 0xde, 0xff, 0xff,
  0x08, 0x00, 0x00, 0x00, 0x48, 0x00, 0x00, 0x00, 0x10, 0x00, 0x00, 0x00,
  0x34, 0x7e, 0x1d, 0x39, 0x0f, 0x71, 0x8c, 0x39, 0xce, 0x3d, 0x11, 0x39,
  0x05, 0x8a, 0x16, 0x39, 0xe2, 0x06, 0x3a, 0x39, 0x56, 0xc2, 0x0e, 0x39,
  0xe1, 0x28, 0x5d, 0x39, 0x58, 0x81, 0x1b, 0x39, 0x1e, 0x25, 0x20, 0x39,
  0xc8, 0x0d, 0x34, 0x39, 0x63, 0x76, 0x5d, 0x39, 0x5a, 0xd4, 0x4b, 0x39,
  0x4a, 0xb2, 0x3d, 0x39, 0x8b, 0x91, 0x18, 0x39, 0x91, 0xcc, 0x27, 0x39,
  0xf3, 0x36, 0x0a, 0x39, 0x10, 0x00, 0x00, 0x00, 0x00, 0x00, 0x00, 0x00,
  0x00, 0x00, 0x00, 0x00, 0x00, 0x00, 0x00, 0x00, 0x00, 0x00, 0x00, 0x00,
  0x00, 0x00, 0x00, 0x00, 0x00, 0x00, 0x00, 0x00, 0x00, 0x00, 0x00, 0x00,
  0x00, 0x00, 0x00, 0x00, 0x00, 0x00, 0x00, 0x00, 0x00, 0x00, 0x00, 0x00,
  0x00, 0x00, 0x00, 0x00, 0x00, 0x00, 0x00, 0x00, 0x00, 0x00, 0x00, 0x00,
  0x00, 0x00, 0x00, 0x00, 0x00, 0x00, 0x00, 0x00, 0x00, 0x00, 0x00, 0x00,
  0x00, 0x00, 0x00, 0x00, 0x00, 0x00, 0x00, 0x00, 0x00, 0x00, 0x00, 0x00,
  0x00, 0x00, 0x00, 0x00, 0x00, 0x00, 0x00, 0x00, 0x00, 0x00, 0x00, 0x00,
  0x00, 0x00, 0x00, 0x00, 0x00, 0x00, 0x00, 0x00, 0x00, 0x00, 0x00, 0x00,
  0x00, 0x00, 0x00, 0x00, 0x00, 0x00, 0x00, 0x00, 0x00, 0x00, 0x00, 0x00,
  0x00, 0x00, 0x00, 0x00, 0x00, 0x00, 0x00, 0x00, 0x00, 0x00, 0x00, 0x00,
  0x00, 0x00, 0x00, 0x00, 0x5e, 0xdc, 0xff, 0xff, 0x04, 0x00, 0x00, 0x00,
  0x00, 0x04, 0x00, 0x00, 0xc5, 0x45, 0x70, 0x41, 0xe5, 0xe3, 0x65, 0xf4,
  0xfd, 0xfa, 0x1d, 0x19, 0x1b, 0xdf, 0x49, 0xd2, 0x66, 0x14, 0x0d, 0xc1,
  0xe8, 0xed, 0xab, 0xe1, 0xb2, 0xb4, 0x1f, 0xc2, 0x0f, 0x1b, 0x92, 0x9a,
  0x09, 0xe7, 0x7f, 0xfd, 0x1d, 0xeb, 0xdd, 0xb3, 0x68, 0x96, 0x9a, 0x9d,
  0x9f, 0x4b, 0xd7, 0xec, 0x73, 0xd0, 0xff, 0xd4, 0x40, 0xa7, 0x55, 0xc9,
  0x82, 0x81, 0xf2, 0x4b, 0xcb, 0xd2, 0x10, 0x32, 0x28, 0x0c, 0x7f, 0x2b,
  0xde, 0x2f, 0x32, 0x1e, 0x0a, 0x35, 0x01, 0x14, 0xdb, 0x1e, 0x0c, 0xa7,
  0x38, 0x12, 0xe4, 0xdc, 0xfd, 0xcd, 0xcb, 0x34, 0x24, 0x16, 0x12, 0x32,
  0x27, 0x06, 0x13, 0xed, 0x1b, 0xfe, 0x74, 0x13, 0xca, 0xdd, 0x14, 0x1a,
  0x09, 0x06, 0xe9, 0xfd, 0x0a, 0xf3, 0xf6, 0xe1, 0x4b, 0x40, 0xee, 0xd3,
  0xe2, 0xc7, 0x35, 0xcc, 0x08, 0xe5, 0x13, 0x19, 0x1b, 0xdf, 0x06, 0xe3,
  0x4e, 0xaa, 0x07, 0xce, 0x3c, 0x39, 0x1e, 0x23, 0x88, 0x31, 0xf0, 0x26,
  0x09, 0x29, 0xf1, 0xed, 0xdd, 0xf1, 0xf9, 0xa7, 0xdb, 0x07, 0x4f, 0x50,
  0x4e, 0x8c, 0xd0, 0xd1, 0xcd, 0x21, 0xba, 0x33, 0x97, 0xf1, 0xc0, 0xa2,
  0xe4, 0x42, 0x74, 0x0d, 0xaa, 0x4d, 0xd7, 0x4d, 0x5c, 0x37, 0xd5, 0xf0,
  0x59, 0xdf, 0x1f, 0xa7, 0xeb, 0x12, 0x91, 0x6e, 0x7f, 0x2b, 0xc5, 0x54,
  0x84, 0x12, 0xe9, 0x21, 0x5c, 0x2e, 0xac, 0xfd, 0x77, 0x0d, 0x59, 0x10,
  0x3d, 0x45, 0xe8, 0x31, 0x9c, 0xef, 0xd8, 0x49, 0xa8, 0x35, 0xab, 0xfb,
  0x3a, 0x9c, 0xf9, 0xf5, 0x1d, 0xf2, 0xf2, 0xf9, 0xf3, 0xd4, 0xd3, 0x81,
  0x01, 0xd2, 0xf3, 0xdf, 0xe6, 0x28, 0x28, 0xe0, 0x3e, 0x32, 0xa9, 0xfd,
  0x66, 0x99, 0x8d, 0x4f, 0x37, 0xdb, 0x89, 0x9e, 0xcb, 0x0e, 0xe1, 0xf6,
  0xa8, 0xd3, 0xfd, 0x14, 0x9b, 0x0d, 0x23, 0xed, 0x3c, 0xec, 0xf4, 0xdd,
  0xe0, 0xc8, 0xd8, 0xe8, 0x0f, 0x03, 0xd5, 0xe3, 0xab, 0xdf, 0xd6, 0xab,
  0xdc, 0x02, 0x06, 0x01, 0xe8, 0xd2, 0xa8, 0x4f, 0x29, 0x13, 0x23, 0xdf,
  0xf3, 0xc8, 0xdd, 0xc9, 0xe3, 0x06, 0xcd, 0xd5, 0xeb, 0xc2, 0xf2, 0x31,
  0xb7, 0xc7, 0xc0, 0x93, 0xb3, 0x41, 0xce, 0x27, 0xf4, 0x65, 0x7f, 0x58,
  0xd8, 0xc4, 0xbd, 0xe8, 0x27, 0x44, 0xc4, 0x1e, 0x5d, 0x07, 0x0c, 0x02,
  0xdc, 0xc4, 0xf8, 0xe7, 0xbd, 0x87, 0x8e, 0x2a, 0x50, 0x22, 0xc7, 0x40,
  0x66, 0x24, 0xfc, 0xfb, 0x7b, 0xd2, 0xe4, 0x0d, 0x65, 0xf8, 0xaf, 0x5a,
  0xa6, 0x04, 0xe2, 0x23, 0xe8, 0x26, 0xdd, 0x21, 0x51, 0x9d, 0x1c, 0xb7,
  0x9a, 0xc5, 0x1d, 0x3d, 0xf7, 0x0e, 0x3f, 0x2e, 0x9d, 0x57, 0xe8, 0x0c,
  0x5f, 0xb5, 0x04, 0x16, 0x4c, 0xdb, 0x18, 0x6a, 0x81, 0x45, 0x28, 0x03,
  0x33, 0xcf, 0xee, 0x03, 0xf5, 0x2c, 0x7f, 0xf3, 0x1c, 0x1a, 0xd8, 0x26,
  0xeb, 0x08, 0x4f, 0x1f, 0x1f, 0xe2, 0xce, 0xcb, 0x3a, 0x2b, 0xdf, 0x14,
  0x48, 0x01, 0x1f, 0xcc, 0xc5, 0x40, 0x1b, 0x06, 0xc5, 0xc7, 0xd0, 0xf6,
  0xe8, 0xd7, 0x10, 0xd8, 0x14, 0xd9, 0xc1, 0x1a, 0x2b, 0x21, 0x34, 0x38,
  0x28, 0xb2, 0xee, 0x07, 0x36, 0x54, 0xdc, 0x1b, 0x4f, 0xf2, 0x43, 0x14,
  0xc3, 0x3e, 0x19, 0xe4, 0xbb, 0xd0, 0xb2, 0xf9, 0xbb, 0xd9, 0x97, 0x7f,
  0x17, 0xcf, 0x10, 0x94, 0xf1, 0x30, 0xfe, 0xc0, 0xf0, 0xde, 0x69, 0xf5,
  0xd5, 0xe5, 0xb6, 0xf9, 0x17, 0x53, 0xa0, 0xeb, 0xff, 0xd5, 0xc1, 0xf6,
  0xa4, 0x3d, 0x69, 0x00, 0x3e, 0xc5, 0xdf, 0x63, 0x66, 0x10, 0xa1, 0xcc,
  0x53, 0x57, 0x49, 0x92, 0x33, 0xd9, 0x42, 0xc0, 0x93, 0xca, 0x18, 0xd7,
  0xf3, 0xf1, 0x1d, 0x42, 0x1e, 0xaa, 0xff, 0x32, 0x74, 0x03, 0x33, 0x16,
  0xe8, 0x01, 0x81, 0x42, 0x4f, 0xa7, 0xa7, 0xa8, 0xbb, 0x08, 0x0c, 0xc6,
  0xc6, 0x1d, 0xf5, 0x86, 0xfc, 0xac, 0xdd, 0x10, 0xe8, 0xd8, 0xed, 0x92,
  0x32, 0xbb, 0x98, 0xa8, 0xca, 0x97, 0xa6, 0xa8, 0xb0, 0x34, 0xe6, 0xcf,
  0x2a, 0xb5, 0xa7, 0x9d, 0x2b, 0x5f, 0xa4, 0xad, 0x2c, 0xb3, 0xd3, 0xe4,
  0x27, 0x90, 0x14, 0xd4, 0x3b, 0x1f, 0x28, 0x4c, 0x4c, 0xd0, 0xe5, 0xa3,
  0x2e, 0xb5, 0x64, 0x93, 0xc5, 0xec, 0x58, 0x55, 0x51, 0x28, 0x60, 0xd0,
  0x46, 0x47, 0x32, 0xf6, 0xd5, 0x1f, 0xd5, 0x1a, 0xe6, 0x0f, 0x44, 0xb2,
  0xb8, 0x0b, 0x9e, 0x27, 0xa4, 0xd3, 0x35, 0xe4, 0xb7, 0x09, 0xe3, 0xdf,
  0xc5, 0x32, 0xde, 0x7f, 0x3f, 0xcb, 0x24, 0xb4, 0xd0, 0xf4, 0xf2, 0x31,
  0xc0, 0x18, 0xb2, 0x13, 0x5b, 0xf6, 0x1c, 0xb9, 0x18, 0xd0, 0xe9, 0xea,
  0x0b, 0xfd, 0x3c, 0xf4, 0xdd, 0xb7, 0xb0, 0xd5, 0x16, 0x0c, 0x81, 0x4e,
  0xd9, 0xe8, 0x04, 0xd3, 0xc4, 0x0f, 0xc4, 0x0a, 0xb4, 0xeb, 0xe7, 0x54,
  0x0b, 0xc0, 0x25, 0x02, 0xce, 0x01, 0x39, 0x23, 0xce, 0x02, 0xb5, 0x07,
  0xcd, 0x26, 0xb4, 0xc7, 0x3d, 0xa9, 0xfb, 0x07, 0x06, 0xef, 0x0f, 0xf1,
  0x19, 0x0b, 0xbb, 0xb3, 0xb3, 0x03, 0xe7, 0xf5, 0x23, 0xed, 0x32, 0x19,
  0xc0, 0x0e, 0xbd, 0xec, 0x23, 0x02, 0xf2, 0xc2, 0x00, 0xcb, 0x10, 0x29,
  0xf0, 0x30, 0x7f, 0x04, 0x12, 0xed, 0xea, 0xd9, 0xd4, 0xe0, 0xc6, 0xad,
  0xcb, 0xe1, 0x59, 0xf6, 0xc8, 0x32, 0x0d, 0x31, 0xe6, 0xf8, 0x39, 0x43,
  0xe2, 0x9c, 0x36, 0x41, 0xf3, 0x2a, 0x01, 0xf9, 0xea, 0x44, 0x01, 0xd5,
  0x4b, 0x43, 0xc2, 0xf0, 0xc4, 0xb4, 0xf4, 0x04, 0x09, 0x2a, 0x2b, 0xd2,
  0xc9, 0x4c, 0xdc, 0x49, 0xcb, 0x11, 0xde, 0x45, 0xf9, 0x04, 0x05, 0xb5,
  0x97, 0x3e, 0x38, 0xef, 0x0a, 0x3b, 0x5b, 0xee, 0x0b, 0x1b, 0xf0, 0xf0,
  0x13, 0x32, 0xea, 0xff, 0x1a, 0x52, 0xb9, 0xae, 0x01, 0x8f, 0xe3, 0x00,
  0xce, 0x1e, 0x4f, 0xd0, 0x4a, 0x10, 0xf7, 0x4a, 0xf8, 0xdb, 0xe8, 0x03,
  0x48, 0x27, 0xe4, 0xd7, 0xbc, 0xeb, 0x42, 0xd7, 0xff, 0xa5, 0xcc, 0x05,
  0xd0, 0xd4, 0x1e, 0x81, 0xf4, 0xff, 0xca, 0xce, 0xb8, 0xff, 0xe4, 0x05,
  0x5e, 0xa2, 0xd9, 0xc6, 0x3f, 0xba, 0xec, 0x33, 0x66, 0x24, 0xe6, 0xe4,
  0x4f, 0x1d, 0x00, 0x8a, 0x40, 0x04, 0x30, 0xbb, 0x29, 0xa3, 0x27, 0xfc,
  0x1d, 0xe8, 0x9e, 0xbf, 0xb5, 0xf7, 0xba, 0xa6, 0x40, 0xc9, 0x91, 0xb1,
  0x38, 0xa0, 0x11, 0xce, 0x56, 0x17, 0x0a, 0xa4, 0x59, 0x36, 0xc8, 0xf7,
  0xbb, 0x99, 0x27, 0xfe, 0x1a, 0x37, 0xb5, 0x0a, 0x8f, 0xa3, 0xef, 0x3e,
  0xef, 0xb1, 0x04, 0x2a, 0x06, 0x27, 0xab, 0x22, 0xe7, 0xab, 0x1d, 0x81,
  0x3e, 0xa0, 0xe4, 0x19, 0x23, 0xd8, 0x21, 0xda, 0x19, 0xf3, 0x43, 0xef,
  0x01, 0xb4, 0x45, 0xb3, 0xf7, 0xf0, 0xb1, 0x34, 0x54, 0xf9, 0xc8, 0xf0,
  0xe4, 0x18, 0x6b, 0xb2, 0xa2, 0x1c, 0x2f, 0x14, 0x4e, 0xbd, 0x95, 0x33,
  0x05, 0x27, 0x1d, 0xe7, 0x31, 0x9c, 0x04, 0x17, 0x4f, 0x1a, 0x2c, 0x83,
  0x41, 0xc8, 0x8a, 0x4d, 0x56, 0xf3, 0xa1, 0x17, 0xdc, 0x09, 0xdf, 0x94,
  0x81, 0xc0, 0x54, 0x1b, 0x2a, 0xbe, 0x2f, 0x11, 0x28, 0xde, 0x21, 0x6e,
  0x70, 0x7f, 0xe2, 0xda, 0x70, 0x63, 0x9f, 0x29, 0x31, 0xd4, 0xe4, 0xa4,
  0xa9, 0xa4, 0x1c, 0x05, 0xd6, 0x5f, 0x2b, 0xae, 0x5e, 0x19, 0x02, 0x0d,
  0x20, 0xd2, 0x49, 0x01, 0xe7, 0xd7, 0xb9, 0x51, 0x72, 0x87, 0x01, 0x85,
  0x40, 0x05, 0xec, 0xfc, 0xbc, 0xd2, 0x14, 0xc4, 0x58, 0xeb, 0xd2, 0x59,
  0x8e, 0x26, 0xa2, 0xcb, 0xe6, 0x2f, 0x14, 0xcf, 0x4e, 0xe0, 0xff, 0xff,
  0x00, 0x00, 0x00, 0x09, 0x10, 0x00, 0x00, 0x00, 0x07, 0x00, 0x00, 0x00,
  0x1c, 0x00, 0x00, 0x00, 0x3c, 0x00, 0x00, 0x00, 0x04, 0x00, 0x00, 0x00,
  0x10, 0x00, 0x00, 0x00, 0x02, 0x00, 0x00, 0x00, 0x01, 0x00, 0x00, 0x00,
  0x20, 0x00, 0x00, 0x00, 0x1c, 0x00, 0x00, 0x00, 0x73, 0x65, 0x71, 0x75,
  0x65, 0x6e, 0x74, 0x69, 0x61, 0x6c, 0x5f, 0x31, 0x2f, 0x63, 0x6f, 0x6e,
  0x76, 0x32, 0x64, 0x5f, 0x35, 0x2f, 0x43, 0x6f, 0x6e, 0x76, 0x32, 0x44,
  0x00, 0x00, 0x00, 0x00, 0xdc, 0xe3, 0xff, 0xff, 0x08, 0x00, 0x00, 0x00,
  0x48, 0x00, 0x00, 0x00, 0x10, 0x00, 0x00, 0x00, 0x9f, 0xac, 0x16, 0x3b,
  0x77, 0x5c, 0x86, 0x3b, 0x03, 0xf4, 0x0a, 0x3b, 0x82, 0x05, 0x10, 0x3b,
  0x0b, 0xf9, 0x31, 0x3b, 0x0e, 0x94, 0x08, 0x3b, 0xa4, 0x95, 0x53, 0x3b,
  0xcb, 0xc5, 0x14, 0x3b, 0x24, 0x36, 0x19, 0x3b, 0x25, 0x42, 0x2c, 0x3b,
  0xcb, 0xdf, 0x53, 0x3b, 0x32, 0x01, 0x43, 0x3b, 0xc7, 0x7b, 0x35, 0x3b,
  0x8a, 0xf6, 0x11, 0x3b, 0xc1, 0x88, 0x20, 0x3b, 0x0a, 0x3b, 0x04, 0x3b,
  0x10, 0x00, 0x00, 0x00, 0x00, 0x00, 0x00, 0x00, 0x00, 0x00, 0x00, 0x00,
  0x00, 0x00, 0x00, 0x00, 0x00, 0x00, 0x00, 0x00, 0x00, 0x00, 0x00, 0x00,
  0x00, 0x00, 0x00, 0x00, 0x00, 0x00, 0x00, 0x00, 0x00, 0x00, 0x00, 0x00,
  0x00, 0x00, 0x00, 0x00, 0x00, 0x00, 0x00, 0x00, 0x00, 0x00, 0x00, 0x00,
  0x00, 0x00, 0x00, 0x00, 0x00, 0x00, 0x00, 0x00, 0x00, 0x00, 0x00, 0x00,
  0x00, 0x00, 0x00, 0x00, 0x00, 0x00, 0x00, 0x00, 0x00, 0x00, 0x00, 0x00,
  0x00, 0x00, 0x00, 0x00, 0x00, 0x00, 0x00, 0x00, 0x00, 0x00, 0x00, 0x00,
  0x00, 0x00, 0x00, 0x00, 0x00, 0x00, 0x00, 0x00, 0x00, 0x00, 0x00, 0x00,
  0x00, 0x00, 0x00, 0x00, 0x00, 0x00, 0x00, 0x00, 0x00, 0x00, 0x00, 0x00,
  0x00, 0x00, 0x00, 0x00, 0x00, 0x00, 0x00, 0x00, 0x00, 0x00, 0x00, 0x00,
  0x00, 0x00, 0x00, 0x00, 0x00, 0x00, 0x00, 0x00, 0x00, 0x00, 0x00, 0x00,
  0x00, 0x00, 0x00, 0x00, 0x92, 0xe1, 0xff, 0xff, 0x04, 0x00, 0x00, 0x00,
  0x80, 0x00, 0x00, 0x00, 0xe1, 0xfe, 0xff, 0xff, 0xc0, 0x03, 0x00, 0x00,
  0xd7, 0x05, 0x00, 0x00, 0x7c, 0x08, 0x00, 0x00, 0xd2, 0x00, 0x00, 0x00,
  0xfe, 0xff, 0xff, 0xff, 0x76, 0xff, 0xff, 0xff, 0x12, 0xfe, 0xff, 0xff,
  0xc1, 0x03, 0x00, 0x00, 0x64, 0xff, 0xff, 0xff, 0xe6, 0xfe, 0xff, 0xff,
  0xfc, 0xfd, 0xff, 0xff, 0xe5, 0xfe, 0xff, 0xff, 0x69, 0xff, 0xff, 0xff,
  0x05, 0xff, 0xff, 0xff, 0xc8, 0xff, 0xff, 0xff, 0x57, 0x03, 0x00, 0x00,
  0x55, 0x05, 0x00, 0x00, 0x0f, 0x04, 0x00, 0x00, 0xde, 0xfd, 0xff, 0xff,
  0x97, 0xfe, 0xff, 0xff, 0xc6, 0xfe, 0xff, 0xff, 0xb6, 0xfe, 0xff, 0xff,
  0x64, 0xff, 0xff, 0xff, 0xa4, 0x00, 0x00, 0x00, 0x97, 0xfe, 0xff, 0xff,
  0xa4, 0x03, 0x00, 0x00, 0x46, 0x03, 0x00, 0x00, 0x29, 0xfe, 0xff, 0xff,
  0xb2, 0xfe, 0xff, 0xff, 0xd3, 0x00, 0x00, 0x00, 0x8f, 0xfc, 0xff, 0xff,
  0x02, 0xe2, 0xff, 0xff, 0x00, 0x00, 0x00, 0x02, 0x10, 0x00, 0x00, 0x00,
  0x06, 0x00, 0x00, 0x00, 0x10, 0x00, 0x00, 0x00, 0x48, 0x00, 0x00, 0x00,
  0x01, 0x00, 0x00, 0x00, 0x20, 0x00, 0x00, 0x00, 0x35, 0x00, 0x00, 0x00,
  0x73, 0x65, 0x71, 0x75, 0x65, 0x6e, 0x74, 0x69, 0x61, 0x6c, 0x5f, 0x31,
  0x2f, 0x63, 0x6f, 0x6e, 0x76, 0x32, 0x64, 0x5f, 0x34, 0x2f, 0x42, 0x69,
  0x61, 0x73, 0x41, 0x64, 0x64, 0x2f, 0x52, 0x65, 0x61, 0x64, 0x56, 0x61,
  0x72, 0x69, 0x61, 0x62, 0x6c, 0x65, 0x4f, 0x70, 0x2f, 0x72, 0x65, 0x73,
  0x6f, 0x75, 0x72, 0x63, 0x65, 0x00, 0x00, 0x00, 0x9c, 0xe5, 0xff, 0xff,
  0x08, 0x00, 0x00, 0x00, 0x88, 0x00, 0x00, 0x00, 0x20, 0x00, 0x00, 0x00,
  0x5e, 0x43, 0x61, 0x39, 0xfc, 0x7e, 0x74, 0x39, 0x91, 0x2f, 0xa9, 0x39,
  0x84, 0x8b, 0x7f, 0x39, 0xec, 0xa3, 0x52, 0x39, 0x86, 0xf4, 0x64, 0x39,
  0xa8, 0x38, 0x52, 0x39, 0x0e, 0xc2, 0x9b, 0x39, 0x6f, 0x76, 0x75, 0x39,
  0xfd, 0x59, 0x69, 0x39, 0x0c, 0xc0, 0x7c, 0x39, 0x1f, 0xa1, 0x83, 0x39,
  0xb1, 0x0b, 0x5d, 0x39, 0x8b, 0xe6, 0x5e, 0x39, 0xd0, 0x03, 0x91, 0x39,
  0x02, 0x02, 0x92, 0x39, 0x28, 0xa0, 0x8e, 0x39, 0xc3, 0x35, 0x89, 0x39,
  0x11, 0xb7, 0xa2, 0x39, 0x5b, 0x5e, 0x77, 0x39, 0x0a, 0x7d, 0xbd, 0x39,
  0x0d, 0xe3, 0x5f, 0x39, 0x90, 0xb9, 0x58, 0x39, 0x21, 0xfd, 0x4f, 0x39,
  0x1b, 0x74, 0x7f, 0x39, 0x45, 0x5c, 0x93, 0x39, 0xdd, 0x42, 0x61, 0x39,
  0xef, 0x32, 0x57, 0x39, 0x0f, 0x43, 0x9b, 0x39, 0xc8, 0x5f, 0x58, 0x39,
  0x3b, 0xa6, 0xbb, 0x39, 0x16, 0x91, 0x51, 0x39, 0x20, 0x00, 0x00, 0x00,
  0x00, 0x00, 0x00, 0x00, 0x00, 0x00, 0x00, 0x00, 0x00, 0x00, 0x00, 0x00,
  0x00, 0x00, 0x00, 0x00, 0x00, 0x00, 0x00, 0x00, 0x00, 0x00, 0x00, 0x00,
  0x00, 0x00, 0x00, 0x00, 0x00, 0x00, 0x00, 0x00, 0x00, 0x00, 0x00, 0x00,
  0x00, 0x00, 0x00, 0x00, 0x00, 0x00, 0x00, 0x00, 0x00, 0x00, 0x00, 0x00,
  0x00, 0x00, 0x00, 0x00, 0x00, 0x00, 0x00, 0x00, 0x00, 0x00, 0x00, 0x00,
  0x00, 0x00, 0x00, 0x00, 0x00, 0x00, 0x00, 0x00, 0x00, 0x00, 0x00, 0x00,
  0x00, 0x00, 0x00, 0x00, 0x00, 0x00, 0x00, 0x00, 0x00, 0x00, 0x00, 0x00,
  0x00, 0x00, 0x00, 0x00, 0x00, 0x00, 0x00, 0x00, 0x00, 0x00, 0x00, 0x00,
  0x00, 0x00, 0x00, 0x00, 0x00, 0x00, 0x00, 0x00, 0x00, 0x00, 0x00, 0x00,
  0x00, 0x00, 0x00, 0x00, 0x00, 0x00, 0x00, 0x00, 0x00, 0x00, 0x00, 0x00,
  0x00, 0x00, 0x00, 0x00, 0x00, 0x00, 0x00, 0x00, 0x00, 0x00, 0x00, 0x00,
  0x00, 0x00, 0x00, 0x00, 0x00, 0x00, 0x00, 0x00, 0x00, 0x00, 0x00, 0x00,
  0x00, 0x00, 0x00, 0x00, 0x00, 0x00, 0x00, 0x00, 0x00, 0x00, 0x00, 0x00,
  0x00, 0x00, 0x00, 0x00, 0x00, 0x00, 0x00, 0x00, 0x00, 0x00, 0x00, 0x00,
  0x00, 0x00, 0x00, 0x00, 0x00, 0x00, 0x00, 0x00, 0x00, 0x00, 0x00, 0x00,
  0x00, 0x00, 0x00, 0x00, 0x00, 0x00, 0x00, 0x00, 0x00, 0x00, 0x00, 0x00,
  0x00, 0x00, 0x00, 0x00, 0x00, 0x00, 0x00, 0x00, 0x00, 0x00, 0x00, 0x00,
  0x00, 0x00, 0x00, 0x00, 0x00, 0x00, 0x00, 0x00, 0x00, 0x00, 0x00, 0x00,
  0x00, 0x00, 0x00, 0x00, 0x00, 0x00, 0x00, 0x00, 0x00, 0x00, 0x00, 0x00,
  0x00, 0x00, 0x00, 0x00, 0x00, 0x00, 0x00, 0x00, 0x00, 0x00, 0x00, 0x00,
  0x00, 0x00, 0x00, 0x00, 0x00, 0x00, 0x00, 0x00, 0x00, 0x00, 0x00, 0x00,
  0x00, 0x00, 0x00, 0x00, 0x0e, 0xe4, 0xff, 0xff, 0x04, 0x00, 0x00, 0x00,
  0x00, 0x10, 0x00, 0x00, 0xe7, 0x1e, 0x1c, 0x51, 0x06, 0x3a, 0xf4, 0xb3,
  0x82, 0xfd, 0xf9, 0x02, 0xe0, 0x3b, 0x2e, 0xbe, 0xef, 0x30, 0xfe, 0x3c,
  0x09, 0xcb, 0xb3, 0xf6, 0x9a, 0xd7, 0x46, 0x14, 0x2d, 0x37, 0xd9, 0xe4,
  0xb6, 0x04, 0x06, 0xf4, 0xb5, 0x3f, 0x36, 0x34, 0x4a, 0x17, 0xf8, 0x0c,
  0x4d, 0x1c, 0x4e, 0x2b, 0xb4, 0xf3, 0x33, 0x3a, 0x4b, 0xb7, 0x90, 0xe2,
  0xe7, 0x29, 0x98, 0x91, 0x4a, 0xb2, 0x22, 0x38, 0x85, 0x34, 0xb4, 0xaf,
  0xc1, 0x8e, 0xe7, 0xcb, 0x47, 0xc3, 0x81, 0x06, 0x01, 0xc5, 0xe2, 0x0c,
  0x8e, 0xeb, 0x0a, 0xed, 0x57, 0x46, 0x03, 0x24, 0x96, 0x30, 0xc3, 0x4d,
  0x2a, 0xb8, 0x36, 0x93, 0xf3, 0x2f, 0xdd, 0x99, 0xe3, 0x9f, 0x92, 0xa7,
  0x2d, 0xef, 0xbc, 0x38, 0x2a, 0x29, 0x35, 0x4d, 0x8b, 0x1d, 0xeb, 0x0e,
  0x23, 0xf9, 0xca, 0xdb, 0xc1, 0xa2, 0x28, 0xd8, 0x84, 0xc4, 0xbd, 0xe4,
  0xaf, 0x16, 0xf9, 0x3d, 0xd2, 0x1d, 0xd6, 0x85, 0xf9, 0xc8, 0xff, 0x08,
  0x65, 0x0a, 0x95, 0xe1, 0xed, 0xe1, 0xa7, 0xc3, 0x33, 0xda, 0x30, 0xc5,
  0xb4, 0x25, 0x4f, 0x97, 0x9c, 0xff, 0xba, 0xa8, 0x1f, 0x01, 0x35, 0x42,
  0xd7, 0x9f, 0xd1, 0x5e, 0x28, 0xac, 0xf9, 0x1b, 0x55, 0x2d, 0x3a, 0xf4,
  0xb5, 0xfc, 0x07, 0xb1, 0x37, 0xff, 0x11, 0x1e, 0x3e, 0xc0, 0x12, 0xca,
  0xc1, 0x01, 0x36, 0xf7, 0x28, 0xbb, 0x6c, 0x2f, 0x9e, 0x10, 0x33, 0xc2,
  0x17, 0x27, 0xee, 0x14, 0xf8, 0x42, 0xd2, 0x32, 0xcd, 0x16, 0xc9, 0xdf,
  0x30, 0xa6, 0xf0, 0xb4, 0xcd, 0x99, 0x29, 0xea, 0xd7, 0x09, 0x9f, 0xeb,
  0x01, 0x9f, 0x28, 0x24, 0x81, 0x11, 0xe8, 0xec, 0xd6, 0xc0, 0x17, 0x2d,
  0x27, 0xe7, 0x17, 0x41, 0x1d, 0x09, 0xe5, 0x86, 0xe3, 0xe6, 0x4a, 0x26,
  0x62, 0xf3, 0x03, 0x20, 0x9e, 0x9d, 0x94, 0xd3, 0xfd, 0xa7, 0x28, 0xe4,
  0xe3, 0xca, 0xfa, 0xff, 0x2c, 0x4e, 0x83, 0x01, 0x32, 0xb0, 0xab, 0xa3,
  0xa8, 0x2d, 0xaa, 0xd8, 0x38, 0x10, 0xdc, 0xe3, 0x2d, 0xd5, 0xf8, 0x07,
  0x16, 0x20, 0x07, 0xee, 0xf4, 0xfa, 0xa1, 0x16, 0xc9, 0xa6, 0x32, 0x4c,
  0x0c, 0xbe, 0x00, 0xf2, 0x11, 0x0f, 0x6e, 0x27, 0x08, 0x01, 0xf3, 0xdf,
  0xc7, 0xf5, 0x29, 0xf6, 0xee, 0xfe, 0x31, 0x18, 0xfa, 0x03, 0xd2, 0x8f,
  0xe7, 0xc3, 0x1b, 0xf8, 0xc7, 0xfa, 0xec, 0x98, 0xd1, 0xc2, 0xf5, 0x28,
  0xf1, 0xd2, 0x85, 0x18, 0x11, 0x0b, 0x81, 0xc7, 0xcf, 0xe7, 0xd4, 0xf3,
  0xd1, 0x14, 0x0b, 0xc1, 0xd7, 0xb9, 0x0a, 0x07, 0x15, 0xa8, 0xaf, 0xce,
  0xba, 0xa0, 0x0c, 0x24, 0x37, 0xe4, 0xe4, 0xbf, 0x30, 0x19, 0x7e, 0xb1,
  0x1c, 0xa2, 0x07, 0xde, 0xb9, 0x1d, 0xfd, 0x4d, 0xa0, 0xdb, 0xc8, 0x12,
  0x08, 0xcf, 0xd8, 0xbd, 0x12, 0xcd, 0x4d, 0xf2, 0xd1, 0x33, 0xf9, 0xd8,
  0xeb, 0xb2, 0x2e, 0x26, 0xd9, 0x78, 0xcf, 0x3f, 0xfb, 0x5b, 0x7b, 0xd4,
  0xc3, 0xe3, 0xd8, 0xf5, 0xee, 0x1d, 0x4c, 0xe4, 0x11, 0x8c, 0xb2, 0x3a,
  0x39, 0xf5, 0xb6, 0xf1, 0xe5, 0x13, 0xfd, 0x52, 0x0c, 0xa3, 0x0e, 0x02,
  0x8d, 0x2c, 0xd3, 0x2e, 0x31, 0xe6, 0x27, 0x3c, 0xda, 0xf7, 0x09, 0xc2,
  0xfc, 0x3e, 0xab, 0xce, 0xda, 0x58, 0x04, 0x72, 0xb6, 0x22, 0xb4, 0x31,
  0xd8, 0x17, 0x09, 0xca, 0x09, 0xef, 0x20, 0xac, 0xff, 0xff, 0xd2, 0x38,
  0xd1, 0x9b, 0x1f, 0xdb, 0x87, 0xfc, 0x8a, 0x18, 0x0c, 0x15, 0x7a, 0xda,
  0x1e, 0x92, 0xdb, 0xd1, 0x81, 0xff, 0xb1, 0xc0, 0x9f, 0x13, 0xe2, 0x0d,
  0x90, 0xa1, 0x98, 0xdb, 0xaa, 0x4b, 0xcb, 0x92, 0x20, 0xf7, 0x0f, 0x1d,
  0xbc, 0x9e, 0x01, 0x31, 0xaf, 0xf0, 0xc6, 0x9c, 0xf3, 0x2a, 0x1b, 0xc1,
  0x8a, 0x8c, 0x2f, 0xeb, 0x58, 0x5d, 0xab, 0xee, 0x46, 0x48, 0xd5, 0xea,
  0xc1, 0xed, 0x10, 0x22, 0xfc, 0xd1, 0xf2, 0x4b, 0x81, 0xf1, 0xf0, 0xed,
  0xc4, 0x32, 0x2e, 0x40, 0xed, 0xac, 0x94, 0x39, 0x2b, 0xb6, 0x25, 0x06,
  0x40, 0xd8, 0x8e, 0x27, 0x37, 0xfb, 0xbc, 0xff, 0x5a, 0x64, 0x92, 0xc9,
  0xc1, 0x12, 0x03, 0x53, 0x81, 0xb9, 0xb4, 0x3c, 0x27, 0x48, 0x02, 0xa3,
  0xba, 0x96, 0x15, 0xb9, 0x2a, 0x09, 0x4a, 0x4f, 0xad, 0x0d, 0xbc, 0x40,
  0xc8, 0x9a, 0x4c, 0xee, 0xa5, 0xea, 0xba, 0xe0, 0x3a, 0xfd, 0x42, 0xee,
  0xe5, 0xa6, 0x2e, 0xfc, 0x46, 0x49, 0xb2, 0xac, 0xcb, 0x15, 0xd7, 0x21,
  0xf4, 0xc3, 0xaa, 0x2f, 0x91, 0x66, 0xe2, 0x43, 0x92, 0x9c, 0xad, 0xfb,
  0xdd, 0x03, 0x25, 0xdf, 0x1d, 0x36, 0xc8, 0xb2, 0x90, 0x95, 0xf2, 0x20,
  0xd5, 0xa4, 0xf2, 0x32, 0x2c, 0x68, 0x0f, 0x6f, 0xce, 0xae, 0x0f, 0xaf,
  0xdd, 0xca, 0x37, 0xd0, 0xd0, 0x42, 0xa1, 0x4e, 0x47, 0xde, 0x14, 0x1c,
  0x51, 0xfd, 0xd2, 0xad, 0xf7, 0xa7, 0xce, 0x06, 0xbf, 0x14, 0xb4, 0xea,
  0xcc, 0x3e, 0x1f, 0x24, 0xd9, 0xb9, 0x1a, 0x2a, 0x54, 0xdd, 0xb3, 0xd7,
  0xfc, 0x3f, 0xa9, 0x47, 0x5e, 0x17, 0xf6, 0x0c, 0x91, 0xdf, 0xe3, 0xc4,
  0x32, 0x9f, 0xcb, 0x05, 0x0f, 0xda, 0x4e, 0xe3, 0x16, 0xfc, 0x39, 0x11,
  0xb8, 0x22, 0xc3, 0xe5, 0xe5, 0x5d, 0xab, 0x81, 0x27, 0xf5, 0x26, 0xcd,
  0x50, 0x2f, 0x32, 0xa5, 0xc3, 0x2d, 0x08, 0xea, 0x89, 0x38, 0xf4, 0xb1,
  0xd4, 0xc1, 0x39, 0x1f, 0x9b, 0x3b, 0x17, 0xa1, 0x19, 0x3b, 0x09, 0xfe,
  0xa5, 0x89, 0x3d, 0xa5, 0x4e, 0x37, 0xe8, 0xd1, 0x3e, 0x41, 0x86, 0xaf,
  0x0c, 0xdd, 0xf9, 0x33, 0x9a, 0x2f, 0x3d, 0x47, 0x5f, 0x06, 0xb9, 0xce,
  0xf5, 0xfb, 0x4f, 0x89, 0xfe, 0x04, 0x2e, 0x3b, 0x1d, 0xa9, 0xe7, 0xa2,
  0x1d, 0x19, 0x12, 0x54, 0x11, 0xdb, 0x9e, 0xe7, 0xe2, 0x23, 0x11, 0x38,
  0x15, 0x18, 0x08, 0xde, 0xee, 0xda, 0x0e, 0xe3, 0xd1, 0x56, 0x5f, 0xce,
  0x00, 0x25, 0xc2, 0xcc, 0x12, 0xed, 0xb1, 0xa2, 0x9f, 0x25, 0x0b, 0x92,
  0x30, 0x01, 0xd2, 0x44, 0x12, 0x5a, 0x34, 0xc7, 0xc9, 0xe8, 0x95, 0x4c,
  0xa7, 0x95, 0xb0, 0x0d, 0x4c, 0x81, 0xd8, 0x1a, 0x03, 0xbc, 0xaa, 0xad,
  0xa3, 0xd8, 0xba, 0xcd, 0x64, 0xc2, 0x14, 0x88, 0xb3, 0x8e, 0xca, 0x09,
  0xd7, 0xd8, 0xa9, 0xfa, 0xa2, 0xf7, 0xda, 0x8a, 0x4f, 0x9b, 0x2c, 0x94,
  0xa0, 0x47, 0x34, 0xd2, 0x89, 0xa0, 0x0d, 0x0e, 0x63, 0x69, 0xf7, 0x88,
  0x8c, 0xf5, 0x85, 0x99, 0x32, 0xce, 0x91, 0x24, 0x8a, 0x44, 0x91, 0x96,
  0xcb, 0x18, 0x20, 0xc8, 0xab, 0x92, 0x4e, 0x06, 0xf7, 0x91, 0xa9, 0x56,
  0x18, 0xec, 0x2b, 0x26, 0xca, 0xbf, 0x99, 0xea, 0x11, 0x4d, 0x23, 0xea,
  0x06, 0xd4, 0xe7, 0x10, 0x22, 0xd2, 0xb8, 0xb4, 0xf0, 0x49, 0x33, 0x1e,
  0xbe, 0x11, 0x89, 0xff, 0xe3, 0x21, 0x17, 0x04, 0x17, 0xcd, 0x98, 0xe0,
  0x0d, 0xdd, 0xe6, 0xcd, 0xf0, 0x3e, 0xa0, 0xd1, 0x53, 0xd3, 0xed, 0xf7,
  0xfc, 0xae, 0x44, 0xe9, 0xf5, 0x27, 0x5d, 0xd0, 0xe6, 0xd2, 0x2c, 0x13,
  0xf9, 0xee, 0xff, 0xe9, 0x01, 0xe2, 0xf4, 0x39, 0xe1, 0x4c, 0xbe, 0x2e,
  0x03, 0xf4, 0x35, 0x05, 0xed, 0xfa, 0x11, 0x22, 0xec, 0xd5, 0x32, 0xf5,
  0x05, 0xc6, 0xf8, 0x1f, 0x01, 0x52, 0xba, 0xe9, 0x41, 0x5e, 0x19, 0x33,
  0x1a, 0xcc, 0xce, 0x25, 0x1d, 0xd6, 0xdc, 0x3f, 0xd4, 0xf2, 0xac, 0xf7,
  0x7f, 0x24, 0x1f, 0xce, 0xc9, 0xea, 0x09, 0x12, 0xbd, 0xfa, 0x37, 0xcb,
  0xef, 0x25, 0x26, 0x08, 0xec, 0xf4, 0xc7, 0x2c, 0x1d, 0xdc, 0xe7, 0x2e,
  0xf1, 0xf7, 0x26, 0xc6, 0xfc, 0xf8, 0x01, 0xda, 0xb1, 0xc4, 0xd9, 0x53,
  0x26, 0x3f, 0x14, 0x37, 0xf6, 0x9c, 0x26, 0xbf, 0xd1, 0xf3, 0xd3, 0xe0,
  0xe9, 0xd1, 0xb7, 0xe3, 0x91, 0xe3, 0xac, 0x98, 0x10, 0x0e, 0x92, 0x32,
  0xb6, 0x0e, 0x3e, 0x40, 0x17, 0x32, 0xce, 0x2b, 0xae, 0x28, 0x23, 0xe4,
  0xc8, 0x19, 0xdc, 0x0d, 0xfe, 0x09, 0xda, 0x1a, 0x95, 0xd6, 0xf9, 0xc2,
  0xdb, 0x04, 0xac, 0x0a, 0x3b, 0x05, 0xc2, 0xe1, 0xf0, 0x1e, 0xe8, 0x43,
  0xc0, 0x06, 0xac, 0xc3, 0x24, 0xe8, 0x1f, 0x92, 0xe0, 0xbb, 0x8f, 0xdb,
  0xd2, 0x9d, 0x2c, 0x2f, 0x81, 0xd1, 0x8e, 0x18, 0xc5, 0x1d, 0xed, 0x14,
  0x31, 0x8f, 0x9a, 0xd8, 0xd1, 0xfe, 0x89, 0x34, 0x92, 0x0d, 0x48, 0x41,
  0x1c, 0xfc, 0x39, 0x3e, 0x14, 0xfc, 0x39, 0x10, 0xc1, 0x38, 0xf0, 0x32,
  0x2f, 0x0a, 0xee, 0xf9, 0x53, 0xd1, 0xad, 0x28, 0xcc, 0xf3, 0x0b, 0x93,
  0xf8, 0x33, 0xb4, 0x34, 0xf5, 0x3d, 0x3e, 0xbb, 0xd4, 0x22, 0x06, 0xbb,
  0xa3, 0x49, 0xb3, 0xc2, 0x2a, 0x51, 0xed, 0xd4, 0xf5, 0x39, 0xd4, 0xca,
  0xe8, 0xbf, 0x3f, 0x1d, 0x52, 0xf3, 0x1d, 0x99, 0xed, 0x0e, 0xf8, 0xa7,
  0x92, 0xa6, 0x3d, 0xd0, 0x89, 0x2c, 0xc8, 0x42, 0xbd, 0xce, 0xd9, 0xdf,
  0x95, 0x59, 0x30, 0x1a, 0xa9, 0xae, 0x3e, 0xfb, 0xb2, 0x8e, 0x4d, 0xae,
  0xbd, 0x98, 0xbc, 0x8d, 0x18, 0x10, 0xea, 0xfa, 0xfb, 0x35, 0x43, 0x99,
  0xab, 0x87, 0xf0, 0x19, 0xc6, 0xb6, 0xe9, 0x37, 0xe3, 0xe7, 0x4a, 0xf9,
  0xd2, 0xb5, 0xbf, 0xd9, 0xbd, 0x21, 0x44, 0xe4, 0x33, 0x81, 0x38, 0xf2,
  0xc2, 0xd5, 0x24, 0xed, 0x38, 0x38, 0xe0, 0x3b, 0xbe, 0xdb, 0x41, 0x23,
  0xeb, 0x21, 0xa4, 0x1e, 0x14, 0x0b, 0x01, 0x34, 0x07, 0xa3, 0xb4, 0xd6,
  0x59, 0x2d, 0x24, 0xc7, 0xf8, 0x2f, 0xf6, 0xff, 0x17, 0x2e, 0xb3, 0xab,
  0xa2, 0xcb, 0x0a, 0xe7, 0x37, 0xfb, 0xd3, 0xef, 0xb2, 0x14, 0x14, 0xc2,
  0xb3, 0xa7, 0xc0, 0xab, 0x22, 0x30, 0x9a, 0x08, 0xb1, 0x53, 0x28, 0xaa,
  0xb7, 0xfd, 0xa3, 0xe7, 0x19, 0xd0, 0xf6, 0xb8, 0xb4, 0x9d, 0x26, 0xe7,
  0xcb, 0x31, 0x48, 0xc7, 0xc5, 0x09, 0xe7, 0xd2, 0x30, 0x5d, 0x3c, 0x51,
  0x45, 0xd5, 0xba, 0x41, 0x9a, 0x02, 0xc3, 0xf8, 0xb8, 0xb1, 0xe2, 0x33,
  0x35, 0x35, 0xff, 0xba, 0x2a, 0x38, 0x26, 0x31, 0x2d, 0xf2, 0xf5, 0x46,
  0xc7, 0xc0, 0x06, 0xf1, 0xc6, 0x93, 0xaa, 0xea, 0xef, 0xc5, 0x13, 0x13,
  0x04, 0xf6, 0xe6, 0xdf, 0xfc, 0x35, 0x40, 0x00, 0xe5, 0xa0, 0xea, 0x44,
  0x29, 0x28, 0x81, 0xb0, 0xfa, 0x2c, 0xe1, 0xb5, 0x10, 0xce, 0x12, 0xfc,
  0xea, 0xd1, 0xce, 0x06, 0xf6, 0xfb, 0x32, 0x21, 0x1f, 0xe6, 0x45, 0xab,
  0xb4, 0x03, 0x14, 0x5e, 0x14, 0x53, 0x22, 0x2f, 0x08, 0xaf, 0x31, 0xee,
  0x4d, 0xd9, 0xa8, 0xf7, 0xfa, 0x43, 0xd2, 0x58, 0x16, 0x81, 0xac, 0xac,
  0xfd, 0x30, 0x02, 0x23, 0xdf, 0x92, 0x01, 0x12, 0x0e, 0x35, 0x1c, 0xb5,
  0x9f, 0x0c, 0xb4, 0x15, 0xe4, 0x32, 0xa0, 0x08, 0xee, 0xd2, 0x48, 0x1e,
  0xf4, 0x05, 0xc8, 0xea, 0x4b, 0xbe, 0xf2, 0x8c, 0x39, 0xf3, 0x34, 0xca,
  0xc7, 0x25, 0x11, 0xda, 0x9c, 0x90, 0x18, 0xb9, 0x57, 0xfc, 0x2f, 0x32,
  0xd6, 0xd5, 0x9b, 0x9f, 0xcb, 0x46, 0x25, 0xf4, 0x2e, 0x22, 0x65, 0xf7,
  0xe0, 0x32, 0x19, 0x08, 0x60, 0xf5, 0x4d, 0xfc, 0x14, 0x00, 0xe6, 0x5f,
  0x1d, 0xa3, 0xd1, 0xf5, 0xf4, 0xe9, 0xd3, 0x98, 0xbb, 0xff, 0xc1, 0xfd,
  0xc8, 0x39, 0x0b, 0x55, 0xea, 0x28, 0xc0, 0x9f, 0xfe, 0x4a, 0x47, 0xba,
  0xcd, 0x1a, 0xc2, 0xe5, 0x31, 0xbc, 0x81, 0xc3, 0xc3, 0x1d, 0x17, 0xb0,
  0x4c, 0xd3, 0xaf, 0xb8, 0x17, 0xcf, 0x8e, 0x43, 0x48, 0xfb, 0x04, 0x94,
  0xdd, 0xca, 0x2f, 0xc9, 0xed, 0xd7, 0x3a, 0xd1, 0xcf, 0xbc, 0xd1, 0xba,
  0x9f, 0xfe, 0xe1, 0x91, 0xb6, 0xba, 0xcf, 0x33, 0xf9, 0xb0, 0xca, 0x01,
  0x8f, 0xf1, 0xba, 0xbd, 0x44, 0x89, 0xbe, 0xa0, 0x57, 0xd5, 0x20, 0xc4,
  0x3e, 0xc9, 0x40, 0x1c, 0x9d, 0x38, 0x3c, 0x4c, 0x00, 0xa3, 0x03, 0x9f,
  0x8e, 0x1d, 0x50, 0xf6, 0x25, 0x24, 0xa0, 0x21, 0xc8, 0x28, 0x27, 0x97,
  0x43, 0x96, 0xa7, 0xc6, 0xb8, 0x35, 0x3d, 0xea, 0x13, 0x29, 0xce, 0xc8,
  0x01, 0x42, 0xcd, 0x14, 0xeb, 0xa4, 0x51, 0x9b, 0xa4, 0xd6, 0x83, 0x8a,
  0x4c, 0x30, 0xe6, 0xfb, 0x30, 0x8e, 0xb2, 0xaf, 0x3f, 0x8e, 0x0a, 0x91,
  0x05, 0xcc, 0x19, 0x9a, 0x2b, 0x0f, 0xf7, 0xa8, 0x39, 0xa0, 0x40, 0xdc,
  0x06, 0x1d, 0x94, 0xed, 0xe1, 0xec, 0xec, 0x55, 0x96, 0xeb, 0x14, 0x41,
  0x0f, 0xd8, 0x0b, 0x53, 0xf1, 0xdf, 0xd1, 0x00, 0x4e, 0xf7, 0x96, 0xaf,
  0x08, 0x34, 0xd6, 0xa6, 0xe5, 0x25, 0x39, 0x54, 0xe8, 0xae, 0xba, 0xc9,
  0xb5, 0x8e, 0x8c, 0x50, 0x49, 0xab, 0xbb, 0x3b, 0x04, 0x11, 0x21, 0x84,
  0x81, 0x20, 0xd8, 0xa9, 0x18, 0x3f, 0xb1, 0x91, 0xe4, 0xd0, 0x0c, 0x5a,
  0x4f, 0xe5, 0x93, 0x11, 0x27, 0x46, 0x32, 0xe0, 0x22, 0xf9, 0x8f, 0x1a,
  0x2f, 0xc2, 0x11, 0x2d, 0x00, 0xa7, 0xc4, 0x9b, 0xf9, 0x0c, 0xf6, 0xd7,
  0xf4, 0x3d, 0x34, 0xf6, 0xdc, 0xdd, 0xe4, 0x8c, 0x9d, 0x00, 0x4d, 0xe3,
  0x42, 0x37, 0xc3, 0x0a, 0x41, 0x3b, 0xd0, 0xcb, 0x5f, 0x2b, 0x26, 0x1d,
  0xad, 0xa9, 0xbe, 0x30, 0x32, 0x5d, 0x40, 0x4b, 0x89, 0x9b, 0xee, 0x3b,
  0xf2, 0x3a, 0x25, 0x41, 0xb4, 0xae, 0xd3, 0xd1, 0x33, 0xd2, 0x9c, 0xce,
  0xf2, 0x29, 0x03, 0x97, 0x49, 0xf9, 0x04, 0x43, 0xcc, 0xb1, 0xb1, 0x97,
  0xa9, 0xd7, 0x30, 0x11, 0xd6, 0xcb, 0xfa, 0xd5, 0x03, 0x29, 0xdb, 0x23,
  0xe7, 0xf8, 0x2c, 0xd2, 0x43, 0xf1, 0xfb, 0x34, 0x12, 0xf2, 0xbb, 0xf5,
  0xff, 0x16, 0x16, 0xc6, 0x09, 0xea, 0xc3, 0x1c, 0x07, 0x11, 0x2b, 0x19,
  0xc9, 0x0f, 0xed, 0x3b, 0xfb, 0x96, 0xb4, 0xa4, 0x2a, 0xaf, 0x25, 0x16,
  0x5b, 0xdd, 0xbc, 0x18, 0xc9, 0xc7, 0xe4, 0x39, 0x10, 0xc1, 0xfa, 0xfb,
  0x1e, 0xf6, 0x75, 0x20, 0xce, 0x1b, 0xdd, 0xcc, 0xa6, 0x23, 0xdb, 0xbd,
  0x43, 0x44, 0xf8, 0xd9, 0xbf, 0x33, 0xdf, 0x81, 0x2c, 0xe8, 0x39, 0x45,
  0x4b, 0x37, 0x06, 0x17, 0xe1, 0xf0, 0x33, 0x29, 0x29, 0x3a, 0x08, 0x33,
  0xed, 0xf0, 0x4b, 0x3b, 0xd8, 0x2e, 0xe1, 0x19, 0xec, 0xc2, 0xed, 0xd4,
  0x1e, 0x43, 0xe6, 0xcf, 0x2f, 0x39, 0xa1, 0x42, 0x46, 0xc7, 0x2c, 0xf9,
  0xfc, 0xb7, 0xbf, 0x14, 0xc6, 0x36, 0xe7, 0x94, 0xda, 0x0d, 0x3a, 0x10,
  0xf5, 0x04, 0xcb, 0x01, 0x2b, 0xa5, 0xd3, 0x4e, 0x33, 0x03, 0xdf, 0xa9,
  0xdf, 0x4a, 0x31, 0xfa, 0x45, 0xdf, 0x0a, 0x0f, 0xef, 0xab, 0xf8, 0x50,
  0xb6, 0xd0, 0xa9, 0xd7, 0xd7, 0x32, 0xd0, 0xd2, 0xf2, 0x2e, 0xe6, 0x5c,
  0x31, 0xcd, 0x21, 0x13, 0xc3, 0xe1, 0x0b, 0x43, 0x81, 0x31, 0x06, 0xc6,
  0xd2, 0x0d, 0xff, 0xf0, 0x4f, 0x30, 0x1f, 0xc6, 0xde, 0x3a, 0xad, 0xcc,
  0xb5, 0x39, 0x0a, 0x03, 0xae, 0x9c, 0x0a, 0xa5, 0x20, 0xa6, 0xc7, 0x11,
  0x30, 0x1c, 0xf7, 0x18, 0xc5, 0x3f, 0xb3, 0xc7, 0xeb, 0xc5, 0xba, 0xdc,
  0xb1, 0xe6, 0xe2, 0xeb, 0xec, 0x1d, 0xb8, 0xaa, 0xe0, 0xcb, 0xfa, 0x0e,
  0xb8, 0xe4, 0xd3, 0xea, 0x36, 0xe0, 0x33, 0xbf, 0x24, 0xbf, 0xd3, 0xb3,
  0x56, 0x19, 0xe1, 0x07, 0xfa, 0x20, 0x2d, 0xd3, 0x95, 0xf3, 0x9b, 0xe8,
  0x1f, 0xcc, 0xd0, 0x3f, 0xad, 0xff, 0x3f, 0xca, 0xb8, 0x0f, 0x1b, 0xb3,
  0xb3, 0x34, 0x19, 0xdb, 0x29, 0xce, 0xbc, 0xf9, 0xcf, 0x1f, 0x3d, 0x19,
  0xf9, 0xa6, 0x02, 0x3d, 0x3f, 0xb7, 0x18, 0xc1, 0x0b, 0x2e, 0x35, 0xab,
  0x26, 0xf1, 0x39, 0x01, 0x19, 0xb9, 0x5c, 0x16, 0xb7, 0x21, 0x40, 0xea,
  0x0b, 0x0a, 0xb9, 0x22, 0xd6, 0x90, 0x33, 0xa5, 0xbe, 0xb4, 0xd8, 0x9f,
  0x2a, 0xf5, 0x07, 0x00, 0x06, 0xbc, 0x2a, 0xd0, 0x8d, 0x25, 0xa7, 0xdc,
  0xf1, 0x10, 0xb6, 0x84, 0xc1, 0x19, 0x20, 0x39, 0xcf, 0x93, 0xb9, 0x00,
  0xe8, 0xff, 0xea, 0xf1, 0xaa, 0xf0, 0xa7, 0x19, 0xb5, 0x1b, 0xe0, 0x3d,
  0x01, 0x49, 0xcb, 0xf8, 0x2d, 0xe8, 0x81, 0xc9, 0xbb, 0xe3, 0xeb, 0x45,
  0xd4, 0xfc, 0xfc, 0x84, 0xb3, 0xed, 0xf9, 0xba, 0x07, 0x19, 0x34, 0x11,
  0xfa, 0xec, 0xa1, 0xe9, 0xc5, 0x03, 0xd3, 0xf4, 0xd0, 0x22, 0x86, 0xb8,
  0x9b, 0xf7, 0xde, 0x9e, 0x25, 0xa2, 0x1f, 0xc1, 0xe4, 0xca, 0x11, 0xe9,
  0x18, 0xf3, 0x3d, 0x04, 0x01, 0xf3, 0x2c, 0xda, 0x12, 0xa5, 0xbc, 0x02,
  0xe7, 0x9b, 0xe8, 0x30, 0xc9, 0x02, 0xf7, 0x09, 0xfa, 0xa7, 0x26, 0x1d,
  0xec, 0xa7, 0x02, 0xa1, 0xa6, 0xbf, 0x56, 0xe6, 0x8d, 0xa3, 0xbc, 0xc3,
  0x0d, 0xb4, 0x7f, 0x1d, 0x22, 0xf6, 0x16, 0xac, 0xc8, 0x03, 0x3e, 0xc9,
  0x54, 0xd3, 0xb1, 0xee, 0xf9, 0xa1, 0x13, 0x56, 0x9f, 0xd2, 0x11, 0x20,
  0xb5, 0xfb, 0x1e, 0xd4, 0x19, 0xc4, 0x2a, 0x27, 0xd9, 0x0a, 0xd5, 0x38,
  0x05, 0xa0, 0x27, 0x11, 0x58, 0xa5, 0x1d, 0x50, 0x44, 0x31, 0x52, 0xd2,
  0x1b, 0xee, 0x07, 0x43, 0xf7, 0x36, 0x42, 0x3e, 0x23, 0x1e, 0x37, 0x16,
  0xff, 0xdb, 0x11, 0xd9, 0xc7, 0xe5, 0xed, 0x45, 0xd5, 0xe5, 0xaa, 0x12,
  0x22, 0x11, 0xed, 0xab, 0x28, 0xc2, 0xf5, 0x24, 0x17, 0xe7, 0x9e, 0xc2,
  0x17, 0xe4, 0x81, 0xaa, 0x1a, 0xd4, 0xe3, 0x14, 0x1f, 0xb3, 0x1d, 0xb6,
  0xdb, 0xe5, 0xfd, 0xb8, 0xc8, 0xdb, 0x25, 0xde, 0xe1, 0xb1, 0xf9, 0xf0,
  0xef, 0x26, 0xc9, 0xeb, 0x34, 0xe4, 0x3f, 0x07, 0xcc, 0x9f, 0xd0, 0x34,
  0xf3, 0x25, 0x9f, 0xd7, 0xfc, 0xed, 0xf7, 0x11, 0xbf, 0x53, 0x27, 0x19,
  0x24, 0x33, 0x14, 0x2a, 0x25, 0x28, 0xbf, 0xce, 0x35, 0xfe, 0xef, 0x11,
  0xbb, 0x05, 0x51, 0xe2, 0xeb, 0x3a, 0xdd, 0xbc, 0xcb, 0xe7, 0x1e, 0x08,
  0xdd, 0xff, 0xe4, 0x04, 0xd3, 0x1f, 0xf0, 0x3a, 0xd5, 0x39, 0xe7, 0x12,
  0x49, 0x0c, 0x2f, 0xdb, 0xfd, 0x08, 0x1f, 0x3c, 0x0c, 0x29, 0x2e, 0x4d,
  0x00, 0x05, 0x41, 0x0e, 0xf5, 0x0e, 0x23, 0xd4, 0x31, 0xf5, 0x08, 0xff,
  0xca, 0x98, 0x0f, 0xc4, 0xfd, 0x37, 0xb2, 0x09, 0x0e, 0x32, 0xf0, 0x1a,
  0xfd, 0xfb, 0xda, 0xbb, 0xcb, 0x8c, 0x19, 0xc1, 0xf0, 0x9b, 0xf1, 0xed,
  0xc3, 0xbc, 0x34, 0x24, 0xbf, 0x18, 0x20, 0xdc, 0xfc, 0xef, 0x16, 0x14,
  0xba, 0x19, 0x34, 0x2a, 0x81, 0xbc, 0xe2, 0xc4, 0xe0, 0xff, 0xfb, 0xf2,
  0xe2, 0xb0, 0xf1, 0xd9, 0x40, 0xfb, 0xfa, 0xd4, 0x28, 0xcc, 0x25, 0xdf,
  0xb1, 0x04, 0xd8, 0xc1, 0xb1, 0xe5, 0x45, 0x49, 0xbc, 0x04, 0x42, 0x22,
  0x1b, 0xdc, 0xe4, 0xef, 0x50, 0x3e, 0x31, 0x3f, 0xfa, 0xd8, 0x45, 0x34,
  0xfe, 0xc4, 0xe9, 0xef, 0x15, 0x4f, 0xfb, 0xb7, 0xad, 0xfd, 0x5f, 0xed,
  0x00, 0x67, 0x3f, 0x3d, 0x18, 0xe5, 0x23, 0x5f, 0xf9, 0x09, 0x53, 0x4c,
  0x0c, 0xa4, 0x1c, 0x28, 0x2b, 0xc5, 0xe7, 0x1c, 0x38, 0xe5, 0x67, 0xbf,
  0xb0, 0xe7, 0x4c, 0x04, 0xb1, 0xd4, 0x4f, 0xa9, 0xc8, 0x28, 0x29, 0x28,
  0x1b, 0x2d, 0x47, 0xd1, 0x3f, 0x24, 0xb5, 0xb2, 0xc3, 0x16, 0xb5, 0xd7,
  0xf6, 0xf1, 0xe4, 0x0f, 0x0f, 0x0e, 0x1e, 0x1a, 0x2f, 0x37, 0xf0, 0x11,
  0x11, 0xd0, 0x36, 0x26, 0xc4, 0xdc, 0x14, 0x03, 0x3c, 0x16, 0x0d, 0xcf,
  0xc7, 0xf4, 0xf2, 0xf1, 0xc7, 0x30, 0x2c, 0x3e, 0x06, 0xdb, 0xd7, 0xe3,
  0xe2, 0xc3, 0xfe, 0xc9, 0xfe, 0xf5, 0xe0, 0x3a, 0xdf, 0x18, 0x46, 0xfd,
  0x07, 0x03, 0x17, 0x09, 0x15, 0x41, 0xdb, 0x15, 0xc5, 0xe6, 0x1e, 0xd3,
  0xe6, 0xcc, 0xde, 0xfe, 0xe5, 0xe6, 0xca, 0xba, 0xef, 0xd4, 0x0a, 0xd1,
  0x07, 0xfd, 0xba, 0xbb, 0xf0, 0x2e, 0xa9, 0x1b, 0x81, 0x0c, 0x1c, 0x1a,
  0xd2, 0xcc, 0x04, 0xd0, 0x0b, 0x00, 0xc8, 0xc6, 0xeb, 0xef, 0xfc, 0x2b,
  0x29, 0xe2, 0xab, 0xaf, 0xf9, 0xd2, 0x2d, 0x0b, 0x02, 0x33, 0xd8, 0x17,
  0xbe, 0xd5, 0xf3, 0x00, 0x4c, 0x4a, 0xe9, 0x5b, 0xe1, 0x36, 0xf3, 0x1f,
  0x66, 0x32, 0x37, 0x66, 0x31, 0x25, 0x40, 0xaa, 0x6b, 0x47, 0x69, 0x2f,
  0x64, 0xd2, 0xad, 0x2d, 0x4f, 0xc7, 0x15, 0xe5, 0x7f, 0xb1, 0x38, 0x12,
  0xf0, 0xc1, 0xf2, 0x99, 0x2a, 0xf1, 0x5b, 0x1d, 0x40, 0x09, 0xfa, 0xc9,
  0xa9, 0xea, 0xcc, 0x4a, 0x1d, 0xf7, 0x43, 0xb7, 0x1b, 0x24, 0x35, 0x04,
  0x53, 0x1a, 0xa3, 0xb6, 0x6d, 0xe7, 0xe6, 0xc8, 0x58, 0xbb, 0xde, 0x56,
  0xf2, 0x1d, 0xe9, 0x10, 0x52, 0xe5, 0x6a, 0x4b, 0x48, 0x4b, 0x52, 0xe0,
  0x27, 0xda, 0xa3, 0x0d, 0x2c, 0xf6, 0x34, 0xcb, 0x32, 0xc3, 0x23, 0x00,
  0x30, 0xbe, 0xce, 0xa9, 0xf9, 0x1e, 0x34, 0xc2, 0xb0, 0x14, 0xd6, 0x29,
  0x1e, 0xef, 0x13, 0xe0, 0xab, 0xdd, 0xb6, 0x1a, 0xbb, 0xdc, 0xbf, 0x39,
  0xed, 0x1e, 0x64, 0xce, 0x12, 0x0b, 0xe7, 0x21, 0x4b, 0x26, 0x38, 0x55,
  0xed, 0xf0, 0x83, 0xe2, 0x83, 0x4d, 0xf5, 0x2e, 0x19, 0xa8, 0x13, 0xc3,
  0x07, 0xbe, 0x0d, 0xcd, 0xe6, 0xcc, 0xa9, 0x57, 0x36, 0x94, 0x8d, 0xf1,
  0xf9, 0xa4, 0x53, 0x38, 0xc4, 0x1f, 0xf1, 0x35, 0x3a, 0xf3, 0x3b, 0xf4,
  0xef, 0x33, 0xb3, 0xa3, 0xb8, 0xdb, 0x40, 0x09, 0x59, 0x13, 0xf5, 0xf1,
  0xda, 0xae, 0xe5, 0xae, 0xf4, 0x2b, 0x19, 0xff, 0xba, 0xb3, 0x4c, 0x5b,
  0x2c, 0x03, 0xc6, 0x8a, 0xb8, 0x5a, 0x93, 0x96, 0xbb, 0xc4, 0x30, 0xbd,
  0x0e, 0x4d, 0xa6, 0xf3, 0xf3, 0xd5, 0xbc, 0xe4, 0x3d, 0xb4, 0xce, 0xfc,
  0x0c, 0x2a, 0xfa, 0xae, 0xd0, 0x09, 0x88, 0x98, 0xca, 0xdd, 0xcd, 0x0c,
  0x11, 0xbe, 0x4d, 0x2e, 0x23, 0xdb, 0xb6, 0xcb, 0xef, 0xa7, 0x30, 0x12,
  0xbe, 0x2e, 0xac, 0xbb, 0xbe, 0x43, 0x02, 0xb2, 0x23, 0xe0, 0x0c, 0x28,
  0x5a, 0x81, 0x14, 0x1e, 0xf9, 0x58, 0x0a, 0x33, 0xe1, 0x1b, 0x3a, 0x02,
  0x81, 0x83, 0x93, 0x50, 0x5e, 0x3b, 0xb0, 0x65, 0x96, 0xcd, 0x21, 0xa6,
  0xcc, 0x4e, 0xf4, 0xf9, 0x4f, 0x52, 0x95, 0x88, 0x9c, 0x02, 0x16, 0xef,
  0xc7, 0xd5, 0x5b, 0xd8, 0xad, 0x02, 0x0b, 0x47, 0x01, 0x0f, 0x84, 0x54,
  0x31, 0x23, 0xa5, 0xe4, 0x1b, 0xd9, 0x55, 0x09, 0x31, 0x0f, 0x8e, 0xcb,
  0x06, 0xb0, 0x2c, 0xf8, 0x4a, 0x8c, 0xed, 0x33, 0x01, 0xe9, 0x38, 0x95,
  0xb2, 0x59, 0xc3, 0x42, 0xc1, 0xb4, 0xa2, 0x84, 0xc6, 0x12, 0xe2, 0x58,
  0x15, 0xaa, 0x9d, 0x59, 0x42, 0x34, 0x25, 0xde, 0xfa, 0x1e, 0xe5, 0x11,
  0x37, 0xd6, 0xba, 0x30, 0xa5, 0xe5, 0xbc, 0xcd, 0x5c, 0x16, 0x5d, 0x13,
  0xd9, 0xac, 0x50, 0xa3, 0x9b, 0xac, 0xf1, 0x14, 0x11, 0x8a, 0x93, 0xfc,
  0x8c, 0xaf, 0xa6, 0xe2, 0xf2, 0x0b, 0xa5, 0x1e, 0xfe, 0xba, 0xd2, 0x9e,
  0x26, 0x14, 0x10, 0xe5, 0x15, 0x12, 0xa7, 0x19, 0x19, 0xa2, 0x9f, 0xc7,
  0xba, 0x89, 0xa6, 0x22, 0xed, 0x33, 0xeb, 0xbe, 0xf5, 0x1b, 0xc4, 0x0b,
  0xfd, 0x4a, 0x2d, 0xe5, 0x03, 0xb4, 0x03, 0x36, 0x63, 0xac, 0xc9, 0x34,
  0x0d, 0x85, 0x39, 0xb3, 0x2c, 0xe8, 0x09, 0x83, 0xf4, 0x56, 0xf5, 0xf0,
  0xc2, 0x17, 0x0c, 0xcf, 0xb6, 0x08, 0x1c, 0x27, 0xf7, 0x33, 0xfe, 0xff,
  0xcf, 0x40, 0xd4, 0x16, 0x32, 0x36, 0xb0, 0xcc, 0x19, 0xbf, 0xbb, 0x1f,
  0x27, 0xcd, 0xbb, 0x2d, 0x42, 0x89, 0xab, 0x4a, 0xd7, 0xf8, 0x45, 0x15,
  0x0c, 0xee, 0xe1, 0xb8, 0x41, 0x36, 0x28, 0x2b, 0x3f, 0xfd, 0xee, 0x1e,
  0x00, 0xac, 0xe3, 0xd9, 0x1c, 0x03, 0x3b, 0x87, 0x03, 0x2e, 0xfd, 0x8b,
  0x26, 0x40, 0xe6, 0x2f, 0xd6, 0x13, 0x81, 0x3c, 0x1e, 0x6f, 0x1c, 0xe2,
  0x45, 0x37, 0x0b, 0xb4, 0xe2, 0x2f, 0xe9, 0x10, 0x4e, 0x05, 0x37, 0xe5,
  0x27, 0x21, 0xf9, 0xfe, 0x02, 0xd5, 0x2c, 0xb3, 0xff, 0x18, 0xc2, 0x1d,
  0x29, 0x32, 0x22, 0x35, 0x0f, 0x11, 0x2a, 0xc4, 0x3e, 0xaf, 0xde, 0x37,
  0x07, 0x4b, 0x2c, 0xd7, 0x2b, 0x2f, 0x4b, 0x52, 0x0a, 0x35, 0xbe, 0x50,
  0xc8, 0xd5, 0xfa, 0xe2, 0xe9, 0xf0, 0xec, 0xb9, 0xcd, 0x49, 0x2d, 0xfc,
  0x33, 0xcb, 0x0e, 0xf5, 0xda, 0xda, 0xcc, 0xa3, 0x2b, 0x00, 0xe4, 0x3c,
  0xf2, 0xe6, 0xf4, 0x2d, 0xf5, 0x3b, 0x2e, 0xb6, 0xc1, 0x14, 0x81, 0xa5,
  0x90, 0xfd, 0x08, 0x9d, 0xd2, 0x8c, 0xd0, 0xe4, 0x0b, 0xb4, 0x87, 0x10,
  0xf2, 0xaf, 0x13, 0x0c, 0x85, 0x01, 0xbc, 0x84, 0xe6, 0x15, 0x22, 0xfd,
  0xea, 0x04, 0xfa, 0xfd, 0xf4, 0x33, 0xd3, 0xd6, 0x17, 0x9b, 0xe1, 0xb1,
  0xed, 0xbc, 0x0b, 0xe5, 0xf5, 0xd7, 0xe5, 0xfc, 0x2c, 0x0c, 0x38, 0x32,
  0x04, 0x01, 0xe6, 0x0a, 0x27, 0xda, 0xf4, 0x25, 0xdf, 0xa8, 0xfd, 0x45,
  0x04, 0x21, 0xdd, 0x8a, 0x4e, 0xeb, 0xe9, 0xc3, 0xea, 0xe6, 0x0d, 0xc4,
  0x8f, 0xb9, 0x43, 0x20, 0x8b, 0x1b, 0xe7, 0xca, 0x08, 0x19, 0x2e, 0x3f,
  0x34, 0xea, 0x28, 0x00, 0x57, 0x9a, 0x51, 0xeb, 0xf0, 0x3e, 0xf6, 0x31,
  0x4b, 0xb7, 0x81, 0xab, 0xfb, 0xe7, 0x2f, 0x0e, 0xed, 0x0d, 0x05, 0x03,
  0x20, 0x9e, 0x4d, 0xec, 0xf6, 0xb1, 0xe7, 0x1f, 0x8f, 0x13, 0xbb, 0xec,
  0x8b, 0x51, 0x1e, 0xa1, 0x33, 0x9e, 0x10, 0xca, 0x3a, 0xc6, 0xe7, 0x87,
  0x2b, 0xe9, 0x14, 0xde, 0x13, 0x95, 0x99, 0x25, 0xc9, 0x11, 0xf5, 0xa7,
  0x3d, 0xc5, 0xbd, 0x1e, 0xfe, 0xf2, 0x2a, 0x4c, 0xdb, 0xc7, 0xa9, 0xf6,
  0x4d, 0xad, 0x4b, 0xc9, 0xbd, 0xb7, 0xf4, 0xa1, 0x14, 0xf1, 0x15, 0x97,
  0x55, 0x21, 0x05, 0x4f, 0x54, 0x9e, 0xeb, 0x2d, 0x9f, 0xed, 0x2f, 0x08,
  0xb7, 0x93, 0xe9, 0x2e, 0xea, 0xeb, 0xbd, 0x4d, 0x8d, 0x96, 0xa8, 0x43,
  0xa3, 0x92, 0x22, 0x5f, 0xca, 0xaa, 0x16, 0x25, 0x20, 0x3e, 0xfd, 0x38,
  0xff, 0x82, 0x98, 0x51, 0xc7, 0xe1, 0x52, 0xb3, 0xa2, 0xe0, 0x51, 0x95,
  0xb6, 0x24, 0xb6, 0xd2, 0xe5, 0x14, 0x8f, 0x5e, 0x12, 0x0d, 0xe8, 0x36,
  0xf0, 0xfb, 0xd8, 0xda, 0x3b, 0x58, 0xeb, 0x95, 0xe2, 0xd3, 0x36, 0x47,
  0x14, 0x1e, 0xce, 0xe9, 0x0e, 0xca, 0x04, 0xb7, 0x3c, 0xb3, 0x8a, 0x3d,
  0x0c, 0xe0, 0xee, 0xec, 0xad, 0x02, 0xfd, 0x19, 0x08, 0x9d, 0x81, 0xbc,
  0x11, 0x88, 0x23, 0xda, 0xc9, 0x33, 0x1e, 0xaa, 0xd0, 0xd2, 0x1a, 0x8b,
  0x54, 0xd6, 0x04, 0x98, 0xfb, 0x30, 0xe9, 0xf0, 0xce, 0x00, 0xad, 0xb6,
  0x25, 0x06, 0x09, 0xd5, 0xd2, 0xe2, 0x2c, 0xb6, 0xa6, 0xaf, 0x18, 0xea,
  0xaa, 0x2d, 0x3b, 0x27, 0x09, 0x37, 0xba, 0x0d, 0xa5, 0xd2, 0x47, 0xd6,
  0x2e, 0x33, 0x24, 0xec, 0xea, 0xdb, 0xd2, 0x07, 0x10, 0x2f, 0xfe, 0xbb,
  0x4e, 0xbc, 0xef, 0x30, 0x21, 0xdc, 0xf7, 0x27, 0x2f, 0xda, 0xfc, 0xbc,
  0xe4, 0x1e, 0x9c, 0xb9, 0xcc, 0xc1, 0xdd, 0xf6, 0xd6, 0xf2, 0x2e, 0x2c,
  0xf2, 0xdb, 0x12, 0xc1, 0x54, 0xc9, 0xbe, 0x13, 0x52, 0xf6, 0xfc, 0xf3,
  0xc4, 0x07, 0xcb, 0xd9, 0x11, 0xa3, 0xc2, 0xe3, 0x24, 0x0d, 0xe2, 0x25,
  0x11, 0x09, 0x3b, 0x28, 0xad, 0xc4, 0x3b, 0xf0, 0xd8, 0x10, 0xee, 0x0f,
  0xee, 0xd6, 0xce, 0x88, 0xd8, 0x19, 0xc6, 0x3a, 0xa0, 0x29, 0xe1, 0x09,
  0xbd, 0x0f, 0xc9, 0xbc, 0xc2, 0x44, 0xbf, 0xa7, 0xc0, 0xd8, 0x1d, 0xc3,
  0xc6, 0x47, 0xcb, 0x1b, 0x07, 0x12, 0x24, 0xdc, 0x3d, 0x19, 0x9e, 0xc3,
  0x6b, 0xf0, 0x20, 0x13, 0xe3, 0xb6, 0xd2, 0x3e, 0x81, 0xe0, 0xd3, 0xf7,
  0xbe, 0xeb, 0x2a, 0x49, 0x2e, 0x21, 0xbe, 0x3c, 0xcf, 0xe1, 0x12, 0x9d,
  0xa0, 0xe6, 0xb1, 0xf7, 0xd2, 0x27, 0xbd, 0x02, 0xc1, 0x59, 0x65, 0xeb,
  0xd0, 0xfa, 0x5f, 0x10, 0x4b, 0xaf, 0x81, 0xd1, 0x14, 0xae, 0xc5, 0x72,
  0xd5, 0x22, 0x47, 0x52, 0xf8, 0x2b, 0xb0, 0x33, 0x19, 0xce, 0xe5, 0xf6,
  0x28, 0x33, 0x3f, 0x4c, 0x19, 0xee, 0x60, 0xac, 0xd4, 0xb7, 0x04, 0x05,
  0x9f, 0xc4, 0xfd, 0x20, 0x01, 0xa7, 0x41, 0xcf, 0x11, 0xe6, 0x4f, 0x52,
  0xf4, 0xbc, 0xb1, 0xbe, 0xb2, 0xf0, 0xed, 0xda, 0x44, 0xea, 0x42, 0xd3,
  0xdc, 0xc8, 0xf6, 0xdc, 0xf8, 0x38, 0xc2, 0x62, 0x4e, 0xe4, 0x32, 0xfe,
  0x37, 0x02, 0x60, 0xe1, 0xff, 0x99, 0x1d, 0x90, 0xdb, 0x33, 0x3f, 0xd0,
  0x5b, 0x41, 0x4f, 0xb0, 0xe4, 0xa0, 0x14, 0x5e, 0xe6, 0xeb, 0x4a, 0x37,
  0x8d, 0xbe, 0x18, 0x34, 0x0e, 0xf2, 0xe1, 0xe8, 0x60, 0xad, 0xc9, 0xa6,
  0x3d, 0x91, 0x47, 0x1c, 0xde, 0xc5, 0x2c, 0x06, 0x45, 0xa7, 0xe7, 0xe8,
  0x04, 0xd5, 0xf6, 0xf0, 0xcf, 0x41, 0x46, 0x1b, 0x1a, 0xec, 0xec, 0x32,
  0x4f, 0x20, 0xce, 0x04, 0xc1, 0xf3, 0x0d, 0x45, 0x20, 0x1d, 0x42, 0xf0,
  0x15, 0xc4, 0xed, 0xeb, 0x05, 0xf1, 0x12, 0xe0, 0x11, 0xfd, 0x24, 0x21,
  0x0b, 0x1a, 0x0b, 0x3a, 0xd9, 0xdb, 0x37, 0x41, 0x1f, 0x04, 0x21, 0xc4,
  0xfb, 0xea, 0x0f, 0x3e, 0x2b, 0xeb, 0x0f, 0x1e, 0x22, 0xf9, 0x1b, 0x25,
  0x0a, 0xdf, 0xd5, 0x93, 0xc9, 0x18, 0x05, 0xc3, 0xda, 0xcb, 0xed, 0xff,
  0xdb, 0x01, 0xfc, 0xe0, 0x0e, 0x12, 0xbf, 0xbe, 0xbe, 0xb4, 0x31, 0x01,
  0xc9, 0x27, 0xd4, 0xc2, 0xe8, 0x81, 0xc2, 0x2e, 0x2b, 0xe7, 0xda, 0xb4,
  0xdb, 0x03, 0xdf, 0xb1, 0xc3, 0x2c, 0xe9, 0xbb, 0xb5, 0xf5, 0xd4, 0xeb,
  0x2e, 0xfc, 0x02, 0x10, 0xe5, 0xdc, 0xdf, 0x1e, 0xfc, 0xa9, 0xd9, 0xaf,
  0x1e, 0x31, 0xeb, 0x7a, 0x4c, 0xfe, 0xa0, 0x3a, 0x45, 0x9e, 0x5b, 0x08,
  0x0d, 0x3e, 0x10, 0xfe, 0xbc, 0xe7, 0xe3, 0xf7, 0xfd, 0xbf, 0x1c, 0x25,
  0x38, 0xbd, 0xed, 0xe4, 0xe8, 0x53, 0x0d, 0x42, 0xfe, 0x31, 0x59, 0x1f,
  0x06, 0x57, 0xf1, 0x39, 0x02, 0xcc, 0x3c, 0xf7, 0x22, 0x9e, 0x2b, 0x04,
  0xf2, 0xdb, 0x50, 0x53, 0x2c, 0x23, 0x73, 0xe9, 0xb8, 0x4e, 0xd0, 0x7f,
  0x40, 0x3a, 0x40, 0xc0, 0x21, 0xfd, 0x06, 0x42, 0x09, 0xaf, 0xbc, 0x47,
  0xd1, 0xe5, 0x4a, 0x12, 0x4a, 0xdd, 0x64, 0xc8, 0xcb, 0x0d, 0x9f, 0x03,
  0x02, 0x37, 0xee, 0x55, 0x11, 0xdd, 0xde, 0x04, 0x2a, 0xc6, 0x21, 0x39,
  0x6e, 0xd9, 0x69, 0xbe, 0x3a, 0xff, 0x0d, 0xde, 0xaf, 0x0b, 0xe6, 0xea,
  0x33, 0xa0, 0xd8, 0x48, 0xec, 0x49, 0x39, 0x1b, 0xfa, 0x37, 0x15, 0x8f,
  0xee, 0xe6, 0xf3, 0xfe, 0x3d, 0xdb, 0x3a, 0xbc, 0xfe, 0xf3, 0xff, 0xff,
  0x00, 0x00, 0x00, 0x09, 0x10, 0x00, 0x00, 0x00, 0x05, 0x00, 0x00, 0x00,
  0x1c, 0x00, 0x00, 0x00, 0x3c, 0x00, 0x00, 0x00, 0x04, 0x00, 0x00, 0x00,
  0x20, 0x00, 0x00, 0x00, 0x02, 0x00, 0x00, 0x00, 0x01, 0x00, 0x00, 0x00,
  0x40, 0x00, 0x00, 0x00, 0x1c, 0x00, 0x00, 0x00, 0x73, 0x65, 0x71, 0x75,
  0x65, 0x6e, 0x74, 0x69, 0x61, 0x6c, 0x5f, 0x31, 0x2f, 0x63, 0x6f, 0x6e,
  0x76, 0x32, 0x64, 0x5f, 0x34, 0x2f, 0x43, 0x6f, 0x6e, 0x76, 0x32, 0x44,
  0x00, 0x00, 0x00, 0x00, 0x8c, 0xf7, 0xff, 0xff, 0x08, 0x00, 0x00, 0x00,
  0x88, 0x00, 0x00, 0x00, 0x20, 0x00, 0x00, 0x00, 0xdd, 0xc4, 0xd9, 0x3a,
  0xae, 0x5c, 0xec, 0x3a, 0xa8, 0x8e, 0x23, 0x3b, 0x1c, 0x0b, 0xf7, 0x3a,
  0xf5, 0xa1, 0xcb, 0x3a, 0x93, 0x56, 0xdd, 0x3a, 0x42, 0x3a, 0xcb, 0x3a,
  0x82, 0x93, 0x16, 0x3b, 0xe5, 0x4b, 0xed, 0x3a, 0x99, 0x96, 0xe1, 0x3a,
  0x71, 0x57, 0xf4, 0x3a, 0x24, 0x80, 0xfe, 0x3a, 0x1b, 0xb1, 0xd5, 0x3a,
  0x29, 0x7c, 0xd7, 0x3a, 0xc3, 0x30, 0x0c, 0x3b, 0x80, 0x26, 0x0d, 0x3b,
  0x74, 0xe1, 0x09, 0x3b, 0x2f, 0xa5, 0x04, 0x3b, 0x44, 0x4d, 0x1d, 0x3b,
  0x96, 0x23, 0xef, 0x3a, 0x38, 0x2f, 0x37, 0x3b, 0x44, 0x70, 0xd8, 0x3a,
  0xc7, 0x83, 0xd1, 0x3a, 0xbf, 0x11, 0xc9, 0x3a, 0x7a, 0xf4, 0xf6, 0x3a,
  0x3e, 0x75, 0x0e, 0x3b, 0x60, 0xc4, 0xd9, 0x3a, 0x25, 0x0a, 0xd0, 0x3a,
  0xbc, 0x18, 0x16, 0x3b, 0xfb, 0x2c, 0xd1, 0x3a, 0x13, 0x68, 0x35, 0x3b,
  0x43, 0x98, 0xca, 0x3a, 0x20, 0x00, 0x00, 0x00, 0x00, 0x00, 0x00, 0x00,
  0x00, 0x00, 0x00, 0x00, 0x00, 0x00, 0x00, 0x00, 0x00, 0x00, 0x00, 0x00,
  0x00, 0x00, 0x00, 0x00, 0x00, 0x00, 0x00, 0x00, 0x00, 0x00, 0x00, 0x00,
  0x00, 0x00, 0x00, 0x00, 0x00, 0x00, 0x00, 0x00, 0x00, 0x00, 0x00, 0x00,
  0x00, 0x00, 0x00, 0x00, 0x00, 0x00, 0x00, 0x00, 0x00, 0x00, 0x00, 0x00,
  0x00, 0x00, 0x00, 0x00, 0x00, 0x00, 0x00, 0x00, 0x00, 0x00, 0x00, 0x00,
  0x00, 0x00, 0x00, 0x00, 0x00, 0x00, 0x00, 0x00, 0x00, 0x00, 0x00, 0x00,
  0x00, 0x00, 0x00, 0x00, 0x00, 0x00, 0x00, 0x00, 0x00, 0x00, 0x00, 0x00,
  0x00, 0x00, 0x00, 0x00, 0x00, 0x00, 0x00, 0x00, 0x00, 0x00, 0x00, 0x00,
  0x00, 0x00, 0x00, 0x00, 0x00, 0x00, 0x00, 0x00, 0x00, 0x00, 0x00, 0x00,
  0x00, 0x00, 0x00, 0x00, 0x00, 0x00, 0x00, 0x00, 0x00, 0x00, 0x00, 0x00,
  0x00, 0x00, 0x00, 0x00, 0x00, 0x00, 0x00, 0x00, 0x00, 0x00, 0x00, 0x00,
  0x00, 0x00, 0x00, 0x00, 0x00, 0x00, 0x00, 0x00, 0x00, 0x00, 0x00, 0x00,
  0x00, 0x00, 0x00, 0x00, 0x00, 0x00, 0x00, 0x00, 0x00, 0x00, 0x00, 0x00,
  0x00, 0x00, 0x00, 0x00, 0x00, 0x00, 0x00, 0x00, 0x00, 0x00, 0x00, 0x00,
  0x00, 0x00, 0x00, 0x00, 0x00, 0x00, 0x00, 0x00, 0x00, 0x00, 0x00, 0x00,
  0x00, 0x00, 0x00, 0x00, 0x00, 0x00, 0x00, 0x00, 0x00, 0x00, 0x00, 0x00,
  0x00, 0x00, 0x00, 0x00, 0x00, 0x00, 0x00, 0x00, 0x00, 0x00, 0x00, 0x00,
  0x00, 0x00, 0x00, 0x00, 0x00, 0x00, 0x00, 0x00, 0x00, 0x00, 0x00, 0x00,
  0x00, 0x00, 0x00, 0x00, 0x00, 0x00, 0x00, 0x00, 0x00, 0x00, 0x00, 0x00,
  0x00, 0x00, 0x00, 0x00, 0x00, 0x00, 0x00, 0x00, 0x00, 0x00, 0x00, 0x00,
  0x00, 0x00, 0x00, 0x00, 0x00, 0x00, 0x00, 0x00, 0x00, 0x00, 0x00, 0x00,
  0x00, 0x00, 0x00, 0x00, 0x02, 0xf6, 0xff, 0xff, 0x04, 0x00, 0x00, 0x00,
  0x00, 0x01, 0x00, 0x00, 0x31, 0xfe, 0xff, 0xff, 0xb4, 0xfe, 0xff, 0xff,
  0x00, 0x00, 0x00, 0x00, 0xa9, 0x01, 0x00, 0x00, 0x58, 0x00, 0x00, 0x00,
  0xed, 0xff, 0xff, 0xff, 0x86, 0xfe, 0xff, 0xff, 0x55, 0xff, 0xff, 0xff,
  0xc2, 0xfc, 0xff, 0xff, 0x2f, 0xfd, 0xff, 0xff, 0x8b, 0x00, 0x00, 0x00,
  0x38, 0xff, 0xff, 0xff, 0x58, 0x00, 0x00, 0x00, 0x2e, 0x00, 0x00, 0x00,
  0xdf, 0xff, 0xff, 0xff, 0xac, 0xff, 0xff, 0xff, 0x23, 0x00, 0x00, 0x00,
  0xa5, 0xff, 0xff, 0xff, 0x51, 0x00, 0x00, 0x00, 0xea, 0xfc, 0xff, 0xff,
  0x33, 0xfd, 0xff, 0xff, 0x25, 0xff, 0xff, 0xff, 0xa5, 0xfe, 0xff, 0xff,
  0xaa, 0xfd, 0xff, 0xff, 0xc4, 0xfd, 0xff, 0xff, 0x69, 0xfe, 0xff, 0xff,
  0x43, 0x0a, 0x00, 0x00, 0x3a, 0xfe, 0xff, 0xff, 0xee, 0xff, 0xff, 0xff,
  0x26, 0xfc, 0xff, 0xff, 0x98, 0xfe, 0xff, 0xff, 0x45, 0xff, 0xff, 0xff,
  0x14, 0xff, 0xff, 0xff, 0xf9, 0xfe, 0xff, 0xff, 0x74, 0xfd, 0xff, 0xff,
  0xbc, 0xfd, 0xff, 0xff, 0xa2, 0xfe, 0xff, 0xff, 0xd3, 0xff, 0xff, 0xff,
  0x71, 0xfe, 0xff, 0xff, 0xed, 0xff, 0xff, 0xff, 0xd2, 0xff, 0xff, 0xff,
  0xb8, 0xfd, 0xff, 0xff, 0x72, 0xff, 0xff, 0xff, 0x26, 0xff, 0xff, 0xff,
  0xf4, 0xfe, 0xff, 0xff, 0xce, 0x03, 0x00, 0x00, 0xdf, 0xff, 0xff, 0xff,
  0x10, 0xfe, 0xff, 0xff, 0xe1, 0x02, 0x00, 0x00, 0xdd, 0xff, 0xff, 0xff,
  0x17, 0x01, 0x00, 0x00, 0x47, 0x02, 0x00, 0x00, 0x8c, 0xfe, 0xff, 0xff,
  0x48, 0xfe, 0xff, 0xff, 0x66, 0x01, 0x00, 0x00, 0x5b, 0x03, 0x00, 0x00,
  0x2d, 0xfa, 0xff, 0xff, 0x50, 0x00, 0x00, 0x00, 0x3b, 0xfe, 0xff, 0xff,
  0xbc, 0xfd, 0xff, 0xff, 0x09, 0xfe, 0xff, 0xff, 0x39, 0xff, 0xff, 0xff,
  0xcc, 0xfe, 0xff, 0xff, 0x61, 0xff, 0xff, 0xff, 0xf2, 0xf6, 0xff, 0xff,
  0x00, 0x00, 0x00, 0x02, 0x10, 0x00, 0x00, 0x00, 0x04, 0x00, 0x00, 0x00,
  0x10, 0x00, 0x00, 0x00, 0x48, 0x00, 0x00, 0x00, 0x01, 0x00, 0x00, 0x00,
  0x40, 0x00, 0x00, 0x00, 0x35, 0x00, 0x00, 0x00, 0x73, 0x65, 0x71, 0x75,
  0x65, 0x6e, 0x74, 0x69, 0x61, 0x6c, 0x5f, 0x31, 0x2f, 0x63, 0x6f, 0x6e,
  0x76, 0x32, 0x64, 0x5f, 0x33, 0x2f, 0x42, 0x69, 0x61, 0x73, 0x41, 0x64,
  0x64, 0x2f, 0x52, 0x65, 0x61, 0x64, 0x56, 0x61, 0x72, 0x69, 0x61, 0x62,
  0x6c, 0x65, 0x4f, 0x70, 0x2f, 0x72, 0x65, 0x73, 0x6f, 0x75, 0x72, 0x63,
  0x65, 0x00, 0x00, 0x00, 0x8c, 0xfa, 0xff, 0xff, 0x08, 0x00, 0x00, 0x00,
  0x08, 0x01, 0x00, 0x00, 0x40, 0x00, 0x00, 0x00, 0xfb, 0x35, 0xc1, 0x39,
  0x97, 0xf1, 0x82, 0x39, 0xbf, 0x1d, 0x08, 0x3a, 0xe1, 0x58, 0xba, 0x39,
  0xaa, 0x0d, 0xba, 0x39, 0xed, 0xe9, 0xdd, 0x39, 0x65, 0x65, 0x02, 0x3a,
  0x48, 0x99, 0x30, 0x3a, 0x84, 0x4f, 0x88, 0x39, 0x7a, 0xd4, 0xb2, 0x39,
  0x63, 0x70, 0x09, 0x3a, 0xa5, 0xbc, 0x23, 0x3a, 0xc4, 0x19, 0xb9, 0x39,
  0x65, 0xbe, 0xf3, 0x39, 0xee, 0xda, 0x01, 0x3a, 0xbf, 0xbe, 0x03, 0x3a,
  0xf3, 0xd9, 0xe2, 0x39, 0xde, 0x40, 0x1c, 0x3a, 0x0d, 0x95, 0x27, 0x3a,
  0x56, 0xb2, 0xfe, 0x39, 0x04, 0x59, 0xe4, 0x39, 0x52, 0x29, 0xd4, 0x39,
  0xb8, 0x0b, 0xcd, 0x39, 0xca, 0x46, 0xdc, 0x39, 0x5a, 0x1e, 0xda, 0x39,
  0x8d, 0x3c, 0xf3, 0x39, 0x2d, 0xd4, 0x2d, 0x39, 0xe8, 0x40, 0xb7, 0x39,
  0x13, 0x6c, 0x22, 0x3a, 0xcd, 0x65, 0xe5, 0x39, 0x69, 0xe7, 0x1d, 0x3a,
  0xc3, 0xd6, 0xdc, 0x39, 0xe5, 0xf9, 0x0a, 0x3a, 0x38, 0x60, 0xce, 0x39,
  0x5f, 0x21, 0xe8, 0x39, 0x36, 0xec, 0xc7, 0x39, 0xcd, 0xbd, 0x92, 0x39,
  0xb0, 0x49, 0x1a, 0x3a, 0x98, 0x8b, 0xc5, 0x39, 0x99, 0x86, 0xea, 0x39,
  0x28, 0xc7, 0x0a, 0x3a, 0xea, 0xc9, 0xff, 0x39, 0xba, 0xc3, 0x07, 0x3a,
  0xac, 0x5b, 0xd5, 0x39, 0xc6, 0x6e, 0x0f, 0x3a, 0x46, 0xc0, 0x8b, 0x39,
  0xef, 0xba, 0x13, 0x3a, 0x27, 0x2e, 0xe3, 0x39, 0x96, 0x0b, 0x01, 0x3a,
  0xfb, 0x29, 0xc1, 0x39, 0x23, 0x05, 0xce, 0x39, 0x7c, 0xc3, 0x93, 0x39,
  0xf7, 0x94, 0xc5, 0x39, 0xcf, 0xda, 0xdd, 0x39, 0x12, 0x56, 0x14, 0x3a,
  0x4a, 0xb2, 0x9b, 0x39, 0x3d, 0x2a, 0x77, 0x39, 0xbd, 0x4f, 0x0b, 0x3a,
  0x54, 0x79, 0xc5, 0x39, 0x77, 0xd6, 0xeb, 0x39, 0x92, 0xf3, 0xb0, 0x39,
  0x4e, 0x6a, 0xd1, 0x39, 0x1f, 0xb1, 0xc4, 0x39, 0xe4, 0xf6, 0x22, 0x3a,
  0x40, 0x00, 0x00, 0x00, 0x00, 0x00, 0x00, 0x00, 0x00, 0x00, 0x00, 0x00,
  0x00, 0x00, 0x00, 0x00, 0x00, 0x00, 0x00, 0x00, 0x00, 0x00, 0x00, 0x00,
  0x00, 0x00, 0x00, 0x00, 0x00, 0x00, 0x00, 0x00, 0x00, 0x00, 0x00, 0x00,
  0x00, 0x00, 0x00, 0x00, 0x00, 0x00, 0x00, 0x00, 0x00, 0x00, 0x00, 0x00,
  0x00, 0x00, 0x00, 0x00, 0x00, 0x00, 0x00, 0x00, 0x00, 0x00, 0x00, 0x00,
  0x00, 0x00, 0x00, 0x00, 0x00, 0x00, 0x00, 0x00, 0x00, 0x00, 0x00, 0x00,
  0x00, 0x00, 0x00, 0x00, 0x00, 0x00, 0x00, 0x00, 0x00, 0x00, 0x00, 0x00,
  0x00, 0x00, 0x00, 0x00, 0x00, 0x00, 0x00, 0x00, 0x00, 0x00, 0x00, 0x00,
  0x00, 0x00, 0x00, 0x00, 0x00, 0x00, 0x00, 0x00, 0x00, 0x00, 0x00, 0x00,
  0x00, 0x00, 0x00, 0x00, 0x00, 0x00, 0x00, 0x00, 0x00, 0x00, 0x00, 0x00,
  0x00, 0x00, 0x00, 0x00, 0x00, 0x00, 0x00, 0x00, 0x00, 0x00, 0x00, 0x00,
  0x00, 0x00, 0x00, 0x00, 0x00, 0x00, 0x00, 0x00, 0x00, 0x00, 0x00, 0x00,
  0x00, 0x00, 0x00, 0x00, 0x00, 0x00, 0x00, 0x00, 0x00, 0x00, 0x00, 0x00,
  0x00, 0x00, 0x00, 0x00, 0x00, 0x00, 0x00, 0x00, 0x00, 0x00, 0x00, 0x00,
  0x00, 0x00, 0x00, 0x00, 0x00, 0x00, 0x00, 0x00, 0x00, 0x00, 0x00, 0x00,
  0x00, 0x00, 0x00, 0x00, 0x00, 0x00, 0x00, 0x00, 0x00, 0x00, 0x00, 0x00,
  0x00, 0x00, 0x00, 0x00, 0x00, 0x00, 0x00, 0x00, 0x00, 0x00, 0x00, 0x00,
  0x00, 0x00, 0x00, 0x00, 0x00, 0x00, 0x00, 0x00, 0x00, 0x00, 0x00, 0x00,
  0x00, 0x00, 0x00, 0x00, 0x00, 0x00, 0x00, 0x00, 0x00, 0x00, 0x00, 0x00,
  0x00, 0x00, 0x00, 0x00, 0x00, 0x00, 0x00, 0x00, 0x00, 0x00, 0x00, 0x00,
  0x00, 0x00, 0x00, 0x00, 0x00, 0x00, 0x00, 0x00, 0x00, 0x00, 0x00, 0x00,
  0x00, 0x00, 0x00, 0x00, 0x00, 0x00, 0x00, 0x00, 0x00, 0x00, 0x00, 0x00,
  0x00, 0x00, 0x00, 0x00, 0x00, 0x00, 0x00, 0x00, 0x00, 0x00, 0x00, 0x00,
  0x00, 0x00, 0x00, 0x00, 0x00, 0x00, 0x00, 0x00, 0x00, 0x00, 0x00, 0x00,
  0x00, 0x00, 0x00, 0x00, 0x00, 0x00, 0x00, 0x00, 0x00, 0x00, 0x00, 0x00,
  0x00, 0x00, 0x00, 0x00, 0x00, 0x00, 0x00, 0x00, 0x00, 0x00, 0x00, 0x00,
  0x00, 0x00, 0x00, 0x00, 0x00, 0x00, 0x00, 0x00, 0x00, 0x00, 0x00, 0x00,
  0x00, 0x00, 0x00, 0x00, 0x00, 0x00, 0x00, 0x00, 0x00, 0x00, 0x00, 0x00,
  0x00, 0x00, 0x00, 0x00, 0x00, 0x00, 0x00, 0x00, 0x00, 0x00, 0x00, 0x00,
  0x00, 0x00, 0x00, 0x00, 0x00, 0x00, 0x00, 0x00, 0x00, 0x00, 0x00, 0x00,
  0x00, 0x00, 0x00, 0x00, 0x00, 0x00, 0x00, 0x00, 0x00, 0x00, 0x00, 0x00,
  0x00, 0x00, 0x00, 0x00, 0x00, 0x00, 0x00, 0x00, 0x00, 0x00, 0x00, 0x00,
  0x00, 0x00, 0x00, 0x00, 0x00, 0x00, 0x00, 0x00, 0x00, 0x00, 0x00, 0x00,
  0x00, 0x00, 0x00, 0x00, 0x00, 0x00, 0x00, 0x00, 0x00, 0x00, 0x00, 0x00,
  0x00, 0x00, 0x00, 0x00, 0x00, 0x00, 0x00, 0x00, 0x00, 0x00, 0x00, 0x00,
  0x00, 0x00, 0x00, 0x00, 0x00, 0x00, 0x00, 0x00, 0x00, 0x00, 0x00, 0x00,
  0x00, 0x00, 0x00, 0x00, 0x00, 0x00, 0x00, 0x00, 0x00, 0x00, 0x00, 0x00,
  0x00, 0x00, 0x00, 0x00, 0x00, 0x00, 0x00, 0x00, 0x00, 0x00, 0x00, 0x00,
  0x00, 0x00, 0x00, 0x00, 0x00, 0x00, 0x00, 0x00, 0x00, 0x00, 0x00, 0x00,
  0x00, 0x00, 0x00, 0x00, 0x00, 0x00, 0x00, 0x00, 0x00, 0x00, 0x00, 0x00,
  0x00, 0x00, 0x00, 0x00, 0x00, 0x00, 0x00, 0x00, 0x00, 0x00, 0x00, 0x00,
  0x00, 0x00, 0x00, 0x00, 0x00, 0x00, 0x00, 0x00, 0x00, 0x00, 0x00, 0x00,
  0x00, 0x00, 0x00, 0x00, 0x00, 0x00, 0x00, 0x00, 0x00, 0x00, 0x00, 0x00,
  0x00, 0x00, 0x00, 0x00, 0x82, 0xfa, 0xff, 0xff, 0x04, 0x00, 0x00, 0x00,
  0x00, 0x02, 0x00, 0x00, 0x7f, 0x23, 0x14, 0xfa, 0x81, 0x62, 0x4e, 0x9e,
  0x30, 0x70, 0x7f, 0x5b, 0xc5, 0x77, 0xf7, 0x5c, 0xc4, 0x7f, 0xaf, 0x53,
  0x9a, 0x41, 0xb9, 0x2d, 0xc7, 0xb2, 0x7a, 0x1f, 0x3e, 0x7f, 0x0a, 0xb5,
  0x64, 0x7f, 0xfc, 0x9b, 0xdf, 0x93, 0xdf, 0x0d, 0x57, 0xaa, 0xfb, 0x3c,
  0xad, 0x52, 0x81, 0x57, 0x8c, 0x81, 0xf7, 0x89, 0x09, 0x84, 0x31, 0x12,
  0x0e, 0x28, 0xd2, 0x29, 0xcd, 0x4f, 0x2f, 0x7f, 0x19, 0x90, 0xbc, 0x63,
  0xc2, 0x04, 0x7f, 0xc4, 0xc5, 0x24, 0x81, 0x1a, 0xbc, 0xed, 0xd2, 0xc5,
  0xca, 0x5d, 0x22, 0x34, 0x2c, 0x81, 0x3c, 0xd7, 0x18, 0x09, 0xc8, 0x19,
  0x8e, 0xd0, 0x7f, 0xf9, 0xc8, 0xb8, 0xa7, 0x44, 0xc6, 0x2c, 0x90, 0x7f,
  0x00, 0x60, 0x00, 0xa1, 0x0e, 0x81, 0x26, 0xea, 0xf6, 0x56, 0x26, 0xaa,
  0xe3, 0x9e, 0x03, 0x7f, 0x06, 0x7e, 0xe5, 0x7a, 0xee, 0x3c, 0x0c, 0x7f,
  0xc3, 0x7f, 0x40, 0x5b, 0x05, 0x91, 0xf9, 0xdd, 0xc5, 0x81, 0x07, 0x0e,
  0x39, 0x21, 0xd4, 0xe2, 0x3b, 0x81, 0x18, 0xac, 0x2a, 0xc1, 0x46, 0xda,
  0x0b, 0xc7, 0x13, 0x3a, 0xe8, 0xeb, 0xe2, 0x81, 0xf0, 0x43, 0x36, 0x81,
  0xb8, 0x27, 0x54, 0x1b, 0x81, 0x5e, 0x5f, 0x72, 0x04, 0x97, 0xda, 0x71,
  0xb8, 0x12, 0xa4, 0xef, 0x7f, 0x1f, 0x3d, 0xb3, 0x81, 0xa1, 0xb4, 0x40,
  0x61, 0x30, 0x60, 0xae, 0x45, 0x81, 0x83, 0xb7, 0xe7, 0x27, 0x36, 0x64,
  0xf7, 0xbc, 0x5d, 0x0e, 0x49, 0xef, 0x7f, 0x3a, 0x62, 0x99, 0x9c, 0x7f,
  0xde, 0xb5, 0x69, 0x84, 0x10, 0x81, 0xfd, 0x60, 0x1b, 0xfa, 0x15, 0x94,
  0xd9, 0xce, 0x7f, 0x23, 0x00, 0xde, 0xea, 0xd8, 0x81, 0x31, 0xac, 0x26,
  0xdb, 0xf8, 0x24, 0x0e, 0xf6, 0xe4, 0x24, 0xe0, 0x26, 0x08, 0x7f, 0xea,
  0x7e, 0x7f, 0x50, 0x9d, 0x64, 0xe9, 0xe7, 0xd9, 0x10, 0x19, 0x97, 0xc5,
  0xeb, 0xd2, 0x7f, 0x45, 0x19, 0xff, 0x2d, 0x07, 0x2c, 0x7f, 0x18, 0x6e,
  0xc4, 0xcc, 0x01, 0xca, 0x2f, 0x0d, 0xc1, 0x7f, 0x14, 0xc2, 0x7b, 0xd0,
  0x72, 0xcc, 0x7f, 0x44, 0xf6, 0xcb, 0xe7, 0x65, 0x25, 0x81, 0xf7, 0x70,
  0x18, 0x40, 0x15, 0xaf, 0xee, 0xe5, 0xe3, 0x7f, 0xdd, 0x81, 0xf5, 0x1b,
  0x0b, 0x75, 0xae, 0x2b, 0xc5, 0x0e, 0x81, 0xc4, 0xca, 0xd3, 0x01, 0xc8,
  0x7f, 0x24, 0xe3, 0x04, 0x08, 0xe8, 0x47, 0xf6, 0x21, 0x14, 0xe2, 0x15,
  0x81, 0xbc, 0x5e, 0x39, 0x40, 0x27, 0xf4, 0x54, 0xe9, 0xb7, 0xd1, 0x81,
  0xf3, 0x4d, 0x0b, 0x07, 0xcb, 0xc9, 0xf4, 0x81, 0xc9, 0xe7, 0xad, 0x2a,
  0x98, 0x0a, 0x81, 0x3b, 0xd4, 0x81, 0xd7, 0xf3, 0x49, 0xe8, 0xfe, 0xdc,
  0x3e, 0xda, 0x7f, 0x2f, 0x48, 0x17, 0x58, 0x1b, 0xc9, 0xa5, 0xe6, 0xf5,
  0xef, 0x46, 0xb9, 0x7f, 0x27, 0x9a, 0x14, 0x32, 0xbc, 0x09, 0xe6, 0x7f,
  0x50, 0xd6, 0xea, 0x2a, 0x82, 0xad, 0x7f, 0xd5, 0xa5, 0x49, 0x7f, 0xbd,
  0x06, 0x48, 0x34, 0x3f, 0xfd, 0x37, 0x1f, 0x86, 0x19, 0x23, 0x7f, 0x10,
  0x0e, 0x7f, 0x37, 0x52, 0xd6, 0xcc, 0x9c, 0xa6, 0x81, 0x3c, 0x4a, 0x50,
  0x9b, 0xac, 0x65, 0xb8, 0x2f, 0x3e, 0xc3, 0xe4, 0xcf, 0x0e, 0x81, 0xf7,
  0xd2, 0xba, 0x0b, 0xd9, 0x9a, 0xba, 0xc4, 0x81, 0x99, 0x7f, 0x22, 0xa7,
  0x24, 0xaf, 0xb4, 0x93, 0x60, 0x7f, 0x9b, 0xba, 0x6e, 0x03, 0xe7, 0x0b,
  0x5b, 0xd2, 0x7f, 0xae, 0x72, 0xd9, 0x64, 0xe2, 0x7f, 0xb5, 0x23, 0x35,
  0xcf, 0xdf, 0x24, 0x06, 0x77, 0x65, 0xf3, 0xc3, 0x8b, 0xce, 0x7f, 0xf8,
  0x98, 0x78, 0x47, 0xd2, 0x8c, 0x6b, 0x3b, 0x7f, 0x18, 0x81, 0xc0, 0xe5,
  0xfc, 0x59, 0x11, 0x50, 0x38, 0x7f, 0xc5, 0x4e, 0xe6, 0x12, 0x2a, 0x13,
  0x72, 0xfc, 0xff, 0xff, 0x00, 0x00, 0x00, 0x09, 0x10, 0x00, 0x00, 0x00,
  0x03, 0x00, 0x00, 0x00, 0x1c, 0x00, 0x00, 0x00, 0x48, 0x00, 0x00, 0x00,
  0x04, 0x00, 0x00, 0x00, 0x40, 0x00, 0x00, 0x00, 0x04, 0x00, 0x00, 0x00,
  0x02, 0x00, 0x00, 0x00, 0x01, 0x00, 0x00, 0x00, 0x1c, 0x00, 0x00, 0x00,
  0x73, 0x65, 0x71, 0x75, 0x65, 0x6e, 0x74, 0x69, 0x61, 0x6c, 0x5f, 0x31,
  0x2f, 0x63, 0x6f, 0x6e, 0x76, 0x32, 0x64, 0x5f, 0x33, 0x2f, 0x43, 0x6f,
  0x6e, 0x76, 0x32, 0x44, 0x00, 0x00, 0x00, 0x00, 0x0c, 0x00, 0x0c, 0x00,
  0x00, 0x00, 0x00, 0x00, 0x04, 0x00, 0x08, 0x00, 0x0c, 0x00, 0x00, 0x00,
  0x08, 0x00, 0x00, 0x00, 0x08, 0x01, 0x00, 0x00, 0x40, 0x00, 0x00, 0x00,
  0x15, 0x53, 0x21, 0x3a, 0xca, 0xaa, 0xda, 0x39, 0x0a, 0x4e, 0x63, 0x3a,
  0xf6, 0x97, 0x1b, 0x3a, 0x29, 0x59, 0x1b, 0x3a, 0x5e, 0x4a, 0x39, 0x3a,
  0xab, 0xc0, 0x59, 0x3a, 0x39, 0x74, 0x93, 0x3a, 0x27, 0xa1, 0xe3, 0x39,
  0x26, 0x51, 0x15, 0x3a, 0x8b, 0x83, 0x65, 0x3a, 0xfb, 0xb6, 0x88, 0x3a,
  0x83, 0x8d, 0x1a, 0x3a, 0x8d, 0x84, 0x4b, 0x3a, 0x71, 0xd9, 0x58, 0x3a,
  0x63, 0x01, 0x5c, 0x3a, 0xc9, 0x69, 0x3d, 0x3a, 0x5f, 0x77, 0x82, 0x3a,
  0xed, 0xec, 0x8b, 0x3a, 0xbf, 0xa9, 0x54, 0x3a, 0xa2, 0xa9, 0x3e, 0x3a,
  0xc9, 0x25, 0x31, 0x3a, 0xcf, 0x34, 0x2b, 0x3a, 0x67, 0xec, 0x37, 0x3a,
  0x23, 0x1f, 0x36, 0x3a, 0x22, 0x18, 0x4b, 0x3a, 0x24, 0x24, 0x91, 0x39,
  0xb1, 0x02, 0x19, 0x3a, 0xf5, 0x9d, 0x87, 0x3a, 0x0f, 0x8a, 0x3f, 0x3a,
  0x2e, 0xd8, 0x83, 0x3a, 0x9d, 0x64, 0x38, 0x3a, 0xad, 0x14, 0x68, 0x3a,
  0x1e, 0x51, 0x2c, 0x3a, 0x2d, 0xd2, 0x41, 0x3a, 0xbf, 0xed, 0x26, 0x3a,
  0x59, 0x0c, 0xf5, 0x39, 0x3c, 0xd3, 0x80, 0x3a, 0x92, 0xf1, 0x24, 0x3a,
  0x33, 0xd2, 0x43, 0x3a, 0xf3, 0xbf, 0x67, 0x3a, 0x2f, 0x93, 0x55, 0x3a,
  0xb6, 0xb7, 0x62, 0x3a, 0x94, 0x25, 0x32, 0x3a, 0xdf, 0x85, 0x6f, 0x3a,
  0xf5, 0x5f, 0xe9, 0x39, 0x0f, 0xb3, 0x76, 0x3a, 0x17, 0xb0, 0x3d, 0x3a,
  0x32, 0x7f, 0x57, 0x3a, 0x10, 0x49, 0x21, 0x3a, 0x11, 0x05, 0x2c, 0x3a,
  0x58, 0xc1, 0xf6, 0x39, 0x65, 0xf9, 0x24, 0x3a, 0xbf, 0x3d, 0x39, 0x3a,
  0x21, 0xb6, 0x77, 0x3a, 0x53, 0x00, 0x02, 0x3a, 0xd9, 0x5f, 0xce, 0x39,
  0x08, 0xa4, 0x68, 0x3a, 0x52, 0xe2, 0x24, 0x3a, 0xa3, 0xea, 0x44, 0x3a,
  0x9c, 0xbf, 0x13, 0x3a, 0xcb, 0xda, 0x2e, 0x3a, 0x27, 0x3b, 0x24, 0x3a,
  0xdd, 0x11, 0x88, 0x3a, 0x40, 0x00, 0x00, 0x00, 0x00, 0x00, 0x00, 0x00,
  0x00, 0x00, 0x00, 0x00, 0x00, 0x00, 0x00, 0x00, 0x00, 0x00, 0x00, 0x00,
  0x00, 0x00, 0x00, 0x00, 0x00, 0x00, 0x00, 0x00, 0x00, 0x00, 0x00, 0x00,
  0x00, 0x00, 0x00, 0x00, 0x00, 0x00, 0x00, 0x00, 0x00, 0x00, 0x00, 0x00,
  0x00, 0x00, 0x00, 0x00, 0x00, 0x00, 0x00, 0x00, 0x00, 0x00, 0x00, 0x00,
  0x00, 0x00, 0x00, 0x00, 0x00, 0x00, 0x00, 0x00, 0x00, 0x00, 0x00, 0x00,
  0x00, 0x00, 0x00, 0x00, 0x00, 0x00, 0x00, 0x00, 0x00, 0x00, 0x00, 0x00,
  0x00, 0x00, 0x00, 0x00, 0x00, 0x00, 0x00, 0x00, 0x00, 0x00, 0x00, 0x00,
  0x00, 0x00, 0x00, 0x00, 0x00, 0x00, 0x00, 0x00, 0x00, 0x00, 0x00, 0x00,
  0x00, 0x00, 0x00, 0x00, 0x00, 0x00, 0x00, 0x00, 0x00, 0x00, 0x00, 0x00,
  0x00, 0x00, 0x00, 0x00, 0x00, 0x00, 0x00, 0x00, 0x00, 0x00, 0x00, 0x00,
  0x00, 0x00, 0x00, 0x00, 0x00, 0x00, 0x00, 0x00, 0x00, 0x00, 0x00, 0x00,
  0x00, 0x00, 0x00, 0x00, 0x00, 0x00, 0x00, 0x00, 0x00, 0x00, 0x00, 0x00,
  0x00, 0x00, 0x00, 0x00, 0x00, 0x00, 0x00, 0x00, 0x00, 0x00, 0x00, 0x00,
  0x00, 0x00, 0x00, 0x00, 0x00, 0x00, 0x00, 0x00, 0x00, 0x00, 0x00, 0x00,
  0x00, 0x00, 0x00, 0x00, 0x00, 0x00, 0x00, 0x00, 0x00, 0x00, 0x00, 0x00,
  0x00, 0x00, 0x00, 0x00, 0x00, 0x00, 0x00, 0x00, 0x00, 0x00, 0x00, 0x00,
  0x00, 0x00, 0x00, 0x00, 0x00, 0x00, 0x00, 0x00, 0x00, 0x00, 0x00, 0x00,
  0x00, 0x00, 0x00, 0x00, 0x00, 0x00, 0x00, 0x00, 0x00, 0x00, 0x00, 0x00,
  0x00, 0x00, 0x00, 0x00, 0x00, 0x00, 0x00, 0x00, 0x00, 0x00, 0x00, 0x00,
  0x00, 0x00, 0x00, 0x00, 0x00, 0x00, 0x00, 0x00, 0x00, 0x00, 0x00, 0x00,
  0x00, 0x00, 0x00, 0x00, 0x00, 0x00, 0x00, 0x00, 0x00, 0x00, 0x00, 0x00,
  0x00, 0x00, 0x00, 0x00, 0x00, 0x00, 0x00, 0x00, 0x00, 0x00, 0x00, 0x00,
  0x00, 0x00, 0x00, 0x00, 0x00, 0x00, 0x00, 0x00, 0x00, 0x00, 0x00, 0x00,
  0x00, 0x00, 0x00, 0x00, 0x00, 0x00, 0x00, 0x00, 0x00, 0x00, 0x00, 0x00,
  0x00, 0x00, 0x00, 0x00, 0x00, 0x00, 0x00, 0x00, 0x00, 0x00, 0x00, 0x00,
  0x00, 0x00, 0x00, 0x00, 0x00, 0x00, 0x00, 0x00, 0x00, 0x00, 0x00, 0x00,
  0x00, 0x00, 0x00, 0x00, 0x00, 0x00, 0x00, 0x00, 0x00, 0x00, 0x00, 0x00,
  0x00, 0x00, 0x00, 0x00, 0x00, 0x00, 0x00, 0x00, 0x00, 0x00, 0x00, 0x00,
  0x00, 0x00, 0x00, 0x00, 0x00, 0x00, 0x00, 0x00, 0x00, 0x00, 0x00, 0x00,
  0x00, 0x00, 0x00, 0x00, 0x00, 0x00, 0x00, 0x00, 0x00, 0x00, 0x00, 0x00,
  0x00, 0x00, 0x00, 0x00, 0x00, 0x00, 0x00, 0x00, 0x00, 0x00, 0x00, 0x00,
  0x00, 0x00, 0x00, 0x00, 0x00, 0x00, 0x00, 0x00, 0x00, 0x00, 0x00, 0x00,
  0x00, 0x00, 0x00, 0x00, 0x00, 0x00, 0x00, 0x00, 0x00, 0x00, 0x00, 0x00,
  0x00, 0x00, 0x00, 0x00, 0x00, 0x00, 0x00, 0x00, 0x00, 0x00, 0x00, 0x00,
  0x00, 0x00, 0x00, 0x00, 0x00, 0x00, 0x00, 0x00, 0x00, 0x00, 0x00, 0x00,
  0x00, 0x00, 0x00, 0x00, 0x00, 0x00, 0x00, 0x00, 0x00, 0x00, 0x00, 0x00,
  0x00, 0x00, 0x00, 0x00, 0x00, 0x00, 0x00, 0x00, 0x00, 0x00, 0x00, 0x00,
  0x00, 0x00, 0x00, 0x00, 0x00, 0x00, 0x00, 0x00, 0x00, 0x00, 0x00, 0x00,
  0x00, 0x00, 0x00, 0x00, 0x00, 0x00, 0x00, 0x00, 0x00, 0x00, 0x00, 0x00,
  0x00, 0x00, 0x00, 0x00, 0x00, 0x00, 0x00, 0x00, 0x00, 0x00, 0x00, 0x00,
  0x00, 0x00, 0x00, 0x00, 0x00, 0x00, 0x00, 0x00, 0x00, 0x00, 0x00, 0x00,
  0x00, 0x00, 0x00, 0x00, 0x00, 0x00, 0x00, 0x00, 0x00, 0x00, 0x00, 0x00,
  0x00, 0x00, 0x00, 0x00, 0x00, 0x00, 0x06, 0x00, 0x08, 0x00, 0x04, 0x00,
  0x06, 0x00, 0x00, 0x00, 0x04, 0x00, 0x00, 0x00, 0x08, 0x00, 0x00, 0x00,
  0xff, 0xff, 0xff, 0xff, 0x20, 0x00, 0x00, 0x00, 0x00, 0x00, 0x0e, 0x00,
  0x18, 0x00, 0x08, 0x00, 0x07, 0x00, 0x0c, 0x00, 0x10, 0x00, 0x14, 0x00,
  0x0e, 0x00, 0x00, 0x00, 0x00, 0x00, 0x00, 0x02, 0x10, 0x00, 0x00, 0x00,
  0x02, 0x00, 0x00, 0x00, 0x10, 0x00, 0x00, 0x00, 0x30, 0x00, 0x00, 0x00,
  0x01, 0x00, 0x00, 0x00, 0x02, 0x00, 0x00, 0x00, 0x1c, 0x00, 0x00, 0x00,
  0x73, 0x65, 0x71, 0x75, 0x65, 0x6e, 0x74, 0x69, 0x61, 0x6c, 0x5f, 0x31,
  0x2f, 0x66, 0x6c, 0x61, 0x74, 0x74, 0x65, 0x6e, 0x5f, 0x31, 0x2f, 0x43,
  0x6f, 0x6e, 0x73, 0x74, 0x00, 0x00, 0x00, 0x00, 0x90, 0xff, 0xff, 0xff,
  0x14, 0x00, 0x18, 0x00, 0x04, 0x00, 0x00, 0x00, 0x08, 0x00, 0x0c, 0x00,
  0x10, 0x00, 0x00, 0x00, 0x00, 0x00, 0x14, 0x00, 0x14, 0x00, 0x00, 0x00,
  0x14, 0x00, 0x00, 0x00, 0x01, 0x00, 0x00, 0x00, 0x34, 0x00, 0x00, 0x00,
  0x44, 0x00, 0x00, 0x00, 0x18, 0x00, 0x00, 0x00, 0x04, 0x00, 0x00, 0x00,
  0x01, 0x00, 0x00, 0x00, 0x18, 0x00, 0x00, 0x00, 0x03, 0x00, 0x00, 0x00,
  0x01, 0x00, 0x00, 0x00, 0x04, 0x00, 0x00, 0x00, 0xff, 0xff, 0xff, 0xff,
  0x18, 0x00, 0x00, 0x00, 0x03, 0x00, 0x00, 0x00, 0x01, 0x00, 0x00, 0x00,
  0x0e, 0x00, 0x00, 0x00, 0x63, 0x6f, 0x6e, 0x76, 0x32, 0x64, 0x5f, 0x33,
  0x5f, 0x69, 0x6e, 0x70, 0x75, 0x74, 0x00, 0x00, 0xfc, 0xff, 0xff, 0xff,
  0x04, 0x00, 0x04, 0x00, 0x04, 0x00, 0x00, 0x00
};

#endif
#endif //HAR_3XCNN2D_QUANTIZED_H