#ifndef MODEL_47_TENSORFLOW_H
#define MODEL_47_TENSORFLOW_H

#define APP_ACTIVITY_MODEL_NAME model_47_tensorflow
#define APP_ACTIVITY_RECOGNITION_PRECISION_FLOAT (0)
#define APP_ACTIVITY_RECOGNITION_SENSOR_SCALE (2)
#define APP_ACTIVITY_RECOGNITION_SENSOR_RESOLUTION (8)
#define APP_ACTIVITY_RECOGNITION_SAMPLING_FREQUENCY (10)
#define APP_ACTIVITY_RECOGNITION_FREQUENCY_DIVIDER (0)
#define APP_ACTIVITY_RECOGNITION_HIGHPASS_STAGES (2)
#define APP_ACTIVITY_RECOGNITION_INPUT_SIZE (192)
#define APP_ACTIVITY_RECOGNITION_STEP_SIZE (32)
#define APP_ACTIVITY_RECOGNITION_CLASS_COUNT (6)

#ifdef INCLUDE_MODEL
static const float highpass_coefficients[] = {0.2069928239055942f, -0.2069928239055942f, 0.0f, 0.2068179864931189f, -0.0f, 0.25f, -0.5f, 0.25f, 0.4490699651581907f, -0.2071676613180694f};
static const char* APP_ACTIVITY_RECOGNITION_CLASSES[] = {"jog","skip","stDown","stUp","stay","walk"};
static const size_t model_47_tensorflow_len = 10928;
static const uint8_t model_47_tensorflow[] = {
 0x1c, 0x00, 0x00, 0x00, 0x54, 0x46, 0x4c, 0x33, 0x14, 0x00, 0x20, 0x00,
  0x04, 0x00, 0x08, 0x00, 0x0c, 0x00, 0x10, 0x00, 0x14, 0x00, 0x00, 0x00,
  0x18, 0x00, 0x1c, 0x00, 0x14, 0x00, 0x00, 0x00, 0x03, 0x00, 0x00, 0x00,
  0x18, 0x00, 0x00, 0x00, 0x34, 0x00, 0x00, 0x00, 0xf4, 0x00, 0x00, 0x00,
  0x34, 0x00, 0x00, 0x00, 0x9c, 0x00, 0x00, 0x00, 0x94, 0x00, 0x00, 0x00,
  0x07, 0x00, 0x00, 0x00, 0x5c, 0x27, 0x00, 0x00, 0xf0, 0x21, 0x00, 0x00,
  0x88, 0x06, 0x00, 0x00, 0xc4, 0x05, 0x00, 0x00, 0x20, 0x03, 0x00, 0x00,
  0x54, 0x02, 0x00, 0x00, 0xcc, 0x01, 0x00, 0x00, 0x01, 0x00, 0x00, 0x00,
  0xe4, 0x00, 0x00, 0x00, 0x19, 0x00, 0x00, 0x00, 0x44, 0x2a, 0x00, 0x00,
  0x40, 0x2a, 0x00, 0x00, 0x40, 0x29, 0x00, 0x00, 0xd0, 0x28, 0x00, 0x00,
  0x34, 0x2a, 0x00, 0x00, 0x98, 0x24, 0x00, 0x00, 0xd0, 0x22, 0x00, 0x00,
  0x28, 0x2a, 0x00, 0x00, 0x1c, 0x16, 0x00, 0x00, 0x94, 0x14, 0x00, 0x00,
  0x1c, 0x2a, 0x00, 0x00, 0xe8, 0x0f, 0x00, 0x00, 0x5c, 0x0e, 0x00, 0x00,
  0x10, 0x2a, 0x00, 0x00, 0xa4, 0x09, 0x00, 0x00, 0x18, 0x08, 0x00, 0x00,
  0x04, 0x2a, 0x00, 0x00, 0x00, 0x2a, 0x00, 0x00, 0xfc, 0x29, 0x00, 0x00,
  0x14, 0x04, 0x00, 0x00, 0x6c, 0x03, 0x00, 0x00, 0xf0, 0x29, 0x00, 0x00,
  0xec, 0x29, 0x00, 0x00, 0xe8, 0x29, 0x00, 0x00, 0x3c, 0x00, 0x00, 0x00,
  0x00, 0x00, 0x00, 0x00, 0x01, 0x00, 0x00, 0x00, 0x0c, 0x00, 0x00, 0x00,
  0x08, 0x00, 0x0c, 0x00, 0x04, 0x00, 0x08, 0x00, 0x08, 0x00, 0x00, 0x00,
  0x08, 0x00, 0x00, 0x00, 0x18, 0x00, 0x00, 0x00, 0x13, 0x00, 0x00, 0x00,
  0x6d, 0x69, 0x6e, 0x5f, 0x72, 0x75, 0x6e, 0x74, 0x69, 0x6d, 0x65, 0x5f,
  0x76, 0x65, 0x72, 0x73, 0x69, 0x6f, 0x6e, 0x00, 0x5a, 0xd7, 0xff, 0xff,
  0x04, 0x00, 0x00, 0x00, 0x10, 0x00, 0x00, 0x00, 0x31, 0x2e, 0x31, 0x34,
  0x2e, 0x30, 0x00, 0x00, 0x00, 0x00, 0x00, 0x00, 0x00, 0x00, 0x00, 0x00,
  0x0f, 0x00, 0x00, 0x00, 0x4d, 0x4c, 0x49, 0x52, 0x20, 0x43, 0x6f, 0x6e,
  0x76, 0x65, 0x72, 0x74, 0x65, 0x64, 0x2e, 0x00, 0x00, 0x00, 0x0e, 0x00,
  0x18, 0x00, 0x04, 0x00, 0x08, 0x00, 0x0c, 0x00, 0x10, 0x00, 0x14, 0x00,
  0x0e, 0x00, 0x00, 0x00, 0x14, 0x00, 0x00, 0x00, 0x70, 0x00, 0x00, 0x00,
  0x74, 0x00, 0x00, 0x00, 0x78, 0x00, 0x00, 0x00, 0xa0, 0x00, 0x00, 0x00,
  0x17, 0x00, 0x00, 0x00, 0xf0, 0x28, 0x00, 0x00, 0x70, 0x28, 0x00, 0x00,
  0xf0, 0x27, 0x00, 0x00, 0x54, 0x26, 0x00, 0x00, 0xa0, 0x24, 0x00, 0x00,
  0x38, 0x22, 0x00, 0x00, 0xcc, 0x20, 0x00, 0x00, 0x34, 0x1f, 0x00, 0x00,
  0xec, 0x13, 0x00, 0x00, 0x6c, 0x12, 0x00, 0x00, 0x00, 0x11, 0x00, 0x00,
  0xb4, 0x0d, 0x00, 0x00, 0x2c, 0x0c, 0x00, 0x00, 0xbc, 0x0a, 0x00, 0x00,
  0x70, 0x07, 0x00, 0x00, 0x0c, 0x06, 0x00, 0x00, 0x40, 0x05, 0x00, 0x00,
  0x7c, 0x04, 0x00, 0x00, 0x8c, 0x03, 0x00, 0x00, 0x9c, 0x02, 0x00, 0x00,
  0xd0, 0x01, 0x00, 0x00, 0x04, 0x01, 0x00, 0x00, 0x7c, 0x00, 0x00, 0x00,
  0x01, 0x00, 0x00, 0x00, 0x00, 0x00, 0x00, 0x00, 0x01, 0x00, 0x00, 0x00,
  0x16, 0x00, 0x00, 0x00, 0x0a, 0x00, 0x00, 0x00, 0xa4, 0x25, 0x00, 0x00,
  0x14, 0x20, 0x00, 0x00, 0xd8, 0x11, 0x00, 0x00, 0xa0, 0x0b, 0x00, 0x00,
  0x88, 0x05, 0x00, 0x00, 0xbc, 0x04, 0x00, 0x00, 0x04, 0x04, 0x00, 0x00,
  0x50, 0x01, 0x00, 0x00, 0x88, 0x00, 0x00, 0x00, 0x10, 0x00, 0x00, 0x00,
  0x04, 0x00, 0x00, 0x00, 0x6d, 0x61, 0x69, 0x6e, 0x00, 0x00, 0x00, 0x00,
  0x22, 0xfc, 0xff, 0xff, 0x06, 0x00, 0x00, 0x00, 0x10, 0x00, 0x00, 0x00,
  0x04, 0x00, 0x00, 0x00, 0x01, 0x00, 0x00, 0x00, 0x16, 0x00, 0x00, 0x00,
  0x01, 0x00, 0x00, 0x00, 0x15, 0x00, 0x00, 0x00, 0x94, 0xda, 0xff, 0xff,
  0x06, 0x00, 0x00, 0x00, 0x00, 0x00, 0x00, 0x06, 0x02, 0x00, 0x00, 0x00,
  0xf8, 0xd7, 0xff, 0xff, 0x14, 0x00, 0x00, 0x00, 0x17, 0x00, 0x00, 0x00,
  0x24, 0x00, 0x00, 0x00, 0x30, 0x00, 0x00, 0x00, 0x10, 0x00, 0x00, 0x00,
  0x02, 0x00, 0x00, 0x00, 0x01, 0x00, 0x00, 0x00, 0x06, 0x00, 0x00, 0x00,
  0x02, 0x00, 0x00, 0x00, 0xff, 0xff, 0xff, 0xff, 0x06, 0x00, 0x00, 0x00,
  0x08, 0x00, 0x00, 0x00, 0x49, 0x64, 0x65, 0x6e, 0x74, 0x69, 0x74, 0x79,
  0x00, 0x00, 0x00, 0x00, 0xcc, 0xd7, 0xff, 0xff, 0x9e, 0xe0, 0xff, 0xff,
  0x00, 0x00, 0x00, 0x09, 0x05, 0x00, 0x00, 0x00, 0x1c, 0x00, 0x00, 0x00,
  0x10, 0x00, 0x00, 0x00, 0x04, 0x00, 0x00, 0x00, 0xe6, 0xd8, 0xff, 0xff,
  0x00, 0x00, 0x80, 0x3f, 0x01, 0x00, 0x00, 0x00, 0x15, 0x00, 0x00, 0x00,
  0x01, 0x00, 0x00, 0x00, 0x14, 0x00, 0x00, 0x00, 0x18, 0xdb, 0xff, 0xff,
  0x19, 0x00, 0x00, 0x00, 0x00, 0x00, 0x00, 0x19, 0x02, 0x00, 0x00, 0x00,
  0x0c, 0xdb, 0xff, 0xff, 0x00, 0x00, 0x00, 0x09, 0x14, 0x00, 0x00, 0x00,
  0x16, 0x00, 0x00, 0x00, 0x24, 0x00, 0x00, 0x00, 0x4c, 0x00, 0x00, 0x00,
  0x10, 0x00, 0x00, 0x00, 0x02, 0x00, 0x00, 0x00, 0x01, 0x00, 0x00, 0x00,
  0x06, 0x00, 0x00, 0x00, 0x02, 0x00, 0x00, 0x00, 0xff, 0xff, 0xff, 0xff,
  0x06, 0x00, 0x00, 0x00, 0x24, 0x00, 0x00, 0x00, 0x73, 0x65, 0x71, 0x75,
  0x65, 0x6e, 0x74, 0x69, 0x61, 0x6c, 0x5f, 0x32, 0x2f, 0x71, 0x75, 0x61,
  0x6e, 0x74, 0x5f, 0x73, 0x6f, 0x66, 0x74, 0x6d, 0x61, 0x78, 0x5f, 0x32,
  0x2f, 0x53, 0x6f, 0x66, 0x74, 0x6d, 0x61, 0x78, 0x00, 0x00, 0x00, 0x00,
  0x04, 0xda, 0xff, 0xff, 0x08, 0x00, 0x00, 0x00, 0x0c, 0x00, 0x00, 0x00,
  0x01, 0x00, 0x00, 0x00, 0x00, 0x00, 0x80, 0x3b, 0x01, 0x00, 0x00, 0x00,
  0x80, 0xff, 0xff, 0xff, 0xff, 0xff, 0xff, 0xff, 0x00, 0x00, 0x00, 0x00,
  0x62, 0xe1, 0xff, 0xff, 0x00, 0x00, 0x00, 0x08, 0x04, 0x00, 0x00, 0x00,
  0x18, 0x00, 0x00, 0x00, 0x0c, 0x00, 0x00, 0x00, 0x04, 0x00, 0x00, 0x00,
  0xac, 0xd8, 0xff, 0xff, 0x01, 0x00, 0x00, 0x00, 0x14, 0x00, 0x00, 0x00,
  0x03, 0x00, 0x00, 0x00, 0x11, 0x00, 0x00, 0x00, 0x12, 0x00, 0x00, 0x00,
  0x13, 0x00, 0x00, 0x00, 0xe0, 0xdb, 0xff, 0xff, 0x09, 0x00, 0x00, 0x00,
  0x00, 0x00, 0x00, 0x09, 0x04, 0x00, 0x00, 0x00, 0xd4, 0xdb, 0xff, 0xff,
  0x00, 0x00, 0x00, 0x09, 0x14, 0x00, 0x00, 0x00, 0x15, 0x00, 0x00, 0x00,
  0x24, 0x00, 0x00, 0x00, 0x6c, 0x00, 0x00, 0x00, 0x10, 0x00, 0x00, 0x00,
  0x02, 0x00, 0x00, 0x00, 0x01, 0x00, 0x00, 0x00, 0x06, 0x00, 0x00, 0x00,
  0x02, 0x00, 0x00, 0x00, 0xff, 0xff, 0xff, 0xff, 0x06, 0x00, 0x00, 0x00,
  0x44, 0x00, 0x00, 0x00, 0x73, 0x65, 0x71, 0x75, 0x65, 0x6e, 0x74, 0x69,
  0x61, 0x6c, 0x5f, 0x32, 0x2f, 0x71, 0x75, 0x61, 0x6e, 0x74, 0x5f, 0x64,
  0x65, 0x6e, 0x73, 0x65, 0x5f, 0x32, 0x2f, 0x4d, 0x61, 0x74, 0x4d, 0x75,
  0x6c, 0x3b, 0x73, 0x65, 0x71, 0x75, 0x65, 0x6e, 0x74, 0x69, 0x61, 0x6c,
  0x5f, 0x32, 0x2f, 0x71, 0x75, 0x61, 0x6e, 0x74, 0x5f, 0x64, 0x65, 0x6e,
  0x73, 0x65, 0x5f, 0x32, 0x2f, 0x42, 0x69, 0x61, 0x73, 0x41, 0x64, 0x64,
  0x00, 0x00, 0x00, 0x00, 0xec, 0xda, 0xff, 0xff, 0x08, 0x00, 0x00, 0x00,
  0x0c, 0x00, 0x00, 0x00, 0x01, 0x00, 0x00, 0x00, 0xb0, 0x0a, 0x8b, 0x3e,
  0x01, 0x00, 0x00, 0x00, 0x6d, 0x00, 0x00, 0x00, 0x00, 0x00, 0x00, 0x00,
  0x00, 0x00, 0x00, 0x00, 0x7a, 0xda, 0xff, 0xff, 0x04, 0x00, 0x00, 0x00,
  0x18, 0x00, 0x00, 0x00, 0x6e, 0xfb, 0xff, 0xff, 0x9a, 0xff, 0xff, 0xff,
  0xd9, 0xf1, 0xff, 0xff, 0x0e, 0xff, 0xff, 0xff, 0xd3, 0x15, 0x00, 0x00,
  0xc3, 0x00, 0x00, 0x00, 0x82, 0xda, 0xff, 0xff, 0x00, 0x00, 0x00, 0x02,
  0x10, 0x00, 0x00, 0x00, 0x14, 0x00, 0x00, 0x00, 0x10, 0x00, 0x00, 0x00,
  0x4c, 0x00, 0x00, 0x00, 0x01, 0x00, 0x00, 0x00, 0x06, 0x00, 0x00, 0x00,
  0x3a, 0x00, 0x00, 0x00, 0x73, 0x65, 0x71, 0x75, 0x65, 0x6e, 0x74, 0x69,
  0x61, 0x6c, 0x5f, 0x32, 0x2f, 0x71, 0x75, 0x61, 0x6e, 0x74, 0x5f, 0x64,
  0x65, 0x6e, 0x73, 0x65, 0x5f, 0x32, 0x2f, 0x42, 0x69, 0x61, 0x73, 0x41,
  0x64, 0x64, 0x2f, 0x52, 0x65, 0x61, 0x64, 0x56, 0x61, 0x72, 0x69, 0x61,
  0x62, 0x6c, 0x65, 0x4f, 0x70, 0x2f, 0x72, 0x65, 0x73, 0x6f, 0x75, 0x72,
  0x63, 0x65, 0x00, 0x00, 0x94, 0xdb, 0xff, 0xff, 0x08, 0x00, 0x00, 0x00,
  0x0c, 0x00, 0x00, 0x00, 0x01, 0x00, 0x00, 0x00, 0x04, 0x1d, 0x0b, 0x3a,
  0x01, 0x00, 0x00, 0x00, 0x00, 0x00, 0x00, 0x00, 0x00, 0x00, 0x00, 0x00,
  0x1e, 0xdb, 0xff, 0xff, 0x04, 0x00, 0x00, 0x00, 0x60, 0x00, 0x00, 0x00,
  0xbd, 0xf1, 0xcb, 0xd1, 0xd2, 0xfa, 0xe5, 0xbf, 0xff, 0xe3, 0x11, 0xc4,
  0x05, 0x07, 0xdd, 0x11, 0xc2, 0xf5, 0xd5, 0x08, 0xdd, 0xf4, 0x0e, 0xc4,
  0xf8, 0x0e, 0xf3, 0xc4, 0xfb, 0xfd, 0x05, 0xe8, 0x00, 0xf1, 0xff, 0xff,
  0x13, 0xea, 0x0d, 0x08, 0xcf, 0x0a, 0x06, 0x0c, 0xfc, 0xff, 0xfe, 0x0e,
  0xfc, 0xf3, 0xfe, 0x0a, 0x0f, 0xba, 0x03, 0x03, 0xb1, 0xe3, 0x0a, 0x08,
  0xca, 0xd1, 0xf7, 0x00, 0x86, 0x06, 0xa1, 0x81, 0x98, 0xbf, 0x83, 0x95,
  0xb5, 0xfd, 0xa4, 0x8d, 0xb1, 0xbb, 0x8a, 0x92, 0x04, 0x01, 0x02, 0xc5,
  0x13, 0xea, 0xe8, 0x0c, 0xdc, 0xd0, 0xcd, 0x10, 0xb8, 0xbb, 0x05, 0xbe,
  0x6e, 0xdb, 0xff, 0xff, 0x00, 0x00, 0x00, 0x09, 0x10, 0x00, 0x00, 0x00,
  0x13, 0x00, 0x00, 0x00, 0x14, 0x00, 0x00, 0x00, 0x78, 0x00, 0x00, 0x00,
  0x02, 0x00, 0x00, 0x00, 0x06, 0x00, 0x00, 0x00, 0x10, 0x00, 0x00, 0x00,
  0x63, 0x00, 0x00, 0x00, 0x73, 0x65, 0x71, 0x75, 0x65, 0x6e, 0x74, 0x69,
  0x61, 0x6c, 0x5f, 0x32, 0x2f, 0x71, 0x75, 0x61, 0x6e, 0x74, 0x5f, 0x64,
  0x65, 0x6e, 0x73, 0x65, 0x5f, 0x32, 0x2f, 0x4d, 0x61, 0x74, 0x4d, 0x75,
  0x6c, 0x3b, 0x73, 0x65, 0x71, 0x75, 0x65, 0x6e, 0x74, 0x69, 0x61, 0x6c,
  0x5f, 0x32, 0x2f, 0x71, 0x75, 0x61, 0x6e, 0x74, 0x5f, 0x64, 0x65, 0x6e,
  0x73, 0x65, 0x5f, 0x32, 0x2f, 0x4c, 0x61, 0x73, 0x74, 0x56, 0x61, 0x6c,
  0x75, 0x65, 0x51, 0x75, 0x61, 0x6e, 0x74, 0x2f, 0x46, 0x61, 0x6b, 0x65,
  0x51, 0x75, 0x61, 0x6e, 0x74, 0x57, 0x69, 0x74, 0x68, 0x4d, 0x69, 0x6e,
  0x4d, 0x61, 0x78, 0x56, 0x61, 0x72, 0x73, 0x00, 0xac, 0xdc, 0xff, 0xff,
  0x08, 0x00, 0x00, 0x00, 0x0c, 0x00, 0x00, 0x00, 0x01, 0x00, 0x00, 0x00,
  0x33, 0xe7, 0xbf, 0x3c, 0x01, 0x00, 0x00, 0x00, 0x00, 0x00, 0x00, 0x00,
  0x00, 0x00, 0x00, 0x00, 0x00, 0x00, 0x0a, 0x00, 0x10, 0x00, 0x04, 0x00,
  0x08, 0x00, 0x0c, 0x00, 0x0a, 0x00, 0x00, 0x00, 0x03, 0x00, 0x00, 0x00,
  0x10, 0x00, 0x00, 0x00, 0x04, 0x00, 0x00, 0x00, 0x01, 0x00, 0x00, 0x00,
  0x11, 0x00, 0x00, 0x00, 0x02, 0x00, 0x00, 0x00, 0x10, 0x00, 0x00, 0x00,
  0x02, 0x00, 0x00, 0x00, 0x80, 0xde, 0xff, 0xff, 0x16, 0x00, 0x00, 0x00,
  0x00, 0x00, 0x00, 0x16, 0x01, 0x00, 0x00, 0x00, 0x74, 0xde, 0xff, 0xff,
  0x00, 0x00, 0x00, 0x09, 0x14, 0x00, 0x00, 0x00, 0x12, 0x00, 0x00, 0x00,
  0x24, 0x00, 0x00, 0x00, 0x4c, 0x00, 0x00, 0x00, 0x10, 0x00, 0x00, 0x00,
  0x02, 0x00, 0x00, 0x00, 0x01, 0x00, 0x00, 0x00, 0x10, 0x00, 0x00, 0x00,
  0x02, 0x00, 0x00, 0x00, 0xff, 0xff, 0xff, 0xff, 0x10, 0x00, 0x00, 0x00,
  0x24, 0x00, 0x00, 0x00, 0x73, 0x65, 0x71, 0x75, 0x65, 0x6e, 0x74, 0x69,
  0x61, 0x6c, 0x5f, 0x32, 0x2f, 0x71, 0x75, 0x61, 0x6e, 0x74, 0x5f, 0x66,
  0x6c, 0x61, 0x74, 0x74, 0x65, 0x6e, 0x5f, 0x32, 0x2f, 0x52, 0x65, 0x73,
  0x68, 0x61, 0x70, 0x65, 0x00, 0x00, 0x00, 0x00, 0x6c, 0xdd, 0xff, 0xff,
  0x08, 0x00, 0x00, 0x00, 0x0c, 0x00, 0x00, 0x00, 0x01, 0x00, 0x00, 0x00,
  0xfe, 0x93, 0xb9, 0x3c, 0x01, 0x00, 0x00, 0x00, 0x80, 0xff, 0xff, 0xff,
  0xff, 0xff, 0xff, 0xff, 0xc6, 0xe4, 0xff, 0xff, 0x00, 0x00, 0x00, 0x1b,
  0x02, 0x00, 0x00, 0x00, 0x18, 0x00, 0x00, 0x00, 0x0c, 0x00, 0x00, 0x00,
  0x04, 0x00, 0x00, 0x00, 0x10, 0xdc, 0xff, 0xff, 0x01, 0x00, 0x00, 0x00,
  0x10, 0x00, 0x00, 0x00, 0x02, 0x00, 0x00, 0x00, 0x0f, 0x00, 0x00, 0x00,
  0x01, 0x00, 0x00, 0x00, 0x40, 0xdf, 0xff, 0xff, 0x52, 0x00, 0x00, 0x00,
  0x00, 0x00, 0x00, 0x52, 0x02, 0x00, 0x00, 0x00, 0x34, 0xdf, 0xff, 0xff,
  0x00, 0x00, 0x00, 0x09, 0x14, 0x00, 0x00, 0x00, 0x11, 0x00, 0x00, 0x00,
  0x24, 0x00, 0x00, 0x00, 0x54, 0x00, 0x00, 0x00, 0x10, 0x00, 0x00, 0x00,
  0x02, 0x00, 0x00, 0x00, 0x01, 0x00, 0x00, 0x00, 0x10, 0x00, 0x00, 0x00,
  0x02, 0x00, 0x00, 0x00, 0xff, 0xff, 0xff, 0xff, 0x10, 0x00, 0x00, 0x00,
  0x2d, 0x00, 0x00, 0x00, 0x73, 0x65, 0x71, 0x75, 0x65, 0x6e, 0x74, 0x69,
  0x61, 0x6c, 0x5f, 0x32, 0x2f, 0x71, 0x75, 0x61, 0x6e, 0x74, 0x5f, 0x67,
  0x6c, 0x6f, 0x62, 0x61, 0x6c, 0x5f, 0x6d, 0x61, 0x78, 0x5f, 0x70, 0x6f,
  0x6f, 0x6c, 0x69, 0x6e, 0x67, 0x32, 0x64, 0x5f, 0x32, 0x2f, 0x4d, 0x61,
  0x78, 0x00, 0x00, 0x00, 0x34, 0xde, 0xff, 0xff, 0x08, 0x00, 0x00, 0x00,
  0x0c, 0x00, 0x00, 0x00, 0x01, 0x00, 0x00, 0x00, 0xfe, 0x93, 0xb9, 0x3c,
  0x01, 0x00, 0x00, 0x00, 0x80, 0xff, 0xff, 0xff, 0xff, 0xff, 0xff, 0xff,
  0x8e, 0xe5, 0xff, 0xff, 0x00, 0x00, 0x00, 0x01, 0x01, 0x00, 0x00, 0x00,
  0x24, 0x00, 0x00, 0x00, 0x18, 0x00, 0x00, 0x00, 0x04, 0x00, 0x00, 0x00,
  0x80, 0xe5, 0xff, 0xff, 0x01, 0x00, 0x00, 0x00, 0x01, 0x00, 0x00, 0x00,
  0x00, 0x00, 0x01, 0x01, 0x01, 0x00, 0x00, 0x00, 0x0f, 0x00, 0x00, 0x00,
  0x03, 0x00, 0x00, 0x00, 0x0c, 0x00, 0x00, 0x00, 0x0d, 0x00, 0x00, 0x00,
  0x0e, 0x00, 0x00, 0x00, 0xfc, 0xdf, 0xff, 0xff, 0x00, 0x00, 0x00, 0x09,
  0x14, 0x00, 0x00, 0x00, 0x10, 0x00, 0x00, 0x00, 0x34, 0x00, 0x00, 0x00,
  0xdc, 0x00, 0x00, 0x00, 0x18, 0x00, 0x00, 0x00, 0x04, 0x00, 0x00, 0x00,
  0x01, 0x00, 0x00, 0x00, 0x36, 0x00, 0x00, 0x00, 0x01, 0x00, 0x00, 0x00,
  0x10, 0x00, 0x00, 0x00, 0x04, 0x00, 0x00, 0x00, 0xff, 0xff, 0xff, 0xff,
  0x36, 0x00, 0x00, 0x00, 0x01, 0x00, 0x00, 0x00, 0x10, 0x00, 0x00, 0x00,
  0xa6, 0x00, 0x00, 0x00, 0x73, 0x65, 0x71, 0x75, 0x65, 0x6e, 0x74, 0x69,
  0x61, 0x6c, 0x5f, 0x32, 0x2f, 0x71, 0x75, 0x61, 0x6e, 0x74, 0x5f, 0x72,
  0x65, 0x5f, 0x6c, 0x75, 0x5f, 0x31, 0x31, 0x2f, 0x52, 0x65, 0x6c, 0x75,
  0x3b, 0x73, 0x65, 0x71, 0x75, 0x65, 0x6e, 0x74, 0x69, 0x61, 0x6c, 0x5f,
  0x32, 0x2f, 0x71, 0x75, 0x61, 0x6e, 0x74, 0x5f, 0x63, 0x6f, 0x6e, 0x76,
  0x32, 0x64, 0x5f, 0x31, 0x31, 0x2f, 0x42, 0x69, 0x61, 0x73, 0x41, 0x64,
  0x64, 0x3b, 0x73, 0x65, 0x71, 0x75, 0x65, 0x6e, 0x74, 0x69, 0x61, 0x6c,
  0x5f, 0x32, 0x2f, 0x71, 0x75, 0x61, 0x6e, 0x74, 0x5f, 0x63, 0x6f, 0x6e,
  0x76, 0x32, 0x64, 0x5f, 0x31, 0x31, 0x2f, 0x43, 0x6f, 0x6e, 0x76, 0x32,
  0x44, 0x3b, 0x73, 0x65, 0x71, 0x75, 0x65, 0x6e, 0x74, 0x69, 0x61, 0x6c,
  0x5f, 0x32, 0x2f, 0x71, 0x75, 0x61, 0x6e, 0x74, 0x5f, 0x63, 0x6f, 0x6e,
  0x76, 0x32, 0x64, 0x5f, 0x31, 0x31, 0x2f, 0x42, 0x69, 0x61, 0x73, 0x41,
  0x64, 0x64, 0x2f, 0x52, 0x65, 0x61, 0x64, 0x56, 0x61, 0x72, 0x69, 0x61,
  0x62, 0x6c, 0x65, 0x4f, 0x70, 0x2f, 0x72, 0x65, 0x73, 0x6f, 0x75, 0x72,
  0x63, 0x65, 0x00, 0x00, 0x84, 0xdf, 0xff, 0xff, 0x08, 0x00, 0x00, 0x00,
  0x0c, 0x00, 0x00, 0x00, 0x01, 0x00, 0x00, 0x00, 0xfe, 0x93, 0xb9, 0x3c,
  0x01, 0x00, 0x00, 0x00, 0x80, 0xff, 0xff, 0xff, 0xff, 0xff, 0xff, 0xff,
  0x00, 0x00, 0x00, 0x00, 0x12, 0xdf, 0xff, 0xff, 0x04, 0x00, 0x00, 0x00,
  0x40, 0x00, 0x00, 0x00, 0x9b, 0xfe, 0xff, 0xff, 0x02, 0xf9, 0xff, 0xff,
  0x53, 0xfa, 0xff, 0xff, 0x15, 0x02, 0x00, 0x00, 0xd4, 0xfc, 0xff, 0xff,
  0xd5, 0xfa, 0xff, 0xff, 0x61, 0xff, 0xff, 0xff, 0x8b, 0xfe, 0xff, 0xff,
  0x11, 0xfb, 0xff, 0xff, 0x74, 0x03, 0x00, 0x00, 0x05, 0xfe, 0xff, 0xff,
  0x32, 0xff, 0xff, 0xff, 0x2f, 0x01, 0x00, 0x00, 0xf3, 0x00, 0x00, 0x00,
  0x5b, 0x01, 0x00, 0x00, 0xd9, 0x01, 0x00, 0x00, 0x42, 0xdf, 0xff, 0xff,
  0x00, 0x00, 0x00, 0x02, 0x10, 0x00, 0x00, 0x00, 0x0f, 0x00, 0x00, 0x00,
  0x10, 0x00, 0x00, 0x00, 0x50, 0x00, 0x00, 0x00, 0x01, 0x00, 0x00, 0x00,
  0x10, 0x00, 0x00, 0x00, 0x3c, 0x00, 0x00, 0x00, 0x73, 0x65, 0x71, 0x75,
  0x65, 0x6e, 0x74, 0x69, 0x61, 0x6c, 0x5f, 0x32, 0x2f, 0x71, 0x75, 0x61,
  0x6e, 0x74, 0x5f, 0x63, 0x6f, 0x6e, 0x76, 0x32, 0x64, 0x5f, 0x31, 0x31,
  0x2f, 0x42, 0x69, 0x61, 0x73, 0x41, 0x64, 0x64, 0x2f, 0x52, 0x65, 0x61,
  0x64, 0x56, 0x61, 0x72, 0x69, 0x61, 0x62, 0x6c, 0x65, 0x4f, 0x70, 0x2f,
  0x72, 0x65, 0x73, 0x6f, 0x75, 0x72, 0x63, 0x65, 0x00, 0x00, 0x00, 0x00,
  0x58, 0xe0, 0xff, 0xff, 0x08, 0x00, 0x00, 0x00, 0x48, 0x00, 0x00, 0x00,
  0x10, 0x00, 0x00, 0x00, 0x54, 0x73, 0x06, 0x3a, 0x2f, 0xef, 0xce, 0x38,
  0x51, 0x99, 0x9e, 0x39, 0x10, 0x0e, 0xe2, 0x39, 0xba, 0xaa, 0x03, 0x3a,
  0xd2, 0x92, 0xc9, 0x39, 0x5b, 0x56, 0x0a, 0x3a, 0x1f, 0xd2, 0xcd, 0x39,
  0xfb, 0x1a, 0x0d, 0x3a, 0xc0, 0xa2, 0xc6, 0x39, 0x6a, 0x50, 0xf7, 0x39,
  0x7c, 0x4c, 0xfe, 0x39, 0xf3, 0x4e, 0xc3, 0x39, 0x3c, 0x7e, 0xee, 0x39,
  0x3c, 0x8f, 0x06, 0x3a, 0xa0, 0x89, 0xd5, 0x39, 0x10, 0x00, 0x00, 0x00,
  0x00, 0x00, 0x00, 0x00, 0x00, 0x00, 0x00, 0x00, 0x00, 0x00, 0x00, 0x00,
  0x00, 0x00, 0x00, 0x00, 0x00, 0x00, 0x00, 0x00, 0x00, 0x00, 0x00, 0x00,
  0x00, 0x00, 0x00, 0x00, 0x00, 0x00, 0x00, 0x00, 0x00, 0x00, 0x00, 0x00,
  0x00, 0x00, 0x00, 0x00, 0x00, 0x00, 0x00, 0x00, 0x00, 0x00, 0x00, 0x00,
  0x00, 0x00, 0x00, 0x00, 0x00, 0x00, 0x00, 0x00, 0x00, 0x00, 0x00, 0x00,
  0x00, 0x00, 0x00, 0x00, 0x00, 0x00, 0x00, 0x00, 0x00, 0x00, 0x00, 0x00,
  0x00, 0x00, 0x00, 0x00, 0x00, 0x00, 0x00, 0x00, 0x00, 0x00, 0x00, 0x00,
  0x00, 0x00, 0x00, 0x00, 0x00, 0x00, 0x00, 0x00, 0x00, 0x00, 0x00, 0x00,
  0x00, 0x00, 0x00, 0x00, 0x00, 0x00, 0x00, 0x00, 0x00, 0x00, 0x00, 0x00,
  0x00, 0x00, 0x00, 0x00, 0x00, 0x00, 0x00, 0x00, 0x00, 0x00, 0x00, 0x00,
  0x00, 0x00, 0x00, 0x00, 0x00, 0x00, 0x00, 0x00, 0x00, 0x00, 0x00, 0x00,
  0x9a, 0xe0, 0xff, 0xff, 0x04, 0x00, 0x00, 0x00, 0x00, 0x02, 0x00, 0x00,
  0x08, 0xdf, 0x16, 0xef, 0xba, 0xf2, 0x05, 0x02, 0x81, 0xc0, 0xeb, 0xb8,
  0xdb, 0xf0, 0xc4, 0xef, 0x13, 0x92, 0x00, 0x0f, 0xfc, 0xf6, 0xdc, 0x20,
  0x06, 0xcf, 0xfa, 0x0a, 0x08, 0xe1, 0x2f, 0x13, 0x91, 0xbc, 0x81, 0xd7,
  0x8f, 0xd1, 0x1f, 0xd1, 0xae, 0x04, 0x9c, 0x20, 0x9a, 0xc8, 0x83, 0x2c,
  0x0b, 0x96, 0xc5, 0x00, 0xf6, 0x23, 0x35, 0x13, 0xd0, 0xae, 0xf6, 0xe8,
  0xb6, 0xd5, 0xc1, 0xe8, 0x27, 0x81, 0x02, 0x28, 0xcb, 0x03, 0x9b, 0x31,
  0xf9, 0xdf, 0xc2, 0xff, 0xff, 0xaf, 0x41, 0x26, 0x34, 0x9f, 0xf2, 0xe9,
  0x21, 0xe7, 0xed, 0xef, 0x0f, 0xb8, 0xc6, 0x10, 0xf1, 0xfb, 0x08, 0xc0,
  0x37, 0x23, 0x81, 0xc6, 0x11, 0x06, 0x0c, 0xfe, 0x03, 0xde, 0xdd, 0x05,
  0x26, 0xd2, 0x10, 0x0a, 0xe3, 0xbb, 0xd0, 0x2b, 0x98, 0x0c, 0x21, 0xa2,
  0xf0, 0xfc, 0xfc, 0xab, 0xf6, 0x01, 0xbc, 0xe4, 0x27, 0x81, 0x11, 0x0b,
  0xf7, 0x11, 0xe7, 0x14, 0xf8, 0x09, 0xe3, 0xfc, 0xf6, 0xc5, 0x1c, 0x16,
  0x1b, 0xe2, 0xe7, 0xf3, 0x06, 0x0a, 0x0a, 0xfa, 0x15, 0xb6, 0xc5, 0x0f,
  0xff, 0x09, 0x11, 0xdb, 0xf3, 0x02, 0xff, 0x0c, 0xff, 0x07, 0xfc, 0xf0,
  0x1f, 0xfb, 0xfe, 0x2f, 0x14, 0x20, 0xd8, 0xef, 0x01, 0x36, 0x21, 0xc3,
  0x10, 0x0d, 0x31, 0x0a, 0x1e, 0x06, 0xdf, 0x81, 0xea, 0x01, 0xf8, 0xff,
  0x0d, 0x09, 0xc1, 0x0e, 0x1f, 0x04, 0x0e, 0xe9, 0x09, 0xe8, 0x0a, 0x1a,
  0xf3, 0xc4, 0x14, 0xf0, 0xdf, 0xfa, 0x81, 0xdd, 0x07, 0xfa, 0xa9, 0xee,
  0xe8, 0xcc, 0xf1, 0x02, 0x1e, 0xe1, 0x0a, 0x16, 0xe5, 0xd1, 0x21, 0xf6,
  0xce, 0xed, 0xee, 0x0f, 0x83, 0x81, 0xd8, 0x96, 0xf8, 0xba, 0xfd, 0xf3,
  0x17, 0x95, 0xdc, 0x1d, 0x0f, 0x08, 0xf6, 0x19, 0x22, 0xf9, 0xd2, 0x06,
  0x12, 0xd0, 0x39, 0x0b, 0x06, 0xf4, 0x05, 0xe7, 0x13, 0x01, 0x08, 0x09,
  0xfe, 0x08, 0xff, 0xe9, 0x05, 0xed, 0xfa, 0x14, 0xf0, 0x1b, 0xef, 0xef,
  0x00, 0x01, 0x04, 0x81, 0x00, 0x10, 0xf3, 0xe4, 0xf8, 0x07, 0x00, 0xfe,
  0xae, 0x07, 0x93, 0x09, 0x1c, 0x0a, 0xfc, 0xf6, 0x0c, 0xda, 0xbf, 0x15,
  0x37, 0xe6, 0x15, 0xc0, 0x81, 0xef, 0x96, 0x23, 0x8e, 0x0c, 0x0c, 0xed,
  0xeb, 0x2f, 0xf7, 0xdf, 0x17, 0xfa, 0xe3, 0xa1, 0xdd, 0x1c, 0x1e, 0x0b,
  0xb5, 0x07, 0xfa, 0xcd, 0x04, 0xff, 0xee, 0x24, 0x81, 0x09, 0x03, 0xe3,
  0x28, 0xe6, 0x20, 0x26, 0xea, 0xf8, 0xb8, 0x14, 0x03, 0xfc, 0xd6, 0x1d,
  0xfc, 0xf9, 0xf9, 0xa8, 0xfc, 0xe2, 0x14, 0xfd, 0xe2, 0x02, 0xed, 0x06,
  0x81, 0xb4, 0xe9, 0xa3, 0x01, 0xe2, 0xf1, 0xec, 0x08, 0xad, 0xeb, 0x11,
  0x09, 0x0b, 0xd4, 0x1d, 0x10, 0xf3, 0xda, 0xff, 0x04, 0xab, 0x30, 0x15,
  0x8c, 0xfb, 0xc7, 0x81, 0xad, 0x13, 0x3f, 0xd3, 0x0c, 0xea, 0xf6, 0x2b,
  0x2f, 0x09, 0x04, 0xd4, 0x12, 0x13, 0x23, 0xe3, 0xf7, 0x15, 0x29, 0xb4,
  0xf3, 0x03, 0xd9, 0x2c, 0xfd, 0x16, 0xc8, 0xd1, 0x81, 0xfa, 0xec, 0xd6,
  0xe4, 0xf0, 0x21, 0xd8, 0x10, 0xfc, 0xfb, 0x21, 0x19, 0xeb, 0x09, 0xe3,
  0x02, 0x03, 0x22, 0x04, 0xa4, 0x0a, 0x2a, 0xae, 0x06, 0xff, 0xea, 0x20,
  0x0f, 0x1a, 0x8d, 0xb3, 0xf6, 0xda, 0x09, 0xd2, 0xe5, 0xf0, 0x24, 0xec,
  0xdf, 0xe6, 0xfe, 0xe2, 0x9f, 0xf8, 0xab, 0x03, 0xf1, 0x08, 0x98, 0x15,
  0x11, 0x11, 0x0b, 0x18, 0x16, 0xf6, 0x0e, 0x12, 0xf2, 0x81, 0x17, 0x0f,
  0x1a, 0x81, 0x12, 0xf2, 0xf7, 0xf0, 0x16, 0xdf, 0x17, 0xf0, 0xec, 0x16,
  0x13, 0x1f, 0x34, 0xbf, 0xe1, 0x0a, 0xbf, 0x1d, 0xbb, 0xfe, 0xff, 0xa2,
  0xc2, 0xbe, 0xfb, 0xd1, 0x13, 0x0e, 0xb1, 0xee, 0x8a, 0xe2, 0xff, 0xff,
  0x00, 0x00, 0x00, 0x09, 0x10, 0x00, 0x00, 0x00, 0x0e, 0x00, 0x00, 0x00,
  0x1c, 0x00, 0x00, 0x00, 0x40, 0x00, 0x00, 0x00, 0x04, 0x00, 0x00, 0x00,
  0x10, 0x00, 0x00, 0x00, 0x02, 0x00, 0x00, 0x00, 0x01, 0x00, 0x00, 0x00,
  0x10, 0x00, 0x00, 0x00, 0x23, 0x00, 0x00, 0x00, 0x73, 0x65, 0x71, 0x75,
  0x65, 0x6e, 0x74, 0x69, 0x61, 0x6c, 0x5f, 0x32, 0x2f, 0x71, 0x75, 0x61,
  0x6e, 0x74, 0x5f, 0x63, 0x6f, 0x6e, 0x76, 0x32, 0x64, 0x5f, 0x31, 0x31,
  0x2f, 0x43, 0x6f, 0x6e, 0x76, 0x32, 0x44, 0x00, 0x90, 0xe3, 0xff, 0xff,
  0x08, 0x00, 0x00, 0x00, 0x48, 0x00, 0x00, 0x00, 0x10, 0x00, 0x00, 0x00,
  0xe1, 0x24, 0x8c, 0x3c, 0x84, 0xb2, 0x57, 0x3b, 0xa7, 0x50, 0x25, 0x3c,
  0xad, 0xa0, 0x6b, 0x3c, 0x19, 0x3e, 0x89, 0x3c, 0x09, 0x1c, 0x52, 0x3c,
  0x0b, 0x32, 0x90, 0x3c, 0x62, 0x89, 0x56, 0x3c, 0xac, 0x14, 0x93, 0x3c,
  0x1e, 0x0c, 0x4f, 0x3c, 0xbf, 0xe4, 0x80, 0x3c, 0xa4, 0x88, 0x84, 0x3c,
  0x3f, 0x94, 0x4b, 0x3c, 0xb0, 0x97, 0x78, 0x3c, 0xf7, 0x41, 0x8c, 0x3c,
  0x8b, 0x94, 0x5e, 0x3c, 0x10, 0x00, 0x00, 0x00, 0x00, 0x00, 0x00, 0x00,
  0x00, 0x00, 0x00, 0x00, 0x00, 0x00, 0x00, 0x00, 0x00, 0x00, 0x00, 0x00,
  0x00, 0x00, 0x00, 0x00, 0x00, 0x00, 0x00, 0x00, 0x00, 0x00, 0x00, 0x00,
  0x00, 0x00, 0x00, 0x00, 0x00, 0x00, 0x00, 0x00, 0x00, 0x00, 0x00, 0x00,
  0x00, 0x00, 0x00, 0x00, 0x00, 0x00, 0x00, 0x00, 0x00, 0x00, 0x00, 0x00,
  0x00, 0x00, 0x00, 0x00, 0x00, 0x00, 0x00, 0x00, 0x00, 0x00, 0x00, 0x00,
  0x00, 0x00, 0x00, 0x00, 0x00, 0x00, 0x00, 0x00, 0x00, 0x00, 0x00, 0x00,
  0x00, 0x00, 0x00, 0x00, 0x00, 0x00, 0x00, 0x00, 0x00, 0x00, 0x00, 0x00,
  0x00, 0x00, 0x00, 0x00, 0x00, 0x00, 0x00, 0x00, 0x00, 0x00, 0x00, 0x00,
  0x00, 0x00, 0x00, 0x00, 0x00, 0x00, 0x00, 0x00, 0x00, 0x00, 0x00, 0x00,
  0x00, 0x00, 0x00, 0x00, 0x00, 0x00, 0x00, 0x00, 0x00, 0x00, 0x00, 0x00,
  0x00, 0x00, 0x00, 0x00, 0x00, 0x00, 0x00, 0x00, 0xa2, 0xeb, 0xff, 0xff,
  0x00, 0x00, 0x00, 0x01, 0x01, 0x00, 0x00, 0x00, 0x24, 0x00, 0x00, 0x00,
  0x18, 0x00, 0x00, 0x00, 0x04, 0x00, 0x00, 0x00, 0x94, 0xeb, 0xff, 0xff,
  0x01, 0x00, 0x00, 0x00, 0x01, 0x00, 0x00, 0x00, 0x00, 0x00, 0x01, 0x01,
  0x01, 0x00, 0x00, 0x00, 0x0c, 0x00, 0x00, 0x00, 0x03, 0x00, 0x00, 0x00,
  0x09, 0x00, 0x00, 0x00, 0x0a, 0x00, 0x00, 0x00, 0x0b, 0x00, 0x00, 0x00,
  0x10, 0xe6, 0xff, 0xff, 0x00, 0x00, 0x00, 0x09, 0x14, 0x00, 0x00, 0x00,
  0x0d, 0x00, 0x00, 0x00, 0x34, 0x00, 0x00, 0x00, 0x00, 0x01, 0x00, 0x00,
  0x18, 0x00, 0x00, 0x00, 0x04, 0x00, 0x00, 0x00, 0x01, 0x00, 0x00, 0x00,
  0x37, 0x00, 0x00, 0x00, 0x01, 0x00, 0x00, 0x00, 0x10, 0x00, 0x00, 0x00,
  0x04, 0x00, 0x00, 0x00, 0xff, 0xff, 0xff, 0xff, 0x37, 0x00, 0x00, 0x00,
  0x01, 0x00, 0x00, 0x00, 0x10, 0x00, 0x00, 0x00, 0xca, 0x00, 0x00, 0x00,
  0x73, 0x65, 0x71, 0x75, 0x65, 0x6e, 0x74, 0x69, 0x61, 0x6c, 0x5f, 0x32,
  0x2f, 0x71, 0x75, 0x61, 0x6e, 0x74, 0x5f, 0x72, 0x65, 0x5f, 0x6c, 0x75,
  0x5f, 0x31, 0x30, 0x2f, 0x52, 0x65, 0x6c, 0x75, 0x3b, 0x73, 0x65, 0x71,
  0x75, 0x65, 0x6e, 0x74, 0x69, 0x61, 0x6c, 0x5f, 0x32, 0x2f, 0x71, 0x75,
  0x61, 0x6e, 0x74, 0x5f, 0x63, 0x6f, 0x6e, 0x76, 0x32, 0x64, 0x5f, 0x31,
  0x30, 0x2f, 0x42, 0x69, 0x61, 0x73, 0x41, 0x64, 0x64, 0x3b, 0x73, 0x65,
  0x71, 0x75, 0x65, 0x6e, 0x74, 0x69, 0x61, 0x6c, 0x5f, 0x32, 0x2f, 0x71,
  0x75, 0x61, 0x6e, 0x74, 0x5f, 0x63, 0x6f, 0x6e, 0x76, 0x32, 0x64, 0x5f,
  0x31, 0x31, 0x2f, 0x43, 0x6f, 0x6e, 0x76, 0x32, 0x44, 0x3b, 0x73, 0x65,
  0x71, 0x75, 0x65, 0x6e, 0x74, 0x69, 0x61, 0x6c, 0x5f, 0x32, 0x2f, 0x71,
  0x75, 0x61, 0x6e, 0x74, 0x5f, 0x63, 0x6f, 0x6e, 0x76, 0x32, 0x64, 0x5f,
  0x31, 0x30, 0x2f, 0x43, 0x6f, 0x6e, 0x76, 0x32, 0x44, 0x3b, 0x73, 0x65,
  0x71, 0x75, 0x65, 0x6e, 0x74, 0x69, 0x61, 0x6c, 0x5f, 0x32, 0x2f, 0x71,
  0x75, 0x61, 0x6e, 0x74, 0x5f, 0x63, 0x6f, 0x6e, 0x76, 0x32, 0x64, 0x5f,
  0x31, 0x30, 0x2f, 0x42, 0x69, 0x61, 0x73, 0x41, 0x64, 0x64, 0x2f, 0x52,
  0x65, 0x61, 0x64, 0x56, 0x61, 0x72, 0x69, 0x61, 0x62, 0x6c, 0x65, 0x4f,
  0x70, 0x2f, 0x72, 0x65, 0x73, 0x6f, 0x75, 0x72, 0x63, 0x65, 0x00, 0x00,
  0xbc, 0xe5, 0xff, 0xff, 0x08, 0x00, 0x00, 0x00, 0x0c, 0x00, 0x00, 0x00,
  0x01, 0x00, 0x00, 0x00, 0x82, 0x99, 0xf5, 0x3c, 0x01, 0x00, 0x00, 0x00,
  0x80, 0xff, 0xff, 0xff, 0xff, 0xff, 0xff, 0xff, 0x00, 0x00, 0x00, 0x00,
  0x4a, 0xe5, 0xff, 0xff, 0x04, 0x00, 0x00, 0x00, 0x40, 0x00, 0x00, 0x00,
  0xeb, 0x02, 0x00, 0x00, 0xfe, 0xe9, 0xff, 0xff, 0x5c, 0xff, 0xff, 0xff,
  0x6c, 0x02, 0x00, 0x00, 0x65, 0xff, 0xff, 0xff, 0x3b, 0xef, 0xff, 0xff,
  0xe3, 0xef, 0xff, 0xff, 0x11, 0x00, 0x00, 0x00, 0x44, 0x03, 0x00, 0x00,
  0xe0, 0xeb, 0xff, 0xff, 0xd5, 0xfb, 0xff, 0xff, 0xf2, 0xfc, 0xff, 0xff,
  0x7d, 0xff, 0xff, 0xff, 0x11, 0xf7, 0xff, 0xff, 0xf7, 0x03, 0x00, 0x00,
  0x09, 0x08, 0x00, 0x00, 0x7a, 0xe5, 0xff, 0xff, 0x00, 0x00, 0x00, 0x02,
  0x10, 0x00, 0x00, 0x00, 0x0c, 0x00, 0x00, 0x00, 0x10, 0x00, 0x00, 0x00,
  0x50, 0x00, 0x00, 0x00, 0x01, 0x00, 0x00, 0x00, 0x10, 0x00, 0x00, 0x00,
  0x3c, 0x00, 0x00, 0x00, 0x73, 0x65, 0x71, 0x75, 0x65, 0x6e, 0x74, 0x69,
  0x61, 0x6c, 0x5f, 0x32, 0x2f, 0x71, 0x75, 0x61, 0x6e, 0x74, 0x5f, 0x63,
  0x6f, 0x6e, 0x76, 0x32, 0x64, 0x5f, 0x31, 0x30, 0x2f, 0x42, 0x69, 0x61,
  0x73, 0x41, 0x64, 0x64, 0x2f, 0x52, 0x65, 0x61, 0x64, 0x56, 0x61, 0x72,
  0x69, 0x61, 0x62, 0x6c, 0x65, 0x4f, 0x70, 0x2f, 0x72, 0x65, 0x73, 0x6f,
  0x75, 0x72, 0x63, 0x65, 0x00, 0x00, 0x00, 0x00, 0x90, 0xe6, 0xff, 0xff,
  0x08, 0x00, 0x00, 0x00, 0x48, 0x00, 0x00, 0x00, 0x10, 0x00, 0x00, 0x00,
  0xef, 0xcb, 0x65, 0x39, 0x09, 0x95, 0x23, 0x39, 0xde, 0x64, 0x4b, 0x39,
  0x78, 0x49, 0x40, 0x39, 0xf2, 0xe0, 0xfa, 0x38, 0x99, 0xdd, 0x3c, 0x38,
  0xab, 0xa4, 0x1f, 0x39, 0xa5, 0xa2, 0x51, 0x39, 0x33, 0xb1, 0x29, 0x39,
  0xc0, 0x57, 0xdb, 0x38, 0x52, 0xef, 0x05, 0x39, 0x3e, 0x69, 0x2c, 0x39,
  0x13, 0xb7, 0x06, 0x39, 0x0f, 0xe1, 0xdf, 0x38, 0xd2, 0x1d, 0x17, 0x39,
  0xc4, 0xce, 0xd1, 0x38, 0x10, 0x00, 0x00, 0x00, 0x00, 0x00, 0x00, 0x00,
  0x00, 0x00, 0x00, 0x00, 0x00, 0x00, 0x00, 0x00, 0x00, 0x00, 0x00, 0x00,
  0x00, 0x00, 0x00, 0x00, 0x00, 0x00, 0x00, 0x00, 0x00, 0x00, 0x00, 0x00,
  0x00, 0x00, 0x00, 0x00, 0x00, 0x00, 0x00, 0x00, 0x00, 0x00, 0x00, 0x00,
  0x00, 0x00, 0x00, 0x00, 0x00, 0x00, 0x00, 0x00, 0x00, 0x00, 0x00, 0x00,
  0x00, 0x00, 0x00, 0x00, 0x00, 0x00, 0x00, 0x00, 0x00, 0x00, 0x00, 0x00,
  0x00, 0x00, 0x00, 0x00, 0x00, 0x00, 0x00, 0x00, 0x00, 0x00, 0x00, 0x00,
  0x00, 0x00, 0x00, 0x00, 0x00, 0x00, 0x00, 0x00, 0x00, 0x00, 0x00, 0x00,
  0x00, 0x00, 0x00, 0x00, 0x00, 0x00, 0x00, 0x00, 0x00, 0x00, 0x00, 0x00,
  0x00, 0x00, 0x00, 0x00, 0x00, 0x00, 0x00, 0x00, 0x00, 0x00, 0x00, 0x00,
  0x00, 0x00, 0x00, 0x00, 0x00, 0x00, 0x00, 0x00, 0x00, 0x00, 0x00, 0x00,
  0x00, 0x00, 0x00, 0x00, 0x00, 0x00, 0x00, 0x00, 0xd2, 0xe6, 0xff, 0xff,
  0x04, 0x00, 0x00, 0x00, 0x00, 0x02, 0x00, 0x00, 0xf7, 0x17, 0x00, 0xb4,
  0x07, 0xca, 0xf2, 0xe1, 0x20, 0x0c, 0xbf, 0xfe, 0xe5, 0xc9, 0x02, 0x16,
  0xca, 0x1c, 0xe1, 0xd9, 0x47, 0x81, 0xe1, 0xd2, 0xf7, 0x2e, 0x29, 0x0d,
  0x0d, 0xfe, 0x12, 0xee, 0x81, 0xf7, 0xd7, 0x50, 0x29, 0x1f, 0x07, 0x0c,
  0x0b, 0xf0, 0x17, 0xe9, 0x2e, 0xf8, 0xe6, 0x0d, 0x41, 0xd2, 0x08, 0x1b,
  0x4b, 0x23, 0x2a, 0x2c, 0x21, 0xd8, 0x30, 0x0c, 0x1e, 0xbc, 0x19, 0x0f,
  0x3f, 0x3f, 0x23, 0x0d, 0x00, 0xd5, 0x1b, 0x11, 0x1b, 0xd3, 0xc6, 0x14,
  0xfe, 0xc0, 0x11, 0x1d, 0xdd, 0xe6, 0x12, 0xff, 0x17, 0x21, 0xfa, 0xb1,
  0xf1, 0xf0, 0xb6, 0x0b, 0x81, 0x41, 0xf6, 0x24, 0xd9, 0x13, 0x04, 0xf0,
  0xfb, 0xdf, 0x09, 0xe2, 0x02, 0xfb, 0xd9, 0xfc, 0x81, 0x1d, 0xf2, 0xa6,
  0xdd, 0x4f, 0xe3, 0xec, 0xf1, 0xf9, 0x19, 0xf7, 0x26, 0x19, 0x15, 0x15,
  0x1b, 0x37, 0x04, 0xec, 0x9f, 0x3c, 0xb6, 0x57, 0x3e, 0xc1, 0x69, 0xc3,
  0x41, 0x34, 0x81, 0xf8, 0xf4, 0xaa, 0xdf, 0x01, 0xb0, 0xd5, 0xa7, 0xb7,
  0xef, 0xc4, 0xcf, 0xcc, 0x26, 0x1b, 0x19, 0xfd, 0xfe, 0xce, 0x0e, 0x44,
  0x17, 0xb9, 0xbb, 0xd9, 0x9f, 0x27, 0xfe, 0x31, 0x9f, 0x9c, 0x81, 0x44,
  0x04, 0x1e, 0x44, 0x04, 0x52, 0xbb, 0xd1, 0xe9, 0xa6, 0x95, 0x91, 0xcb,
  0x1c, 0xd4, 0x86, 0xc3, 0xef, 0x1b, 0xaf, 0x8c, 0xf5, 0x0a, 0xc1, 0x0f,
  0xd7, 0x81, 0x0f, 0xff, 0xcb, 0x9b, 0xfb, 0x0f, 0xfb, 0x05, 0x1a, 0xf8,
  0x27, 0x30, 0xf7, 0x1b, 0x22, 0xf4, 0xfc, 0x3d, 0xf9, 0xfb, 0x45, 0x0f,
  0x34, 0xad, 0x12, 0x0e, 0x99, 0x07, 0x22, 0x84, 0xf8, 0xd0, 0x10, 0xba,
  0x92, 0xf7, 0xca, 0x0d, 0xe9, 0x0f, 0x02, 0x0a, 0x02, 0x26, 0xf8, 0xa8,
  0x2a, 0x18, 0x3f, 0x96, 0x81, 0x20, 0xcf, 0x09, 0x01, 0x19, 0xf9, 0x39,
  0x60, 0xd0, 0xc5, 0x11, 0x7f, 0x30, 0x35, 0xcf, 0xdd, 0x1c, 0x91, 0x09,
  0xc2, 0xf4, 0x1a, 0xd0, 0x2a, 0x07, 0xe5, 0xe0, 0x31, 0x23, 0x04, 0xf7,
  0xdc, 0x05, 0xd9, 0xf9, 0x01, 0x3e, 0x09, 0x21, 0x7f, 0x35, 0x4a, 0xc9,
  0x77, 0xb9, 0xc9, 0x16, 0x06, 0x08, 0x05, 0x28, 0x06, 0xd8, 0xf0, 0x0f,
  0x6d, 0x42, 0xfe, 0x21, 0x09, 0x33, 0x04, 0x51, 0x21, 0x14, 0x2c, 0xed,
  0x5c, 0x23, 0x0b, 0x24, 0xbb, 0xff, 0xfa, 0x3a, 0x11, 0xb5, 0xd7, 0xb7,
  0x2a, 0x65, 0x16, 0xf1, 0xd6, 0xf1, 0xef, 0xed, 0xda, 0x21, 0x33, 0x5b,
  0x7f, 0xb5, 0x37, 0x47, 0x0e, 0x0e, 0x30, 0x28, 0x7f, 0xe7, 0x16, 0x24,
  0x7f, 0xc4, 0xf0, 0x03, 0x24, 0x1c, 0x24, 0xf6, 0x15, 0x45, 0xa4, 0x06,
  0xc4, 0x0b, 0xf3, 0x00, 0x8c, 0xff, 0xfe, 0x1d, 0xfa, 0x5e, 0x07, 0xe3,
  0xda, 0x25, 0x09, 0x01, 0xe0, 0x41, 0xf0, 0x17, 0x1d, 0xfc, 0xe4, 0x16,
  0x5b, 0x7d, 0xfa, 0x31, 0x0f, 0x23, 0xff, 0x07, 0xd3, 0x37, 0x13, 0x6c,
  0x81, 0xdd, 0x22, 0xa6, 0xb0, 0xdb, 0x28, 0xcc, 0x9e, 0x05, 0xee, 0x0e,
  0xcf, 0x9f, 0x04, 0x54, 0x7f, 0x0f, 0x2c, 0x09, 0x3c, 0x02, 0xbe, 0x41,
  0x2f, 0x39, 0x0c, 0xe4, 0x02, 0xc7, 0x06, 0xf1, 0x7a, 0x1f, 0x73, 0x08,
  0x56, 0x55, 0xcf, 0x0e, 0x4a, 0x25, 0xd9, 0x16, 0x00, 0x03, 0x14, 0x1e,
  0xc9, 0xbc, 0xfc, 0x00, 0xcd, 0x38, 0x28, 0x32, 0xc5, 0xe5, 0xd6, 0x13,
  0xf5, 0x5c, 0xef, 0xe0, 0xc2, 0x91, 0x81, 0xcb, 0x29, 0x7b, 0x36, 0x28,
  0xb5, 0xe0, 0x36, 0xec, 0x14, 0xea, 0x03, 0x26, 0xd7, 0x4e, 0xe9, 0x27,
  0x06, 0x97, 0x17, 0x05, 0x26, 0xae, 0xb6, 0x16, 0xeb, 0x6a, 0x2c, 0x06,
  0xa9, 0xbd, 0xd6, 0x24, 0x81, 0xf0, 0x5d, 0x18, 0x56, 0x86, 0xc3, 0x21,
  0xde, 0xee, 0x11, 0x4e, 0xc2, 0xe8, 0xff, 0xff, 0x00, 0x00, 0x00, 0x09,
  0x10, 0x00, 0x00, 0x00, 0x0b, 0x00, 0x00, 0x00, 0x1c, 0x00, 0x00, 0x00,
  0x40, 0x00, 0x00, 0x00, 0x04, 0x00, 0x00, 0x00, 0x10, 0x00, 0x00, 0x00,
  0x02, 0x00, 0x00, 0x00, 0x01, 0x00, 0x00, 0x00, 0x10, 0x00, 0x00, 0x00,
  0x23, 0x00, 0x00, 0x00, 0x73, 0x65, 0x71, 0x75, 0x65, 0x6e, 0x74, 0x69,
  0x61, 0x6c, 0x5f, 0x32, 0x2f, 0x71, 0x75, 0x61, 0x6e, 0x74, 0x5f, 0x63,
  0x6f, 0x6e, 0x76, 0x32, 0x64, 0x5f, 0x31, 0x30, 0x2f, 0x43, 0x6f, 0x6e,
  0x76, 0x32, 0x44, 0x00, 0xc8, 0xe9, 0xff, 0xff, 0x08, 0x00, 0x00, 0x00,
  0x48, 0x00, 0x00, 0x00, 0x10, 0x00, 0x00, 0x00, 0x65, 0xe8, 0x73, 0x3c,
  0x96, 0xa0, 0x2d, 0x3c, 0x46, 0xe2, 0x57, 0x3c, 0x45, 0x18, 0x4c, 0x3c,
  0x69, 0x24, 0x05, 0x3c, 0x9c, 0x76, 0x48, 0x3b, 0x4d, 0x72, 0x29, 0x3c,
  0x29, 0x82, 0x5e, 0x3c, 0xcd, 0x1c, 0x34, 0x3c, 0xdf, 0xcf, 0xe8, 0x3b,
  0xcf, 0x28, 0x0e, 0x3c, 0x96, 0xff, 0x36, 0x3c, 0xd4, 0xfc, 0x0e, 0x3c,
  0x7e, 0xa0, 0xed, 0x3b, 0x69, 0x65, 0x20, 0x3c, 0xfe, 0xb0, 0xde, 0x3b,
  0x10, 0x00, 0x00, 0x00, 0x00, 0x00, 0x00, 0x00, 0x00, 0x00, 0x00, 0x00,
  0x00, 0x00, 0x00, 0x00, 0x00, 0x00, 0x00, 0x00, 0x00, 0x00, 0x00, 0x00,
  0x00, 0x00, 0x00, 0x00, 0x00, 0x00, 0x00, 0x00, 0x00, 0x00, 0x00, 0x00,
  0x00, 0x00, 0x00, 0x00, 0x00, 0x00, 0x00, 0x00, 0x00, 0x00, 0x00, 0x00,
  0x00, 0x00, 0x00, 0x00, 0x00, 0x00, 0x00, 0x00, 0x00, 0x00, 0x00, 0x00,
  0x00, 0x00, 0x00, 0x00, 0x00, 0x00, 0x00, 0x00, 0x00, 0x00, 0x00, 0x00,
  0x00, 0x00, 0x00, 0x00, 0x00, 0x00, 0x00, 0x00, 0x00, 0x00, 0x00, 0x00,
  0x00, 0x00, 0x00, 0x00, 0x00, 0x00, 0x00, 0x00, 0x00, 0x00, 0x00, 0x00,
  0x00, 0x00, 0x00, 0x00, 0x00, 0x00, 0x00, 0x00, 0x00, 0x00, 0x00, 0x00,
  0x00, 0x00, 0x00, 0x00, 0x00, 0x00, 0x00, 0x00, 0x00, 0x00, 0x00, 0x00,
  0x00, 0x00, 0x00, 0x00, 0x00, 0x00, 0x00, 0x00, 0x00, 0x00, 0x00, 0x00,
  0xd6, 0xf1, 0xff, 0xff, 0x00, 0x00, 0x00, 0x01, 0x01, 0x00, 0x00, 0x00,
  0x24, 0x00, 0x00, 0x00, 0x18, 0x00, 0x00, 0x00, 0x04, 0x00, 0x00, 0x00,
  0xc8, 0xf1, 0xff, 0xff, 0x01, 0x00, 0x00, 0x00, 0x01, 0x00, 0x00, 0x00,
  0x00, 0x00, 0x01, 0x01, 0x01, 0x00, 0x00, 0x00, 0x09, 0x00, 0x00, 0x00,
  0x03, 0x00, 0x00, 0x00, 0x06, 0x00, 0x00, 0x00, 0x07, 0x00, 0x00, 0x00,
  0x08, 0x00, 0x00, 0x00, 0x44, 0xec, 0xff, 0xff, 0x00, 0x00, 0x00, 0x09,
  0x14, 0x00, 0x00, 0x00, 0x0a, 0x00, 0x00, 0x00, 0x34, 0x00, 0x00, 0x00,
  0xfc, 0x00, 0x00, 0x00, 0x18, 0x00, 0x00, 0x00, 0x04, 0x00, 0x00, 0x00,
  0x01, 0x00, 0x00, 0x00, 0x38, 0x00, 0x00, 0x00, 0x01, 0x00, 0x00, 0x00,
  0x10, 0x00, 0x00, 0x00, 0x04, 0x00, 0x00, 0x00, 0xff, 0xff, 0xff, 0xff,
  0x38, 0x00, 0x00, 0x00, 0x01, 0x00, 0x00, 0x00, 0x10, 0x00, 0x00, 0x00,
  0xc6, 0x00, 0x00, 0x00, 0x73, 0x65, 0x71, 0x75, 0x65, 0x6e, 0x74, 0x69,
  0x61, 0x6c, 0x5f, 0x32, 0x2f, 0x71, 0x75, 0x61, 0x6e, 0x74, 0x5f, 0x72,
  0x65, 0x5f, 0x6c, 0x75, 0x5f, 0x39, 0x2f, 0x52, 0x65, 0x6c, 0x75, 0x3b,
  0x73, 0x65, 0x71, 0x75, 0x65, 0x6e, 0x74, 0x69, 0x61, 0x6c, 0x5f, 0x32,
  0x2f, 0x71, 0x75, 0x61, 0x6e, 0x74, 0x5f, 0x63, 0x6f, 0x6e, 0x76, 0x32,
  0x64, 0x5f, 0x39, 0x2f, 0x42, 0x69, 0x61, 0x73, 0x41, 0x64, 0x64, 0x3b,
  0x73, 0x65, 0x71, 0x75, 0x65, 0x6e, 0x74, 0x69, 0x61, 0x6c, 0x5f, 0x32,
  0x2f, 0x71, 0x75, 0x61, 0x6e, 0x74, 0x5f, 0x63, 0x6f, 0x6e, 0x76, 0x32,
  0x64, 0x5f, 0x31, 0x31, 0x2f, 0x43, 0x6f, 0x6e, 0x76, 0x32, 0x44, 0x3b,
  0x73, 0x65, 0x71, 0x75, 0x65, 0x6e, 0x74, 0x69, 0x61, 0x6c, 0x5f, 0x32,
  0x2f, 0x71, 0x75, 0x61, 0x6e, 0x74, 0x5f, 0x63, 0x6f, 0x6e, 0x76, 0x32,
  0x64, 0x5f, 0x39, 0x2f, 0x43, 0x6f, 0x6e, 0x76, 0x32, 0x44, 0x3b, 0x73,
  0x65, 0x71, 0x75, 0x65, 0x6e, 0x74, 0x69, 0x61, 0x6c, 0x5f, 0x32, 0x2f,
  0x71, 0x75, 0x61, 0x6e, 0x74, 0x5f, 0x63, 0x6f, 0x6e, 0x76, 0x32, 0x64,
  0x5f, 0x39, 0x2f, 0x42, 0x69, 0x61, 0x73, 0x41, 0x64, 0x64, 0x2f, 0x52,
  0x65, 0x61, 0x64, 0x56, 0x61, 0x72, 0x69, 0x61, 0x62, 0x6c, 0x65, 0x4f,
  0x70, 0x2f, 0x72, 0x65, 0x73, 0x6f, 0x75, 0x72, 0x63, 0x65, 0x00, 0x00,
  0xec, 0xeb, 0xff, 0xff, 0x08, 0x00, 0x00, 0x00, 0x0c, 0x00, 0x00, 0x00,
  0x01, 0x00, 0x00, 0x00, 0x72, 0x30, 0x71, 0x3c, 0x01, 0x00, 0x00, 0x00,
  0x80, 0xff, 0xff, 0xff, 0xff, 0xff, 0xff, 0xff, 0x76, 0xeb, 0xff, 0xff,
  0x04, 0x00, 0x00, 0x00, 0x40, 0x00, 0x00, 0x00, 0xfd, 0xf0, 0xff, 0xff,
  0x69, 0xf9, 0xff, 0xff, 0x6b, 0x04, 0x00, 0x00, 0x2b, 0xd5, 0xff, 0xff,
  0x7b, 0xe4, 0xff, 0xff, 0xe8, 0x06, 0x00, 0x00, 0xdf, 0x04, 0x00, 0x00,
  0x05, 0xe7, 0xff, 0xff, 0xac, 0xe8, 0xff, 0xff, 0x7f, 0x04, 0x00, 0x00,
  0x59, 0xb0, 0xff, 0xff, 0x26, 0xde, 0xff, 0xff, 0x32, 0xcc, 0xff, 0xff,
  0x82, 0x07, 0x00, 0x00, 0xca, 0xdd, 0xff, 0xff, 0x53, 0x01, 0x00, 0x00,
  0xa6, 0xeb, 0xff, 0xff, 0x00, 0x00, 0x00, 0x02, 0x10, 0x00, 0x00, 0x00,
  0x09, 0x00, 0x00, 0x00, 0x10, 0x00, 0x00, 0x00, 0x4c, 0x00, 0x00, 0x00,
  0x01, 0x00, 0x00, 0x00, 0x10, 0x00, 0x00, 0x00, 0x3b, 0x00, 0x00, 0x00,
  0x73, 0x65, 0x71, 0x75, 0x65, 0x6e, 0x74, 0x69, 0x61, 0x6c, 0x5f, 0x32,
  0x2f, 0x71, 0x75, 0x61, 0x6e, 0x74, 0x5f, 0x63, 0x6f, 0x6e, 0x76, 0x32,
  0x64, 0x5f, 0x39, 0x2f, 0x42, 0x69, 0x61, 0x73, 0x41, 0x64, 0x64, 0x2f,
  0x52, 0x65, 0x61, 0x64, 0x56, 0x61, 0x72, 0x69, 0x61, 0x62, 0x6c, 0x65,
  0x4f, 0x70, 0x2f, 0x72, 0x65, 0x73, 0x6f, 0x75, 0x72, 0x63, 0x65, 0x00,
  0xb8, 0xec, 0xff, 0xff, 0x08, 0x00, 0x00, 0x00, 0x48, 0x00, 0x00, 0x00,
  0x10, 0x00, 0x00, 0x00, 0x90, 0x80, 0x94, 0x38, 0xdf, 0x29, 0x80, 0x38,
  0x86, 0x58, 0x66, 0x38, 0x63, 0x3e, 0x3e, 0x38, 0xfe, 0xc3, 0x6f, 0x38,
  0x85, 0xa0, 0xa4, 0x38, 0xb9, 0xb9, 0x8f, 0x38, 0x3b, 0x65, 0x34, 0x38,
  0x05, 0x70, 0x7f, 0x38, 0x0f, 0x28, 0xaf, 0x38, 0x83, 0x9d, 0x15, 0x38,
  0x03, 0x73, 0xf5, 0x36, 0xa1, 0xa1, 0x36, 0x38, 0xfd, 0xc0, 0x7e, 0x38,
  0x79, 0xc1, 0xd3, 0x36, 0x3f, 0x50, 0x48, 0x38, 0x10, 0x00, 0x00, 0x00,
  0x00, 0x00, 0x00, 0x00, 0x00, 0x00, 0x00, 0x00, 0x00, 0x00, 0x00, 0x00,
  0x00, 0x00, 0x00, 0x00, 0x00, 0x00, 0x00, 0x00, 0x00, 0x00, 0x00, 0x00,
  0x00, 0x00, 0x00, 0x00, 0x00, 0x00, 0x00, 0x00, 0x00, 0x00, 0x00, 0x00,
  0x00, 0x00, 0x00, 0x00, 0x00, 0x00, 0x00, 0x00, 0x00, 0x00, 0x00, 0x00,
  0x00, 0x00, 0x00, 0x00, 0x00, 0x00, 0x00, 0x00, 0x00, 0x00, 0x00, 0x00,
  0x00, 0x00, 0x00, 0x00, 0x00, 0x00, 0x00, 0x00, 0x00, 0x00, 0x00, 0x00,
  0x00, 0x00, 0x00, 0x00, 0x00, 0x00, 0x00, 0x00, 0x00, 0x00, 0x00, 0x00,
  0x00, 0x00, 0x00, 0x00, 0x00, 0x00, 0x00, 0x00, 0x00, 0x00, 0x00, 0x00,
  0x00, 0x00, 0x00, 0x00, 0x00, 0x00, 0x00, 0x00, 0x00, 0x00, 0x00, 0x00,
  0x00, 0x00, 0x00, 0x00, 0x00, 0x00, 0x00, 0x00, 0x00, 0x00, 0x00, 0x00,
  0x00, 0x00, 0x00, 0x00, 0x00, 0x00, 0x00, 0x00, 0x00, 0x00, 0x00, 0x00,
  0xfa, 0xec, 0xff, 0xff, 0x04, 0x00, 0x00, 0x00, 0x00, 0x0a, 0x00, 0x00,
  0x06, 0xff, 0xe7, 0x1c, 0x31, 0x1d, 0xd3, 0x0e, 0xea, 0x21, 0xe5, 0x0b,
  0x81, 0xfd, 0x25, 0x41, 0xf6, 0xff, 0xfc, 0x08, 0x1f, 0x13, 0x06, 0xb4,
  0xff, 0xfb, 0xf6, 0xd7, 0x42, 0xfe, 0xaf, 0x3c, 0xc9, 0x14, 0x38, 0x2e,
  0x18, 0xde, 0x98, 0x0a, 0xc2, 0x04, 0xe2, 0x04, 0x24, 0x04, 0x02, 0xe8,
  0x36, 0x01, 0x07, 0xcf, 0x07, 0x36, 0x0c, 0x13, 0x0f, 0xe0, 0xef, 0x2e,
  0x02, 0x16, 0x21, 0xe3, 0xd7, 0xe4, 0xcc, 0x12, 0xfe, 0x65, 0x0d, 0xcc,
  0xd9, 0xac, 0xc2, 0xe8, 0x10, 0xd8, 0x00, 0x08, 0xb5, 0xef, 0x12, 0x23,
  0xde, 0x31, 0xf1, 0x34, 0xc0, 0x4f, 0xc3, 0xdc, 0xd7, 0x8c, 0x2d, 0xe8,
  0xef, 0x05, 0x10, 0x3c, 0xdf, 0x0f, 0x02, 0x06, 0xb6, 0x09, 0x0a, 0x12,
  0xfd, 0x20, 0x10, 0xdf, 0xd1, 0x07, 0x19, 0x34, 0xab, 0xff, 0x1a, 0x2b,
  0xff, 0x0e, 0xd8, 0xfc, 0x03, 0xaa, 0xe0, 0xfc, 0x1b, 0x32, 0xe6, 0xf9,
  0xc8, 0xf7, 0x46, 0x1b, 0x02, 0xdb, 0xd7, 0x0c, 0x0a, 0x1b, 0x2b, 0x0b,
  0xba, 0xee, 0x16, 0xcb, 0x06, 0x43, 0xe8, 0x42, 0x0e, 0x0e, 0xe9, 0x0e,
  0xed, 0xc7, 0x12, 0x32, 0x18, 0x0d, 0x29, 0x20, 0xe0, 0x10, 0x17, 0xfd,
  0xea, 0x09, 0xfb, 0xef, 0x46, 0xd2, 0xe1, 0x2d, 0x00, 0xf9, 0xf6, 0xb6,
  0xec, 0xdb, 0x2f, 0x12, 0xa8, 0xe9, 0x09, 0xfa, 0xef, 0x42, 0x0f, 0x09,
  0x15, 0xf4, 0x22, 0xfe, 0xb5, 0x1a, 0x16, 0xde, 0x21, 0xfa, 0xfe, 0x01,
  0xfc, 0x03, 0xd3, 0xd9, 0x18, 0x81, 0xf9, 0xff, 0x08, 0xe6, 0xad, 0xc0,
  0xe1, 0x07, 0xe1, 0xee, 0xf4, 0x0d, 0x11, 0x04, 0x0e, 0x05, 0x48, 0x1f,
  0xf6, 0xd0, 0xce, 0x1e, 0x43, 0x19, 0xe6, 0x20, 0x03, 0x1d, 0xa4, 0xed,
  0x08, 0xe5, 0x10, 0x18, 0x42, 0x28, 0x32, 0xfc, 0x0d, 0x38, 0x0c, 0xf3,
  0xf1, 0xff, 0x23, 0xfe, 0x12, 0x1f, 0x2c, 0xf6, 0x36, 0xf9, 0x25, 0xf4,
  0x1e, 0x0f, 0x0d, 0xf6, 0x06, 0x16, 0xfc, 0x41, 0x2d, 0x0c, 0xd2, 0x40,
  0xea, 0xfb, 0xf8, 0xf1, 0xff, 0xd7, 0xe4, 0x15, 0xfe, 0xfb, 0xea, 0x88,
  0x35, 0x01, 0x17, 0xf2, 0x12, 0xf3, 0x32, 0xcf, 0xfa, 0xef, 0x23, 0x4c,
  0x14, 0xfc, 0xe3, 0xc1, 0x18, 0x05, 0xe2, 0x16, 0xe9, 0xee, 0x0c, 0x1b,
  0x08, 0xce, 0x3b, 0x1d, 0xf0, 0x06, 0x08, 0xe7, 0xfd, 0xcc, 0x18, 0x34,
  0xb2, 0x30, 0x0b, 0x03, 0xe9, 0x0e, 0x1f, 0xf8, 0x23, 0x20, 0x1d, 0x7b,
  0x0b, 0xe1, 0x1a, 0x2a, 0x33, 0x3e, 0xf1, 0x00, 0xb1, 0xc9, 0x13, 0x5c,
  0x00, 0xf1, 0x17, 0xed, 0xf0, 0xef, 0xf8, 0x3c, 0xcd, 0x19, 0x08, 0x18,
  0xde, 0x05, 0xfc, 0xf6, 0xa3, 0x1e, 0x18, 0xf9, 0x13, 0x31, 0xeb, 0xf0,
  0x15, 0xea, 0x00, 0x34, 0x07, 0xe2, 0xfc, 0x26, 0xf6, 0xf9, 0x18, 0x1b,
  0xbc, 0xd3, 0xeb, 0x40, 0x21, 0x1d, 0xfd, 0xb8, 0xf1, 0xf0, 0xec, 0x0d,
  0xf6, 0x04, 0xeb, 0xbd, 0x02, 0xb5, 0xfc, 0xe8, 0x0d, 0x12, 0x19, 0xef,
  0x37, 0x20, 0x22, 0x11, 0x01, 0x21, 0xef, 0x03, 0x06, 0xef, 0xc9, 0x1d,
  0xef, 0xea, 0xbe, 0xdb, 0x81, 0x08, 0x02, 0x22, 0x21, 0x3f, 0xca, 0xda,
  0x07, 0xec, 0x01, 0x02, 0x10, 0xdf, 0xeb, 0xf8, 0xfc, 0xc1, 0xd8, 0x20,
  0x30, 0x25, 0x23, 0xed, 0x29, 0x64, 0x2e, 0x01, 0x17, 0x0d, 0xcd, 0x07,
  0x15, 0xdd, 0xf9, 0xf0, 0x37, 0x20, 0xfa, 0xe2, 0xe0, 0x0a, 0x16, 0x30,
  0xc9, 0x16, 0xca, 0xcf, 0xe2, 0xec, 0x1f, 0x1d, 0x24, 0xce, 0x22, 0x01,
  0xdf, 0x0e, 0xd6, 0xf5, 0x26, 0x16, 0x5a, 0x05, 0x0c, 0x00, 0xef, 0xd6,
  0x35, 0x18, 0x31, 0x45, 0xe4, 0xb0, 0xf8, 0x25, 0x5e, 0x0a, 0x08, 0x07,
  0xee, 0xc2, 0xf1, 0x3c, 0x38, 0x09, 0x19, 0xf3, 0xde, 0x06, 0xea, 0x57,
  0xf3, 0xfb, 0x00, 0xfc, 0xe9, 0xc9, 0x17, 0x1a, 0x29, 0xdf, 0x1d, 0xfb,
  0x1b, 0x4c, 0xe1, 0x09, 0xf4, 0x0c, 0x23, 0x41, 0x0d, 0xe8, 0xfa, 0xfe,
  0x23, 0x1c, 0x11, 0xcb, 0xde, 0x01, 0x13, 0x35, 0xf7, 0x06, 0xec, 0x14,
  0x38, 0x26, 0x2b, 0x04, 0x06, 0xeb, 0xec, 0x41, 0x0f, 0xf6, 0xe4, 0xf7,
  0x23, 0x0f, 0x14, 0x5f, 0x18, 0x5c, 0x0d, 0xe1, 0x23, 0x41, 0x3c, 0x23,
  0x05, 0xea, 0x55, 0x48, 0x20, 0x0e, 0xeb, 0xf9, 0x06, 0x0a, 0xe7, 0x09,
  0xef, 0x4d, 0xfe, 0x12, 0x02, 0x00, 0x2d, 0xe7, 0x0a, 0xf1, 0x01, 0xf8,
  0xf3, 0x0f, 0xed, 0x05, 0xd9, 0x27, 0x18, 0xf2, 0x3a, 0x37, 0x1e, 0xf5,
  0xf5, 0x1d, 0xe6, 0x35, 0xe3, 0xf7, 0x16, 0x2d, 0x02, 0x31, 0x27, 0x13,
  0x08, 0xee, 0x04, 0x18, 0x12, 0x7f, 0x08, 0x0e, 0xee, 0x0c, 0x38, 0x11,
  0x26, 0xe4, 0x11, 0xf0, 0xd4, 0x18, 0xf5, 0x0c, 0x07, 0xca, 0x2f, 0x4f,
  0x07, 0x67, 0x14, 0xf5, 0x20, 0xd5, 0x00, 0xff, 0xe6, 0xeb, 0x13, 0x0e,
  0xce, 0xfa, 0x05, 0x1e, 0x1e, 0xde, 0xc8, 0xff, 0x28, 0xee, 0x2d, 0xe0,
  0xf6, 0xf3, 0x35, 0x01, 0xe7, 0x06, 0x01, 0x28, 0xfd, 0xdc, 0x1b, 0xeb,
  0xf2, 0xca, 0x0a, 0x01, 0x14, 0x20, 0xf9, 0x06, 0x0f, 0xfb, 0xea, 0x0f,
  0xea, 0xe6, 0xfa, 0xfa, 0x9c, 0xee, 0xde, 0xfe, 0x0f, 0xc9, 0x00, 0x30,
  0xdf, 0x81, 0xfa, 0x2a, 0x0b, 0x0a, 0x16, 0x0c, 0xcc, 0x05, 0x12, 0x02,
  0x14, 0x25, 0x0c, 0x12, 0xd8, 0x20, 0x49, 0xdc, 0xf0, 0x42, 0x0c, 0x0e,
  0x00, 0x07, 0xc4, 0xfd, 0x00, 0xd8, 0x4a, 0xec, 0x1e, 0xf0, 0x30, 0x29,
  0x14, 0x12, 0x09, 0x14, 0x14, 0xef, 0x23, 0x3f, 0xfb, 0xfc, 0x39, 0xad,
  0xcc, 0x13, 0x07, 0x1a, 0x1f, 0x31, 0x06, 0xe4, 0xde, 0xc0, 0x0a, 0x01,
  0xe3, 0x12, 0x19, 0x16, 0x0d, 0xc5, 0xe1, 0xad, 0xe6, 0xfa, 0x50, 0xe1,
  0xe2, 0xf5, 0xec, 0x13, 0x39, 0x0c, 0x0e, 0x1a, 0x18, 0x42, 0x22, 0x09,
  0x02, 0x10, 0xfb, 0x12, 0x00, 0xfc, 0xfe, 0x20, 0xfc, 0xc7, 0x81, 0x0d,
  0xe8, 0xf7, 0x18, 0x4e, 0xef, 0x1f, 0x0d, 0x1c, 0x2c, 0x2c, 0xe2, 0xf2,
  0xe1, 0xfb, 0xfa, 0xf1, 0x08, 0x0f, 0xfa, 0xe3, 0xe5, 0xf6, 0xec, 0x3b,
  0x0a, 0xff, 0x12, 0xf6, 0x07, 0xbd, 0x19, 0x21, 0xe5, 0xb7, 0x17, 0xe4,
  0xf4, 0x09, 0xf0, 0xe7, 0xc5, 0xcf, 0x06, 0xd8, 0xec, 0x1a, 0xc6, 0xf6,
  0xf9, 0x5d, 0x28, 0x18, 0xe0, 0x1a, 0xe7, 0xf6, 0x02, 0xdd, 0xe2, 0x03,
  0x01, 0x21, 0x18, 0x01, 0x02, 0xdb, 0xf9, 0x08, 0x05, 0x0b, 0xee, 0x25,
  0x20, 0xfd, 0xff, 0x11, 0xc0, 0xd5, 0x00, 0x05, 0xf8, 0xe3, 0x2f, 0x0a,
  0xd7, 0xeb, 0xf1, 0x16, 0xcc, 0x3e, 0x21, 0x2f, 0xf5, 0xea, 0x03, 0x28,
  0xc2, 0xf0, 0xf6, 0x13, 0xb4, 0xe7, 0x0a, 0xd4, 0x0e, 0x0e, 0xff, 0xd5,
  0xfc, 0x12, 0xb4, 0xc1, 0xfd, 0xce, 0xfd, 0x47, 0xfc, 0xfd, 0x00, 0x08,
  0xf3, 0x08, 0x0d, 0x1c, 0x00, 0x28, 0x19, 0xbd, 0xe0, 0x18, 0x0b, 0x03,
  0x0c, 0x8b, 0x4c, 0x29, 0x03, 0x11, 0xef, 0xe9, 0xf3, 0x0a, 0x23, 0xaf,
  0xc5, 0xc9, 0xfc, 0xee, 0xea, 0x03, 0xde, 0x18, 0x0a, 0xf0, 0x10, 0x50,
  0xee, 0x1c, 0xb6, 0xfe, 0xf7, 0xfe, 0x17, 0x13, 0xf2, 0xc4, 0x02, 0xcf,
  0x12, 0x08, 0x29, 0x35, 0x04, 0x04, 0x12, 0xed, 0x28, 0xff, 0xea, 0x00,
  0xf8, 0xf0, 0xf1, 0x19, 0xf6, 0x0b, 0x0e, 0x49, 0x17, 0x09, 0xfe, 0xcb,
  0xfb, 0x0b, 0xf1, 0x14, 0x0b, 0x28, 0x9e, 0x16, 0xd5, 0xf4, 0x2e, 0x28,
  0x11, 0x99, 0xfd, 0x06, 0x33, 0x35, 0x0d, 0x0e, 0xfe, 0x10, 0x2d, 0xe7,
  0xf2, 0xe3, 0x04, 0xf8, 0xe0, 0xfd, 0xe6, 0x02, 0xf9, 0xf9, 0x18, 0x41,
  0x06, 0x23, 0x39, 0xf3, 0xe9, 0xf9, 0x28, 0x0f, 0x07, 0xe5, 0xec, 0x14,
  0xcd, 0xfa, 0xd4, 0x23, 0xf7, 0xf4, 0xe2, 0x0a, 0xe9, 0x13, 0x06, 0x2c,
  0x00, 0x1f, 0x0e, 0x1b, 0x03, 0xf2, 0xff, 0xfb, 0xc6, 0x06, 0x15, 0x0a,
  0x17, 0xd2, 0x26, 0x0c, 0xf8, 0x24, 0xec, 0xe4, 0x10, 0xec, 0x04, 0xf9,
  0xe8, 0xee, 0xff, 0xfa, 0x0b, 0x06, 0xd8, 0xe2, 0xbe, 0x81, 0x84, 0xfe,
  0xaf, 0xf0, 0xd9, 0xe1, 0xe7, 0xf1, 0x97, 0x67, 0x01, 0x15, 0x23, 0x14,
  0xb0, 0x08, 0xe0, 0xb5, 0xec, 0xdf, 0x20, 0x24, 0x1a, 0x0d, 0xba, 0x04,
  0xff, 0x02, 0xed, 0x3a, 0xec, 0xc9, 0xb2, 0x0a, 0xe4, 0xe1, 0xde, 0x52,
  0xc6, 0x6a, 0x2e, 0xaa, 0xff, 0x33, 0xfb, 0x56, 0xe0, 0x4c, 0xe5, 0xfe,
  0xe5, 0x0e, 0xe4, 0xcc, 0x09, 0xe7, 0xed, 0x45, 0x04, 0xf7, 0x16, 0xb7,
  0xba, 0xee, 0xfc, 0x49, 0xdf, 0xb8, 0x1d, 0xfd, 0x1b, 0xe5, 0x01, 0xee,
  0x96, 0x17, 0xd6, 0x2e, 0x32, 0x51, 0xf6, 0x0c, 0x14, 0x28, 0xee, 0xe1,
  0xf6, 0x14, 0x05, 0x3a, 0xae, 0xea, 0xc4, 0xcb, 0x30, 0xeb, 0xd6, 0x35,
  0xf1, 0xe5, 0x08, 0xef, 0x08, 0x11, 0xc6, 0x6b, 0xf6, 0xa0, 0xf8, 0x04,
  0x09, 0x00, 0x3d, 0x0c, 0x06, 0x27, 0x3a, 0xe7, 0xbf, 0x47, 0x34, 0x07,
  0xe4, 0x28, 0xeb, 0x52, 0x15, 0xb4, 0x6d, 0x17, 0x0e, 0xca, 0x54, 0xf5,
  0x1b, 0xab, 0xdc, 0x02, 0x4d, 0x34, 0xfa, 0xc3, 0xea, 0x07, 0x26, 0x1c,
  0x07, 0x1c, 0x07, 0x00, 0x64, 0x46, 0x13, 0x05, 0xfd, 0x14, 0x1f, 0x38,
  0x23, 0x5d, 0x16, 0xe7, 0xfe, 0x1f, 0x28, 0x24, 0x04, 0x28, 0x6e, 0xd4,
  0xe5, 0x19, 0xb1, 0xfa, 0x36, 0xec, 0x13, 0x81, 0x1d, 0x0c, 0xea, 0x02,
  0x14, 0xd7, 0x52, 0x33, 0x0e, 0x2a, 0x34, 0x0b, 0x2a, 0x2f, 0x14, 0x2c,
  0xf3, 0x22, 0x14, 0xf3, 0x08, 0x6b, 0x25, 0x01, 0x1c, 0x2f, 0xda, 0x43,
  0x27, 0x0b, 0xd7, 0x23, 0x19, 0x21, 0xe5, 0x46, 0xf7, 0xed, 0x13, 0x04,
  0x10, 0xe4, 0xfc, 0xe6, 0xe3, 0x09, 0x07, 0x05, 0xf4, 0x06, 0xe6, 0xf0,
  0xf5, 0x15, 0xfe, 0xdd, 0x07, 0xf1, 0x12, 0x10, 0xdb, 0x12, 0x04, 0xfb,
  0x22, 0x01, 0xe5, 0xb7, 0xfe, 0x1a, 0x81, 0xe9, 0x94, 0x01, 0x1d, 0x23,
  0x35, 0xba, 0x07, 0xfb, 0x06, 0x14, 0x07, 0x07, 0xe5, 0xe2, 0xc3, 0x41,
  0x30, 0x07, 0x0b, 0x0e, 0xeb, 0x03, 0x15, 0x00, 0xf5, 0x11, 0x0e, 0xfe,
  0x10, 0x54, 0x0d, 0x06, 0x07, 0xe7, 0xca, 0x2b, 0xd5, 0xf8, 0xf1, 0x14,
  0xf6, 0x04, 0xf2, 0x05, 0xe0, 0xe3, 0xb8, 0xea, 0x2f, 0x20, 0xca, 0xcf,
  0xd8, 0xff, 0x01, 0x1b, 0xea, 0x11, 0xd8, 0x15, 0xf7, 0xef, 0x0b, 0x35,
  0xf7, 0x15, 0xfc, 0x2f, 0xed, 0x46, 0x03, 0x04, 0xe2, 0x06, 0xd8, 0xe4,
  0x11, 0x02, 0x2c, 0xfe, 0xfc, 0x31, 0xc8, 0xea, 0x11, 0x09, 0x13, 0x39,
  0xed, 0x21, 0xe1, 0xe3, 0xf1, 0x0d, 0xf0, 0xeb, 0xfd, 0xf6, 0x16, 0x1c,
  0x0c, 0x21, 0xf8, 0x32, 0x01, 0x0c, 0xf2, 0x81, 0x20, 0x1e, 0xfd, 0xef,
  0x1e, 0xd0, 0x07, 0xf3, 0x18, 0xfd, 0xd2, 0x04, 0xe9, 0xfd, 0x22, 0xd7,
  0xc5, 0x0a, 0xfa, 0xde, 0x23, 0xd6, 0xfa, 0xef, 0xee, 0x07, 0xf1, 0xe6,
  0x18, 0x00, 0xe0, 0xa4, 0x0f, 0xfa, 0x21, 0xf8, 0x0f, 0xf7, 0xfa, 0xe2,
  0xf9, 0x50, 0xf7, 0xfb, 0xff, 0xdb, 0x1c, 0x1e, 0xe9, 0xef, 0xc4, 0x9b,
  0x0f, 0xf7, 0xe3, 0xf4, 0xc2, 0x06, 0xde, 0x0b, 0x04, 0x04, 0xf5, 0xe1,
  0xf1, 0x05, 0xe8, 0xe1, 0x0e, 0x0a, 0xf2, 0xe7, 0xfb, 0xcf, 0x1b, 0x12,
  0xf0, 0xf9, 0xf4, 0x00, 0xf8, 0x0b, 0x15, 0x08, 0x03, 0xf1, 0xe1, 0x29,
  0xfb, 0x05, 0xe9, 0x02, 0x00, 0xf3, 0xf8, 0x20, 0x10, 0xf9, 0xf2, 0xd9,
  0xfa, 0xb2, 0x00, 0xf7, 0xf8, 0x02, 0x08, 0xbc, 0x08, 0x0e, 0xf5, 0x13,
  0x14, 0xf4, 0xea, 0x01, 0xcb, 0xff, 0xdc, 0x20, 0x1c, 0x43, 0x23, 0x06,
  0x1d, 0xfa, 0x04, 0xe1, 0x1b, 0x1e, 0x1e, 0xc8, 0x1b, 0xf4, 0x1f, 0xec,
  0x04, 0x15, 0x0e, 0xe8, 0x16, 0xa4, 0x23, 0x02, 0xef, 0xf2, 0x1b, 0xe2,
  0xfe, 0x0e, 0xcc, 0xdf, 0x1a, 0xb2, 0x2e, 0xfb, 0x12, 0x07, 0x1c, 0xd7,
  0x2a, 0x46, 0x1d, 0x38, 0xe5, 0xf7, 0x59, 0x31, 0xd2, 0x37, 0x5c, 0x1a,
  0xbe, 0x1e, 0x94, 0xf0, 0x56, 0xf5, 0xd5, 0x0f, 0xe7, 0x37, 0x01, 0x0b,
  0x0d, 0x2c, 0x0b, 0x05, 0x18, 0x08, 0x43, 0xc9, 0x37, 0xba, 0x4c, 0x19,
  0x11, 0x10, 0x1f, 0x33, 0xc6, 0x58, 0x1f, 0x1a, 0x25, 0x4a, 0xca, 0x1e,
  0xfb, 0xfa, 0x36, 0xf6, 0x26, 0x22, 0xda, 0xfc, 0x30, 0xdc, 0xfe, 0x24,
  0xe0, 0xed, 0x03, 0xf1, 0x1b, 0x01, 0x1a, 0xf8, 0xf9, 0x0d, 0x1f, 0x25,
  0x2c, 0x0e, 0x35, 0x37, 0x27, 0x09, 0x13, 0xd7, 0x2e, 0x07, 0xbd, 0x20,
  0x15, 0xe7, 0xc6, 0x16, 0xb8, 0x3d, 0x25, 0x2e, 0x0c, 0x09, 0xd9, 0x1b,
  0x34, 0x04, 0xeb, 0xf1, 0xf4, 0x5d, 0xf2, 0x93, 0xca, 0xf3, 0x1a, 0xe4,
  0xd3, 0x58, 0x1d, 0x01, 0x36, 0x29, 0x3d, 0xe3, 0x66, 0xe2, 0xfc, 0xe4,
  0x28, 0xfa, 0xf1, 0x2c, 0x23, 0x0d, 0x7f, 0xf0, 0xa9, 0x17, 0x9a, 0xdc,
  0xa9, 0xf7, 0xdc, 0x16, 0x35, 0x0a, 0x09, 0x23, 0xd8, 0x38, 0x9b, 0x03,
  0xcd, 0x34, 0x31, 0xf8, 0x3a, 0x44, 0x4e, 0x10, 0xff, 0x03, 0xfa, 0xbe,
  0x1c, 0x0a, 0xba, 0x12, 0xdc, 0xb3, 0xe6, 0xea, 0xb2, 0xe6, 0xf3, 0xd7,
  0xbe, 0x0b, 0xfa, 0xe2, 0xbd, 0x26, 0xc6, 0x1a, 0xf1, 0xb1, 0x36, 0xd0,
  0xc6, 0xe4, 0x90, 0xea, 0xc5, 0xe0, 0xe0, 0xcd, 0xae, 0xc3, 0xb9, 0xc3,
  0x1f, 0x43, 0x0b, 0xc7, 0xc9, 0xbf, 0x01, 0xe2, 0xe7, 0xd6, 0xf9, 0xc4,
  0x16, 0xcb, 0xe9, 0x0a, 0xb1, 0xe2, 0x30, 0xba, 0xa3, 0xe6, 0xb6, 0xd3,
  0x0d, 0xc8, 0x28, 0xdf, 0xf7, 0xa0, 0x0e, 0x09, 0xdf, 0x81, 0xac, 0xe2,
  0xad, 0xb0, 0xc5, 0xde, 0x1e, 0xf8, 0xa9, 0xf7, 0x05, 0xc0, 0xfe, 0xe7,
  0xae, 0x20, 0x34, 0xc0, 0xa6, 0x0a, 0x9c, 0xe8, 0xee, 0xe2, 0xbf, 0x2e,
  0x03, 0xfd, 0x2b, 0xba, 0x40, 0xb0, 0x9f, 0xca, 0x1f, 0xbd, 0xc4, 0xa6,
  0xf5, 0x2a, 0xcd, 0x07, 0xb0, 0x23, 0x24, 0x41, 0xc9, 0xb1, 0xbf, 0xd7,
  0xf4, 0x29, 0x0d, 0xdb, 0x9d, 0xf6, 0xec, 0xf6, 0x0f, 0xd9, 0x31, 0x26,
  0x0f, 0x3e, 0x08, 0x30, 0xc3, 0xf3, 0x8c, 0x2b, 0x07, 0xb0, 0xd4, 0xe1,
  0xe5, 0xd1, 0x99, 0xe8, 0x12, 0xd4, 0xf2, 0x30, 0xa8, 0x16, 0xeb, 0x48,
  0x02, 0xd2, 0x0d, 0x40, 0x50, 0x49, 0xee, 0xda, 0x20, 0x04, 0xfd, 0xee,
  0x0e, 0x08, 0x31, 0x5c, 0xf2, 0x48, 0x2d, 0xf7, 0x3e, 0x00, 0x0c, 0xca,
  0xe4, 0x14, 0xae, 0xe5, 0x48, 0xd6, 0xfb, 0x1c, 0x2a, 0xfe, 0x18, 0xa1,
  0x17, 0x12, 0x0d, 0xa9, 0x30, 0x01, 0xe2, 0xfb, 0x34, 0xef, 0xee, 0x24,
  0x03, 0x81, 0x07, 0x14, 0x15, 0xe5, 0x49, 0x97, 0x18, 0x6e, 0x4a, 0xd3,
  0x2b, 0xe9, 0xde, 0x0b, 0xf1, 0x1c, 0xba, 0x17, 0xe0, 0xf3, 0xdd, 0xf0,
  0x2d, 0xfb, 0x03, 0xc4, 0xf4, 0x22, 0x04, 0xec, 0x36, 0xce, 0x21, 0x13,
  0xf5, 0x0f, 0xfc, 0x28, 0x25, 0x2f, 0xea, 0x04, 0x0b, 0xed, 0xbf, 0x0d,
  0xdf, 0x43, 0x3c, 0xde, 0x4d, 0x2a, 0x06, 0x0f, 0xfb, 0x16, 0xf1, 0xa0,
  0x0d, 0x30, 0xcb, 0xaa, 0x06, 0x05, 0x33, 0xfd, 0x02, 0xd7, 0xeb, 0xe4,
  0x09, 0xe4, 0x0e, 0x3f, 0xfe, 0x17, 0xfa, 0x19, 0xd8, 0xd4, 0x04, 0x09,
  0x27, 0xf1, 0xc8, 0xd2, 0xd4, 0x53, 0x33, 0x14, 0x40, 0x0d, 0xbf, 0xac,
  0x00, 0x0c, 0x12, 0x1a, 0x14, 0xf5, 0x0a, 0x22, 0x06, 0x00, 0x26, 0xfc,
  0x25, 0xf3, 0xe3, 0x25, 0xb8, 0xfe, 0x0d, 0xba, 0xb3, 0x08, 0xe3, 0xc1,
  0x02, 0xdb, 0x08, 0xfd, 0x28, 0x02, 0xde, 0xaf, 0x16, 0x03, 0xdf, 0x09,
  0xe1, 0xec, 0x47, 0x11, 0x89, 0xf2, 0x18, 0x1f, 0xfc, 0xde, 0xf7, 0xa8,
  0xfa, 0xe0, 0xb7, 0xfd, 0xbf, 0xee, 0xd0, 0x0a, 0x03, 0x14, 0xcf, 0xfc,
  0xf1, 0xba, 0x2a, 0xd2, 0xf8, 0x3a, 0x1b, 0x12, 0x02, 0x17, 0x1d, 0x4a,
  0xe3, 0xf9, 0x1b, 0xf6, 0x04, 0x1e, 0xd9, 0x0f, 0xa1, 0x08, 0xb1, 0x05,
  0xfa, 0x1e, 0xf8, 0xfe, 0x11, 0xe8, 0xca, 0xc8, 0x2a, 0xd3, 0xfc, 0x0d,
  0xf6, 0xf9, 0xe7, 0x34, 0xb5, 0xc1, 0x0d, 0x23, 0x1a, 0xc6, 0xeb, 0xf5,
  0x3f, 0x40, 0x01, 0x44, 0xd0, 0x06, 0x27, 0x14, 0xe1, 0x16, 0xff, 0xec,
  0xfe, 0x14, 0x2e, 0x05, 0xda, 0x0c, 0x31, 0x3a, 0x17, 0x07, 0x04, 0xf5,
  0xee, 0xdd, 0x39, 0x0c, 0x18, 0xbb, 0xdc, 0x23, 0x1a, 0xc3, 0x81, 0x3b,
  0xfb, 0x6a, 0xf6, 0x12, 0xdb, 0x07, 0x0b, 0x24, 0xfc, 0xde, 0x36, 0x0a,
  0x13, 0x24, 0x1a, 0xe2, 0x25, 0xfc, 0x21, 0xbd, 0x04, 0xe4, 0xf3, 0xb1,
  0xe1, 0xf6, 0xf6, 0xd1, 0xdf, 0xee, 0xfa, 0x0c, 0xf6, 0x33, 0xc3, 0x92,
  0xa6, 0xd3, 0x97, 0x98, 0xf6, 0x08, 0xce, 0x09, 0x3b, 0xa7, 0x8d, 0xbf,
  0xef, 0x91, 0x8c, 0xa6, 0xa4, 0x3c, 0x8c, 0xd0, 0xec, 0xa7, 0x8b, 0xf4,
  0xc0, 0xb9, 0x14, 0x15, 0xa5, 0xe3, 0x9a, 0xbf, 0x8b, 0x89, 0xd0, 0xb5,
  0xa8, 0x39, 0x3d, 0x19, 0x07, 0xe8, 0xbc, 0x0a, 0x81, 0x96, 0xbe, 0xfe,
  0x33, 0xcf, 0x81, 0xd3, 0xfa, 0xf5, 0xa0, 0xd5, 0xc0, 0xe3, 0x16, 0x20,
  0x48, 0x14, 0x3e, 0xb5, 0x0e, 0x33, 0xe2, 0x09, 0xfe, 0xa6, 0xda, 0xbd,
  0x9e, 0x19, 0x9c, 0x3a, 0x3a, 0x24, 0xd3, 0xee, 0x44, 0x13, 0xae, 0xe5,
  0x96, 0xce, 0xd6, 0xe9, 0xeb, 0xff, 0x9f, 0xcd, 0xc3, 0x2e, 0x4c, 0x18,
  0xfc, 0x91, 0x1c, 0xe5, 0xc9, 0xca, 0x04, 0xc4, 0xff, 0xbe, 0xb8, 0xa8,
  0x9a, 0xc4, 0xf9, 0xa2, 0xce, 0xfd, 0x1b, 0x26, 0xbd, 0xcd, 0xbb, 0x3e,
  0x3a, 0xff, 0x2c, 0x49, 0x8b, 0x4d, 0xbf, 0x32, 0x9d, 0xb5, 0x07, 0x28,
  0x92, 0x9d, 0xd0, 0x45, 0x20, 0xc6, 0xd5, 0x03, 0x06, 0x05, 0xfe, 0x1d,
  0xe0, 0xba, 0x05, 0xd6, 0x27, 0xb4, 0xf3, 0xf5, 0x21, 0x15, 0xb3, 0x92,
  0x1f, 0x03, 0x09, 0x44, 0x2f, 0xbf, 0xcf, 0x2f, 0xce, 0xa9, 0xea, 0x23,
  0xdf, 0xde, 0x2e, 0x7e, 0x21, 0xe4, 0x0d, 0x3c, 0x04, 0x7f, 0x0c, 0xc2,
  0xf5, 0xfa, 0xee, 0x23, 0x57, 0xe2, 0x07, 0x2b, 0x46, 0xe9, 0x9f, 0xee,
  0xf5, 0x13, 0x09, 0xc1, 0xe7, 0x38, 0x14, 0x44, 0xe6, 0xfa, 0x3b, 0x3a,
  0xe5, 0x08, 0x16, 0xdd, 0xfb, 0x02, 0xfe, 0xf6, 0xf9, 0xc8, 0xff, 0x1f,
  0x1c, 0x49, 0x31, 0x17, 0x06, 0x07, 0xfa, 0xed, 0xb8, 0xda, 0xf0, 0x33,
  0xde, 0x40, 0xf8, 0x23, 0xef, 0xf2, 0x11, 0x4a, 0xf8, 0xfa, 0x28, 0x2a,
  0xb5, 0x22, 0x10, 0xed, 0xdb, 0x3f, 0xe6, 0x05, 0xf6, 0x27, 0x2b, 0x5f,
  0xf0, 0x00, 0x03, 0x34, 0xd7, 0xd8, 0xf7, 0xe3, 0xf8, 0xd4, 0xd1, 0xed,
  0x09, 0x10, 0x1b, 0xff, 0xf2, 0xfc, 0xde, 0x13, 0xa8, 0xd6, 0xf4, 0x01,
  0xe3, 0x3a, 0x05, 0x0e, 0x94, 0x35, 0x27, 0xd4, 0x3d, 0x21, 0x00, 0xf6,
  0x18, 0xe9, 0xf8, 0x93, 0x19, 0xbe, 0x16, 0x42, 0x0c, 0x0a, 0x0a, 0xd3,
  0xf5, 0xf2, 0xf1, 0xe1, 0x0c, 0x0e, 0x3d, 0x7c, 0x02, 0xfd, 0x21, 0xe7,
  0x24, 0x0e, 0xe3, 0x09, 0xea, 0xf6, 0xff, 0xff, 0x00, 0x00, 0x00, 0x09,
  0x10, 0x00, 0x00, 0x00, 0x08, 0x00, 0x00, 0x00, 0x1c, 0x00, 0x00, 0x00,
  0x40, 0x00, 0x00, 0x00, 0x04, 0x00, 0x00, 0x00, 0x10, 0x00, 0x00, 0x00,
  0x04, 0x00, 0x00, 0x00, 0x02, 0x00, 0x00, 0x00, 0x14, 0x00, 0x00, 0x00,
  0x22, 0x00, 0x00, 0x00, 0x73, 0x65, 0x71, 0x75, 0x65, 0x6e, 0x74, 0x69,
  0x61, 0x6c, 0x5f, 0x32, 0x2f, 0x71, 0x75, 0x61, 0x6e, 0x74, 0x5f, 0x63,
  0x6f, 0x6e, 0x76, 0x32, 0x64, 0x5f, 0x39, 0x2f, 0x43, 0x6f, 0x6e, 0x76,
  0x32, 0x44, 0x00, 0x00, 0xf0, 0xf7, 0xff, 0xff, 0x08, 0x00, 0x00, 0x00,
  0x48, 0x00, 0x00, 0x00, 0x10, 0x00, 0x00, 0x00, 0x06, 0x2c, 0x87, 0x3c,
  0x6b, 0x51, 0x69, 0x3c, 0x3e, 0xab, 0x51, 0x3c, 0xa4, 0x2a, 0x2d, 0x3c,
  0x3f, 0x3e, 0x5a, 0x3c, 0x70, 0xd9, 0x95, 0x3c, 0xf4, 0xd2, 0x82, 0x3c,
  0xcc, 0x33, 0x24, 0x3c, 0x23, 0x82, 0x68, 0x3c, 0x03, 0x6f, 0x9f, 0x3c,
  0x66, 0x2f, 0x08, 0x3c, 0xa8, 0x6a, 0xdf, 0x3a, 0xd1, 0x3c, 0x26, 0x3c,
  0xd2, 0xe2, 0x67, 0x3c, 0x63, 0xbf, 0xc0, 0x3a, 0x1a, 0x55, 0x36, 0x3c,
  0x10, 0x00, 0x00, 0x00, 0x00, 0x00, 0x00, 0x00, 0x00, 0x00, 0x00, 0x00,
  0x00, 0x00, 0x00, 0x00, 0x00, 0x00, 0x00, 0x00, 0x00, 0x00, 0x00, 0x00,
  0x00, 0x00, 0x00, 0x00, 0x00, 0x00, 0x00, 0x00, 0x00, 0x00, 0x00, 0x00,
  0x00, 0x00, 0x00, 0x00, 0x00, 0x00, 0x00, 0x00, 0x00, 0x00, 0x00, 0x00,
  0x00, 0x00, 0x00, 0x00, 0x00, 0x00, 0x00, 0x00, 0x00, 0x00, 0x00, 0x00,
  0x00, 0x00, 0x00, 0x00, 0x00, 0x00, 0x00, 0x00, 0x00, 0x00, 0x00, 0x00,
  0x00, 0x00, 0x00, 0x00, 0x00, 0x00, 0x00, 0x00, 0x00, 0x00, 0x00, 0x00,
  0x00, 0x00, 0x00, 0x00, 0x00, 0x00, 0x00, 0x00, 0x00, 0x00, 0x00, 0x00,
  0x00, 0x00, 0x00, 0x00, 0x00, 0x00, 0x00, 0x00, 0x00, 0x00, 0x00, 0x00,
  0x00, 0x00, 0x00, 0x00, 0x00, 0x00, 0x00, 0x00, 0x00, 0x00, 0x00, 0x00,
  0x00, 0x00, 0x00, 0x00, 0x00, 0x00, 0x00, 0x00, 0x00, 0x00, 0x00, 0x00,
  0x00, 0x00, 0x0e, 0x00, 0x18, 0x00, 0x08, 0x00, 0x0c, 0x00, 0x10, 0x00,
  0x07, 0x00, 0x14, 0x00, 0x0e, 0x00, 0x00, 0x00, 0x00, 0x00, 0x00, 0x01,
  0x01, 0x00, 0x00, 0x00, 0x30, 0x00, 0x00, 0x00, 0x24, 0x00, 0x00, 0x00,
  0x10, 0x00, 0x00, 0x00, 0x0c, 0x00, 0x10, 0x00, 0x0e, 0x00, 0x04, 0x00,
  0x08, 0x00, 0x0f, 0x00, 0x0c, 0x00, 0x00, 0x00, 0x01, 0x00, 0x00, 0x00,
  0x01, 0x00, 0x00, 0x00, 0x00, 0x00, 0x01, 0x01, 0x01, 0x00, 0x00, 0x00,
  0x06, 0x00, 0x00, 0x00, 0x03, 0x00, 0x00, 0x00, 0x03, 0x00, 0x00, 0x00,
  0x04, 0x00, 0x00, 0x00, 0x05, 0x00, 0x00, 0x00, 0xa4, 0xfa, 0xff, 0xff,
  0x03, 0x00, 0x00, 0x00, 0x00, 0x00, 0x00, 0x03, 0x03, 0x00, 0x00, 0x00,
  0x98, 0xfa, 0xff, 0xff, 0x00, 0x00, 0x00, 0x09, 0x14, 0x00, 0x00, 0x00,
  0x07, 0x00, 0x00, 0x00, 0x34, 0x00, 0x00, 0x00, 0xd8, 0x00, 0x00, 0x00,
  0x18, 0x00, 0x00, 0x00, 0x04, 0x00, 0x00, 0x00, 0x01, 0x00, 0x00, 0x00,
  0x3b, 0x00, 0x00, 0x00, 0x02, 0x00, 0x00, 0x00, 0x14, 0x00, 0x00, 0x00,
  0x04, 0x00, 0x00, 0x00, 0xff, 0xff, 0xff, 0xff, 0x3b, 0x00, 0x00, 0x00,
  0x02, 0x00, 0x00, 0x00, 0x14, 0x00, 0x00, 0x00, 0xa2, 0x00, 0x00, 0x00,
  0x73, 0x65, 0x71, 0x75, 0x65, 0x6e, 0x74, 0x69, 0x61, 0x6c, 0x5f, 0x32,
  0x2f, 0x71, 0x75, 0x61, 0x6e, 0x74, 0x5f, 0x72, 0x65, 0x5f, 0x6c, 0x75,
  0x5f, 0x38, 0x2f, 0x52, 0x65, 0x6c, 0x75, 0x3b, 0x73, 0x65, 0x71, 0x75,
  0x65, 0x6e, 0x74, 0x69, 0x61, 0x6c, 0x5f, 0x32, 0x2f, 0x71, 0x75, 0x61,
  0x6e, 0x74, 0x5f, 0x63, 0x6f, 0x6e, 0x76, 0x32, 0x64, 0x5f, 0x38, 0x2f,
  0x42, 0x69, 0x61, 0x73, 0x41, 0x64, 0x64, 0x3b, 0x73, 0x65, 0x71, 0x75,
  0x65, 0x6e, 0x74, 0x69, 0x61, 0x6c, 0x5f, 0x32, 0x2f, 0x71, 0x75, 0x61,
  0x6e, 0x74, 0x5f, 0x63, 0x6f, 0x6e, 0x76, 0x32, 0x64, 0x5f, 0x38, 0x2f,
  0x43, 0x6f, 0x6e, 0x76, 0x32, 0x44, 0x3b, 0x73, 0x65, 0x71, 0x75, 0x65,
  0x6e, 0x74, 0x69, 0x61, 0x6c, 0x5f, 0x32, 0x2f, 0x71, 0x75, 0x61, 0x6e,
  0x74, 0x5f, 0x63, 0x6f, 0x6e, 0x76, 0x32, 0x64, 0x5f, 0x38, 0x2f, 0x42,
  0x69, 0x61, 0x73, 0x41, 0x64, 0x64, 0x2f, 0x52, 0x65, 0x61, 0x64, 0x56,
  0x61, 0x72, 0x69, 0x61, 0x62, 0x6c, 0x65, 0x4f, 0x70, 0x2f, 0x72, 0x65,
  0x73, 0x6f, 0x75, 0x72, 0x63, 0x65, 0x00, 0x00, 0x1c, 0xfa, 0xff, 0xff,
  0x08, 0x00, 0x00, 0x00, 0x0c, 0x00, 0x00, 0x00, 0x01, 0x00, 0x00, 0x00,
  0x79, 0x9f, 0x8c, 0x3b, 0x01, 0x00, 0x00, 0x00, 0x80, 0xff, 0xff, 0xff,
  0xff, 0xff, 0xff, 0xff, 0xa6, 0xf9, 0xff, 0xff, 0x04, 0x00, 0x00, 0x00,
  0x50, 0x00, 0x00, 0x00, 0x6b, 0xf1, 0xff, 0xff, 0x1a, 0xfa, 0xff, 0xff,
  0x57, 0xfd, 0xff, 0xff, 0xac, 0x03, 0x00, 0x00, 0xf9, 0xd3, 0xff, 0xff,
  0xe6, 0x04, 0x00, 0x00, 0xf5, 0xdd, 0xff, 0xff, 0x74, 0xe1, 0xff, 0xff,
  0xde, 0x00, 0x00, 0x00, 0xdd, 0xb2, 0xff, 0xff, 0x56, 0x07, 0x00, 0x00,
  0xc1, 0xfa, 0xff, 0xff, 0x46, 0xff, 0xff, 0xff, 0x66, 0xea, 0xff, 0xff,
  0x84, 0xdc, 0xff, 0xff, 0xf1, 0xd6, 0xff, 0xff, 0xef, 0xfd, 0xff, 0xff,
  0xcc, 0xf9, 0xff, 0xff, 0xbb, 0xd7, 0xff, 0xff, 0x9c, 0xe8, 0xff, 0xff,
  0xe6, 0xf9, 0xff, 0xff, 0x00, 0x00, 0x00, 0x02, 0x10, 0x00, 0x00, 0x00,
  0x06, 0x00, 0x00, 0x00, 0x10, 0x00, 0x00, 0x00, 0x4c, 0x00, 0x00, 0x00,
  0x01, 0x00, 0x00, 0x00, 0x14, 0x00, 0x00, 0x00, 0x3b, 0x00, 0x00, 0x00,
  0x73, 0x65, 0x71, 0x75, 0x65, 0x6e, 0x74, 0x69, 0x61, 0x6c, 0x5f, 0x32,
  0x2f, 0x71, 0x75, 0x61, 0x6e, 0x74, 0x5f, 0x63, 0x6f, 0x6e, 0x76, 0x32,
  0x64, 0x5f, 0x38, 0x2f, 0x42, 0x69, 0x61, 0x73, 0x41, 0x64, 0x64, 0x2f,
  0x52, 0x65, 0x61, 0x64, 0x56, 0x61, 0x72, 0x69, 0x61, 0x62, 0x6c, 0x65,
  0x4f, 0x70, 0x2f, 0x72, 0x65, 0x73, 0x6f, 0x75, 0x72, 0x63, 0x65, 0x00,
  0xf8, 0xfa, 0xff, 0xff, 0x08, 0x00, 0x00, 0x00, 0x58, 0x00, 0x00, 0x00,
  0x14, 0x00, 0x00, 0x00, 0x12, 0xe5, 0xa0, 0x37, 0xae, 0x9a, 0x92, 0x37,
  0x3d, 0xb4, 0xb7, 0x37, 0x21, 0x85, 0xa5, 0x37, 0x9b, 0xc0, 0x86, 0x37,
  0xdd, 0x38, 0x87, 0x37, 0x1e, 0x42, 0x69, 0x37, 0x1c, 0x22, 0xaa, 0x37,
  0x88, 0xcf, 0xa5, 0x37, 0x21, 0x02, 0x80, 0x37, 0x13, 0x35, 0x5b, 0x37,
  0x80, 0x06, 0xc7, 0x37, 0x6c, 0x33, 0xc0, 0x37, 0x0a, 0xf5, 0x5f, 0x37,
  0xe0, 0x96, 0x98, 0x37, 0x3a, 0x23, 0xd8, 0x37, 0xb3, 0xd1, 0x80, 0x37,
  0x51, 0xbf, 0xc4, 0x37, 0xcb, 0x20, 0x89, 0x37, 0xf7, 0x90, 0xb7, 0x37,
  0x14, 0x00, 0x00, 0x00, 0x00, 0x00, 0x00, 0x00, 0x00, 0x00, 0x00, 0x00,
  0x00, 0x00, 0x00, 0x00, 0x00, 0x00, 0x00, 0x00, 0x00, 0x00, 0x00, 0x00,
  0x00, 0x00, 0x00, 0x00, 0x00, 0x00, 0x00, 0x00, 0x00, 0x00, 0x00, 0x00,
  0x00, 0x00, 0x00, 0x00, 0x00, 0x00, 0x00, 0x00, 0x00, 0x00, 0x00, 0x00,
  0x00, 0x00, 0x00, 0x00, 0x00, 0x00, 0x00, 0x00, 0x00, 0x00, 0x00, 0x00,
  0x00, 0x00, 0x00, 0x00, 0x00, 0x00, 0x00, 0x00, 0x00, 0x00, 0x00, 0x00,
  0x00, 0x00, 0x00, 0x00, 0x00, 0x00, 0x00, 0x00, 0x00, 0x00, 0x00, 0x00,
  0x00, 0x00, 0x00, 0x00, 0x00, 0x00, 0x00, 0x00, 0x00, 0x00, 0x00, 0x00,
  0x00, 0x00, 0x00, 0x00, 0x00, 0x00, 0x00, 0x00, 0x00, 0x00, 0x00, 0x00,
  0x00, 0x00, 0x00, 0x00, 0x00, 0x00, 0x00, 0x00, 0x00, 0x00, 0x00, 0x00,
  0x00, 0x00, 0x00, 0x00, 0x00, 0x00, 0x00, 0x00, 0x00, 0x00, 0x00, 0x00,
  0x00, 0x00, 0x00, 0x00, 0x00, 0x00, 0x00, 0x00, 0x00, 0x00, 0x00, 0x00,
  0x00, 0x00, 0x00, 0x00, 0x00, 0x00, 0x00, 0x00, 0x00, 0x00, 0x00, 0x00,
  0x00, 0x00, 0x00, 0x00, 0x00, 0x00, 0x00, 0x00, 0x00, 0x00, 0x00, 0x00,
  0x6a, 0xfb, 0xff, 0xff, 0x04, 0x00, 0x00, 0x00, 0xf0, 0x00, 0x00, 0x00,
  0x14, 0x62, 0xc6, 0x5d, 0xc7, 0x09, 0xfa, 0x03, 0xc0, 0xda, 0x94, 0x81,
  0x6c, 0xb3, 0xc7, 0xb4, 0xf7, 0x1c, 0x1a, 0xf9, 0xee, 0xfc, 0x81, 0x5c,
  0xc9, 0x2c, 0xd4, 0xd6, 0xfa, 0xb8, 0xbd, 0xfc, 0x0b, 0x2d, 0xb9, 0x7f,
  0x81, 0x2e, 0xce, 0x1f, 0xa7, 0xbc, 0xed, 0x27, 0xfd, 0xed, 0x3f, 0x01,
  0x73, 0xe8, 0x25, 0x81, 0xe8, 0xac, 0x8d, 0xba, 0xa2, 0xd5, 0x92, 0xbb,
  0x7a, 0x12, 0x67, 0xed, 0x34, 0x00, 0x7f, 0x58, 0xf4, 0xdb, 0xd2, 0x31,
  0x54, 0x95, 0xd7, 0x07, 0xc7, 0x7f, 0x66, 0xdd, 0x75, 0xeb, 0xa1, 0xaf,
  0x81, 0xfa, 0xf5, 0x29, 0x50, 0xc7, 0x21, 0xe3, 0xc1, 0x45, 0xeb, 0x04,
  0x2d, 0x08, 0x46, 0x6e, 0x1b, 0x11, 0x09, 0xed, 0xdb, 0x2f, 0x3a, 0x81,
  0x85, 0x1b, 0x4e, 0x1c, 0x1c, 0x34, 0x93, 0xfd, 0xcd, 0x2d, 0x7f, 0x2b,
  0x17, 0x38, 0xf6, 0xb7, 0xe9, 0x68, 0xb1, 0x7f, 0x8e, 0xb1, 0xbe, 0xa6,
  0x1a, 0x7f, 0xed, 0xfe, 0x04, 0xdb, 0xf3, 0xa0, 0x15, 0xfb, 0x04, 0x6c,
  0x32, 0x81, 0x2e, 0xc3, 0x08, 0x22, 0xd6, 0x1d, 0xee, 0x27, 0x11, 0xd3,
  0x0a, 0xa2, 0xcc, 0xc7, 0x9d, 0xbf, 0xdd, 0x7f, 0x59, 0x6b, 0x66, 0xe1,
  0x5b, 0xea, 0x58, 0x17, 0xba, 0x61, 0xef, 0x78, 0xcb, 0xc7, 0x1d, 0x7f,
  0x2a, 0xf5, 0x25, 0x7f, 0xdf, 0xb4, 0xf7, 0x23, 0x18, 0xf8, 0xdc, 0xbb,
  0x36, 0xe9, 0xc3, 0x81, 0x1f, 0xa3, 0xbd, 0xb4, 0xf1, 0xd0, 0xb7, 0xb0,
  0xe1, 0x11, 0xcb, 0xf4, 0x40, 0xe0, 0x68, 0x01, 0x7f, 0xf1, 0x63, 0xf9,
  0x0e, 0xb3, 0x63, 0xee, 0x79, 0x36, 0x8a, 0xf9, 0x81, 0xc5, 0x43, 0xeb,
  0x36, 0x0b, 0xf1, 0x60, 0x1b, 0x81, 0xc2, 0x0d, 0xfc, 0x19, 0x26, 0xd6,
  0x4a, 0xfc, 0xff, 0xff, 0x00, 0x00, 0x00, 0x09, 0x10, 0x00, 0x00, 0x00,
  0x05, 0x00, 0x00, 0x00, 0x1c, 0x00, 0x00, 0x00, 0x40, 0x00, 0x00, 0x00,
  0x04, 0x00, 0x00, 0x00, 0x14, 0x00, 0x00, 0x00, 0x06, 0x00, 0x00, 0x00,
  0x02, 0x00, 0x00, 0x00, 0x01, 0x00, 0x00, 0x00, 0x22, 0x00, 0x00, 0x00,
  0x73, 0x65, 0x71, 0x75, 0x65, 0x6e, 0x74, 0x69, 0x61, 0x6c, 0x5f, 0x32,
  0x2f, 0x71, 0x75, 0x61, 0x6e, 0x74, 0x5f, 0x63, 0x6f, 0x6e, 0x76, 0x32,
  0x64, 0x5f, 0x38, 0x2f, 0x43, 0x6f, 0x6e, 0x76, 0x32, 0x44, 0x00, 0x00,
  0x50, 0xfd, 0xff, 0xff, 0x08, 0x00, 0x00, 0x00, 0x58, 0x00, 0x00, 0x00,
  0x14, 0x00, 0x00, 0x00, 0x2d, 0x44, 0x20, 0x3c, 0x13, 0x08, 0x12, 0x3c,
  0x89, 0xfc, 0x36, 0x3c, 0x9c, 0xdf, 0x24, 0x3c, 0xdb, 0x39, 0x06, 0x3c,
  0xa4, 0xb1, 0x06, 0x3c, 0xdc, 0x58, 0xe8, 0x3b, 0xfa, 0x77, 0x29, 0x3c,
  0xb8, 0x29, 0x25, 0x3c, 0x3d, 0x04, 0xff, 0x3b, 0xde, 0x59, 0xda, 0x3b,
  0x7a, 0x3f, 0x46, 0x3c, 0x38, 0x73, 0x3f, 0x3c, 0x15, 0x15, 0xdf, 0x3b,
  0x4a, 0xfe, 0x17, 0x3c, 0x17, 0x4b, 0x57, 0x3c, 0xe1, 0x50, 0x00, 0x3c,
  0x92, 0xfa, 0x43, 0x3c, 0xaa, 0x97, 0x08, 0x3c, 0x66, 0xd9, 0x36, 0x3c,
  0x14, 0x00, 0x00, 0x00, 0x00, 0x00, 0x00, 0x00, 0x00, 0x00, 0x00, 0x00,
  0x00, 0x00, 0x00, 0x00, 0x00, 0x00, 0x00, 0x00, 0x00, 0x00, 0x00, 0x00,
  0x00, 0x00, 0x00, 0x00, 0x00, 0x00, 0x00, 0x00, 0x00, 0x00, 0x00, 0x00,
  0x00, 0x00, 0x00, 0x00, 0x00, 0x00, 0x00, 0x00, 0x00, 0x00, 0x00, 0x00,
  0x00, 0x00, 0x00, 0x00, 0x00, 0x00, 0x00, 0x00, 0x00, 0x00, 0x00, 0x00,
  0x00, 0x00, 0x00, 0x00, 0x00, 0x00, 0x00, 0x00, 0x00, 0x00, 0x00, 0x00,
  0x00, 0x00, 0x00, 0x00, 0x00, 0x00, 0x00, 0x00, 0x00, 0x00, 0x00, 0x00,
  0x00, 0x00, 0x00, 0x00, 0x00, 0x00, 0x00, 0x00, 0x00, 0x00, 0x00, 0x00,
  0x00, 0x00, 0x00, 0x00, 0x00, 0x00, 0x00, 0x00, 0x00, 0x00, 0x00, 0x00,
  0x00, 0x00, 0x00, 0x00, 0x00, 0x00, 0x00, 0x00, 0x00, 0x00, 0x00, 0x00,
  0x00, 0x00, 0x00, 0x00, 0x00, 0x00, 0x00, 0x00, 0x00, 0x00, 0x00, 0x00,
  0x00, 0x00, 0x00, 0x00, 0x00, 0x00, 0x00, 0x00, 0x00, 0x00, 0x00, 0x00,
  0x00, 0x00, 0x00, 0x00, 0x00, 0x00, 0x00, 0x00, 0x00, 0x00, 0x00, 0x00,
  0x00, 0x00, 0x00, 0x00, 0x00, 0x00, 0x00, 0x00, 0x00, 0x00, 0x0a, 0x00,
  0x0c, 0x00, 0x00, 0x00, 0x04, 0x00, 0x08, 0x00, 0x0a, 0x00, 0x00, 0x00,
  0x10, 0x00, 0x00, 0x00, 0x04, 0x00, 0x00, 0x00, 0x01, 0x00, 0x00, 0x00,
  0x03, 0x00, 0x00, 0x00, 0x01, 0x00, 0x00, 0x00, 0x00, 0x00, 0x00, 0x00,
  0x0c, 0x00, 0x10, 0x00, 0x0b, 0x00, 0x00, 0x00, 0x0c, 0x00, 0x04, 0x00,
  0x0c, 0x00, 0x00, 0x00, 0x72, 0x00, 0x00, 0x00, 0x00, 0x00, 0x00, 0x72,
  0x01, 0x00, 0x00, 0x00, 0x14, 0x00, 0x1c, 0x00, 0x08, 0x00, 0x07, 0x00,
  0x0c, 0x00, 0x10, 0x00, 0x14, 0x00, 0x00, 0x00, 0x00, 0x00, 0x18, 0x00,
  0x14, 0x00, 0x00, 0x00, 0x00, 0x00, 0x00, 0x09, 0x14, 0x00, 0x00, 0x00,
  0x04, 0x00, 0x00, 0x00, 0x34, 0x00, 0x00, 0x00, 0x4c, 0x01, 0x00, 0x00,
  0x18, 0x00, 0x00, 0x00, 0x04, 0x00, 0x00, 0x00, 0x01, 0x00, 0x00, 0x00,
  0x40, 0x00, 0x00, 0x00, 0x03, 0x00, 0x00, 0x00, 0x01, 0x00, 0x00, 0x00,
  0x04, 0x00, 0x00, 0x00, 0xff, 0xff, 0xff, 0xff, 0x40, 0x00, 0x00, 0x00,
  0x03, 0x00, 0x00, 0x00, 0x01, 0x00, 0x00, 0x00, 0x09, 0x01, 0x00, 0x00,
  0x73, 0x65, 0x71, 0x75, 0x65, 0x6e, 0x74, 0x69, 0x61, 0x6c, 0x5f, 0x32,
  0x2f, 0x71, 0x75, 0x61, 0x6e, 0x74, 0x69, 0x7a, 0x65, 0x5f, 0x6c, 0x61,
  0x79, 0x65, 0x72, 0x5f, 0x31, 0x2f, 0x41, 0x6c, 0x6c, 0x56, 0x61, 0x6c,
  0x75, 0x65, 0x73, 0x51, 0x75, 0x61, 0x6e, 0x74, 0x69, 0x7a, 0x65, 0x2f,
  0x46, 0x61, 0x6b, 0x65, 0x51, 0x75, 0x61, 0x6e, 0x74, 0x57, 0x69, 0x74,
  0x68, 0x4d, 0x69, 0x6e, 0x4d, 0x61, 0x78, 0x56, 0x61, 0x72, 0x73, 0x3b,
  0x73, 0x65, 0x71, 0x75, 0x65, 0x6e, 0x74, 0x69, 0x61, 0x6c, 0x5f, 0x32,
  0x2f, 0x71, 0x75, 0x61, 0x6e, 0x74, 0x69, 0x7a, 0x65, 0x5f, 0x6c, 0x61,
  0x79, 0x65, 0x72, 0x5f, 0x31, 0x2f, 0x41, 0x6c, 0x6c, 0x56, 0x61, 0x6c,
  0x75, 0x65, 0x73, 0x51, 0x75, 0x61, 0x6e, 0x74, 0x69, 0x7a, 0x65, 0x2f,
  0x46, 0x61, 0x6b, 0x65, 0x51, 0x75, 0x61, 0x6e, 0x74, 0x57, 0x69, 0x74,
  0x68, 0x4d, 0x69, 0x6e, 0x4d, 0x61, 0x78, 0x56, 0x61, 0x72, 0x73, 0x2f,
  0x52, 0x65, 0x61, 0x64, 0x56, 0x61, 0x72, 0x69, 0x61, 0x62, 0x6c, 0x65,
  0x4f, 0x70, 0x2f, 0x72, 0x65, 0x73, 0x6f, 0x75, 0x72, 0x63, 0x65, 0x3b,
  0x73, 0x65, 0x71, 0x75, 0x65, 0x6e, 0x74, 0x69, 0x61, 0x6c, 0x5f, 0x32,
  0x2f, 0x71, 0x75, 0x61, 0x6e, 0x74, 0x69, 0x7a, 0x65, 0x5f, 0x6c, 0x61,
  0x79, 0x65, 0x72, 0x5f, 0x31, 0x2f, 0x41, 0x6c, 0x6c, 0x56, 0x61, 0x6c,
  0x75, 0x65, 0x73, 0x51, 0x75, 0x61, 0x6e, 0x74, 0x69, 0x7a, 0x65, 0x2f,
  0x46, 0x61, 0x6b, 0x65, 0x51, 0x75, 0x61, 0x6e, 0x74, 0x57, 0x69, 0x74,
  0x68, 0x4d, 0x69, 0x6e, 0x4d, 0x61, 0x78, 0x56, 0x61, 0x72, 0x73, 0x2f,
  0x52, 0x65, 0x61, 0x64, 0x56, 0x61, 0x72, 0x69, 0x61, 0x62, 0x6c, 0x65,
  0x4f, 0x70, 0x5f, 0x31, 0x2f, 0x72, 0x65, 0x73, 0x6f, 0x75, 0x72, 0x63,
  0x65, 0x00, 0x00, 0x00, 0x0c, 0x00, 0x0c, 0x00, 0x00, 0x00, 0x00, 0x00,
  0x04, 0x00, 0x08, 0x00, 0x0c, 0x00, 0x00, 0x00, 0x08, 0x00, 0x00, 0x00,
  0x0c, 0x00, 0x00, 0x00, 0x01, 0x00, 0x00, 0x00, 0x81, 0x80, 0x00, 0x3b,
  0x01, 0x00, 0x00, 0x00, 0x00, 0x00, 0x00, 0x00, 0x00, 0x00, 0x00, 0x00,
  0x00, 0x00, 0x00, 0x00, 0x9a, 0xff, 0xff, 0xff, 0x04, 0x00, 0x00, 0x00,
  0x08, 0x00, 0x00, 0x00, 0xff, 0xff, 0xff, 0xff, 0x10, 0x00, 0x00, 0x00,
  0x92, 0xff, 0xff, 0xff, 0x00, 0x00, 0x00, 0x02, 0x10, 0x00, 0x00, 0x00,
  0x03, 0x00, 0x00, 0x00, 0x10, 0x00, 0x00, 0x00, 0x38, 0x00, 0x00, 0x00,
  0x01, 0x00, 0x00, 0x00, 0x02, 0x00, 0x00, 0x00, 0x22, 0x00, 0x00, 0x00,
  0x73, 0x65, 0x71, 0x75, 0x65, 0x6e, 0x74, 0x69, 0x61, 0x6c, 0x5f, 0x32,
  0x2f, 0x71, 0x75, 0x61, 0x6e, 0x74, 0x5f, 0x66, 0x6c, 0x61, 0x74, 0x74,
  0x65, 0x6e, 0x5f, 0x32, 0x2f, 0x43, 0x6f, 0x6e, 0x73, 0x74, 0x00, 0x00,
  0x04, 0x00, 0x06, 0x00, 0x04, 0x00, 0x00, 0x00, 0x00, 0x00, 0x06, 0x00,
  0x08, 0x00, 0x04, 0x00, 0x06, 0x00, 0x00, 0x00, 0x04, 0x00, 0x00, 0x00,
  0x08, 0x00, 0x00, 0x00, 0x01, 0x00, 0x00, 0x00, 0x02, 0x00, 0x00, 0x00,
  0x00, 0x00, 0x0e, 0x00, 0x18, 0x00, 0x08, 0x00, 0x07, 0x00, 0x0c, 0x00,
  0x10, 0x00, 0x14, 0x00, 0x0e, 0x00, 0x00, 0x00, 0x00, 0x00, 0x00, 0x02,
  0x10, 0x00, 0x00, 0x00, 0x02, 0x00, 0x00, 0x00, 0x10, 0x00, 0x00, 0x00,
  0x50, 0x00, 0x00, 0x00, 0x01, 0x00, 0x00, 0x00, 0x02, 0x00, 0x00, 0x00,
  0x3f, 0x00, 0x00, 0x00, 0x73, 0x65, 0x71, 0x75, 0x65, 0x6e, 0x74, 0x69,
  0x61, 0x6c, 0x5f, 0x32, 0x2f, 0x71, 0x75, 0x61, 0x6e, 0x74, 0x5f, 0x67,
  0x6c, 0x6f, 0x62, 0x61, 0x6c, 0x5f, 0x6d, 0x61, 0x78, 0x5f, 0x70, 0x6f,
  0x6f, 0x6c, 0x69, 0x6e, 0x67, 0x32, 0x64, 0x5f, 0x32, 0x2f, 0x4d, 0x61,
  0x78, 0x2f, 0x72, 0x65, 0x64, 0x75, 0x63, 0x74, 0x69, 0x6f, 0x6e, 0x5f,
  0x69, 0x6e, 0x64, 0x69, 0x63, 0x65, 0x73, 0x00, 0x90, 0xff, 0xff, 0xff,
  0x14, 0x00, 0x18, 0x00, 0x04, 0x00, 0x00, 0x00, 0x08, 0x00, 0x0c, 0x00,
  0x10, 0x00, 0x00, 0x00, 0x00, 0x00, 0x14, 0x00, 0x14, 0x00, 0x00, 0x00,
  0x14, 0x00, 0x00, 0x00, 0x01, 0x00, 0x00, 0x00, 0x34, 0x00, 0x00, 0x00,
  0x44, 0x00, 0x00, 0x00, 0x18, 0x00, 0x00, 0x00, 0x04, 0x00, 0x00, 0x00,
  0x01, 0x00, 0x00, 0x00, 0x40, 0x00, 0x00, 0x00, 0x03, 0x00, 0x00, 0x00,
  0x01, 0x00, 0x00, 0x00, 0x04, 0x00, 0x00, 0x00, 0xff, 0xff, 0xff, 0xff,
  0x40, 0x00, 0x00, 0x00, 0x03, 0x00, 0x00, 0x00, 0x01, 0x00, 0x00, 0x00,
  0x0e, 0x00, 0x00, 0x00, 0x63, 0x6f, 0x6e, 0x76, 0x32, 0x64, 0x5f, 0x38,
  0x5f, 0x69, 0x6e, 0x70, 0x75, 0x74, 0x00, 0x00, 0xfc, 0xff, 0xff, 0xff,
  0x04, 0x00, 0x04, 0x00, 0x04, 0x00, 0x00, 0x00
};

#endif // INCLUDE_MODEL

#endif //MODEL_47_TENSORFLOW_H