#ifndef MODEL_27_TENSORFLOW_H
#define MODEL_27_TENSORFLOW_H

#define APP_ACTIVITY_MODEL_NAME model_27_tensorflow
#define APP_ACTIVITY_RECOGNITION_PRECISION_FLOAT (0)
#define APP_ACTIVITY_RECOGNITION_SENSOR_SCALE (2)
#define APP_ACTIVITY_RECOGNITION_SENSOR_RESOLUTION (8)
#define APP_ACTIVITY_RECOGNITION_SAMPLING_FREQUENCY (10)
#define APP_ACTIVITY_RECOGNITION_FREQUENCY_DIVIDER (0)
#define APP_ACTIVITY_RECOGNITION_HIGHPASS_STAGES (2)
#define APP_ACTIVITY_RECOGNITION_INPUT_SIZE (192)
#define APP_ACTIVITY_RECOGNITION_STEP_SIZE (32)
#define APP_ACTIVITY_RECOGNITION_CLASS_COUNT (6)

#ifdef INCLUDE_MODEL
static const float highpass_coefficients[] = {0.2069928239055942f, -0.2069928239055942f, 0.0f, 0.2068179864931189f, -0.0f, 0.25f, -0.5f, 0.25f, 0.4490699651581907f, -0.2071676613180694f};
static const char* APP_ACTIVITY_RECOGNITION_CLASSES[] = {"jog","skip","stDown","stUp","stay","walk"};
static const size_t model_27_tensorflow_len = 14488;
static const uint8_t model_27_tensorflow[] = {
 0x1c, 0x00, 0x00, 0x00, 0x54, 0x46, 0x4c, 0x33, 0x14, 0x00, 0x20, 0x00,
  0x04, 0x00, 0x08, 0x00, 0x0c, 0x00, 0x10, 0x00, 0x14, 0x00, 0x00, 0x00,
  0x18, 0x00, 0x1c, 0x00, 0x14, 0x00, 0x00, 0x00, 0x03, 0x00, 0x00, 0x00,
  0x18, 0x00, 0x00, 0x00, 0x34, 0x00, 0x00, 0x00, 0xf4, 0x00, 0x00, 0x00,
  0x34, 0x00, 0x00, 0x00, 0x9c, 0x00, 0x00, 0x00, 0x94, 0x00, 0x00, 0x00,
  0x07, 0x00, 0x00, 0x00, 0x44, 0x35, 0x00, 0x00, 0xf8, 0x2d, 0x00, 0x00,
  0x58, 0x06, 0x00, 0x00, 0x94, 0x05, 0x00, 0x00, 0x20, 0x03, 0x00, 0x00,
  0x54, 0x02, 0x00, 0x00, 0xcc, 0x01, 0x00, 0x00, 0x01, 0x00, 0x00, 0x00,
  0xe4, 0x00, 0x00, 0x00, 0x19, 0x00, 0x00, 0x00, 0x2c, 0x38, 0x00, 0x00,
  0x28, 0x38, 0x00, 0x00, 0x28, 0x37, 0x00, 0x00, 0xb8, 0x36, 0x00, 0x00,
  0x1c, 0x38, 0x00, 0x00, 0x60, 0x31, 0x00, 0x00, 0xd8, 0x2e, 0x00, 0x00,
  0x10, 0x38, 0x00, 0x00, 0xc4, 0x13, 0x00, 0x00, 0xbc, 0x11, 0x00, 0x00,
  0x04, 0x38, 0x00, 0x00, 0x20, 0x0d, 0x00, 0x00, 0xd8, 0x0b, 0x00, 0x00,
  0xf8, 0x37, 0x00, 0x00, 0xec, 0x08, 0x00, 0x00, 0xe4, 0x07, 0x00, 0x00,
  0xec, 0x37, 0x00, 0x00, 0xe8, 0x37, 0x00, 0x00, 0xe4, 0x37, 0x00, 0x00,
  0x14, 0x04, 0x00, 0x00, 0x6c, 0x03, 0x00, 0x00, 0xd8, 0x37, 0x00, 0x00,
  0xd4, 0x37, 0x00, 0x00, 0xd0, 0x37, 0x00, 0x00, 0x3c, 0x00, 0x00, 0x00,
  0x00, 0x00, 0x00, 0x00, 0x01, 0x00, 0x00, 0x00, 0x0c, 0x00, 0x00, 0x00,
  0x08, 0x00, 0x0c, 0x00, 0x04, 0x00, 0x08, 0x00, 0x08, 0x00, 0x00, 0x00,
  0x08, 0x00, 0x00, 0x00, 0x18, 0x00, 0x00, 0x00, 0x13, 0x00, 0x00, 0x00,
  0x6d, 0x69, 0x6e, 0x5f, 0x72, 0x75, 0x6e, 0x74, 0x69, 0x6d, 0x65, 0x5f,
  0x76, 0x65, 0x72, 0x73, 0x69, 0x6f, 0x6e, 0x00, 0x72, 0xc9, 0xff, 0xff,
  0x04, 0x00, 0x00, 0x00, 0x10, 0x00, 0x00, 0x00, 0x31, 0x2e, 0x31, 0x34,
  0x2e, 0x30, 0x00, 0x00, 0x00, 0x00, 0x00, 0x00, 0x00, 0x00, 0x00, 0x00,
  0x0f, 0x00, 0x00, 0x00, 0x4d, 0x4c, 0x49, 0x52, 0x20, 0x43, 0x6f, 0x6e,
  0x76, 0x65, 0x72, 0x74, 0x65, 0x64, 0x2e, 0x00, 0x00, 0x00, 0x0e, 0x00,
  0x18, 0x00, 0x04, 0x00, 0x08, 0x00, 0x0c, 0x00, 0x10, 0x00, 0x14, 0x00,
  0x0e, 0x00, 0x00, 0x00, 0x14, 0x00, 0x00, 0x00, 0x70, 0x00, 0x00, 0x00,
  0x74, 0x00, 0x00, 0x00, 0x78, 0x00, 0x00, 0x00, 0xa0, 0x00, 0x00, 0x00,
  0x17, 0x00, 0x00, 0x00, 0xd8, 0x36, 0x00, 0x00, 0x58, 0x36, 0x00, 0x00,
  0xd8, 0x35, 0x00, 0x00, 0x3c, 0x34, 0x00, 0x00, 0xf8, 0x31, 0x00, 0x00,
  0x70, 0x2e, 0x00, 0x00, 0xd4, 0x2c, 0x00, 0x00, 0xdc, 0x2a, 0x00, 0x00,
  0x34, 0x11, 0x00, 0x00, 0xb8, 0x0f, 0x00, 0x00, 0x78, 0x0e, 0x00, 0x00,
  0x20, 0x0b, 0x00, 0x00, 0xd4, 0x09, 0x00, 0x00, 0xc4, 0x08, 0x00, 0x00,
  0x1c, 0x07, 0x00, 0x00, 0xe0, 0x05, 0x00, 0x00, 0x10, 0x05, 0x00, 0x00,
  0x4c, 0x04, 0x00, 0x00, 0x5c, 0x03, 0x00, 0x00, 0x9c, 0x02, 0x00, 0x00,
  0xd0, 0x01, 0x00, 0x00, 0x04, 0x01, 0x00, 0x00, 0x7c, 0x00, 0x00, 0x00,
  0x01, 0x00, 0x00, 0x00, 0x00, 0x00, 0x00, 0x00, 0x01, 0x00, 0x00, 0x00,
  0x16, 0x00, 0x00, 0x00, 0x0a, 0x00, 0x00, 0x00, 0x8c, 0x33, 0x00, 0x00,
  0x1c, 0x2c, 0x00, 0x00, 0x24, 0x0f, 0x00, 0x00, 0x48, 0x09, 0x00, 0x00,
  0x5c, 0x05, 0x00, 0x00, 0x8c, 0x04, 0x00, 0x00, 0xd4, 0x03, 0x00, 0x00,
  0x50, 0x01, 0x00, 0x00, 0x88, 0x00, 0x00, 0x00, 0x10, 0x00, 0x00, 0x00,
  0x04, 0x00, 0x00, 0x00, 0x6d, 0x61, 0x69, 0x6e, 0x00, 0x00, 0x00, 0x00,
  0x52, 0xfc, 0xff, 0xff, 0x06, 0x00, 0x00, 0x00, 0x10, 0x00, 0x00, 0x00,
  0x04, 0x00, 0x00, 0x00, 0x01, 0x00, 0x00, 0x00, 0x16, 0x00, 0x00, 0x00,
  0x01, 0x00, 0x00, 0x00, 0x15, 0x00, 0x00, 0x00, 0xac, 0xcc, 0xff, 0xff,
  0x06, 0x00, 0x00, 0x00, 0x00, 0x00, 0x00, 0x06, 0x02, 0x00, 0x00, 0x00,
  0x10, 0xca, 0xff, 0xff, 0x14, 0x00, 0x00, 0x00, 0x17, 0x00, 0x00, 0x00,
  0x24, 0x00, 0x00, 0x00, 0x30, 0x00, 0x00, 0x00, 0x10, 0x00, 0x00, 0x00,
  0x02, 0x00, 0x00, 0x00, 0x01, 0x00, 0x00, 0x00, 0x06, 0x00, 0x00, 0x00,
  0x02, 0x00, 0x00, 0x00, 0xff, 0xff, 0xff, 0xff, 0x06, 0x00, 0x00, 0x00,
  0x08, 0x00, 0x00, 0x00, 0x49, 0x64, 0x65, 0x6e, 0x74, 0x69, 0x74, 0x79,
  0x00, 0x00, 0x00, 0x00, 0xe4, 0xc9, 0xff, 0xff, 0x96, 0xd4, 0xff, 0xff,
  0x00, 0x00, 0x00, 0x09, 0x05, 0x00, 0x00, 0x00, 0x1c, 0x00, 0x00, 0x00,
  0x10, 0x00, 0x00, 0x00, 0x04, 0x00, 0x00, 0x00, 0xfe, 0xca, 0xff, 0xff,
  0x00, 0x00, 0x80, 0x3f, 0x01, 0x00, 0x00, 0x00, 0x15, 0x00, 0x00, 0x00,
  0x01, 0x00, 0x00, 0x00, 0x14, 0x00, 0x00, 0x00, 0x30, 0xcd, 0xff, 0xff,
  0x19, 0x00, 0x00, 0x00, 0x00, 0x00, 0x00, 0x19, 0x02, 0x00, 0x00, 0x00,
  0x24, 0xcd, 0xff, 0xff, 0x00, 0x00, 0x00, 0x09, 0x14, 0x00, 0x00, 0x00,
  0x16, 0x00, 0x00, 0x00, 0x24, 0x00, 0x00, 0x00, 0x4c, 0x00, 0x00, 0x00,
  0x10, 0x00, 0x00, 0x00, 0x02, 0x00, 0x00, 0x00, 0x01, 0x00, 0x00, 0x00,
  0x06, 0x00, 0x00, 0x00, 0x02, 0x00, 0x00, 0x00, 0xff, 0xff, 0xff, 0xff,
  0x06, 0x00, 0x00, 0x00, 0x24, 0x00, 0x00, 0x00, 0x73, 0x65, 0x71, 0x75,
  0x65, 0x6e, 0x74, 0x69, 0x61, 0x6c, 0x5f, 0x31, 0x2f, 0x71, 0x75, 0x61,
  0x6e, 0x74, 0x5f, 0x73, 0x6f, 0x66, 0x74, 0x6d, 0x61, 0x78, 0x5f, 0x31,
  0x2f, 0x53, 0x6f, 0x66, 0x74, 0x6d, 0x61, 0x78, 0x00, 0x00, 0x00, 0x00,
  0x1c, 0xcc, 0xff, 0xff, 0x08, 0x00, 0x00, 0x00, 0x0c, 0x00, 0x00, 0x00,
  0x01, 0x00, 0x00, 0x00, 0x00, 0x00, 0x80, 0x3b, 0x01, 0x00, 0x00, 0x00,
  0x80, 0xff, 0xff, 0xff, 0xff, 0xff, 0xff, 0xff, 0x00, 0x00, 0x00, 0x00,
  0x5a, 0xd5, 0xff, 0xff, 0x00, 0x00, 0x00, 0x08, 0x04, 0x00, 0x00, 0x00,
  0x18, 0x00, 0x00, 0x00, 0x0c, 0x00, 0x00, 0x00, 0x04, 0x00, 0x00, 0x00,
  0xc4, 0xca, 0xff, 0xff, 0x01, 0x00, 0x00, 0x00, 0x14, 0x00, 0x00, 0x00,
  0x03, 0x00, 0x00, 0x00, 0x11, 0x00, 0x00, 0x00, 0x12, 0x00, 0x00, 0x00,
  0x13, 0x00, 0x00, 0x00, 0xf8, 0xcd, 0xff, 0xff, 0x09, 0x00, 0x00, 0x00,
  0x00, 0x00, 0x00, 0x09, 0x04, 0x00, 0x00, 0x00, 0xec, 0xcd, 0xff, 0xff,
  0x00, 0x00, 0x00, 0x09, 0x14, 0x00, 0x00, 0x00, 0x15, 0x00, 0x00, 0x00,
  0x24, 0x00, 0x00, 0x00, 0x6c, 0x00, 0x00, 0x00, 0x10, 0x00, 0x00, 0x00,
  0x02, 0x00, 0x00, 0x00, 0x01, 0x00, 0x00, 0x00, 0x06, 0x00, 0x00, 0x00,
  0x02, 0x00, 0x00, 0x00, 0xff, 0xff, 0xff, 0xff, 0x06, 0x00, 0x00, 0x00,
  0x44, 0x00, 0x00, 0x00, 0x73, 0x65, 0x71, 0x75, 0x65, 0x6e, 0x74, 0x69,
  0x61, 0x6c, 0x5f, 0x31, 0x2f, 0x71, 0x75, 0x61, 0x6e, 0x74, 0x5f, 0x64,
  0x65, 0x6e, 0x73, 0x65, 0x5f, 0x31, 0x2f, 0x4d, 0x61, 0x74, 0x4d, 0x75,
  0x6c, 0x3b, 0x73, 0x65, 0x71, 0x75, 0x65, 0x6e, 0x74, 0x69, 0x61, 0x6c,
  0x5f, 0x31, 0x2f, 0x71, 0x75, 0x61, 0x6e, 0x74, 0x5f, 0x64, 0x65, 0x6e,
  0x73, 0x65, 0x5f, 0x31, 0x2f, 0x42, 0x69, 0x61, 0x73, 0x41, 0x64, 0x64,
  0x00, 0x00, 0x00, 0x00, 0x04, 0xcd, 0xff, 0xff, 0x08, 0x00, 0x00, 0x00,
  0x0c, 0x00, 0x00, 0x00, 0x01, 0x00, 0x00, 0x00, 0xea, 0x34, 0xd0, 0x3e,
  0x01, 0x00, 0x00, 0x00, 0x50, 0x00, 0x00, 0x00, 0x00, 0x00, 0x00, 0x00,
  0x00, 0x00, 0x00, 0x00, 0x92, 0xcc, 0xff, 0xff, 0x04, 0x00, 0x00, 0x00,
  0x18, 0x00, 0x00, 0x00, 0x03, 0x02, 0x00, 0x00, 0x51, 0xfc, 0xff, 0xff,
  0xc5, 0xfa, 0xff, 0xff, 0xb0, 0x00, 0x00, 0x00, 0x3e, 0x04, 0x00, 0x00,
  0x9f, 0x01, 0x00, 0x00, 0x9a, 0xcc, 0xff, 0xff, 0x00, 0x00, 0x00, 0x02,
  0x10, 0x00, 0x00, 0x00, 0x14, 0x00, 0x00, 0x00, 0x10, 0x00, 0x00, 0x00,
  0x4c, 0x00, 0x00, 0x00, 0x01, 0x00, 0x00, 0x00, 0x06, 0x00, 0x00, 0x00,
  0x3a, 0x00, 0x00, 0x00, 0x73, 0x65, 0x71, 0x75, 0x65, 0x6e, 0x74, 0x69,
  0x61, 0x6c, 0x5f, 0x31, 0x2f, 0x71, 0x75, 0x61, 0x6e, 0x74, 0x5f, 0x64,
  0x65, 0x6e, 0x73, 0x65, 0x5f, 0x31, 0x2f, 0x42, 0x69, 0x61, 0x73, 0x41,
  0x64, 0x64, 0x2f, 0x52, 0x65, 0x61, 0x64, 0x56, 0x61, 0x72, 0x69, 0x61,
  0x62, 0x6c, 0x65, 0x4f, 0x70, 0x2f, 0x72, 0x65, 0x73, 0x6f, 0x75, 0x72,
  0x63, 0x65, 0x00, 0x00, 0xac, 0xcd, 0xff, 0xff, 0x08, 0x00, 0x00, 0x00,
  0x0c, 0x00, 0x00, 0x00, 0x01, 0x00, 0x00, 0x00, 0x01, 0xaf, 0x97, 0x3a,
  0x01, 0x00, 0x00, 0x00, 0x00, 0x00, 0x00, 0x00, 0x00, 0x00, 0x00, 0x00,
  0x36, 0xcd, 0xff, 0xff, 0x04, 0x00, 0x00, 0x00, 0x30, 0x00, 0x00, 0x00,
  0x10, 0xc2, 0xcc, 0xbc, 0xaf, 0xcf, 0x11, 0xb8, 0x0c, 0x13, 0x20, 0x0b,
  0xdd, 0x16, 0x0d, 0xd1, 0x08, 0x09, 0xf1, 0x16, 0x0f, 0x0e, 0x0b, 0x13,
  0xdd, 0x0b, 0xc9, 0x13, 0x05, 0xdc, 0xea, 0x0d, 0xcd, 0x89, 0x14, 0x87,
  0x81, 0x0c, 0xd1, 0x95, 0xb8, 0xc7, 0xce, 0x07, 0x0d, 0xcb, 0xc1, 0x19,
  0x56, 0xcd, 0xff, 0xff, 0x00, 0x00, 0x00, 0x09, 0x10, 0x00, 0x00, 0x00,
  0x13, 0x00, 0x00, 0x00, 0x14, 0x00, 0x00, 0x00, 0x78, 0x00, 0x00, 0x00,
  0x02, 0x00, 0x00, 0x00, 0x06, 0x00, 0x00, 0x00, 0x08, 0x00, 0x00, 0x00,
  0x63, 0x00, 0x00, 0x00, 0x73, 0x65, 0x71, 0x75, 0x65, 0x6e, 0x74, 0x69,
  0x61, 0x6c, 0x5f, 0x31, 0x2f, 0x71, 0x75, 0x61, 0x6e, 0x74, 0x5f, 0x64,
  0x65, 0x6e, 0x73, 0x65, 0x5f, 0x31, 0x2f, 0x4d, 0x61, 0x74, 0x4d, 0x75,
  0x6c, 0x3b, 0x73, 0x65, 0x71, 0x75, 0x65, 0x6e, 0x74, 0x69, 0x61, 0x6c,
  0x5f, 0x31, 0x2f, 0x71, 0x75, 0x61, 0x6e, 0x74, 0x5f, 0x64, 0x65, 0x6e,
  0x73, 0x65, 0x5f, 0x31, 0x2f, 0x4c, 0x61, 0x73, 0x74, 0x56, 0x61, 0x6c,
  0x75, 0x65, 0x51, 0x75, 0x61, 0x6e, 0x74, 0x2f, 0x46, 0x61, 0x6b, 0x65,
  0x51, 0x75, 0x61, 0x6e, 0x74, 0x57, 0x69, 0x74, 0x68, 0x4d, 0x69, 0x6e,
  0x4d, 0x61, 0x78, 0x56, 0x61, 0x72, 0x73, 0x00, 0x94, 0xce, 0xff, 0xff,
  0x08, 0x00, 0x00, 0x00, 0x0c, 0x00, 0x00, 0x00, 0x01, 0x00, 0x00, 0x00,
  0x6c, 0xbe, 0xd6, 0x3c, 0x01, 0x00, 0x00, 0x00, 0x00, 0x00, 0x00, 0x00,
  0x00, 0x00, 0x00, 0x00, 0x00, 0x00, 0x0a, 0x00, 0x10, 0x00, 0x04, 0x00,
  0x08, 0x00, 0x0c, 0x00, 0x0a, 0x00, 0x00, 0x00, 0x03, 0x00, 0x00, 0x00,
  0x10, 0x00, 0x00, 0x00, 0x04, 0x00, 0x00, 0x00, 0x01, 0x00, 0x00, 0x00,
  0x11, 0x00, 0x00, 0x00, 0x02, 0x00, 0x00, 0x00, 0x10, 0x00, 0x00, 0x00,
  0x02, 0x00, 0x00, 0x00, 0x68, 0xd0, 0xff, 0xff, 0x16, 0x00, 0x00, 0x00,
  0x00, 0x00, 0x00, 0x16, 0x01, 0x00, 0x00, 0x00, 0x5c, 0xd0, 0xff, 0xff,
  0x00, 0x00, 0x00, 0x09, 0x14, 0x00, 0x00, 0x00, 0x12, 0x00, 0x00, 0x00,
  0x24, 0x00, 0x00, 0x00, 0x4c, 0x00, 0x00, 0x00, 0x10, 0x00, 0x00, 0x00,
  0x02, 0x00, 0x00, 0x00, 0x01, 0x00, 0x00, 0x00, 0x08, 0x00, 0x00, 0x00,
  0x02, 0x00, 0x00, 0x00, 0xff, 0xff, 0xff, 0xff, 0x08, 0x00, 0x00, 0x00,
  0x24, 0x00, 0x00, 0x00, 0x73, 0x65, 0x71, 0x75, 0x65, 0x6e, 0x74, 0x69,
  0x61, 0x6c, 0x5f, 0x31, 0x2f, 0x71, 0x75, 0x61, 0x6e, 0x74, 0x5f, 0x66,
  0x6c, 0x61, 0x74, 0x74, 0x65, 0x6e, 0x5f, 0x31, 0x2f, 0x52, 0x65, 0x73,
  0x68, 0x61, 0x70, 0x65, 0x00, 0x00, 0x00, 0x00, 0x54, 0xcf, 0xff, 0xff,
  0x08, 0x00, 0x00, 0x00, 0x0c, 0x00, 0x00, 0x00, 0x01, 0x00, 0x00, 0x00,
  0x24, 0xd3, 0x34, 0x3d, 0x01, 0x00, 0x00, 0x00, 0x80, 0xff, 0xff, 0xff,
  0xff, 0xff, 0xff, 0xff, 0x8e, 0xd8, 0xff, 0xff, 0x00, 0x00, 0x00, 0x1b,
  0x02, 0x00, 0x00, 0x00, 0x18, 0x00, 0x00, 0x00, 0x0c, 0x00, 0x00, 0x00,
  0x04, 0x00, 0x00, 0x00, 0xf8, 0xcd, 0xff, 0xff, 0x01, 0x00, 0x00, 0x00,
  0x10, 0x00, 0x00, 0x00, 0x02, 0x00, 0x00, 0x00, 0x0f, 0x00, 0x00, 0x00,
  0x01, 0x00, 0x00, 0x00, 0x28, 0xd1, 0xff, 0xff, 0x52, 0x00, 0x00, 0x00,
  0x00, 0x00, 0x00, 0x52, 0x02, 0x00, 0x00, 0x00, 0x1c, 0xd1, 0xff, 0xff,
  0x00, 0x00, 0x00, 0x09, 0x14, 0x00, 0x00, 0x00, 0x11, 0x00, 0x00, 0x00,
  0x24, 0x00, 0x00, 0x00, 0x54, 0x00, 0x00, 0x00, 0x10, 0x00, 0x00, 0x00,
  0x02, 0x00, 0x00, 0x00, 0x01, 0x00, 0x00, 0x00, 0x08, 0x00, 0x00, 0x00,
  0x02, 0x00, 0x00, 0x00, 0xff, 0xff, 0xff, 0xff, 0x08, 0x00, 0x00, 0x00,
  0x2d, 0x00, 0x00, 0x00, 0x73, 0x65, 0x71, 0x75, 0x65, 0x6e, 0x74, 0x69,
  0x61, 0x6c, 0x5f, 0x31, 0x2f, 0x71, 0x75, 0x61, 0x6e, 0x74, 0x5f, 0x67,
  0x6c, 0x6f, 0x62, 0x61, 0x6c, 0x5f, 0x6d, 0x61, 0x78, 0x5f, 0x70, 0x6f,
  0x6f, 0x6c, 0x69, 0x6e, 0x67, 0x32, 0x64, 0x5f, 0x31, 0x2f, 0x4d, 0x61,
  0x78, 0x00, 0x00, 0x00, 0x1c, 0xd0, 0xff, 0xff, 0x08, 0x00, 0x00, 0x00,
  0x0c, 0x00, 0x00, 0x00, 0x01, 0x00, 0x00, 0x00, 0x24, 0xd3, 0x34, 0x3d,
  0x01, 0x00, 0x00, 0x00, 0x80, 0xff, 0xff, 0xff, 0xff, 0xff, 0xff, 0xff,
  0x00, 0x00, 0x00, 0x00, 0x5a, 0xd9, 0xff, 0xff, 0x00, 0x00, 0x00, 0x01,
  0x01, 0x00, 0x00, 0x00, 0x24, 0x00, 0x00, 0x00, 0x18, 0x00, 0x00, 0x00,
  0x04, 0x00, 0x00, 0x00, 0x4c, 0xd9, 0xff, 0xff, 0x01, 0x00, 0x00, 0x00,
  0x01, 0x00, 0x00, 0x00, 0x00, 0x00, 0x01, 0x01, 0x01, 0x00, 0x00, 0x00,
  0x0f, 0x00, 0x00, 0x00, 0x03, 0x00, 0x00, 0x00, 0x0c, 0x00, 0x00, 0x00,
  0x0d, 0x00, 0x00, 0x00, 0x0e, 0x00, 0x00, 0x00, 0xe8, 0xd1, 0xff, 0xff,
  0x00, 0x00, 0x00, 0x09, 0x14, 0x00, 0x00, 0x00, 0x10, 0x00, 0x00, 0x00,
  0x34, 0x00, 0x00, 0x00, 0xd8, 0x00, 0x00, 0x00, 0x18, 0x00, 0x00, 0x00,
  0x04, 0x00, 0x00, 0x00, 0x01, 0x00, 0x00, 0x00, 0x36, 0x00, 0x00, 0x00,
  0x01, 0x00, 0x00, 0x00, 0x08, 0x00, 0x00, 0x00, 0x04, 0x00, 0x00, 0x00,
  0xff, 0xff, 0xff, 0xff, 0x36, 0x00, 0x00, 0x00, 0x01, 0x00, 0x00, 0x00,
  0x08, 0x00, 0x00, 0x00, 0xa2, 0x00, 0x00, 0x00, 0x73, 0x65, 0x71, 0x75,
  0x65, 0x6e, 0x74, 0x69, 0x61, 0x6c, 0x5f, 0x31, 0x2f, 0x71, 0x75, 0x61,
  0x6e, 0x74, 0x5f, 0x72, 0x65, 0x5f, 0x6c, 0x75, 0x5f, 0x37, 0x2f, 0x52,
  0x65, 0x6c, 0x75, 0x3b, 0x73, 0x65, 0x71, 0x75, 0x65, 0x6e, 0x74, 0x69,
  0x61, 0x6c, 0x5f, 0x31, 0x2f, 0x71, 0x75, 0x61, 0x6e, 0x74, 0x5f, 0x63,
  0x6f, 0x6e, 0x76, 0x32, 0x64, 0x5f, 0x37, 0x2f, 0x42, 0x69, 0x61, 0x73,
  0x41, 0x64, 0x64, 0x3b, 0x73, 0x65, 0x71, 0x75, 0x65, 0x6e, 0x74, 0x69,
  0x61, 0x6c, 0x5f, 0x31, 0x2f, 0x71, 0x75, 0x61, 0x6e, 0x74, 0x5f, 0x63,
  0x6f, 0x6e, 0x76, 0x32, 0x64, 0x5f, 0x37, 0x2f, 0x43, 0x6f, 0x6e, 0x76,
  0x32, 0x44, 0x3b, 0x73, 0x65, 0x71, 0x75, 0x65, 0x6e, 0x74, 0x69, 0x61,
  0x6c, 0x5f, 0x31, 0x2f, 0x71, 0x75, 0x61, 0x6e, 0x74, 0x5f, 0x63, 0x6f,
  0x6e, 0x76, 0x32, 0x64, 0x5f, 0x37, 0x2f, 0x42, 0x69, 0x61, 0x73, 0x41,
  0x64, 0x64, 0x2f, 0x52, 0x65, 0x61, 0x64, 0x56, 0x61, 0x72, 0x69, 0x61,
  0x62, 0x6c, 0x65, 0x4f, 0x70, 0x2f, 0x72, 0x65, 0x73, 0x6f, 0x75, 0x72,
  0x63, 0x65, 0x00, 0x00, 0x6c, 0xd1, 0xff, 0xff, 0x08, 0x00, 0x00, 0x00,
  0x0c, 0x00, 0x00, 0x00, 0x01, 0x00, 0x00, 0x00, 0x24, 0xd3, 0x34, 0x3d,
  0x01, 0x00, 0x00, 0x00, 0x80, 0xff, 0xff, 0xff, 0xff, 0xff, 0xff, 0xff,
  0xf6, 0xd0, 0xff, 0xff, 0x04, 0x00, 0x00, 0x00, 0x20, 0x00, 0x00, 0x00,
  0x73, 0xfe, 0xff, 0xff, 0x16, 0x01, 0x00, 0x00, 0x96, 0xfe, 0xff, 0xff,
  0x97, 0x00, 0x00, 0x00, 0xd1, 0xff, 0xff, 0xff, 0x40, 0xff, 0xff, 0xff,
  0xf5, 0xff, 0xff, 0xff, 0x8a, 0xfd, 0xff, 0xff, 0x06, 0xd1, 0xff, 0xff,
  0x00, 0x00, 0x00, 0x02, 0x10, 0x00, 0x00, 0x00, 0x0f, 0x00, 0x00, 0x00,
  0x10, 0x00, 0x00, 0x00, 0x4c, 0x00, 0x00, 0x00, 0x01, 0x00, 0x00, 0x00,
  0x08, 0x00, 0x00, 0x00, 0x3b, 0x00, 0x00, 0x00, 0x73, 0x65, 0x71, 0x75,
  0x65, 0x6e, 0x74, 0x69, 0x61, 0x6c, 0x5f, 0x31, 0x2f, 0x71, 0x75, 0x61,
  0x6e, 0x74, 0x5f, 0x63, 0x6f, 0x6e, 0x76, 0x32, 0x64, 0x5f, 0x37, 0x2f,
  0x42, 0x69, 0x61, 0x73, 0x41, 0x64, 0x64, 0x2f, 0x52, 0x65, 0x61, 0x64,
  0x56, 0x61, 0x72, 0x69, 0x61, 0x62, 0x6c, 0x65, 0x4f, 0x70, 0x2f, 0x72,
  0x65, 0x73, 0x6f, 0x75, 0x72, 0x63, 0x65, 0x00, 0x18, 0xd2, 0xff, 0xff,
  0x08, 0x00, 0x00, 0x00, 0x28, 0x00, 0x00, 0x00, 0x08, 0x00, 0x00, 0x00,
  0xb8, 0x93, 0xa3, 0x39, 0xa1, 0xf6, 0x08, 0x3a, 0x9e, 0xb2, 0xeb, 0x39,
  0x9a, 0x48, 0xaa, 0x3a, 0xfb, 0xa5, 0x3b, 0x3a, 0xe3, 0xff, 0x11, 0x3a,
  0x8e, 0x60, 0xc9, 0x39, 0xfa, 0xff, 0x18, 0x3a, 0x08, 0x00, 0x00, 0x00,
  0x00, 0x00, 0x00, 0x00, 0x00, 0x00, 0x00, 0x00, 0x00, 0x00, 0x00, 0x00,
  0x00, 0x00, 0x00, 0x00, 0x00, 0x00, 0x00, 0x00, 0x00, 0x00, 0x00, 0x00,
  0x00, 0x00, 0x00, 0x00, 0x00, 0x00, 0x00, 0x00, 0x00, 0x00, 0x00, 0x00,
  0x00, 0x00, 0x00, 0x00, 0x00, 0x00, 0x00, 0x00, 0x00, 0x00, 0x00, 0x00,
  0x00, 0x00, 0x00, 0x00, 0x00, 0x00, 0x00, 0x00, 0x00, 0x00, 0x00, 0x00,
  0x00, 0x00, 0x00, 0x00, 0x00, 0x00, 0x00, 0x00, 0xfa, 0xd1, 0xff, 0xff,
  0x04, 0x00, 0x00, 0x00, 0xc0, 0x00, 0x00, 0x00, 0x0f, 0xd3, 0xc0, 0x3b,
  0x4d, 0xb4, 0x32, 0x7f, 0xd3, 0x16, 0x43, 0xfe, 0xa5, 0x29, 0xb4, 0x0e,
  0x41, 0x0a, 0x33, 0x03, 0xe8, 0x16, 0x00, 0x06, 0xa0, 0x1f, 0xc6, 0x02,
  0x0b, 0x1d, 0x05, 0x8c, 0x20, 0x81, 0x3d, 0x0c, 0xfe, 0x3d, 0x1f, 0xe3,
  0x21, 0xb1, 0x2b, 0xf9, 0xd0, 0xc2, 0xfe, 0xc9, 0xe5, 0x2b, 0x52, 0xb7,
  0xaa, 0x01, 0x08, 0x02, 0x1e, 0x81, 0x28, 0x1f, 0xad, 0x29, 0x23, 0x0b,
  0xc9, 0xc4, 0x23, 0x0b, 0x8f, 0xa8, 0x10, 0xf4, 0xee, 0xee, 0xef, 0xe5,
  0x7f, 0x06, 0xfc, 0xe8, 0x04, 0xfb, 0x08, 0xf8, 0x0b, 0x07, 0x05, 0xf0,
  0xfd, 0xf5, 0x09, 0xfa, 0xf9, 0xf9, 0xfd, 0xfb, 0xfe, 0xeb, 0xed, 0x23,
  0x6b, 0xec, 0x0b, 0x1b, 0xfd, 0x04, 0xc6, 0xee, 0x08, 0xec, 0x03, 0x1a,
  0x16, 0xd8, 0x35, 0x00, 0x27, 0xd8, 0xe5, 0x81, 0xe3, 0xfb, 0x42, 0x19,
  0x32, 0x00, 0xfd, 0xd2, 0xfb, 0x81, 0x29, 0x27, 0xd8, 0xfd, 0x37, 0x4a,
  0x4a, 0xbf, 0x40, 0xfc, 0xcd, 0xac, 0x0d, 0xe2, 0x0d, 0x96, 0xd4, 0x26,
  0x61, 0xa7, 0x19, 0x7f, 0xc1, 0x12, 0x36, 0xfe, 0xa3, 0x33, 0x1a, 0x0a,
  0x39, 0x09, 0x2b, 0xf8, 0xfc, 0x19, 0x08, 0x03, 0xeb, 0xa4, 0xcc, 0x31,
  0x2e, 0x9b, 0x4f, 0x4f, 0x3c, 0x00, 0x81, 0x81, 0x23, 0x0f, 0x0c, 0x18,
  0x1f, 0x0e, 0xb7, 0xec, 0x09, 0x04, 0xf7, 0xb3, 0xaa, 0xd2, 0xff, 0xff,
  0x00, 0x00, 0x00, 0x09, 0x10, 0x00, 0x00, 0x00, 0x0e, 0x00, 0x00, 0x00,
  0x1c, 0x00, 0x00, 0x00, 0x40, 0x00, 0x00, 0x00, 0x04, 0x00, 0x00, 0x00,
  0x08, 0x00, 0x00, 0x00, 0x02, 0x00, 0x00, 0x00, 0x01, 0x00, 0x00, 0x00,
  0x0c, 0x00, 0x00, 0x00, 0x22, 0x00, 0x00, 0x00, 0x73, 0x65, 0x71, 0x75,
  0x65, 0x6e, 0x74, 0x69, 0x61, 0x6c, 0x5f, 0x31, 0x2f, 0x71, 0x75, 0x61,
  0x6e, 0x74, 0x5f, 0x63, 0x6f, 0x6e, 0x76, 0x32, 0x64, 0x5f, 0x37, 0x2f,
  0x43, 0x6f, 0x6e, 0x76, 0x32, 0x44, 0x00, 0x00, 0xb0, 0xd3, 0xff, 0xff,
  0x08, 0x00, 0x00, 0x00, 0x28, 0x00, 0x00, 0x00, 0x08, 0x00, 0x00, 0x00,
  0x37, 0x9a, 0xde, 0x3b, 0xaf, 0x62, 0x3a, 0x3c, 0xa6, 0x5f, 0x20, 0x3c,
  0x9f, 0xba, 0xe7, 0x3c, 0x14, 0x5c, 0x7f, 0x3c, 0xa8, 0xae, 0x46, 0x3c,
  0x6e, 0x05, 0x09, 0x3c, 0x69, 0x35, 0x50, 0x3c, 0x08, 0x00, 0x00, 0x00,
  0x00, 0x00, 0x00, 0x00, 0x00, 0x00, 0x00, 0x00, 0x00, 0x00, 0x00, 0x00,
  0x00, 0x00, 0x00, 0x00, 0x00, 0x00, 0x00, 0x00, 0x00, 0x00, 0x00, 0x00,
  0x00, 0x00, 0x00, 0x00, 0x00, 0x00, 0x00, 0x00, 0x00, 0x00, 0x00, 0x00,
  0x00, 0x00, 0x00, 0x00, 0x00, 0x00, 0x00, 0x00, 0x00, 0x00, 0x00, 0x00,
  0x00, 0x00, 0x00, 0x00, 0x00, 0x00, 0x00, 0x00, 0x00, 0x00, 0x00, 0x00,
  0x00, 0x00, 0x00, 0x00, 0x00, 0x00, 0x00, 0x00, 0x42, 0xdd, 0xff, 0xff,
  0x00, 0x00, 0x00, 0x01, 0x01, 0x00, 0x00, 0x00, 0x24, 0x00, 0x00, 0x00,
  0x18, 0x00, 0x00, 0x00, 0x04, 0x00, 0x00, 0x00, 0x34, 0xdd, 0xff, 0xff,
  0x01, 0x00, 0x00, 0x00, 0x01, 0x00, 0x00, 0x00, 0x00, 0x00, 0x01, 0x01,
  0x01, 0x00, 0x00, 0x00, 0x0c, 0x00, 0x00, 0x00, 0x03, 0x00, 0x00, 0x00,
  0x09, 0x00, 0x00, 0x00, 0x0a, 0x00, 0x00, 0x00, 0x0b, 0x00, 0x00, 0x00,
  0xd0, 0xd5, 0xff, 0xff, 0x00, 0x00, 0x00, 0x09, 0x14, 0x00, 0x00, 0x00,
  0x0d, 0x00, 0x00, 0x00, 0x34, 0x00, 0x00, 0x00, 0xd8, 0x00, 0x00, 0x00,
  0x18, 0x00, 0x00, 0x00, 0x04, 0x00, 0x00, 0x00, 0x01, 0x00, 0x00, 0x00,
  0x37, 0x00, 0x00, 0x00, 0x01, 0x00, 0x00, 0x00, 0x0c, 0x00, 0x00, 0x00,
  0x04, 0x00, 0x00, 0x00, 0xff, 0xff, 0xff, 0xff, 0x37, 0x00, 0x00, 0x00,
  0x01, 0x00, 0x00, 0x00, 0x0c, 0x00, 0x00, 0x00, 0xa2, 0x00, 0x00, 0x00,
  0x73, 0x65, 0x71, 0x75, 0x65, 0x6e, 0x74, 0x69, 0x61, 0x6c, 0x5f, 0x31,
  0x2f, 0x71, 0x75, 0x61, 0x6e, 0x74, 0x5f, 0x72, 0x65, 0x5f, 0x6c, 0x75,
  0x5f, 0x36, 0x2f, 0x52, 0x65, 0x6c, 0x75, 0x3b, 0x73, 0x65, 0x71, 0x75,
  0x65, 0x6e, 0x74, 0x69, 0x61, 0x6c, 0x5f, 0x31, 0x2f, 0x71, 0x75, 0x61,
  0x6e, 0x74, 0x5f, 0x63, 0x6f, 0x6e, 0x76, 0x32, 0x64, 0x5f, 0x36, 0x2f,
  0x42, 0x69, 0x61, 0x73, 0x41, 0x64, 0x64, 0x3b, 0x73, 0x65, 0x71, 0x75,
  0x65, 0x6e, 0x74, 0x69, 0x61, 0x6c, 0x5f, 0x31, 0x2f, 0x71, 0x75, 0x61,
  0x6e, 0x74, 0x5f, 0x63, 0x6f, 0x6e, 0x76, 0x32, 0x64, 0x5f, 0x36, 0x2f,
  0x43, 0x6f, 0x6e, 0x76, 0x32, 0x44, 0x3b, 0x73, 0x65, 0x71, 0x75, 0x65,
  0x6e, 0x74, 0x69, 0x61, 0x6c, 0x5f, 0x31, 0x2f, 0x71, 0x75, 0x61, 0x6e,
  0x74, 0x5f, 0x63, 0x6f, 0x6e, 0x76, 0x32, 0x64, 0x5f, 0x36, 0x2f, 0x42,
  0x69, 0x61, 0x73, 0x41, 0x64, 0x64, 0x2f, 0x52, 0x65, 0x61, 0x64, 0x56,
  0x61, 0x72, 0x69, 0x61, 0x62, 0x6c, 0x65, 0x4f, 0x70, 0x2f, 0x72, 0x65,
  0x73, 0x6f, 0x75, 0x72, 0x63, 0x65, 0x00, 0x00, 0x54, 0xd5, 0xff, 0xff,
  0x08, 0x00, 0x00, 0x00, 0x0c, 0x00, 0x00, 0x00, 0x01, 0x00, 0x00, 0x00,
  0x6f, 0x1e, 0x3c, 0x3d, 0x01, 0x00, 0x00, 0x00, 0x80, 0xff, 0xff, 0xff,
  0xff, 0xff, 0xff, 0xff, 0xde, 0xd4, 0xff, 0xff, 0x04, 0x00, 0x00, 0x00,
  0x30, 0x00, 0x00, 0x00, 0xa4, 0x01, 0x00, 0x00, 0x27, 0x03, 0x00, 0x00,
  0x59, 0x02, 0x00, 0x00, 0x40, 0xfe, 0xff, 0xff, 0xd3, 0x00, 0x00, 0x00,
  0xb6, 0xff, 0xff, 0xff, 0x5d, 0x01, 0x00, 0x00, 0x83, 0x00, 0x00, 0x00,
  0x2b, 0x00, 0x00, 0x00, 0xd2, 0xff, 0xff, 0xff, 0x0c, 0x00, 0x00, 0x00,
  0xf6, 0xfa, 0xff, 0xff, 0xfe, 0xd4, 0xff, 0xff, 0x00, 0x00, 0x00, 0x02,
  0x10, 0x00, 0x00, 0x00, 0x0c, 0x00, 0x00, 0x00, 0x10, 0x00, 0x00, 0x00,
  0x4c, 0x00, 0x00, 0x00, 0x01, 0x00, 0x00, 0x00, 0x0c, 0x00, 0x00, 0x00,
  0x3b, 0x00, 0x00, 0x00, 0x73, 0x65, 0x71, 0x75, 0x65, 0x6e, 0x74, 0x69,
  0x61, 0x6c, 0x5f, 0x31, 0x2f, 0x71, 0x75, 0x61, 0x6e, 0x74, 0x5f, 0x63,
  0x6f, 0x6e, 0x76, 0x32, 0x64, 0x5f, 0x36, 0x2f, 0x42, 0x69, 0x61, 0x73,
  0x41, 0x64, 0x64, 0x2f, 0x52, 0x65, 0x61, 0x64, 0x56, 0x61, 0x72, 0x69,
  0x61, 0x62, 0x6c, 0x65, 0x4f, 0x70, 0x2f, 0x72, 0x65, 0x73, 0x6f, 0x75,
  0x72, 0x63, 0x65, 0x00, 0x10, 0xd6, 0xff, 0xff, 0x08, 0x00, 0x00, 0x00,
  0x38, 0x00, 0x00, 0x00, 0x0c, 0x00, 0x00, 0x00, 0xec, 0x0b, 0x97, 0x39,
  0x59, 0x19, 0x6c, 0x39, 0x4b, 0xe8, 0x0a, 0x3a, 0x96, 0x19, 0x3b, 0x39,
  0xd8, 0xa2, 0xcc, 0x39, 0x2f, 0xf9, 0x8d, 0x39, 0xe0, 0x0a, 0x9f, 0x39,
  0x54, 0xc6, 0xc6, 0x39, 0x74, 0xe5, 0x87, 0x39, 0x1e, 0xb2, 0x4a, 0x39,
  0x74, 0x6c, 0x90, 0x39, 0x3b, 0x10, 0x5d, 0x39, 0x0c, 0x00, 0x00, 0x00,
  0x00, 0x00, 0x00, 0x00, 0x00, 0x00, 0x00, 0x00, 0x00, 0x00, 0x00, 0x00,
  0x00, 0x00, 0x00, 0x00, 0x00, 0x00, 0x00, 0x00, 0x00, 0x00, 0x00, 0x00,
  0x00, 0x00, 0x00, 0x00, 0x00, 0x00, 0x00, 0x00, 0x00, 0x00, 0x00, 0x00,
  0x00, 0x00, 0x00, 0x00, 0x00, 0x00, 0x00, 0x00, 0x00, 0x00, 0x00, 0x00,
  0x00, 0x00, 0x00, 0x00, 0x00, 0x00, 0x00, 0x00, 0x00, 0x00, 0x00, 0x00,
  0x00, 0x00, 0x00, 0x00, 0x00, 0x00, 0x00, 0x00, 0x00, 0x00, 0x00, 0x00,
  0x00, 0x00, 0x00, 0x00, 0x00, 0x00, 0x00, 0x00, 0x00, 0x00, 0x00, 0x00,
  0x00, 0x00, 0x00, 0x00, 0x00, 0x00, 0x00, 0x00, 0x00, 0x00, 0x00, 0x00,
  0x00, 0x00, 0x00, 0x00, 0x22, 0xd6, 0xff, 0xff, 0x04, 0x00, 0x00, 0x00,
  0x40, 0x02, 0x00, 0x00, 0xfe, 0x13, 0xf9, 0x2c, 0x45, 0xda, 0xea, 0x01,
  0x19, 0x28, 0x22, 0xf0, 0x16, 0x0a, 0xfe, 0x33, 0x37, 0x06, 0xd7, 0x28,
  0xfe, 0x08, 0xf4, 0x37, 0xf1, 0x23, 0x21, 0x12, 0xff, 0x12, 0xcf, 0xaf,
  0xc7, 0xda, 0x1c, 0x39, 0x22, 0xbb, 0xfa, 0x24, 0xfd, 0x08, 0x81, 0xbe,
  0x37, 0x1b, 0xbd, 0x16, 0x0e, 0x16, 0x28, 0x3f, 0xcc, 0x33, 0xd6, 0xd3,
  0xd9, 0x34, 0xd1, 0xc3, 0x3b, 0xfc, 0xd9, 0x0e, 0x91, 0xb0, 0x17, 0x81,
  0xcc, 0x21, 0x36, 0x3b, 0xe5, 0x26, 0xf9, 0x0d, 0xfd, 0x00, 0xc6, 0x16,
  0x3e, 0x34, 0x14, 0xe9, 0x2f, 0x00, 0x98, 0x3f, 0x09, 0xb8, 0x02, 0xcd,
  0xfe, 0xdd, 0xd1, 0x14, 0xfb, 0x02, 0xfa, 0xec, 0x14, 0xfa, 0xff, 0x0f,
  0xe9, 0x19, 0xd9, 0xae, 0x03, 0xe5, 0x81, 0x08, 0xe2, 0x93, 0x16, 0xfc,
  0xef, 0x0f, 0x9f, 0xe4, 0x03, 0x0c, 0x0b, 0xb7, 0x18, 0xff, 0x03, 0x0a,
  0xef, 0xf2, 0xd0, 0xea, 0x0c, 0xfb, 0x97, 0x03, 0xde, 0xa4, 0x03, 0x0a,
  0x00, 0x10, 0x9c, 0xf7, 0x08, 0x45, 0xe7, 0x01, 0x35, 0x5d, 0xcf, 0x41,
  0x01, 0xe7, 0xc1, 0x03, 0x42, 0x02, 0xfe, 0xf2, 0xc9, 0x1c, 0x81, 0x0d,
  0x26, 0xd6, 0x1f, 0x35, 0xeb, 0xce, 0x23, 0x11, 0x1c, 0x4a, 0x90, 0xe5,
  0x0b, 0x02, 0x19, 0x83, 0xc6, 0x24, 0xf9, 0x0c, 0x26, 0xe5, 0x8e, 0xe4,
  0x05, 0x96, 0xc5, 0x12, 0xf7, 0x1d, 0xbc, 0x92, 0xaa, 0x31, 0x81, 0x0f,
  0xf5, 0xc7, 0xc9, 0xff, 0x12, 0xf5, 0x01, 0x06, 0x0f, 0xef, 0xd6, 0xcf,
  0xfb, 0xe6, 0xeb, 0xdb, 0xf4, 0xd0, 0xfd, 0x0b, 0x21, 0x06, 0xa0, 0x46,
  0xdf, 0x09, 0x16, 0x01, 0xc7, 0x15, 0x13, 0xf7, 0x1a, 0xf8, 0xe3, 0x70,
  0xd0, 0xbb, 0x0d, 0xca, 0x08, 0x17, 0x2e, 0xed, 0xee, 0x17, 0x1c, 0xff,
  0x81, 0x62, 0xf1, 0xc8, 0x29, 0x1a, 0xd9, 0xfb, 0x14, 0xd3, 0x32, 0xcc,
  0xd8, 0x17, 0x0d, 0x43, 0xeb, 0xca, 0x35, 0x05, 0xd7, 0x26, 0x48, 0x25,
  0xc4, 0xe6, 0x01, 0xee, 0xf4, 0x29, 0x01, 0x0e, 0xba, 0x0f, 0x5c, 0x10,
  0x3a, 0xe8, 0xe3, 0xea, 0xf0, 0xe5, 0xf6, 0x11, 0x17, 0xf6, 0xf2, 0x09,
  0x33, 0xf7, 0xfc, 0x16, 0x13, 0xe0, 0x07, 0xe0, 0x1d, 0x28, 0xff, 0x50,
  0x0a, 0xe3, 0xf0, 0xd7, 0xf7, 0x19, 0xe0, 0x29, 0x3d, 0xb5, 0xfd, 0x12,
  0x5f, 0x0b, 0xf0, 0x9e, 0x22, 0xbe, 0xa4, 0x18, 0xc5, 0xc3, 0xfd, 0x24,
  0x81, 0x16, 0xbe, 0x01, 0x07, 0xfa, 0xac, 0xfd, 0x9a, 0xfa, 0xe5, 0x7f,
  0xea, 0xfc, 0xe9, 0xee, 0x3a, 0xd7, 0xcd, 0xc7, 0xf2, 0x0a, 0xb0, 0xc6,
  0x13, 0x13, 0xe3, 0xfd, 0xf9, 0xf4, 0xef, 0xdf, 0xfb, 0x2b, 0x02, 0x23,
  0x2e, 0x05, 0xe4, 0x2e, 0x09, 0xc6, 0xe4, 0xc4, 0xfd, 0x1d, 0x0e, 0xc1,
  0xfe, 0x14, 0x0a, 0x04, 0xf0, 0x08, 0x0e, 0xeb, 0x3b, 0x81, 0xf6, 0x36,
  0xff, 0xcf, 0xe3, 0xe5, 0xe2, 0x2c, 0x00, 0xd8, 0x4f, 0x3e, 0xef, 0x32,
  0xf5, 0x09, 0x1a, 0x21, 0x19, 0xc4, 0x43, 0x2a, 0x19, 0xc7, 0xcd, 0xf3,
  0x94, 0x98, 0x29, 0x2a, 0xd9, 0xf5, 0x00, 0x15, 0x27, 0x13, 0x29, 0x0e,
  0x20, 0xd9, 0xe9, 0xfe, 0xfe, 0x94, 0xaa, 0x2c, 0xc2, 0x31, 0x25, 0x2e,
  0x53, 0x1f, 0x1a, 0xf2, 0xfb, 0xaa, 0x81, 0xaf, 0xc2, 0x1f, 0xca, 0xa2,
  0x09, 0x16, 0x17, 0xfd, 0xfa, 0x1b, 0x9c, 0xd7, 0x89, 0x3d, 0x2e, 0x1f,
  0x00, 0x1f, 0xe6, 0x3d, 0x23, 0x81, 0xde, 0x90, 0x83, 0x26, 0x16, 0x95,
  0x37, 0x15, 0x08, 0x14, 0x10, 0xfc, 0x92, 0xf9, 0xf4, 0xa0, 0x18, 0xd4,
  0x17, 0xc7, 0x07, 0x1c, 0xd6, 0x19, 0x21, 0xcf, 0x19, 0x16, 0xfe, 0x0f,
  0x0b, 0x81, 0x0a, 0xd2, 0xed, 0xcf, 0xe0, 0xde, 0x12, 0xfd, 0x0f, 0xd9,
  0x3f, 0x08, 0x33, 0x24, 0xa2, 0x1b, 0x18, 0xd0, 0x12, 0x14, 0x34, 0x12,
  0xfd, 0xe1, 0x24, 0xf9, 0xe9, 0x15, 0x02, 0x2b, 0xb5, 0x1f, 0x25, 0x1f,
  0x7f, 0x55, 0x23, 0xfd, 0x30, 0x39, 0xf5, 0xa9, 0x06, 0xf4, 0x00, 0xbd,
  0x12, 0x30, 0x3b, 0x37, 0xde, 0xe0, 0x0f, 0x1e, 0xd1, 0x19, 0x2d, 0x31,
  0xd6, 0x30, 0x02, 0x15, 0xcc, 0xc0, 0xfd, 0xbe, 0x19, 0x1e, 0x54, 0x35,
  0x1e, 0xef, 0xd1, 0x3b, 0x52, 0xd8, 0xff, 0xff, 0x00, 0x00, 0x00, 0x09,
  0x10, 0x00, 0x00, 0x00, 0x0b, 0x00, 0x00, 0x00, 0x1c, 0x00, 0x00, 0x00,
  0x40, 0x00, 0x00, 0x00, 0x04, 0x00, 0x00, 0x00, 0x0c, 0x00, 0x00, 0x00,
  0x02, 0x00, 0x00, 0x00, 0x01, 0x00, 0x00, 0x00, 0x18, 0x00, 0x00, 0x00,
  0x22, 0x00, 0x00, 0x00, 0x73, 0x65, 0x71, 0x75, 0x65, 0x6e, 0x74, 0x69,
  0x61, 0x6c, 0x5f, 0x31, 0x2f, 0x71, 0x75, 0x61, 0x6e, 0x74, 0x5f, 0x63,
  0x6f, 0x6e, 0x76, 0x32, 0x64, 0x5f, 0x36, 0x2f, 0x43, 0x6f, 0x6e, 0x76,
  0x32, 0x44, 0x00, 0x00, 0x58, 0xd9, 0xff, 0xff, 0x08, 0x00, 0x00, 0x00,
  0x38, 0x00, 0x00, 0x00, 0x0c, 0x00, 0x00, 0x00, 0x62, 0x0b, 0x4b, 0x3c,
  0x2a, 0xb0, 0x1e, 0x3c, 0xf4, 0xb9, 0xba, 0x3c, 0x5e, 0x82, 0xfb, 0x3b,
  0x87, 0x8a, 0x89, 0x3c, 0x0b, 0xd9, 0x3e, 0x3c, 0x00, 0xcb, 0x55, 0x3c,
  0xfe, 0x99, 0x85, 0x3c, 0xc1, 0xad, 0x36, 0x3c, 0xaa, 0x3c, 0x08, 0x3c,
  0x3f, 0x24, 0x42, 0x3c, 0x13, 0x95, 0x14, 0x3c, 0x0c, 0x00, 0x00, 0x00,
  0x00, 0x00, 0x00, 0x00, 0x00, 0x00, 0x00, 0x00, 0x00, 0x00, 0x00, 0x00,
  0x00, 0x00, 0x00, 0x00, 0x00, 0x00, 0x00, 0x00, 0x00, 0x00, 0x00, 0x00,
  0x00, 0x00, 0x00, 0x00, 0x00, 0x00, 0x00, 0x00, 0x00, 0x00, 0x00, 0x00,
  0x00, 0x00, 0x00, 0x00, 0x00, 0x00, 0x00, 0x00, 0x00, 0x00, 0x00, 0x00,
  0x00, 0x00, 0x00, 0x00, 0x00, 0x00, 0x00, 0x00, 0x00, 0x00, 0x00, 0x00,
  0x00, 0x00, 0x00, 0x00, 0x00, 0x00, 0x00, 0x00, 0x00, 0x00, 0x00, 0x00,
  0x00, 0x00, 0x00, 0x00, 0x00, 0x00, 0x00, 0x00, 0x00, 0x00, 0x00, 0x00,
  0x00, 0x00, 0x00, 0x00, 0x00, 0x00, 0x00, 0x00, 0x00, 0x00, 0x00, 0x00,
  0x00, 0x00, 0x00, 0x00, 0x1a, 0xe3, 0xff, 0xff, 0x00, 0x00, 0x00, 0x01,
  0x01, 0x00, 0x00, 0x00, 0x24, 0x00, 0x00, 0x00, 0x18, 0x00, 0x00, 0x00,
  0x04, 0x00, 0x00, 0x00, 0x0c, 0xe3, 0xff, 0xff, 0x01, 0x00, 0x00, 0x00,
  0x01, 0x00, 0x00, 0x00, 0x00, 0x00, 0x01, 0x01, 0x01, 0x00, 0x00, 0x00,
  0x09, 0x00, 0x00, 0x00, 0x03, 0x00, 0x00, 0x00, 0x06, 0x00, 0x00, 0x00,
  0x07, 0x00, 0x00, 0x00, 0x08, 0x00, 0x00, 0x00, 0xa8, 0xdb, 0xff, 0xff,
  0x00, 0x00, 0x00, 0x09, 0x14, 0x00, 0x00, 0x00, 0x0a, 0x00, 0x00, 0x00,
  0x34, 0x00, 0x00, 0x00, 0xd8, 0x00, 0x00, 0x00, 0x18, 0x00, 0x00, 0x00,
  0x04, 0x00, 0x00, 0x00, 0x01, 0x00, 0x00, 0x00, 0x38, 0x00, 0x00, 0x00,
  0x01, 0x00, 0x00, 0x00, 0x18, 0x00, 0x00, 0x00, 0x04, 0x00, 0x00, 0x00,
  0xff, 0xff, 0xff, 0xff, 0x38, 0x00, 0x00, 0x00, 0x01, 0x00, 0x00, 0x00,
  0x18, 0x00, 0x00, 0x00, 0xa2, 0x00, 0x00, 0x00, 0x73, 0x65, 0x71, 0x75,
  0x65, 0x6e, 0x74, 0x69, 0x61, 0x6c, 0x5f, 0x31, 0x2f, 0x71, 0x75, 0x61,
  0x6e, 0x74, 0x5f, 0x72, 0x65, 0x5f, 0x6c, 0x75, 0x5f, 0x35, 0x2f, 0x52,
  0x65, 0x6c, 0x75, 0x3b, 0x73, 0x65, 0x71, 0x75, 0x65, 0x6e, 0x74, 0x69,
  0x61, 0x6c, 0x5f, 0x31, 0x2f, 0x71, 0x75, 0x61, 0x6e, 0x74, 0x5f, 0x63,
  0x6f, 0x6e, 0x76, 0x32, 0x64, 0x5f, 0x35, 0x2f, 0x42, 0x69, 0x61, 0x73,
  0x41, 0x64, 0x64, 0x3b, 0x73, 0x65, 0x71, 0x75, 0x65, 0x6e, 0x74, 0x69,
  0x61, 0x6c, 0x5f, 0x31, 0x2f, 0x71, 0x75, 0x61, 0x6e, 0x74, 0x5f, 0x63,
  0x6f, 0x6e, 0x76, 0x32, 0x64, 0x5f, 0x35, 0x2f, 0x43, 0x6f, 0x6e, 0x76,
  0x32, 0x44, 0x3b, 0x73, 0x65, 0x71, 0x75, 0x65, 0x6e, 0x74, 0x69, 0x61,
  0x6c, 0x5f, 0x31, 0x2f, 0x71, 0x75, 0x61, 0x6e, 0x74, 0x5f, 0x63, 0x6f,
  0x6e, 0x76, 0x32, 0x64, 0x5f, 0x35, 0x2f, 0x42, 0x69, 0x61, 0x73, 0x41,
  0x64, 0x64, 0x2f, 0x52, 0x65, 0x61, 0x64, 0x56, 0x61, 0x72, 0x69, 0x61,
  0x62, 0x6c, 0x65, 0x4f, 0x70, 0x2f, 0x72, 0x65, 0x73, 0x6f, 0x75, 0x72,
  0x63, 0x65, 0x00, 0x00, 0x2c, 0xdb, 0xff, 0xff, 0x08, 0x00, 0x00, 0x00,
  0x0c, 0x00, 0x00, 0x00, 0x01, 0x00, 0x00, 0x00, 0xcf, 0x70, 0xbe, 0x3c,
  0x01, 0x00, 0x00, 0x00, 0x80, 0xff, 0xff, 0xff, 0xff, 0xff, 0xff, 0xff,
  0xb6, 0xda, 0xff, 0xff, 0x04, 0x00, 0x00, 0x00, 0x60, 0x00, 0x00, 0x00,
  0xc5, 0xd3, 0xff, 0xff, 0xf3, 0x1f, 0x00, 0x00, 0xa4, 0x06, 0x00, 0x00,
  0x82, 0xf2, 0xff, 0xff, 0xfe, 0x09, 0x00, 0x00, 0x80, 0x04, 0x00, 0x00,
  0xa7, 0xa3, 0xff, 0xff, 0x09, 0xeb, 0xff, 0xff, 0x14, 0xe0, 0xff, 0xff,
  0x07, 0xe9, 0xff, 0xff, 0x34, 0xfe, 0xff, 0xff, 0x64, 0x00, 0x00, 0x00,
  0xce, 0x11, 0x00, 0x00, 0x7f, 0xf6, 0xff, 0xff, 0x63, 0x00, 0x00, 0x00,
  0x7d, 0x03, 0x00, 0x00, 0x2d, 0xfe, 0xff, 0xff, 0x99, 0xfe, 0xff, 0xff,
  0xca, 0xb9, 0xff, 0xff, 0x5e, 0x02, 0x00, 0x00, 0x1f, 0x00, 0x00, 0x00,
  0x7a, 0x14, 0x00, 0x00, 0x89, 0xfd, 0xff, 0xff, 0x3a, 0xff, 0xff, 0xff,
  0x06, 0xdb, 0xff, 0xff, 0x00, 0x00, 0x00, 0x02, 0x10, 0x00, 0x00, 0x00,
  0x09, 0x00, 0x00, 0x00, 0x10, 0x00, 0x00, 0x00, 0x4c, 0x00, 0x00, 0x00,
  0x01, 0x00, 0x00, 0x00, 0x18, 0x00, 0x00, 0x00, 0x3b, 0x00, 0x00, 0x00,
  0x73, 0x65, 0x71, 0x75, 0x65, 0x6e, 0x74, 0x69, 0x61, 0x6c, 0x5f, 0x31,
  0x2f, 0x71, 0x75, 0x61, 0x6e, 0x74, 0x5f, 0x63, 0x6f, 0x6e, 0x76, 0x32,
  0x64, 0x5f, 0x35, 0x2f, 0x42, 0x69, 0x61, 0x73, 0x41, 0x64, 0x64, 0x2f,
  0x52, 0x65, 0x61, 0x64, 0x56, 0x61, 0x72, 0x69, 0x61, 0x62, 0x6c, 0x65,
  0x4f, 0x70, 0x2f, 0x72, 0x65, 0x73, 0x6f, 0x75, 0x72, 0x63, 0x65, 0x00,
  0x18, 0xdc, 0xff, 0xff, 0x08, 0x00, 0x00, 0x00, 0x68, 0x00, 0x00, 0x00,
  0x18, 0x00, 0x00, 0x00, 0x7c, 0x91, 0xd9, 0x36, 0xdc, 0xc8, 0x1a, 0x38,
  0x58, 0x1c, 0x74, 0x38, 0x26, 0x70, 0x39, 0x38, 0xe0, 0x19, 0x81, 0x38,
  0xb1, 0xe8, 0x70, 0x38, 0x41, 0xf7, 0x0c, 0x38, 0xdd, 0x2e, 0x46, 0x38,
  0x6d, 0xb5, 0x80, 0x38, 0x86, 0x6d, 0x37, 0x38, 0xa5, 0x2e, 0x3b, 0x38,
  0xf9, 0xb1, 0x31, 0x38, 0x45, 0x2d, 0x4b, 0x38, 0xc6, 0x92, 0x60, 0x38,
  0x7b, 0x37, 0x3a, 0x38, 0x7f, 0x50, 0x4f, 0x38, 0x23, 0x63, 0x4c, 0x38,
  0xa3, 0x56, 0x76, 0x38, 0x03, 0x50, 0x4d, 0x38, 0x29, 0x62, 0x75, 0x38,
  0x10, 0x85, 0x0f, 0x38, 0xfe, 0xbd, 0x69, 0x38, 0xcb, 0x79, 0x2c, 0x38,
  0x48, 0x7b, 0x4b, 0x38, 0x18, 0x00, 0x00, 0x00, 0x00, 0x00, 0x00, 0x00,
  0x00, 0x00, 0x00, 0x00, 0x00, 0x00, 0x00, 0x00, 0x00, 0x00, 0x00, 0x00,
  0x00, 0x00, 0x00, 0x00, 0x00, 0x00, 0x00, 0x00, 0x00, 0x00, 0x00, 0x00,
  0x00, 0x00, 0x00, 0x00, 0x00, 0x00, 0x00, 0x00, 0x00, 0x00, 0x00, 0x00,
  0x00, 0x00, 0x00, 0x00, 0x00, 0x00, 0x00, 0x00, 0x00, 0x00, 0x00, 0x00,
  0x00, 0x00, 0x00, 0x00, 0x00, 0x00, 0x00, 0x00, 0x00, 0x00, 0x00, 0x00,
  0x00, 0x00, 0x00, 0x00, 0x00, 0x00, 0x00, 0x00, 0x00, 0x00, 0x00, 0x00,
  0x00, 0x00, 0x00, 0x00, 0x00, 0x00, 0x00, 0x00, 0x00, 0x00, 0x00, 0x00,
  0x00, 0x00, 0x00, 0x00, 0x00, 0x00, 0x00, 0x00, 0x00, 0x00, 0x00, 0x00,
  0x00, 0x00, 0x00, 0x00, 0x00, 0x00, 0x00, 0x00, 0x00, 0x00, 0x00, 0x00,
  0x00, 0x00, 0x00, 0x00, 0x00, 0x00, 0x00, 0x00, 0x00, 0x00, 0x00, 0x00,
  0x00, 0x00, 0x00, 0x00, 0x00, 0x00, 0x00, 0x00, 0x00, 0x00, 0x00, 0x00,
  0x00, 0x00, 0x00, 0x00, 0x00, 0x00, 0x00, 0x00, 0x00, 0x00, 0x00, 0x00,
  0x00, 0x00, 0x00, 0x00, 0x00, 0x00, 0x00, 0x00, 0x00, 0x00, 0x00, 0x00,
  0x00, 0x00, 0x00, 0x00, 0x00, 0x00, 0x00, 0x00, 0x00, 0x00, 0x00, 0x00,
  0x00, 0x00, 0x00, 0x00, 0x00, 0x00, 0x00, 0x00, 0x00, 0x00, 0x00, 0x00,
  0x00, 0x00, 0x00, 0x00, 0x00, 0x00, 0x00, 0x00, 0x00, 0x00, 0x00, 0x00,
  0xba, 0xdc, 0xff, 0xff, 0x04, 0x00, 0x00, 0x00, 0x00, 0x18, 0x00, 0x00,
  0xf2, 0x1b, 0xd8, 0xbc, 0xb4, 0xf0, 0xd2, 0x42, 0x88, 0xa0, 0xc6, 0x11,
  0x1c, 0xdd, 0xd5, 0x25, 0x99, 0xe8, 0xdb, 0xc4, 0xf7, 0xeb, 0xf9, 0xbc,
  0xf6, 0xdb, 0xd1, 0x15, 0x0c, 0x19, 0x15, 0xa2, 0xde, 0x10, 0x13, 0x02,
  0x0e, 0x08, 0xe1, 0xdf, 0xbb, 0xd1, 0x11, 0xd9, 0xeb, 0xfb, 0xc5, 0xce,
  0xe7, 0xbd, 0xdd, 0xde, 0x32, 0xb7, 0xdf, 0xcf, 0x17, 0xc3, 0xec, 0xc8,
  0x06, 0xc5, 0xed, 0xc7, 0xcc, 0x31, 0x02, 0xd3, 0x37, 0xc4, 0xcf, 0x1d,
  0xdd, 0x0c, 0xef, 0x92, 0xf6, 0xed, 0xb7, 0x00, 0x12, 0xed, 0xf0, 0xe9,
  0x1b, 0x18, 0xd6, 0xb8, 0xd8, 0xd9, 0xde, 0x1f, 0xf7, 0x0f, 0x27, 0xfe,
  0xf1, 0x17, 0x2b, 0xcc, 0xe7, 0xcd, 0xde, 0x17, 0xa7, 0x91, 0xfd, 0xc2,
  0xd4, 0xe6, 0xdd, 0xdd, 0xdd, 0xae, 0xea, 0xd2, 0x2e, 0xdf, 0xc3, 0x07,
  0x24, 0xef, 0x09, 0x0f, 0xfb, 0x8e, 0x33, 0x0f, 0xb8, 0x1a, 0xc0, 0x3a,
  0x25, 0x04, 0xf7, 0xb1, 0xc6, 0xbf, 0xc2, 0xf0, 0x20, 0xfd, 0xd1, 0x40,
  0xe0, 0x0b, 0xbf, 0x05, 0xd6, 0x15, 0x1f, 0x12, 0xdd, 0xdc, 0xb0, 0xf1,
  0xfb, 0xce, 0xd9, 0xd4, 0x0a, 0xda, 0xc0, 0xc7, 0xa2, 0xd1, 0xf8, 0xe6,
  0xf5, 0xff, 0xc5, 0x26, 0xc9, 0xd9, 0xcc, 0xd7, 0x05, 0xe0, 0x81, 0xe2,
  0x28, 0x25, 0xc3, 0xcc, 0xce, 0x01, 0xe0, 0xe1, 0xc6, 0xb8, 0xa6, 0xaf,
  0xd4, 0xee, 0xea, 0xd1, 0x30, 0x04, 0xa9, 0x15, 0x35, 0xad, 0xf3, 0xd0,
  0xee, 0xde, 0xf1, 0x01, 0xf9, 0x38, 0x0b, 0xce, 0xc4, 0xd1, 0xf4, 0x24,
  0xf7, 0x23, 0x06, 0xa5, 0xdc, 0xad, 0x1a, 0xc1, 0x2b, 0x1c, 0x02, 0x25,
  0x1b, 0xdc, 0xdc, 0x2e, 0xd8, 0xcb, 0x3b, 0xdf, 0xde, 0xc6, 0xd6, 0x46,
  0xec, 0x8e, 0x0e, 0x0f, 0xb5, 0xd6, 0xea, 0xd9, 0xe1, 0x31, 0xd0, 0xdb,
  0xbf, 0xce, 0xc7, 0xcc, 0x1d, 0xe4, 0x0c, 0x14, 0xfd, 0xef, 0x05, 0x24,
  0x08, 0xc1, 0x1f, 0x20, 0x14, 0x2a, 0xdf, 0xcb, 0x3a, 0x08, 0x1f, 0x16,
  0x08, 0x37, 0x21, 0xe2, 0x34, 0x0a, 0x5e, 0xee, 0x03, 0x1b, 0xf4, 0x0a,
  0x34, 0xe6, 0x19, 0xbe, 0x81, 0xcc, 0x4e, 0x11, 0x18, 0xea, 0xe7, 0xfc,
  0xf4, 0xec, 0xd5, 0x2d, 0xbf, 0x18, 0xfc, 0x1b, 0x21, 0xf8, 0xf8, 0x25,
  0xb2, 0xd6, 0x28, 0xf5, 0x95, 0xf7, 0xea, 0x24, 0xc6, 0x36, 0x4b, 0xe6,
  0xf6, 0x02, 0x0e, 0xbc, 0x11, 0xf6, 0x08, 0xfe, 0xab, 0xef, 0x37, 0x0c,
  0x04, 0x24, 0x03, 0xec, 0xf4, 0xe9, 0x27, 0xe7, 0x0c, 0x43, 0x66, 0x03,
  0xc2, 0xfc, 0xba, 0xd3, 0x15, 0x11, 0xdd, 0x8f, 0xe0, 0x10, 0xe1, 0xbb,
  0xfa, 0xe3, 0xc6, 0x0d, 0xf3, 0xd9, 0x11, 0xb9, 0xbc, 0x4f, 0xf8, 0xac,
  0x1a, 0xf8, 0x3f, 0x20, 0xfa, 0xf8, 0x1a, 0x06, 0x1a, 0xf8, 0x35, 0x03,
  0xdf, 0x02, 0xf2, 0x04, 0x11, 0xf2, 0x21, 0x02, 0x04, 0xdb, 0xbe, 0x09,
  0x37, 0x04, 0xfe, 0xf7, 0x6d, 0xe1, 0xea, 0xfc, 0xf8, 0x8c, 0x04, 0xf2,
  0x04, 0xf9, 0xbd, 0x2d, 0xe0, 0xf5, 0x0e, 0x66, 0x3c, 0xf0, 0x24, 0x3e,
  0x1d, 0xba, 0xec, 0xe2, 0xaf, 0xf9, 0x2d, 0x53, 0x0d, 0xc6, 0x05, 0xd1,
  0xc4, 0xc4, 0xfb, 0x15, 0x4c, 0xd0, 0x20, 0x3d, 0xdd, 0x32, 0xcc, 0xe4,
  0xa3, 0x2e, 0xfa, 0x01, 0xe9, 0x0a, 0xf7, 0xc4, 0xbc, 0xe9, 0xb2, 0xe4,
  0x10, 0xf9, 0xc1, 0xde, 0x10, 0x07, 0x03, 0x99, 0xc6, 0x2b, 0xf7, 0xf2,
  0xdc, 0xc4, 0x1b, 0x1c, 0xf1, 0xed, 0xfa, 0x08, 0x25, 0x3f, 0xdc, 0x04,
  0x15, 0xfe, 0x4d, 0x0d, 0xbc, 0x15, 0xf7, 0xfe, 0xe1, 0xdf, 0x5d, 0xe1,
  0x56, 0xfd, 0x02, 0x94, 0xbf, 0xe5, 0xd8, 0x44, 0xc6, 0x21, 0xfb, 0x00,
  0x38, 0x25, 0x1a, 0x21, 0x27, 0xd2, 0xc9, 0x11, 0x09, 0xc3, 0xe7, 0x24,
  0x0b, 0xe1, 0x03, 0x0c, 0x01, 0x0b, 0x21, 0x19, 0xcb, 0x1d, 0x03, 0xa9,
  0xf2, 0xde, 0xf9, 0x0e, 0x09, 0xb8, 0x05, 0x38, 0xe9, 0x04, 0xf2, 0x07,
  0x1e, 0xfa, 0xda, 0xd6, 0xfe, 0xd6, 0xee, 0x87, 0x01, 0x0b, 0x15, 0x34,
  0x17, 0xff, 0xc3, 0xf1, 0xba, 0xf9, 0xdd, 0xce, 0x1b, 0xf3, 0x0a, 0xd3,
  0xd3, 0xca, 0xb8, 0x1e, 0xe6, 0xa7, 0xfd, 0x09, 0x36, 0x2a, 0xd5, 0xeb,
  0xd3, 0xec, 0xe7, 0xd9, 0x25, 0xf1, 0x10, 0x08, 0xfa, 0x19, 0x0b, 0xfb,
  0x18, 0xf2, 0xfb, 0xde, 0xfa, 0x0a, 0x0c, 0x08, 0x1a, 0xab, 0x16, 0x2a,
  0xf0, 0x05, 0xcc, 0xd7, 0x2b, 0x1e, 0xf0, 0x19, 0x17, 0xf7, 0xde, 0xb9,
  0x0c, 0xfd, 0x31, 0xe1, 0xff, 0x0b, 0xae, 0x05, 0xb2, 0x01, 0x02, 0xf7,
  0x05, 0xfd, 0xe5, 0xc7, 0x03, 0xd1, 0xd7, 0xf5, 0xfe, 0xe1, 0x23, 0x1c,
  0x02, 0x08, 0xd7, 0x1c, 0xfc, 0x01, 0x15, 0xdb, 0xd9, 0xac, 0x13, 0x1b,
  0xd4, 0x1b, 0xda, 0x1c, 0xcc, 0xe5, 0x0e, 0xfb, 0xf5, 0x27, 0x21, 0xf4,
  0x28, 0x81, 0xc8, 0x1d, 0x17, 0x16, 0xfa, 0xc0, 0xfc, 0x07, 0xef, 0x06,
  0x09, 0xdc, 0x07, 0xd3, 0xef, 0x32, 0x16, 0x0b, 0x1b, 0xec, 0x2f, 0x07,
  0xfa, 0x26, 0x07, 0x26, 0xed, 0xe7, 0xee, 0xf5, 0x0d, 0x27, 0xea, 0xef,
  0xda, 0xf7, 0xf3, 0x5a, 0x07, 0x08, 0xee, 0x09, 0x17, 0x09, 0xd3, 0xfd,
  0x1c, 0x12, 0x1f, 0x0b, 0x11, 0x08, 0x16, 0xe6, 0x1a, 0xf2, 0x20, 0xff,
  0x04, 0x47, 0x30, 0x03, 0x19, 0xfa, 0x16, 0x05, 0x09, 0x1d, 0x2f, 0x04,
  0xfa, 0xf3, 0x17, 0x04, 0x0e, 0x29, 0x1a, 0x08, 0x0e, 0xf4, 0xbf, 0x15,
  0x1c, 0x08, 0xfa, 0x04, 0x0b, 0xe9, 0xf4, 0x1f, 0x1b, 0x29, 0x06, 0xfb,
  0x1c, 0xea, 0x11, 0xef, 0xeb, 0x1c, 0x34, 0x0d, 0xfa, 0x4b, 0xf3, 0x1d,
  0xf9, 0x15, 0x1a, 0x3a, 0xda, 0x1a, 0x16, 0x32, 0xe3, 0x13, 0x60, 0x30,
  0x0d, 0xe7, 0x31, 0x2a, 0xec, 0xff, 0x22, 0x5e, 0x06, 0xfe, 0x48, 0xf3,
  0xdf, 0x08, 0x0d, 0xed, 0x06, 0xe1, 0x3e, 0x2c, 0xcf, 0x08, 0x14, 0xf8,
  0x3b, 0xef, 0xe4, 0xf6, 0x3a, 0x0a, 0x2a, 0x1c, 0x11, 0xdb, 0x05, 0x34,
  0x1f, 0x24, 0x1c, 0xb6, 0x2e, 0xe8, 0xdc, 0x0c, 0xe7, 0x21, 0x1c, 0xeb,
  0xe2, 0x1c, 0x4b, 0x0a, 0x0b, 0x10, 0x32, 0x05, 0xdc, 0xd1, 0x04, 0xfc,
  0x0b, 0x09, 0x0d, 0xf4, 0x02, 0xfe, 0x10, 0xb4, 0x37, 0xd6, 0xff, 0x13,
  0x7f, 0x19, 0x07, 0xe8, 0x22, 0xdd, 0xf0, 0x0e, 0xf2, 0x4c, 0x1b, 0xf5,
  0x30, 0xff, 0x26, 0x11, 0x2f, 0xd9, 0x0b, 0xcc, 0x02, 0x1b, 0x33, 0x01,
  0xda, 0xa7, 0x09, 0x41, 0x1b, 0xef, 0xe6, 0xff, 0xe6, 0xef, 0x1b, 0x0d,
  0xd9, 0xca, 0xfe, 0x19, 0x30, 0xd2, 0xe6, 0x30, 0x0b, 0xfe, 0xe3, 0xf9,
  0x03, 0x00, 0x06, 0x16, 0x22, 0x65, 0xfa, 0x1d, 0x08, 0xff, 0x07, 0x1f,
  0x05, 0xf8, 0x14, 0x01, 0xfd, 0x25, 0xef, 0x15, 0x2c, 0x1f, 0x58, 0x25,
  0x35, 0x35, 0x14, 0xdd, 0x08, 0xe3, 0xed, 0xfc, 0x0b, 0x2e, 0xfe, 0xdc,
  0xd3, 0x18, 0x28, 0x17, 0xfa, 0x18, 0x0d, 0xff, 0xc6, 0xe5, 0xe5, 0x37,
  0xf1, 0x17, 0xdd, 0x02, 0x4a, 0xd6, 0xe6, 0x1c, 0xfc, 0xca, 0xf4, 0xeb,
  0x08, 0x24, 0xf2, 0xe7, 0xf7, 0xf8, 0x12, 0xb7, 0xfb, 0xdb, 0xee, 0xf8,
  0x31, 0xfc, 0x23, 0x1e, 0x7a, 0x1f, 0x1e, 0x06, 0x16, 0xcb, 0x01, 0x01,
  0xda, 0xf2, 0xe2, 0xfa, 0xd4, 0x0d, 0xe1, 0x18, 0x18, 0x04, 0xca, 0x20,
  0x27, 0x1c, 0x13, 0xcc, 0xf7, 0x03, 0xee, 0xfd, 0xf9, 0x2d, 0x10, 0x05,
  0x26, 0xe4, 0xf2, 0xf7, 0xdb, 0xf8, 0x2c, 0x0a, 0xed, 0x18, 0x41, 0x17,
  0xfc, 0x57, 0xc1, 0xbc, 0xde, 0x05, 0x28, 0xef, 0xdd, 0xf4, 0x1d, 0xb9,
  0x07, 0xf8, 0xf1, 0x1d, 0x30, 0x0e, 0x0b, 0x05, 0xe7, 0xe8, 0x03, 0xe4,
  0x1c, 0x0b, 0xdf, 0x1a, 0x0f, 0x08, 0xf9, 0xfa, 0xd0, 0xd1, 0xf1, 0x0a,
  0x04, 0x2b, 0x11, 0x27, 0x19, 0x16, 0xd9, 0x1f, 0x16, 0xb4, 0xe2, 0x02,
  0x0d, 0xf0, 0xf7, 0xfc, 0xc7, 0x1a, 0xe5, 0x0d, 0xf5, 0xf5, 0x2e, 0xf1,
  0x24, 0x11, 0xc2, 0xfa, 0xf2, 0x08, 0xd3, 0x2a, 0x03, 0xfc, 0x27, 0xef,
  0x0b, 0xf7, 0x05, 0xea, 0xea, 0xe6, 0x37, 0x1d, 0x2f, 0xe2, 0xf0, 0xd6,
  0xd0, 0x0b, 0x04, 0xe9, 0xb3, 0x08, 0x17, 0x22, 0x0d, 0x21, 0x3f, 0x21,
  0x06, 0x18, 0xf2, 0x18, 0xdc, 0x28, 0x2d, 0x04, 0x26, 0xfe, 0xc0, 0xf4,
  0x0e, 0xdd, 0xf6, 0xfd, 0x2d, 0xfb, 0xf5, 0x20, 0xc2, 0xed, 0xf1, 0x20,
  0xf7, 0x05, 0x17, 0x02, 0xfd, 0x0f, 0x21, 0xd7, 0xe7, 0xfe, 0xc5, 0x09,
  0xd4, 0x34, 0xfc, 0xdc, 0xf4, 0x03, 0xf3, 0xed, 0xed, 0xd7, 0xe6, 0xe7,
  0x12, 0x02, 0x01, 0xcc, 0xfd, 0x4a, 0x17, 0xf9, 0xfb, 0xf4, 0x12, 0x19,
  0xf5, 0xe1, 0x15, 0x23, 0xc1, 0x0f, 0x19, 0xf7, 0xb3, 0x0f, 0x03, 0xf6,
  0xce, 0xe2, 0x26, 0xda, 0x40, 0x0b, 0xf3, 0xfd, 0xd9, 0x1d, 0xed, 0xc1,
  0xea, 0xfa, 0x0a, 0xcc, 0xf5, 0x04, 0x04, 0xec, 0x12, 0x26, 0xe9, 0xda,
  0xf0, 0xd7, 0xea, 0x2c, 0xf3, 0xf8, 0xec, 0xd0, 0x08, 0x09, 0x14, 0x01,
  0xdb, 0x02, 0x2d, 0x24, 0x24, 0x10, 0x10, 0xf4, 0xd5, 0x0b, 0x0e, 0xea,
  0x02, 0xea, 0x0d, 0x15, 0xd9, 0x13, 0xe5, 0x11, 0x81, 0x08, 0xbe, 0xc1,
  0xf1, 0xde, 0xcf, 0xd8, 0x2d, 0xec, 0xff, 0xbb, 0x00, 0xd0, 0xd0, 0xf8,
  0xcc, 0x08, 0xf5, 0xfb, 0x0d, 0xfd, 0x06, 0xe7, 0x95, 0xe3, 0x1a, 0xa4,
  0xe4, 0xdf, 0xcf, 0xf6, 0x00, 0x02, 0xde, 0x03, 0xcb, 0x1c, 0x63, 0xea,
  0xf2, 0xd1, 0xf3, 0x3a, 0xea, 0x06, 0x20, 0xd1, 0x36, 0xf7, 0x07, 0xe5,
  0xfb, 0xe5, 0xd3, 0xe0, 0x0f, 0x1a, 0xed, 0xcc, 0x07, 0xc9, 0x03, 0xed,
  0xe2, 0x0f, 0xde, 0xd6, 0xf6, 0xef, 0x2d, 0xf8, 0xbb, 0xd6, 0xf8, 0xa7,
  0xd9, 0xd8, 0x25, 0x05, 0x0e, 0xea, 0x12, 0x00, 0x1b, 0xe9, 0xe9, 0xfd,
  0xb0, 0x26, 0x05, 0xf1, 0x1a, 0xea, 0x21, 0xfa, 0xde, 0xb0, 0xe1, 0xc8,
  0xee, 0x1e, 0xf4, 0x23, 0xf4, 0xfd, 0x1f, 0x38, 0xfe, 0xd1, 0x27, 0xef,
  0x2c, 0xfe, 0x13, 0xee, 0x0d, 0x12, 0x15, 0x03, 0xe3, 0x6f, 0x02, 0xd2,
  0x2a, 0xf3, 0xf6, 0x12, 0x24, 0xe4, 0xd6, 0xd3, 0x00, 0x2e, 0xe1, 0x1e,
  0xcf, 0xf0, 0x0e, 0x01, 0x09, 0xd8, 0x2c, 0xfb, 0x4b, 0xf9, 0x17, 0xde,
  0x13, 0x25, 0x17, 0xda, 0xf2, 0x1b, 0xfc, 0x11, 0x06, 0xd4, 0xd1, 0xeb,
  0xe1, 0xee, 0x16, 0x01, 0x0d, 0x16, 0x41, 0x18, 0x0c, 0x15, 0xf8, 0x81,
  0x20, 0xfe, 0x32, 0x1f, 0xe3, 0x0c, 0x11, 0x2e, 0x04, 0x37, 0x2e, 0x0d,
  0xee, 0x33, 0x10, 0x0c, 0x15, 0xd7, 0xe9, 0xfc, 0x0c, 0xfb, 0xfb, 0x11,
  0xeb, 0x0e, 0x1e, 0x25, 0x01, 0x15, 0x12, 0xf1, 0xd5, 0x07, 0xee, 0x24,
  0xfb, 0xec, 0x33, 0xfe, 0xea, 0x08, 0x0f, 0xf4, 0x11, 0xde, 0xf4, 0x28,
  0xd3, 0xe4, 0xf1, 0x10, 0xe8, 0x19, 0x0a, 0x03, 0x09, 0xf2, 0x3f, 0xdd,
  0x0c, 0x28, 0xd9, 0xd3, 0x12, 0x2f, 0xf1, 0x12, 0xf7, 0x18, 0xf3, 0x07,
  0x1b, 0xde, 0xa5, 0x00, 0x2b, 0x2d, 0xf5, 0x09, 0x21, 0xfc, 0x06, 0x10,
  0x24, 0xfa, 0x1f, 0xbe, 0xbd, 0x00, 0x07, 0x1d, 0xe5, 0x1c, 0x25, 0x18,
  0xa9, 0xd8, 0xfc, 0x09, 0xef, 0x08, 0xf7, 0xd2, 0x1d, 0xfd, 0x10, 0xe8,
  0xfe, 0xfe, 0xce, 0x44, 0x20, 0xad, 0xd8, 0xf2, 0xe1, 0x9f, 0x0c, 0xc4,
  0xec, 0xfc, 0x0e, 0x7b, 0x21, 0x36, 0x3a, 0x54, 0x06, 0x1d, 0x6b, 0xf7,
  0x68, 0x12, 0xdb, 0x41, 0xf2, 0x0f, 0x08, 0xf8, 0x30, 0x1f, 0xf7, 0x04,
  0x1d, 0x32, 0x25, 0x1d, 0x1f, 0x0d, 0x0d, 0x02, 0xe1, 0x1c, 0x03, 0x1d,
  0x6b, 0x16, 0x14, 0x11, 0xf6, 0x23, 0x76, 0xdc, 0x1f, 0x0f, 0xff, 0x09,
  0xec, 0x32, 0xfe, 0x1d, 0xf0, 0x2b, 0x0f, 0xfc, 0x62, 0x21, 0x41, 0xf3,
  0x03, 0xf2, 0x0d, 0xff, 0xfb, 0x1c, 0xf9, 0xf0, 0x07, 0x07, 0x20, 0xfc,
  0x32, 0x1c, 0x4d, 0x16, 0x05, 0x26, 0x0d, 0x7b, 0xf3, 0x0a, 0x17, 0xe8,
  0x0f, 0x57, 0x15, 0x25, 0x18, 0xff, 0x32, 0x0c, 0x22, 0xf8, 0xd1, 0xf9,
  0xeb, 0xf0, 0x08, 0x2b, 0x25, 0xf0, 0x15, 0x11, 0xfb, 0x04, 0x4e, 0x24,
  0x1d, 0xfb, 0xcb, 0xf3, 0xc1, 0x27, 0xf4, 0xf6, 0xe6, 0x45, 0xe7, 0x0a,
  0xf6, 0x13, 0x22, 0xbc, 0x01, 0x00, 0x13, 0x01, 0x1e, 0x25, 0x47, 0x15,
  0xfe, 0x11, 0x15, 0x26, 0x17, 0x0b, 0x2e, 0x07, 0x1b, 0x0b, 0xee, 0x75,
  0x1f, 0x02, 0xd5, 0x15, 0x22, 0x57, 0x1b, 0x1e, 0xe9, 0x08, 0x27, 0x04,
  0x1c, 0xff, 0xe9, 0x26, 0xe7, 0xee, 0xd7, 0x23, 0x3a, 0xd3, 0xf2, 0x25,
  0xc6, 0xf1, 0x12, 0x11, 0x1f, 0x0a, 0xfa, 0x26, 0xdd, 0xe7, 0xfa, 0xfb,
  0xfe, 0x2d, 0x3c, 0xd2, 0x1c, 0x19, 0x44, 0xef, 0x22, 0x24, 0x0e, 0xf7,
  0x18, 0x34, 0x4a, 0x11, 0xf4, 0x14, 0x37, 0x5b, 0x22, 0xca, 0x7f, 0x18,
  0x20, 0xfb, 0x19, 0x4f, 0x3d, 0x59, 0x2b, 0x0a, 0x19, 0x7f, 0x30, 0x4b,
  0x7b, 0x2c, 0x6d, 0x10, 0x20, 0x13, 0xf1, 0x2d, 0xd5, 0xe6, 0x25, 0x1e,
  0x28, 0xe1, 0x2f, 0x35, 0x09, 0xff, 0x48, 0x16, 0x03, 0xf3, 0xe1, 0x3d,
  0x05, 0x23, 0xf8, 0xce, 0x35, 0x5a, 0x1b, 0x30, 0x1c, 0x2d, 0x2b, 0xe6,
  0x9c, 0x2f, 0xbf, 0xb7, 0xf5, 0xed, 0xdb, 0xeb, 0x27, 0x00, 0xe5, 0xef,
  0x22, 0x09, 0xda, 0xfa, 0xfc, 0x10, 0xd9, 0x33, 0xfe, 0x1f, 0xf7, 0xce,
  0x03, 0xa1, 0x26, 0xe1, 0xf3, 0x1a, 0x21, 0xd7, 0x22, 0x17, 0xe5, 0x08,
  0xff, 0x2b, 0xf9, 0x0a, 0x81, 0xfb, 0x66, 0x43, 0xfd, 0xc0, 0x00, 0xab,
  0xf5, 0xf0, 0x14, 0x0b, 0xff, 0xf4, 0x22, 0xde, 0xe7, 0xe3, 0xf7, 0xc7,
  0x6a, 0x12, 0x09, 0x09, 0xd0, 0x0e, 0x17, 0x16, 0x05, 0xef, 0x0f, 0x57,
  0x08, 0x0b, 0xc9, 0x69, 0x2b, 0x15, 0x53, 0xf6, 0xc6, 0x06, 0x11, 0x09,
  0x1d, 0x0b, 0x14, 0x16, 0x01, 0x0e, 0x30, 0x25, 0xe1, 0x3d, 0x04, 0x2a,
  0x35, 0x0a, 0x05, 0x1d, 0x29, 0x28, 0x28, 0x14, 0x06, 0x91, 0x28, 0x4e,
  0xe0, 0x16, 0x9d, 0x08, 0x10, 0x91, 0x0e, 0xcd, 0xb2, 0xd8, 0x02, 0x4c,
  0xf3, 0xb1, 0xde, 0x33, 0x15, 0xf4, 0xce, 0xf8, 0xc2, 0xf6, 0x18, 0xfd,
  0xfc, 0xcd, 0x14, 0xeb, 0xe7, 0x08, 0xd0, 0x0e, 0x30, 0x05, 0x38, 0xdc,
  0x28, 0x09, 0xef, 0xbf, 0xc6, 0x36, 0xf7, 0x07, 0x0c, 0x48, 0x18, 0x33,
  0x09, 0x30, 0xbf, 0x15, 0x16, 0xfc, 0xf6, 0xfc, 0xd6, 0x16, 0xf1, 0xf8,
  0x9e, 0x1f, 0x31, 0xdf, 0xc2, 0x0c, 0xf2, 0xa5, 0x18, 0xb7, 0xdb, 0x1f,
  0xdf, 0x07, 0xfd, 0xeb, 0xf3, 0xf2, 0xef, 0x04, 0xe6, 0x87, 0xc3, 0xd6,
  0xfb, 0xb0, 0x0a, 0xaf, 0xc4, 0xa7, 0xc8, 0x13, 0xed, 0x1e, 0x22, 0xdf,
  0x1c, 0x08, 0xf9, 0xfb, 0x1b, 0x22, 0xea, 0x56, 0x27, 0x3c, 0xcc, 0xec,
  0x35, 0x28, 0xee, 0xf9, 0xd2, 0x4e, 0x21, 0xeb, 0xc6, 0x28, 0x1a, 0x4a,
  0xa1, 0xe6, 0x10, 0x11, 0x27, 0xe5, 0x00, 0x10, 0xe7, 0xe3, 0x00, 0xd0,
  0xd4, 0xdb, 0xf9, 0x31, 0x3a, 0x0c, 0x1e, 0xb4, 0xf3, 0xe8, 0x0e, 0xc1,
  0x03, 0x0a, 0xfc, 0xca, 0xe9, 0xb5, 0xea, 0xe8, 0xeb, 0x1d, 0x67, 0xe7,
  0x10, 0xe7, 0x11, 0x02, 0x0d, 0xfd, 0xfe, 0xf6, 0x40, 0xf3, 0x09, 0x03,
  0xe8, 0xb8, 0x81, 0xe0, 0x04, 0x37, 0x1d, 0x0b, 0x11, 0x0e, 0x0c, 0x02,
  0xd0, 0x06, 0x0e, 0x01, 0xc3, 0x08, 0xe6, 0x1b, 0xea, 0x02, 0x0f, 0x00,
  0xf8, 0x0d, 0x12, 0x19, 0xfc, 0xd1, 0xe6, 0x12, 0x0d, 0x12, 0x06, 0xe7,
  0x0c, 0x3d, 0x64, 0x07, 0x21, 0x0c, 0x31, 0x01, 0x30, 0x08, 0xbf, 0xf6,
  0x08, 0xee, 0x02, 0x0b, 0xf9, 0xf0, 0xe7, 0x10, 0xfa, 0xfa, 0x1e, 0x16,
  0x15, 0xe8, 0xed, 0xf3, 0xe6, 0x12, 0x00, 0xf5, 0xea, 0x1b, 0xfa, 0xe1,
  0x2a, 0xd3, 0x2f, 0x12, 0x07, 0xfe, 0xd2, 0xed, 0xfc, 0xe3, 0x0b, 0x2e,
  0x1c, 0x17, 0xb8, 0xfa, 0xee, 0x1c, 0xd8, 0x09, 0x2c, 0xf0, 0xdc, 0x10,
  0xe8, 0xdf, 0xe9, 0xf1, 0x02, 0x34, 0x02, 0xff, 0x33, 0xd9, 0xb7, 0xb5,
  0xfb, 0xc0, 0xf0, 0x01, 0xd2, 0xf9, 0xd0, 0x0e, 0xbd, 0xf9, 0xce, 0xce,
  0xf2, 0xc5, 0xa3, 0x15, 0x49, 0x01, 0xe2, 0x0b, 0xf9, 0x05, 0x0e, 0x05,
  0x11, 0xe6, 0x02, 0xfa, 0xfb, 0x0b, 0xfd, 0xe7, 0x0c, 0x11, 0xfb, 0x1e,
  0x1e, 0x05, 0x1b, 0x04, 0x0e, 0x0f, 0x0a, 0xb9, 0x0c, 0xdf, 0x0c, 0xf3,
  0xe6, 0xe5, 0xe4, 0xef, 0x15, 0xf3, 0xf7, 0xd6, 0xed, 0xb9, 0x03, 0x26,
  0xf8, 0xfc, 0x24, 0xeb, 0x34, 0x1e, 0xec, 0x07, 0xf7, 0x03, 0x44, 0x4c,
  0x2c, 0x1d, 0x2f, 0x25, 0x25, 0x27, 0x0a, 0x28, 0x1c, 0x14, 0xf5, 0x40,
  0xe3, 0x0e, 0x1b, 0xd6, 0x00, 0x1a, 0xf8, 0xbf, 0xc1, 0x02, 0x16, 0x0e,
  0x6e, 0x05, 0x19, 0x2e, 0x15, 0x07, 0x17, 0x0b, 0x00, 0xf6, 0x07, 0x2b,
  0x16, 0xde, 0x0f, 0x1d, 0xf0, 0xf8, 0xed, 0x0a, 0x17, 0x1b, 0xef, 0x4e,
  0x0a, 0x14, 0x05, 0x17, 0x2a, 0x09, 0x07, 0xf9, 0x6f, 0xf3, 0xca, 0x34,
  0xdc, 0x48, 0x28, 0x1a, 0x06, 0xf7, 0x14, 0x28, 0x04, 0xf9, 0xf7, 0xda,
  0x0f, 0xe0, 0x9d, 0xe9, 0xf9, 0x08, 0x09, 0x3b, 0xba, 0x13, 0xfb, 0xdd,
  0x17, 0xe0, 0xdf, 0x06, 0x4a, 0x0c, 0xfc, 0xe7, 0x10, 0x27, 0xfd, 0x43,
  0x6b, 0x1b, 0x0f, 0xfc, 0x16, 0xcb, 0x7f, 0x2a, 0x49, 0x03, 0x11, 0x02,
  0xeb, 0xd5, 0xbb, 0xfd, 0xfb, 0x22, 0x44, 0x2c, 0x10, 0x1f, 0xcf, 0x06,
  0x02, 0xfa, 0x4a, 0x04, 0xf1, 0x13, 0xe2, 0xed, 0x1f, 0x1b, 0x1f, 0xef,
  0x15, 0xea, 0xf7, 0xb2, 0xb8, 0x05, 0xde, 0x1a, 0xd1, 0xf6, 0xfc, 0x28,
  0x1c, 0xb0, 0xf6, 0x93, 0x0c, 0x34, 0xa7, 0xe4, 0x31, 0x05, 0x15, 0x04,
  0xf6, 0xa6, 0xba, 0x07, 0x3d, 0xff, 0x22, 0xec, 0x1d, 0xe3, 0x01, 0x0b,
  0x02, 0x01, 0xf1, 0xdc, 0x06, 0x04, 0xe8, 0xd7, 0x0b, 0xc9, 0xe9, 0xe7,
  0x03, 0x1e, 0xbc, 0x22, 0xee, 0xd6, 0x33, 0x02, 0xd9, 0xd6, 0x2c, 0x03,
  0xea, 0xe9, 0x03, 0xc7, 0xf5, 0x1e, 0x29, 0x8f, 0xf9, 0x05, 0xfe, 0x09,
  0x9e, 0xf1, 0xe1, 0xf6, 0x04, 0x62, 0x1c, 0x9c, 0xda, 0xf3, 0xbd, 0xed,
  0xe9, 0x07, 0xf4, 0x20, 0xcb, 0xf9, 0xb6, 0x25, 0xe4, 0xd9, 0xf9, 0xc5,
  0xec, 0xb4, 0xd4, 0xf8, 0x0b, 0x1d, 0x27, 0xf3, 0xf7, 0x10, 0x0d, 0x9b,
  0x0c, 0xfb, 0x52, 0x14, 0x1f, 0x12, 0x44, 0xef, 0xa7, 0x03, 0x19, 0x15,
  0xeb, 0x36, 0x1a, 0xf3, 0xe6, 0x1b, 0xce, 0xc8, 0x02, 0xd9, 0x0c, 0xd6,
  0x1d, 0x18, 0x15, 0x03, 0x13, 0x20, 0x29, 0x1c, 0x03, 0x1e, 0x1f, 0xff,
  0x10, 0xdf, 0xdb, 0xea, 0x10, 0x20, 0xb1, 0xcd, 0xb8, 0xe6, 0x5b, 0xc4,
  0xf6, 0xd3, 0xfd, 0x38, 0xec, 0x09, 0x09, 0x0b, 0xed, 0x1e, 0x18, 0x0e,
  0x1d, 0xeb, 0xf7, 0xda, 0x2e, 0x4b, 0x1f, 0x13, 0xb1, 0x25, 0xcb, 0x01,
  0xc4, 0xc6, 0x1d, 0xaf, 0x1f, 0xe2, 0xfc, 0x35, 0x08, 0xe2, 0x1b, 0xc9,
  0xc6, 0xd2, 0x38, 0x30, 0x11, 0xf4, 0x2a, 0xfe, 0x0e, 0xf4, 0x0b, 0x3a,
  0x15, 0xe4, 0xeb, 0x24, 0xe4, 0x32, 0x0a, 0xfd, 0x15, 0xe1, 0xed, 0x25,
  0x1c, 0xfb, 0x28, 0xad, 0x7f, 0x27, 0x09, 0x18, 0x0b, 0xf8, 0xee, 0xfd,
  0xfd, 0x0f, 0xea, 0x00, 0x1a, 0xe3, 0xd7, 0xd2, 0x0d, 0xb2, 0x2d, 0xfb,
  0xe9, 0x10, 0x4c, 0x06, 0xe9, 0x5d, 0x35, 0x1f, 0xf8, 0x06, 0xea, 0x24,
  0xf4, 0xde, 0x06, 0xfc, 0xff, 0xd9, 0xe2, 0x27, 0x34, 0xae, 0xd3, 0xbd,
  0x1d, 0xe9, 0x10, 0xd9, 0x44, 0xe2, 0x3d, 0x32, 0xfc, 0x02, 0xd5, 0x01,
  0xf2, 0x0a, 0xef, 0x21, 0x3d, 0xfa, 0x0a, 0x0c, 0x16, 0xea, 0x18, 0xde,
  0x10, 0xec, 0xf5, 0x12, 0x1b, 0xf0, 0xe3, 0x4f, 0x1f, 0xfe, 0xf8, 0x15,
  0x06, 0x03, 0x13, 0xe7, 0xd5, 0x05, 0xb0, 0xf3, 0x6c, 0x1e, 0xd0, 0x07,
  0x20, 0x10, 0xed, 0xd1, 0x1b, 0xe6, 0xf5, 0x2b, 0x04, 0x10, 0x18, 0x09,
  0xbd, 0x0f, 0x19, 0xe1, 0xf4, 0x28, 0x1b, 0x0b, 0x28, 0xdf, 0x02, 0x1c,
  0x0f, 0x11, 0x1e, 0xf9, 0xf0, 0x13, 0x16, 0xd6, 0xf3, 0x09, 0x0c, 0xfc,
  0x16, 0x39, 0x2c, 0x08, 0x5c, 0xf4, 0x37, 0xd3, 0x14, 0x45, 0x10, 0x1a,
  0x00, 0x23, 0xf6, 0x1b, 0xfa, 0x21, 0xf4, 0xd4, 0x4b, 0x2c, 0xd7, 0x20,
  0x11, 0x0f, 0x0a, 0x0e, 0x02, 0x29, 0xb5, 0xe8, 0x06, 0x12, 0x03, 0xb1,
  0x20, 0xf3, 0x24, 0x26, 0x1b, 0xe4, 0xf5, 0x64, 0x69, 0x1b, 0x0b, 0xf0,
  0x1a, 0xc0, 0x18, 0xff, 0xd0, 0x19, 0xdb, 0xf5, 0x8e, 0xdf, 0x06, 0xfe,
  0x24, 0x0f, 0xf9, 0x11, 0x3f, 0x08, 0x21, 0x1b, 0x35, 0x06, 0xa1, 0x38,
  0x07, 0x27, 0x24, 0xdd, 0xfa, 0xef, 0xee, 0xfd, 0x18, 0xe1, 0x20, 0xfa,
  0xd6, 0x53, 0x3f, 0x13, 0x5a, 0x68, 0xe5, 0x55, 0x0a, 0xef, 0xe6, 0x07,
  0x85, 0x20, 0x31, 0xaa, 0x40, 0x02, 0x1b, 0xe6, 0x45, 0xe3, 0x35, 0xf2,
  0x4a, 0x05, 0xfb, 0x84, 0xd3, 0x26, 0xfb, 0xd3, 0x0f, 0x1a, 0x10, 0x3b,
  0xe8, 0xff, 0xca, 0xe7, 0x15, 0x21, 0x26, 0xd8, 0x49, 0xe1, 0x1f, 0xce,
  0x03, 0xdf, 0x3d, 0x2e, 0x17, 0x04, 0x19, 0xe0, 0x19, 0xbe, 0xbf, 0x44,
  0x09, 0x48, 0xf3, 0x1f, 0x15, 0x1b, 0x20, 0x2f, 0x0f, 0xc6, 0xd4, 0xef,
  0xf8, 0x17, 0x15, 0xe9, 0xe1, 0x06, 0xeb, 0x3c, 0x2d, 0x10, 0x81, 0xf1,
  0x22, 0xee, 0xcf, 0x91, 0x0d, 0x08, 0x1d, 0x01, 0xa7, 0xbc, 0x1f, 0xc4,
  0xab, 0xe2, 0xc2, 0xf6, 0x2b, 0x02, 0xbd, 0x21, 0xf7, 0x0f, 0xce, 0x06,
  0x23, 0x08, 0xe6, 0xd8, 0x07, 0xf4, 0x4c, 0x4d, 0xec, 0x27, 0x30, 0xe2,
  0x14, 0x24, 0x1d, 0x31, 0xce, 0x37, 0x2b, 0x4f, 0xe2, 0x12, 0xea, 0x09,
  0x48, 0x01, 0x12, 0x1b, 0xe8, 0x0c, 0x30, 0xc9, 0xed, 0xf8, 0x0a, 0xd9,
  0x10, 0x11, 0x45, 0x39, 0xa3, 0xc4, 0xd6, 0xc7, 0x96, 0xf5, 0x0a, 0xf4,
  0x0b, 0xd3, 0xb2, 0xf2, 0x33, 0xf2, 0x05, 0xcf, 0x18, 0x29, 0xe7, 0x0a,
  0xb6, 0xec, 0x1e, 0x14, 0x32, 0xc4, 0xfc, 0x37, 0x28, 0xe4, 0xea, 0xf6,
  0xf5, 0xa4, 0xc4, 0x95, 0x04, 0x0f, 0x10, 0x18, 0x0c, 0x45, 0x09, 0x16,
  0x1a, 0x11, 0xd6, 0xc3, 0xf8, 0x09, 0x1c, 0x27, 0xd3, 0x25, 0xde, 0xef,
  0x0b, 0x02, 0xf1, 0xf2, 0xb5, 0xfa, 0xf0, 0xb7, 0x39, 0xe6, 0xc1, 0xc5,
  0xf5, 0xfc, 0x1e, 0xe0, 0x14, 0xf5, 0xeb, 0xf4, 0x11, 0xf8, 0xa4, 0xd9,
  0x1c, 0x08, 0xf1, 0xe4, 0xf1, 0xef, 0xea, 0x26, 0x20, 0xf0, 0x0f, 0x05,
  0xb3, 0xa4, 0xfd, 0x26, 0x1d, 0x41, 0x16, 0xdb, 0xed, 0xfc, 0xef, 0x18,
  0x20, 0x13, 0x21, 0x66, 0x39, 0x33, 0x39, 0x0f, 0x13, 0x26, 0xf4, 0x0f,
  0x33, 0xe1, 0xdb, 0xca, 0xf1, 0x0b, 0xe8, 0xe6, 0xf2, 0xe7, 0xfe, 0x15,
  0xee, 0x1f, 0xf3, 0xdf, 0x08, 0xf9, 0x0a, 0xf7, 0xe2, 0xac, 0xaa, 0x0d,
  0xd1, 0xdc, 0xde, 0x05, 0x05, 0xf2, 0x0c, 0x1a, 0xf2, 0xd0, 0x12, 0xac,
  0xc2, 0xfc, 0xd3, 0x0c, 0x08, 0x1b, 0xd8, 0x17, 0xf4, 0xf3, 0xe5, 0x0a,
  0xf6, 0xef, 0x07, 0xfd, 0x1e, 0xe8, 0xec, 0x0c, 0xf0, 0xf0, 0xfb, 0xf2,
  0xd8, 0xf3, 0xef, 0x1c, 0xdc, 0x1f, 0xfc, 0xd2, 0xcc, 0xed, 0xea, 0xc6,
  0x0f, 0xf7, 0xde, 0x27, 0xe5, 0xed, 0x15, 0xf6, 0xd3, 0x21, 0x14, 0xe6,
  0x0c, 0x01, 0x0e, 0x06, 0xa4, 0xc5, 0xef, 0xf6, 0xae, 0x06, 0x04, 0xef,
  0x20, 0x0c, 0xfc, 0xc1, 0x00, 0x34, 0xec, 0xd4, 0x07, 0xe2, 0xa7, 0x0d,
  0x39, 0xdc, 0xea, 0x00, 0xed, 0x39, 0xfb, 0xfd, 0x17, 0x0d, 0xd1, 0x20,
  0xf2, 0xf9, 0xe1, 0xe4, 0x38, 0xfb, 0xf8, 0x14, 0xd6, 0x22, 0x00, 0x3d,
  0x18, 0x0e, 0x4b, 0xfc, 0xcb, 0xf2, 0xab, 0x13, 0x18, 0x07, 0x25, 0xcc,
  0xf6, 0x05, 0x06, 0x05, 0x2a, 0x8e, 0xf6, 0xf0, 0xf2, 0xd5, 0xbc, 0x18,
  0xe1, 0x09, 0xfb, 0x1d, 0xf3, 0x1a, 0x24, 0x9f, 0xf4, 0xf4, 0xf4, 0x0d,
  0xea, 0xf1, 0x15, 0x36, 0xf9, 0xe7, 0x09, 0xf6, 0x1a, 0x02, 0xf2, 0xff,
  0x17, 0x9e, 0x10, 0x35, 0xf2, 0x32, 0xb1, 0x0a, 0xbd, 0x32, 0xff, 0x13,
  0xec, 0x22, 0xd6, 0xdf, 0xcc, 0xf1, 0xf4, 0xfd, 0x02, 0xb9, 0xbb, 0xfd,
  0xec, 0x0e, 0x0a, 0xba, 0xf6, 0x0c, 0x19, 0xcf, 0xeb, 0x81, 0x2b, 0x0b,
  0x1a, 0xc3, 0xe9, 0x05, 0xce, 0x1f, 0x0e, 0x01, 0x0e, 0x26, 0xdf, 0xe9,
  0xc5, 0x1c, 0xda, 0x02, 0x03, 0x01, 0x14, 0x20, 0x28, 0x00, 0xee, 0xbe,
  0xf4, 0xf7, 0xf4, 0x1b, 0x1d, 0x15, 0x0e, 0x26, 0x10, 0x09, 0xba, 0xfe,
  0xec, 0xe4, 0xc6, 0xf8, 0x07, 0x02, 0xb5, 0xe8, 0xf7, 0xf0, 0xce, 0x15,
  0x1a, 0xff, 0xd9, 0xe9, 0x07, 0x14, 0xed, 0xfd, 0xfc, 0xfd, 0x0a, 0xf0,
  0x00, 0xf8, 0xfa, 0xfe, 0xf6, 0x0b, 0xf4, 0xdb, 0xcf, 0x1e, 0x0c, 0x17,
  0xfe, 0xfa, 0xba, 0xfa, 0xed, 0x1c, 0x20, 0xfd, 0xfd, 0x0c, 0xde, 0xf2,
  0xc5, 0x0f, 0x04, 0xb3, 0x21, 0xc3, 0x04, 0x0f, 0x15, 0x33, 0xfc, 0xf1,
  0xee, 0x0e, 0xed, 0x05, 0xa7, 0x1c, 0x13, 0x30, 0xf4, 0x12, 0xbb, 0x25,
  0xe7, 0x0b, 0x0b, 0x1c, 0xe1, 0xef, 0x01, 0x0e, 0x09, 0xf0, 0xf4, 0x09,
  0x0a, 0xda, 0x06, 0x0a, 0xec, 0xe7, 0xd3, 0x08, 0x0a, 0x00, 0xf3, 0xeb,
  0xf5, 0xe9, 0x17, 0x30, 0xf1, 0xfd, 0xfc, 0xd5, 0x2a, 0xf2, 0x99, 0xf2,
  0xd2, 0x05, 0x0c, 0xfc, 0xf4, 0x14, 0xdd, 0xba, 0x1a, 0xe6, 0x00, 0x00,
  0x20, 0xea, 0x33, 0xfb, 0xe3, 0x16, 0x21, 0xd3, 0xd8, 0xe3, 0x0e, 0x18,
  0x0d, 0xfd, 0xd2, 0xed, 0xf4, 0x06, 0xfc, 0xf9, 0xdc, 0xfd, 0xd2, 0xec,
  0x1c, 0xd4, 0xeb, 0x0e, 0x00, 0xd3, 0xee, 0x0e, 0xce, 0x15, 0xfb, 0xcc,
  0xe5, 0x08, 0xdd, 0xf4, 0x09, 0x04, 0x2d, 0x12, 0x17, 0x14, 0x05, 0x0f,
  0xfd, 0xeb, 0x04, 0xf8, 0x28, 0xfd, 0x0c, 0xfc, 0x03, 0xfd, 0x1e, 0x25,
  0x06, 0x20, 0x19, 0xe2, 0x0c, 0x1d, 0x35, 0xea, 0xcc, 0x22, 0x05, 0xe3,
  0x33, 0x1f, 0x26, 0x18, 0x0b, 0xb3, 0xd1, 0x0b, 0x33, 0x0a, 0x00, 0xe0,
  0xd3, 0xbd, 0xeb, 0x0a, 0xa4, 0x0a, 0xfd, 0x16, 0x19, 0xeb, 0xb9, 0x27,
  0xfb, 0xd4, 0x0b, 0xd8, 0x30, 0xe2, 0x15, 0x07, 0xef, 0x05, 0x4a, 0x12,
  0x08, 0xd3, 0xfe, 0x9a, 0x2e, 0xee, 0xec, 0xe8, 0xb4, 0x2a, 0xd9, 0xeb,
  0xf5, 0xfd, 0xeb, 0x06, 0xdc, 0xb7, 0x0c, 0x0f, 0xf6, 0xd4, 0xe9, 0x0a,
  0x19, 0x20, 0x81, 0xc7, 0xf3, 0xf0, 0x2d, 0x5d, 0xe1, 0x17, 0x1c, 0xe5,
  0x22, 0xc7, 0x0d, 0x15, 0xf6, 0x11, 0xb6, 0x33, 0xe6, 0xc6, 0xef, 0x00,
  0x36, 0x0f, 0x1a, 0x81, 0xd0, 0x04, 0x4b, 0x01, 0x0e, 0x22, 0xe5, 0xbc,
  0x1d, 0xe7, 0xf8, 0x0b, 0x23, 0x17, 0x1b, 0xc7, 0x43, 0xf9, 0xf5, 0x67,
  0x09, 0xea, 0xe2, 0x1a, 0x2a, 0x23, 0x1a, 0x18, 0xf3, 0xf5, 0xe6, 0x04,
  0x01, 0x19, 0x00, 0xf8, 0xf2, 0x09, 0xd2, 0x12, 0x0f, 0x1d, 0xfb, 0x2a,
  0x26, 0xcb, 0xf0, 0x16, 0xfc, 0x0d, 0x13, 0x2d, 0x1b, 0xdb, 0xc7, 0x2c,
  0x18, 0x1a, 0x05, 0xd0, 0x1f, 0x06, 0x25, 0xb1, 0xed, 0xe7, 0x3b, 0x20,
  0x07, 0x2a, 0x9c, 0x06, 0xed, 0xf3, 0xe9, 0x17, 0x49, 0x2b, 0xf2, 0x0c,
  0x22, 0x26, 0xe3, 0x22, 0x15, 0xc4, 0x24, 0x24, 0x09, 0xff, 0x2b, 0x1a,
  0x07, 0x17, 0x14, 0xeb, 0xf3, 0x3b, 0x30, 0x2b, 0xc9, 0x03, 0xe1, 0xef,
  0x32, 0x22, 0xd4, 0xf0, 0x17, 0xc8, 0xfd, 0xde, 0x1f, 0xfd, 0xef, 0xda,
  0x28, 0xc7, 0x01, 0x48, 0xf2, 0x37, 0x2e, 0x09, 0xc8, 0xb3, 0xde, 0x0b,
  0xe5, 0xa5, 0xe7, 0x14, 0x3c, 0x0d, 0x22, 0x3f, 0x07, 0xf7, 0x08, 0xec,
  0x3e, 0xec, 0x02, 0x05, 0x11, 0x0f, 0xec, 0xea, 0xa8, 0x1e, 0xf6, 0xe8,
  0x08, 0xe8, 0xc2, 0x2c, 0xf7, 0xc5, 0x0d, 0x05, 0x3c, 0xcf, 0x01, 0xf7,
  0xec, 0x03, 0xf1, 0xd7, 0x01, 0x03, 0xf9, 0x05, 0xf4, 0xe0, 0x97, 0xc1,
  0x20, 0x0f, 0xd3, 0x98, 0x1a, 0xdf, 0xd4, 0x16, 0x33, 0x1b, 0x07, 0xe2,
  0x0e, 0x97, 0xb4, 0x1b, 0x05, 0xd2, 0xf8, 0xe5, 0xfe, 0x12, 0xe9, 0x34,
  0xb6, 0xe6, 0xf1, 0x09, 0xc4, 0xef, 0xf0, 0x2c, 0x29, 0xe7, 0xe1, 0xcc,
  0xbb, 0x16, 0x82, 0x01, 0xf1, 0xab, 0xa4, 0xeb, 0x0f, 0xdd, 0x19, 0x25,
  0x0c, 0xc3, 0xba, 0xd2, 0xde, 0xf8, 0x1e, 0xe1, 0x35, 0xf2, 0x14, 0x09,
  0xf6, 0x0c, 0xfe, 0x81, 0xf9, 0x07, 0x0d, 0xc9, 0xf8, 0xfd, 0x48, 0x0f,
  0x3d, 0x0a, 0xe2, 0xef, 0xfe, 0xf7, 0xf1, 0x48, 0xfb, 0xee, 0xdd, 0xde,
  0x02, 0x1a, 0x09, 0x0b, 0xbe, 0xe7, 0x0f, 0x11, 0x26, 0x11, 0x1c, 0x73,
  0x0d, 0x2c, 0xec, 0xaa, 0x23, 0xe7, 0xf7, 0xec, 0x14, 0x03, 0x1a, 0xbb,
  0xf7, 0x22, 0xde, 0x25, 0x0f, 0xf4, 0xf8, 0x08, 0x02, 0x01, 0x28, 0x12,
  0xc8, 0x1e, 0x0e, 0x38, 0x10, 0x1c, 0xfb, 0xdf, 0xe3, 0x0b, 0xd2, 0xf0,
  0xf4, 0xf1, 0xd8, 0xf4, 0x0a, 0xef, 0x06, 0xf1, 0x21, 0x07, 0x12, 0xef,
  0x05, 0xc0, 0x26, 0x0d, 0xfd, 0x40, 0xe9, 0x1e, 0x04, 0x0b, 0xef, 0x0c,
  0x23, 0x08, 0xf4, 0x2d, 0xb9, 0x2f, 0xee, 0xdf, 0x54, 0xef, 0xe0, 0xf6,
  0x0d, 0xeb, 0x3b, 0xb6, 0xfa, 0x2d, 0xef, 0x09, 0xfd, 0xa5, 0xe2, 0xfd,
  0xbd, 0x02, 0xfe, 0x14, 0xe2, 0xfb, 0xc8, 0xf8, 0xf7, 0x37, 0xec, 0x12,
  0xf8, 0xfb, 0x1d, 0x05, 0xe4, 0xf6, 0xdf, 0xf6, 0xd4, 0xff, 0x0b, 0xb8,
  0xfd, 0x34, 0x1c, 0xe3, 0x01, 0xdc, 0x29, 0x19, 0xc2, 0x30, 0xab, 0xe9,
  0xdb, 0xfd, 0xf9, 0x05, 0x41, 0xe2, 0x2d, 0xfd, 0xc3, 0x21, 0xf3, 0xd1,
  0x15, 0xcb, 0xb9, 0xe4, 0xfb, 0xe9, 0xfa, 0xc9, 0xf6, 0xfb, 0xf7, 0xe8,
  0x18, 0x95, 0x0c, 0xe6, 0x05, 0x0a, 0xb1, 0x0b, 0x89, 0x19, 0xe8, 0x00,
  0x0b, 0x09, 0xec, 0xef, 0x0d, 0xfb, 0x09, 0xe2, 0xe5, 0xd6, 0x20, 0xc4,
  0xc5, 0x04, 0x18, 0x1d, 0xc6, 0x1c, 0x19, 0xf8, 0x15, 0xb1, 0x1a, 0x07,
  0xb3, 0x05, 0xb8, 0xfa, 0x13, 0x13, 0xed, 0x31, 0x14, 0x28, 0x4c, 0xd8,
  0xd9, 0xe6, 0xfd, 0x23, 0xf8, 0xcb, 0xcd, 0x21, 0xef, 0xfd, 0xe7, 0xee,
  0xe5, 0xcc, 0xfb, 0xc8, 0x3a, 0xc4, 0xd5, 0xe1, 0xcb, 0x17, 0xbf, 0x05,
  0x05, 0x14, 0xf3, 0x30, 0xfd, 0x0f, 0xe9, 0xa2, 0x66, 0x0b, 0xfc, 0xe8,
  0xf8, 0xfa, 0xa7, 0xd7, 0xdb, 0xee, 0xc0, 0x2e, 0x0d, 0x18, 0xfd, 0xda,
  0x07, 0xff, 0x56, 0xdf, 0xd2, 0x06, 0xfa, 0xb1, 0xce, 0x0d, 0xd4, 0x20,
  0x12, 0x3c, 0x00, 0xd2, 0x01, 0x12, 0xc8, 0x4e, 0xff, 0xf6, 0xac, 0x12,
  0xd1, 0xf6, 0xfc, 0x03, 0x22, 0xf8, 0xf2, 0x01, 0xde, 0xd1, 0xf4, 0xff,
  0x48, 0x0e, 0xe4, 0xfb, 0xea, 0xf1, 0x2a, 0x33, 0x16, 0xee, 0xc0, 0x00,
  0x04, 0x1e, 0xef, 0x10, 0x09, 0xca, 0xf7, 0x00, 0x1e, 0x15, 0x05, 0xfd,
  0x04, 0xe8, 0x0b, 0xc8, 0xeb, 0x01, 0x36, 0x27, 0xf6, 0x1d, 0xe9, 0xf4,
  0x19, 0xe7, 0xf3, 0x1e, 0xfe, 0x1f, 0x11, 0xe9, 0x0a, 0x0d, 0xe5, 0x40,
  0x45, 0xca, 0xd4, 0x2b, 0xfa, 0xbc, 0x07, 0x39, 0x11, 0x28, 0x18, 0xe8,
  0xea, 0x00, 0xfe, 0x0e, 0xf4, 0x04, 0xce, 0xe2, 0xf4, 0x15, 0xe4, 0xf9,
  0x05, 0xfd, 0x27, 0xec, 0x0f, 0xf8, 0x02, 0x36, 0x19, 0xd3, 0x13, 0xf5,
  0x0f, 0x07, 0x0e, 0x02, 0x8c, 0xd2, 0xf1, 0x0d, 0xe9, 0xe4, 0x0a, 0x0d,
  0xa2, 0x03, 0x09, 0x21, 0x16, 0x2b, 0xea, 0xee, 0x4e, 0xf1, 0x1b, 0xf3,
  0xbe, 0x01, 0x20, 0xf0, 0xe5, 0x0a, 0x07, 0x00, 0x1c, 0xf5, 0xd7, 0x58,
  0xb7, 0xe9, 0xf9, 0xf5, 0xfc, 0xd8, 0xfe, 0x07, 0x00, 0xf5, 0x81, 0xb2,
  0xde, 0x4f, 0xfd, 0x13, 0x02, 0xf2, 0xfc, 0x12, 0x08, 0x12, 0xf1, 0xd2,
  0x0c, 0xc8, 0xdc, 0x37, 0x15, 0x06, 0xf6, 0xee, 0xda, 0x08, 0xed, 0x15,
  0x23, 0xb0, 0x15, 0x32, 0xe0, 0x45, 0xf2, 0xfc, 0x04, 0x12, 0xd2, 0x3e,
  0x04, 0x04, 0xfe, 0x08, 0x20, 0xc7, 0xff, 0xf4, 0xda, 0x1f, 0x9b, 0x2c,
  0x30, 0xdc, 0xbb, 0x12, 0x0b, 0xc8, 0x10, 0xcd, 0x2e, 0x04, 0xba, 0x20,
  0xc4, 0x0d, 0xc2, 0xf4, 0x11, 0xe3, 0x05, 0xfc, 0xd0, 0xfd, 0x03, 0xed,
  0x03, 0xe8, 0xf9, 0xa5, 0xfc, 0x08, 0xdc, 0x09, 0x29, 0xe9, 0x0e, 0xf5,
  0x23, 0xff, 0x03, 0xf2, 0xf4, 0xe3, 0x09, 0xfe, 0x1d, 0x0a, 0x02, 0xeb,
  0xec, 0xf6, 0x09, 0xe1, 0x00, 0x27, 0x14, 0xe9, 0x34, 0x28, 0xe1, 0xcd,
  0x0f, 0x17, 0x00, 0x2f, 0x1a, 0xfb, 0x00, 0xf9, 0xfe, 0x00, 0xe3, 0x44,
  0xf2, 0xf6, 0xdc, 0x03, 0x47, 0x09, 0x0f, 0x08, 0x0c, 0xf7, 0xf7, 0x05,
  0xe1, 0xf4, 0x05, 0x04, 0xde, 0x01, 0xfd, 0x3e, 0xe8, 0x09, 0xe6, 0x18,
  0x4d, 0x01, 0x0b, 0xc9, 0x01, 0xf2, 0x0b, 0xec, 0xdd, 0x32, 0x28, 0xf4,
  0xee, 0xe7, 0xbc, 0x04, 0xf8, 0xf4, 0xfb, 0x0c, 0xd6, 0xef, 0xf0, 0xff,
  0x38, 0x39, 0xf3, 0xfb, 0x1f, 0xf3, 0x0f, 0x3b, 0x06, 0xf1, 0xf1, 0x0f,
  0xe6, 0x33, 0xe5, 0x1b, 0xd5, 0x44, 0x0d, 0x05, 0xe6, 0x11, 0x05, 0xec,
  0x5a, 0x18, 0xe5, 0xf1, 0x0c, 0xfc, 0x18, 0xdc, 0x13, 0xf8, 0x25, 0x29,
  0x22, 0x9f, 0x32, 0x2c, 0xdd, 0x27, 0x0a, 0xfb, 0xf0, 0xed, 0xe7, 0x07,
  0xba, 0xea, 0xcd, 0xf0, 0x2b, 0xa5, 0x1d, 0x28, 0xfd, 0xe4, 0x06, 0x13,
  0xde, 0xe6, 0xfe, 0xf7, 0x2b, 0xf1, 0xe3, 0x17, 0x18, 0x11, 0xd0, 0x19,
  0xe6, 0xea, 0xd7, 0x41, 0x08, 0xf2, 0x1b, 0xfa, 0x1c, 0xec, 0xe9, 0x07,
  0x1b, 0xfe, 0x81, 0xcf, 0x2d, 0x34, 0x09, 0x1e, 0xf1, 0xe5, 0x0a, 0x00,
  0x0e, 0x0c, 0x0d, 0xb8, 0x43, 0xf4, 0x05, 0x40, 0x32, 0x14, 0x0b, 0x0c,
  0x43, 0xfa, 0xf5, 0xfa, 0xf2, 0x30, 0x1e, 0x0c, 0x16, 0xed, 0xe8, 0x25,
  0x07, 0x15, 0xe1, 0x0d, 0xfc, 0x03, 0x21, 0x09, 0x1b, 0xcd, 0x1c, 0x3f,
  0xc0, 0x03, 0xd0, 0x0c, 0x0c, 0xec, 0xf5, 0xe1, 0xe5, 0x0d, 0x18, 0x11,
  0x1a, 0xf8, 0xc1, 0x0e, 0x19, 0x18, 0x02, 0x04, 0x27, 0x34, 0xee, 0x24,
  0xfa, 0x05, 0x1c, 0x12, 0x34, 0x07, 0xf3, 0x59, 0x22, 0xfd, 0x17, 0xf4,
  0x11, 0x0e, 0xef, 0x3a, 0x0d, 0x1b, 0x08, 0xe0, 0xf5, 0xdd, 0x1a, 0xf7,
  0x21, 0x33, 0x37, 0xff, 0x1d, 0x00, 0x01, 0x1b, 0x20, 0xe8, 0xfc, 0x13,
  0x00, 0xd5, 0xc0, 0x4c, 0x03, 0xfd, 0x14, 0x0e, 0x0e, 0x15, 0xf8, 0xf7,
  0xf0, 0x12, 0x0e, 0xf4, 0x08, 0xe7, 0xfe, 0xfd, 0x1e, 0x0c, 0xdd, 0xf9,
  0x44, 0xfa, 0xde, 0x03, 0xfc, 0xea, 0xea, 0x1d, 0x0e, 0xfd, 0x19, 0x2f,
  0x23, 0xfb, 0x29, 0xe0, 0x1b, 0x35, 0x00, 0x42, 0x0f, 0x02, 0x21, 0xf5,
  0x2f, 0x37, 0xfd, 0x11, 0x0d, 0x29, 0xf0, 0x1c, 0x3b, 0x26, 0x03, 0x12,
  0x18, 0x03, 0xff, 0x1b, 0x1b, 0xed, 0x42, 0x39, 0xff, 0xff, 0xf1, 0xea,
  0x0d, 0x12, 0xfa, 0x20, 0xf8, 0xfc, 0xfc, 0x06, 0x14, 0x07, 0xec, 0x00,
  0x03, 0x09, 0x81, 0x04, 0x25, 0xfa, 0xe6, 0x0b, 0x10, 0xff, 0x05, 0x0a,
  0x1d, 0xf6, 0xfd, 0x0f, 0x31, 0x0e, 0x28, 0x08, 0xe4, 0x0f, 0xf3, 0x14,
  0xf6, 0x36, 0x46, 0x15, 0xea, 0xd2, 0xf7, 0x08, 0x27, 0x26, 0x35, 0x02,
  0x0f, 0x0a, 0x02, 0x2d, 0x3d, 0xf9, 0x43, 0x0f, 0x26, 0x03, 0xf8, 0x1d,
  0x07, 0x1c, 0xe0, 0xe6, 0x15, 0xfa, 0xe8, 0x16, 0xc6, 0x01, 0xf6, 0x28,
  0xec, 0xf7, 0x1a, 0x0e, 0x26, 0xef, 0xfa, 0x0c, 0xf5, 0xf0, 0x11, 0x01,
  0xda, 0xec, 0xbc, 0xc1, 0xb3, 0xfc, 0x2e, 0x1a, 0x04, 0x0f, 0x09, 0xfd,
  0x15, 0x10, 0xe8, 0x1c, 0x1e, 0xcb, 0xdf, 0xe9, 0x35, 0x28, 0x17, 0x33,
  0xd1, 0x56, 0xe5, 0xf2, 0xaf, 0x21, 0x0e, 0x55, 0x07, 0xd5, 0xa5, 0x29,
  0xfd, 0xf8, 0x1f, 0xf9, 0x10, 0xd9, 0xf2, 0xb8, 0x13, 0xeb, 0xf2, 0x1d,
  0x24, 0x10, 0xee, 0xd3, 0xcf, 0x27, 0x01, 0xca, 0xe5, 0xd1, 0x28, 0x22,
  0x19, 0xff, 0x9a, 0xdf, 0xb7, 0x00, 0xde, 0xa6, 0x45, 0xec, 0x0d, 0x24,
  0xf7, 0x09, 0x29, 0x06, 0xf5, 0x0a, 0xff, 0xfc, 0xe4, 0x10, 0x04, 0x1f,
  0xee, 0xe8, 0xfa, 0x04, 0xde, 0x06, 0xb2, 0xf9, 0x62, 0xe2, 0xee, 0xc9,
  0xf6, 0x0a, 0x05, 0x20, 0xfd, 0x26, 0xd5, 0x01, 0x15, 0xba, 0x17, 0xd2,
  0xe4, 0xfe, 0x0e, 0x9b, 0x24, 0xf7, 0xe3, 0xa9, 0xcd, 0xfc, 0x08, 0xbd,
  0xfe, 0xfd, 0x35, 0x0c, 0xfb, 0xf1, 0x1a, 0xfa, 0x07, 0xea, 0xe5, 0x22,
  0xf9, 0xf5, 0x0b, 0xf9, 0x17, 0xdd, 0xf9, 0xf2, 0x35, 0xf3, 0xec, 0x03,
  0x12, 0x13, 0xef, 0x13, 0xae, 0xef, 0x2e, 0x07, 0x1a, 0xfd, 0xdd, 0x16,
  0x1e, 0xfd, 0xde, 0x17, 0x20, 0x24, 0x31, 0x31, 0xfd, 0xee, 0x0b, 0xd1,
  0xf2, 0x09, 0xa8, 0x16, 0xf1, 0x03, 0x11, 0xfd, 0x06, 0xe8, 0xf5, 0x22,
  0x05, 0x41, 0xf8, 0x20, 0x98, 0xf7, 0x02, 0x04, 0x2a, 0x22, 0x0a, 0x0d,
  0xff, 0xf3, 0xf3, 0xd5, 0xec, 0x12, 0xcd, 0x45, 0x15, 0xc8, 0xf2, 0x14,
  0xca, 0x1a, 0x17, 0x53, 0xd1, 0x14, 0xed, 0xf9, 0xeb, 0x38, 0x16, 0x29,
  0x0d, 0xff, 0x54, 0x12, 0x03, 0x20, 0xe1, 0xe9, 0xfb, 0xed, 0x20, 0xfb,
  0xda, 0x22, 0x4d, 0x07, 0x0d, 0x11, 0xf9, 0x10, 0xee, 0xfa, 0xce, 0x0a,
  0xea, 0xf2, 0xf2, 0x26, 0x0b, 0x09, 0xd5, 0x1a, 0xfc, 0x3e, 0x14, 0x01,
  0xee, 0xd2, 0xe6, 0xf5, 0xc9, 0xe3, 0xda, 0xf5, 0x09, 0xf4, 0x06, 0xd5,
  0xd6, 0xed, 0xd4, 0xee, 0x1c, 0x05, 0xf7, 0x28, 0xb4, 0xd9, 0xe2, 0xe6,
  0xfe, 0x0d, 0xf3, 0xef, 0x02, 0x28, 0x01, 0xe7, 0xbc, 0x02, 0xe6, 0x2d,
  0x81, 0xd1, 0xfd, 0x1e, 0xf4, 0xf9, 0x23, 0x29, 0x87, 0xe5, 0xe3, 0x05,
  0x15, 0xcc, 0xd2, 0x22, 0xf0, 0x0b, 0xff, 0xc9, 0xe2, 0x05, 0x14, 0x02,
  0xec, 0xf0, 0x2f, 0xd5, 0x12, 0xf3, 0xed, 0x35, 0xca, 0x05, 0x35, 0xdc,
  0xd0, 0xc9, 0x08, 0x81, 0x05, 0x29, 0x0c, 0xfc, 0x94, 0xe1, 0xf4, 0x18,
  0xed, 0xf3, 0xec, 0x3e, 0x06, 0xdf, 0xf2, 0x0f, 0x04, 0x08, 0xfb, 0x06,
  0xf7, 0x12, 0x0d, 0xd7, 0x17, 0xe7, 0x37, 0xff, 0x17, 0x2b, 0x57, 0xcb,
  0x1f, 0x20, 0x69, 0x0a, 0x36, 0x06, 0x0a, 0x2d, 0xeb, 0xf5, 0xb0, 0x27,
  0x10, 0x2f, 0xe1, 0xf7, 0x4d, 0xfa, 0x29, 0x2d, 0x9e, 0xe5, 0x03, 0xf3,
  0xf5, 0x46, 0x69, 0xad, 0x14, 0xf7, 0x22, 0x34, 0x18, 0x4d, 0xcf, 0x13,
  0x5d, 0xd3, 0xdd, 0xe5, 0x23, 0x1c, 0xfc, 0x03, 0xf1, 0xf6, 0x2c, 0x0c,
  0x00, 0x30, 0xe3, 0xf7, 0x28, 0x2c, 0x27, 0x0b, 0x21, 0x03, 0x1d, 0x30,
  0x0b, 0xb6, 0xf0, 0xdc, 0xff, 0xf5, 0xcc, 0x58, 0x04, 0x2a, 0x10, 0x47,
  0x46, 0x2a, 0x14, 0x3f, 0xc8, 0x3e, 0x32, 0x4e, 0x0c, 0xc1, 0x21, 0x19,
  0x6f, 0xf5, 0x22, 0xe7, 0x09, 0x3b, 0x0f, 0x22, 0xf5, 0x22, 0x1e, 0x27,
  0xd4, 0x05, 0x3c, 0x24, 0x11, 0xf5, 0x1f, 0xcc, 0xf9, 0x4b, 0x3c, 0x17,
  0xd6, 0x1f, 0x0f, 0x13, 0x5b, 0xc8, 0x6e, 0x04, 0x19, 0xf2, 0x17, 0xce,
  0xf5, 0x07, 0xe7, 0x54, 0x40, 0x37, 0x20, 0x71, 0x49, 0xf2, 0x47, 0x12,
  0xfd, 0x29, 0x2f, 0xc9, 0xed, 0x28, 0xf0, 0x04, 0x1e, 0x7d, 0x13, 0xfa,
  0x2c, 0x18, 0xfc, 0xfd, 0x0e, 0x2e, 0x08, 0xb5, 0xe2, 0x1d, 0xf3, 0x1f,
  0x18, 0xda, 0xbc, 0xe7, 0x1c, 0xd0, 0x1b, 0x20, 0xea, 0x88, 0xa7, 0x5b,
  0x5b, 0xed, 0x24, 0x1a, 0xe9, 0x06, 0xae, 0x17, 0x45, 0x05, 0xeb, 0xe1,
  0x46, 0xa0, 0x31, 0xa9, 0x15, 0x07, 0x4c, 0x47, 0x19, 0x03, 0x05, 0x2f,
  0xf4, 0xfc, 0xdc, 0x0f, 0x1d, 0x04, 0x21, 0x9a, 0x8d, 0xc2, 0x05, 0xcf,
  0x3b, 0xe7, 0xfd, 0xf9, 0xec, 0x2a, 0xfc, 0xf0, 0x4e, 0x31, 0x08, 0x38,
  0xfc, 0x04, 0xe8, 0xef, 0xf6, 0x16, 0x23, 0xbd, 0xe6, 0xeb, 0xe7, 0x27,
  0xfd, 0x0a, 0x16, 0x91, 0xd8, 0x0e, 0x0a, 0x0a, 0x0f, 0xfc, 0xd8, 0x2b,
  0x06, 0xe6, 0xf2, 0x0f, 0x00, 0xf2, 0xec, 0xe9, 0xe7, 0xb6, 0x0a, 0x0b,
  0xcd, 0x21, 0x0f, 0x15, 0x00, 0xd3, 0xca, 0x0d, 0x32, 0xfe, 0x0f, 0xd3,
  0x03, 0x03, 0xe5, 0xe4, 0x0c, 0x0b, 0x11, 0x38, 0xec, 0xd0, 0x01, 0x09,
  0xc0, 0x3b, 0x0e, 0x10, 0xd6, 0x04, 0x11, 0x00, 0xfc, 0x1b, 0xe6, 0xde,
  0x0a, 0xf2, 0x05, 0x0d, 0x00, 0xff, 0xf0, 0xd0, 0xe2, 0xfc, 0xf4, 0xe1,
  0x15, 0xc7, 0x1b, 0xfb, 0xc8, 0xd6, 0x11, 0x06, 0xe4, 0xfd, 0xf5, 0xde,
  0xf6, 0x1b, 0x03, 0x0a, 0xfb, 0x07, 0xd1, 0xf6, 0x1a, 0x0c, 0x9a, 0x0c,
  0x0e, 0x0b, 0x11, 0xf1, 0xf5, 0x36, 0xff, 0xf3, 0x1c, 0xe0, 0xf9, 0x1d,
  0x05, 0xfc, 0xcb, 0xe1, 0x38, 0x0f, 0xf0, 0xf7, 0xed, 0x1d, 0x08, 0x00,
  0xcf, 0xf8, 0x05, 0xd6, 0x01, 0xde, 0xb0, 0x19, 0xe9, 0xf9, 0x00, 0xeb,
  0xee, 0x15, 0x17, 0x09, 0x09, 0xae, 0xe5, 0x02, 0xe0, 0xd2, 0x08, 0xf7,
  0xf6, 0x08, 0xe8, 0x14, 0x07, 0x15, 0xfb, 0xac, 0x19, 0xd9, 0x13, 0x94,
  0xf8, 0x03, 0xfc, 0x1c, 0xda, 0xed, 0xeb, 0xf5, 0x09, 0x05, 0x07, 0x01,
  0x1b, 0xe4, 0x2a, 0x23, 0xf8, 0x1e, 0xfe, 0x0e, 0xfb, 0xed, 0xff, 0x0c,
  0xda, 0x10, 0xd8, 0xb6, 0xfc, 0xf7, 0x06, 0xd9, 0x04, 0xf1, 0x03, 0x1a,
  0xe4, 0x02, 0x0a, 0xd7, 0xed, 0xf1, 0x03, 0xf4, 0xf0, 0x81, 0x1a, 0xe9,
  0xf5, 0xf1, 0xde, 0x02, 0xfe, 0x07, 0x0d, 0x1c, 0xfd, 0xd8, 0xe2, 0xe3,
  0xe2, 0xfe, 0xf7, 0x0e, 0x1c, 0xe7, 0x31, 0x05, 0x02, 0x21, 0x32, 0xc6,
  0x0a, 0x0a, 0xef, 0xf2, 0x3e, 0x16, 0xe9, 0x35, 0x08, 0xfd, 0xef, 0x07,
  0xd1, 0x26, 0xce, 0x15, 0x13, 0x0a, 0x27, 0x20, 0x0f, 0xfc, 0xec, 0xfa,
  0x02, 0x0f, 0xbf, 0xda, 0x17, 0xe8, 0x1c, 0xe0, 0xcc, 0xee, 0xf9, 0xb6,
  0xec, 0x3d, 0xf1, 0xc4, 0x35, 0x00, 0xfd, 0xfa, 0x86, 0x06, 0x00, 0xd5,
  0x05, 0xc0, 0x99, 0xe5, 0xc2, 0xf4, 0xfa, 0xe5, 0x0c, 0x1f, 0x02, 0xe6,
  0xef, 0x11, 0x1c, 0x16, 0x0f, 0xf0, 0xf9, 0xfc, 0x01, 0x38, 0xef, 0x01,
  0x01, 0x50, 0x21, 0x12, 0xe6, 0xe5, 0x64, 0xcb, 0xf2, 0x18, 0x1d, 0x21,
  0xa5, 0xdb, 0x06, 0x71, 0x0c, 0x1a, 0x03, 0xca, 0x08, 0x36, 0x23, 0xe5,
  0x15, 0xe6, 0x12, 0xe9, 0xb0, 0x1f, 0xe9, 0xc8, 0xfb, 0xe6, 0xec, 0x2d,
  0x29, 0xf9, 0x03, 0x35, 0xcc, 0xd9, 0x05, 0x52, 0x10, 0xfe, 0x1c, 0xda,
  0xeb, 0x33, 0x1a, 0xef, 0x3f, 0x02, 0xfa, 0x2a, 0xe3, 0xa5, 0xf8, 0x48,
  0x25, 0x00, 0xea, 0x24, 0xb2, 0xf7, 0x8d, 0xea, 0xf8, 0x10, 0xe8, 0x0f,
  0x08, 0xfe, 0x56, 0x94, 0xff, 0x1a, 0xe2, 0x48, 0x52, 0x81, 0x40, 0xf8,
  0xe9, 0x5a, 0x43, 0xee, 0xfe, 0xc9, 0xce, 0x00, 0xad, 0x2b, 0xc5, 0xeb,
  0x36, 0xf3, 0xd0, 0x2e, 0x2f, 0x22, 0xf0, 0x02, 0xb7, 0x04, 0xd8, 0x13,
  0xb7, 0x09, 0x26, 0x0f, 0xdc, 0x24, 0x35, 0xc6, 0x92, 0x00, 0xc6, 0x25,
  0xc7, 0x1d, 0x16, 0xc4, 0x07, 0x33, 0xc6, 0xcf, 0xef, 0xd7, 0x0c, 0xf9,
  0x26, 0x07, 0xee, 0x0a, 0xe7, 0xcf, 0xf8, 0xeb, 0xff, 0x0b, 0x55, 0x05,
  0x68, 0xbd, 0x38, 0xf5, 0x1c, 0x14, 0x0c, 0x09, 0x42, 0x13, 0xb3, 0xd9,
  0xc6, 0x34, 0xa7, 0xcf, 0x43, 0x08, 0x45, 0x2e, 0x29, 0xf6, 0x0e, 0x0c,
  0xcb, 0x91, 0x0a, 0x0f, 0x19, 0x18, 0x13, 0x05, 0x95, 0xef, 0xe7, 0xcb,
  0x12, 0xc2, 0xd6, 0xe9, 0xe3, 0xfd, 0x17, 0xcd, 0x03, 0x34, 0xf6, 0x5c,
  0x15, 0xff, 0xba, 0xad, 0xe1, 0xd3, 0xd6, 0x48, 0x16, 0x23, 0x33, 0x39,
  0x55, 0x23, 0xee, 0xf6, 0x02, 0xf2, 0x65, 0x46, 0x0e, 0x27, 0x23, 0xec,
  0xf9, 0xe8, 0x08, 0x19, 0x1b, 0xff, 0xef, 0x39, 0x08, 0xbe, 0x22, 0x3f,
  0xf8, 0x1f, 0xec, 0xec, 0xc8, 0xce, 0xe5, 0xdb, 0xf5, 0x0a, 0x4d, 0xe3,
  0xe0, 0x04, 0xd5, 0x07, 0x21, 0xf6, 0xad, 0xfb, 0x22, 0x1d, 0xe4, 0x81,
  0xdf, 0x03, 0x0b, 0x00, 0x20, 0xfa, 0xdf, 0xcd, 0xf6, 0xc9, 0x28, 0x1b,
  0x00, 0x0e, 0xf5, 0x20, 0x08, 0x1c, 0xef, 0x01, 0x02, 0x32, 0x20, 0x1a,
  0xe5, 0xeb, 0xdc, 0x18, 0x1d, 0xfa, 0x0d, 0x23, 0x04, 0x19, 0xeb, 0x06,
  0xf0, 0x0d, 0x1a, 0x0b, 0xfb, 0xe6, 0xe8, 0xf1, 0x03, 0xd8, 0xeb, 0xe6,
  0xfc, 0x09, 0x22, 0xe3, 0xdb, 0x23, 0xfd, 0xe5, 0xeb, 0x25, 0xf2, 0x0a,
  0x2a, 0x07, 0xfd, 0xf0, 0x0d, 0x16, 0x10, 0xfa, 0x10, 0x09, 0xd9, 0xf8,
  0x07, 0xd8, 0x0f, 0x0e, 0xf4, 0xe6, 0xde, 0xd5, 0xf8, 0x10, 0x0c, 0xea,
  0xff, 0xf0, 0xec, 0x0f, 0x05, 0xf0, 0xea, 0xe1, 0x17, 0xf9, 0xe6, 0x02,
  0x18, 0x22, 0x03, 0x31, 0x04, 0xeb, 0xe0, 0xf7, 0xdd, 0x1d, 0x22, 0x09,
  0xba, 0x26, 0x1a, 0x23, 0x1b, 0xe4, 0x0b, 0xec, 0x11, 0xd6, 0x33, 0xac,
  0xe8, 0x1e, 0xee, 0x08, 0x60, 0x18, 0x0f, 0x1d, 0x01, 0x34, 0x1a, 0xd7,
  0x1d, 0xf7, 0x4a, 0xcd, 0xd4, 0xf3, 0x07, 0xf2, 0xfd, 0x0a, 0x08, 0x28,
  0xdb, 0xf1, 0xde, 0x33, 0xda, 0x11, 0x0f, 0x18, 0x15, 0xf0, 0x11, 0xfb,
  0x55, 0xe7, 0xfc, 0xf8, 0x09, 0x30, 0x19, 0x13, 0x2c, 0xea, 0x22, 0x0b,
  0x1e, 0x08, 0x50, 0xac, 0xfa, 0xdc, 0xcd, 0xfe, 0xab, 0x15, 0xfe, 0xa8,
  0x15, 0x10, 0x17, 0x0b, 0xe4, 0x27, 0x12, 0x1c, 0x1c, 0xef, 0x18, 0xee,
  0xd0, 0x3d, 0xff, 0xe6, 0x2c, 0x24, 0xd2, 0x2a, 0x9e, 0xbf, 0x24, 0x15,
  0xaa, 0xf4, 0xff, 0xff, 0x00, 0x00, 0x00, 0x09, 0x10, 0x00, 0x00, 0x00,
  0x08, 0x00, 0x00, 0x00, 0x1c, 0x00, 0x00, 0x00, 0x40, 0x00, 0x00, 0x00,
  0x04, 0x00, 0x00, 0x00, 0x18, 0x00, 0x00, 0x00, 0x04, 0x00, 0x00, 0x00,
  0x02, 0x00, 0x00, 0x00, 0x20, 0x00, 0x00, 0x00, 0x22, 0x00, 0x00, 0x00,
  0x73, 0x65, 0x71, 0x75, 0x65, 0x6e, 0x74, 0x69, 0x61, 0x6c, 0x5f, 0x31,
  0x2f, 0x71, 0x75, 0x61, 0x6e, 0x74, 0x5f, 0x63, 0x6f, 0x6e, 0x76, 0x32,
  0x64, 0x5f, 0x35, 0x2f, 0x43, 0x6f, 0x6e, 0x76, 0x32, 0x44, 0x00, 0x00,
  0xb0, 0xf5, 0xff, 0xff, 0x08, 0x00, 0x00, 0x00, 0x68, 0x00, 0x00, 0x00,
  0x18, 0x00, 0x00, 0x00, 0x77, 0xe9, 0xd8, 0x3a, 0x53, 0x51, 0x1a, 0x3c,
  0xd4, 0x5f, 0x73, 0x3c, 0xf1, 0xe0, 0x38, 0x3c, 0x2c, 0xb6, 0x80, 0x3c,
  0xa5, 0x2e, 0x70, 0x3c, 0x64, 0x8a, 0x0c, 0x3c, 0xd1, 0x95, 0x45, 0x3c,
  0x07, 0x52, 0x80, 0x3c, 0xdf, 0xdf, 0x36, 0x3c, 0x17, 0x9e, 0x3a, 0x3c,
  0xbe, 0x28, 0x31, 0x3c, 0x5d, 0x90, 0x4a, 0x3c, 0x58, 0xe5, 0x5f, 0x3c,
  0xac, 0xa7, 0x39, 0x3c, 0x65, 0xb0, 0x4e, 0x3c, 0x4c, 0xc5, 0x4b, 0x3c,
  0x66, 0x98, 0x75, 0x3c, 0x75, 0xb1, 0x4c, 0x3c, 0xa8, 0xa4, 0x74, 0x3c,
  0x3a, 0x16, 0x0f, 0x3c, 0x7b, 0x09, 0x69, 0x3c, 0x98, 0xf4, 0x2b, 0x3c,
  0x23, 0xde, 0x4a, 0x3c, 0x18, 0x00, 0x00, 0x00, 0x00, 0x00, 0x00, 0x00,
  0x00, 0x00, 0x00, 0x00, 0x00, 0x00, 0x00, 0x00, 0x00, 0x00, 0x00, 0x00,
  0x00, 0x00, 0x00, 0x00, 0x00, 0x00, 0x00, 0x00, 0x00, 0x00, 0x00, 0x00,
  0x00, 0x00, 0x00, 0x00, 0x00, 0x00, 0x00, 0x00, 0x00, 0x00, 0x00, 0x00,
  0x00, 0x00, 0x00, 0x00, 0x00, 0x00, 0x00, 0x00, 0x00, 0x00, 0x00, 0x00,
  0x00, 0x00, 0x00, 0x00, 0x00, 0x00, 0x00, 0x00, 0x00, 0x00, 0x00, 0x00,
  0x00, 0x00, 0x00, 0x00, 0x00, 0x00, 0x00, 0x00, 0x00, 0x00, 0x00, 0x00,
  0x00, 0x00, 0x00, 0x00, 0x00, 0x00, 0x00, 0x00, 0x00, 0x00, 0x00, 0x00,
  0x00, 0x00, 0x00, 0x00, 0x00, 0x00, 0x00, 0x00, 0x00, 0x00, 0x00, 0x00,
  0x00, 0x00, 0x00, 0x00, 0x00, 0x00, 0x00, 0x00, 0x00, 0x00, 0x00, 0x00,
  0x00, 0x00, 0x00, 0x00, 0x00, 0x00, 0x00, 0x00, 0x00, 0x00, 0x00, 0x00,
  0x00, 0x00, 0x00, 0x00, 0x00, 0x00, 0x00, 0x00, 0x00, 0x00, 0x00, 0x00,
  0x00, 0x00, 0x00, 0x00, 0x00, 0x00, 0x00, 0x00, 0x00, 0x00, 0x00, 0x00,
  0x00, 0x00, 0x00, 0x00, 0x00, 0x00, 0x00, 0x00, 0x00, 0x00, 0x00, 0x00,
  0x00, 0x00, 0x00, 0x00, 0x00, 0x00, 0x00, 0x00, 0x00, 0x00, 0x00, 0x00,
  0x00, 0x00, 0x00, 0x00, 0x00, 0x00, 0x00, 0x00, 0x00, 0x00, 0x00, 0x00,
  0x00, 0x00, 0x00, 0x00, 0x00, 0x00, 0x00, 0x00, 0x00, 0x00, 0x0e, 0x00,
  0x18, 0x00, 0x08, 0x00, 0x0c, 0x00, 0x10, 0x00, 0x07, 0x00, 0x14, 0x00,
  0x0e, 0x00, 0x00, 0x00, 0x00, 0x00, 0x00, 0x01, 0x01, 0x00, 0x00, 0x00,
  0x30, 0x00, 0x00, 0x00, 0x24, 0x00, 0x00, 0x00, 0x10, 0x00, 0x00, 0x00,
  0x0c, 0x00, 0x10, 0x00, 0x0e, 0x00, 0x04, 0x00, 0x08, 0x00, 0x0f, 0x00,
  0x0c, 0x00, 0x00, 0x00, 0x01, 0x00, 0x00, 0x00, 0x01, 0x00, 0x00, 0x00,
  0x00, 0x00, 0x01, 0x01, 0x01, 0x00, 0x00, 0x00, 0x06, 0x00, 0x00, 0x00,
  0x03, 0x00, 0x00, 0x00, 0x03, 0x00, 0x00, 0x00, 0x04, 0x00, 0x00, 0x00,
  0x05, 0x00, 0x00, 0x00, 0xc4, 0xf8, 0xff, 0xff, 0x03, 0x00, 0x00, 0x00,
  0x00, 0x00, 0x00, 0x03, 0x03, 0x00, 0x00, 0x00, 0xb8, 0xf8, 0xff, 0xff,
  0x00, 0x00, 0x00, 0x09, 0x14, 0x00, 0x00, 0x00, 0x07, 0x00, 0x00, 0x00,
  0x34, 0x00, 0x00, 0x00, 0xd8, 0x00, 0x00, 0x00, 0x18, 0x00, 0x00, 0x00,
  0x04, 0x00, 0x00, 0x00, 0x01, 0x00, 0x00, 0x00, 0x3b, 0x00, 0x00, 0x00,
  0x02, 0x00, 0x00, 0x00, 0x20, 0x00, 0x00, 0x00, 0x04, 0x00, 0x00, 0x00,
  0xff, 0xff, 0xff, 0xff, 0x3b, 0x00, 0x00, 0x00, 0x02, 0x00, 0x00, 0x00,
  0x20, 0x00, 0x00, 0x00, 0xa2, 0x00, 0x00, 0x00, 0x73, 0x65, 0x71, 0x75,
  0x65, 0x6e, 0x74, 0x69, 0x61, 0x6c, 0x5f, 0x31, 0x2f, 0x71, 0x75, 0x61,
  0x6e, 0x74, 0x5f, 0x72, 0x65, 0x5f, 0x6c, 0x75, 0x5f, 0x34, 0x2f, 0x52,
  0x65, 0x6c, 0x75, 0x3b, 0x73, 0x65, 0x71, 0x75, 0x65, 0x6e, 0x74, 0x69,
  0x61, 0x6c, 0x5f, 0x31, 0x2f, 0x71, 0x75, 0x61, 0x6e, 0x74, 0x5f, 0x63,
  0x6f, 0x6e, 0x76, 0x32, 0x64, 0x5f, 0x34, 0x2f, 0x42, 0x69, 0x61, 0x73,
  0x41, 0x64, 0x64, 0x3b, 0x73, 0x65, 0x71, 0x75, 0x65, 0x6e, 0x74, 0x69,
  0x61, 0x6c, 0x5f, 0x31, 0x2f, 0x71, 0x75, 0x61, 0x6e, 0x74, 0x5f, 0x63,
  0x6f, 0x6e, 0x76, 0x32, 0x64, 0x5f, 0x34, 0x2f, 0x43, 0x6f, 0x6e, 0x76,
  0x32, 0x44, 0x3b, 0x73, 0x65, 0x71, 0x75, 0x65, 0x6e, 0x74, 0x69, 0x61,
  0x6c, 0x5f, 0x31, 0x2f, 0x71, 0x75, 0x61, 0x6e, 0x74, 0x5f, 0x63, 0x6f,
  0x6e, 0x76, 0x32, 0x64, 0x5f, 0x34, 0x2f, 0x42, 0x69, 0x61, 0x73, 0x41,
  0x64, 0x64, 0x2f, 0x52, 0x65, 0x61, 0x64, 0x56, 0x61, 0x72, 0x69, 0x61,
  0x62, 0x6c, 0x65, 0x4f, 0x70, 0x2f, 0x72, 0x65, 0x73, 0x6f, 0x75, 0x72,
  0x63, 0x65, 0x00, 0x00, 0x3c, 0xf8, 0xff, 0xff, 0x08, 0x00, 0x00, 0x00,
  0x0c, 0x00, 0x00, 0x00, 0x01, 0x00, 0x00, 0x00, 0x26, 0x63, 0x80, 0x3b,
  0x01, 0x00, 0x00, 0x00, 0x80, 0xff, 0xff, 0xff, 0xff, 0xff, 0xff, 0xff,
  0xc6, 0xf7, 0xff, 0xff, 0x04, 0x00, 0x00, 0x00, 0x80, 0x00, 0x00, 0x00,
  0x36, 0xf3, 0xff, 0xff, 0x83, 0xfc, 0xff, 0xff, 0xf4, 0xdd, 0xff, 0xff,
  0xe4, 0xda, 0xff, 0xff, 0xae, 0xe0, 0xff, 0xff, 0xbb, 0x01, 0x00, 0x00,
  0x5d, 0xee, 0xff, 0xff, 0x00, 0xd1, 0xff, 0xff, 0x11, 0x04, 0x00, 0x00,
  0x9e, 0xfe, 0xff, 0xff, 0xdd, 0xc9, 0xff, 0xff, 0x8a, 0xf5, 0xff, 0xff,
  0x23, 0xe6, 0xff, 0xff, 0x4c, 0x02, 0x00, 0x00, 0xda, 0xfd, 0xff, 0xff,
  0x55, 0xc7, 0xff, 0xff, 0x0c, 0xfb, 0xff, 0xff, 0xfc, 0xe2, 0xff, 0xff,
  0x0b, 0x06, 0x00, 0x00, 0x66, 0xf8, 0xff, 0xff, 0x0e, 0xfc, 0xff, 0xff,
  0xa4, 0xb9, 0xff, 0xff, 0x65, 0xe5, 0xff, 0xff, 0x91, 0xf1, 0xff, 0xff,
  0x66, 0xd7, 0xff, 0xff, 0x24, 0xf1, 0xff, 0xff, 0x52, 0xcd, 0xff, 0xff,
  0x26, 0x02, 0x00, 0x00, 0x3d, 0xcf, 0xff, 0xff, 0x04, 0xf7, 0xff, 0xff,
  0x93, 0xfa, 0xff, 0xff, 0xb1, 0xf3, 0xff, 0xff, 0x36, 0xf8, 0xff, 0xff,
  0x00, 0x00, 0x00, 0x02, 0x10, 0x00, 0x00, 0x00, 0x06, 0x00, 0x00, 0x00,
  0x10, 0x00, 0x00, 0x00, 0x4c, 0x00, 0x00, 0x00, 0x01, 0x00, 0x00, 0x00,
  0x20, 0x00, 0x00, 0x00, 0x3b, 0x00, 0x00, 0x00, 0x73, 0x65, 0x71, 0x75,
  0x65, 0x6e, 0x74, 0x69, 0x61, 0x6c, 0x5f, 0x31, 0x2f, 0x71, 0x75, 0x61,
  0x6e, 0x74, 0x5f, 0x63, 0x6f, 0x6e, 0x76, 0x32, 0x64, 0x5f, 0x34, 0x2f,
  0x42, 0x69, 0x61, 0x73, 0x41, 0x64, 0x64, 0x2f, 0x52, 0x65, 0x61, 0x64,
  0x56, 0x61, 0x72, 0x69, 0x61, 0x62, 0x6c, 0x65, 0x4f, 0x70, 0x2f, 0x72,
  0x65, 0x73, 0x6f, 0x75, 0x72, 0x63, 0x65, 0x00, 0x48, 0xf9, 0xff, 0xff,
  0x08, 0x00, 0x00, 0x00, 0x88, 0x00, 0x00, 0x00, 0x20, 0x00, 0x00, 0x00,
  0xb5, 0xf7, 0x99, 0x37, 0xdc, 0x69, 0x8d, 0x37, 0x9e, 0x07, 0x8a, 0x37,
  0xc7, 0xf7, 0x9b, 0x37, 0xe9, 0xdf, 0xae, 0x37, 0x46, 0x27, 0x9d, 0x37,
  0x55, 0xe2, 0x9d, 0x37, 0xa8, 0x39, 0x9b, 0x37, 0x78, 0x32, 0xa5, 0x37,
  0x30, 0xbc, 0xba, 0x37, 0x37, 0xbb, 0x89, 0x37, 0xe9, 0x22, 0x95, 0x37,
  0x2d, 0x3e, 0x81, 0x37, 0xa2, 0x40, 0x8f, 0x37, 0x0d, 0xd5, 0x85, 0x37,
  0xc2, 0xb9, 0x80, 0x37, 0x16, 0x23, 0xb0, 0x37, 0x20, 0xa2, 0x74, 0x37,
  0x23, 0x56, 0x33, 0x37, 0x17, 0x0c, 0x90, 0x37, 0xa1, 0x06, 0x8c, 0x37,
  0x79, 0xb0, 0x81, 0x37, 0x94, 0x71, 0x6e, 0x37, 0x43, 0xcf, 0xaf, 0x37,
  0x39, 0xb0, 0x8f, 0x37, 0x30, 0x97, 0xa1, 0x37, 0x65, 0x9f, 0x9b, 0x37,
  0x40, 0x2f, 0x90, 0x37, 0x59, 0xba, 0x82, 0x37, 0xa4, 0x99, 0xc0, 0x37,
  0x0c, 0x79, 0x93, 0x37, 0x64, 0xfb, 0x57, 0x37, 0x20, 0x00, 0x00, 0x00,
  0x00, 0x00, 0x00, 0x00, 0x00, 0x00, 0x00, 0x00, 0x00, 0x00, 0x00, 0x00,
  0x00, 0x00, 0x00, 0x00, 0x00, 0x00, 0x00, 0x00, 0x00, 0x00, 0x00, 0x00,
  0x00, 0x00, 0x00, 0x00, 0x00, 0x00, 0x00, 0x00, 0x00, 0x00, 0x00, 0x00,
  0x00, 0x00, 0x00, 0x00, 0x00, 0x00, 0x00, 0x00, 0x00, 0x00, 0x00, 0x00,
  0x00, 0x00, 0x00, 0x00, 0x00, 0x00, 0x00, 0x00, 0x00, 0x00, 0x00, 0x00,
  0x00, 0x00, 0x00, 0x00, 0x00, 0x00, 0x00, 0x00, 0x00, 0x00, 0x00, 0x00,
  0x00, 0x00, 0x00, 0x00, 0x00, 0x00, 0x00, 0x00, 0x00, 0x00, 0x00, 0x00,
  0x00, 0x00, 0x00, 0x00, 0x00, 0x00, 0x00, 0x00, 0x00, 0x00, 0x00, 0x00,
  0x00, 0x00, 0x00, 0x00, 0x00, 0x00, 0x00, 0x00, 0x00, 0x00, 0x00, 0x00,
  0x00, 0x00, 0x00, 0x00, 0x00, 0x00, 0x00, 0x00, 0x00, 0x00, 0x00, 0x00,
  0x00, 0x00, 0x00, 0x00, 0x00, 0x00, 0x00, 0x00, 0x00, 0x00, 0x00, 0x00,
  0x00, 0x00, 0x00, 0x00, 0x00, 0x00, 0x00, 0x00, 0x00, 0x00, 0x00, 0x00,
  0x00, 0x00, 0x00, 0x00, 0x00, 0x00, 0x00, 0x00, 0x00, 0x00, 0x00, 0x00,
  0x00, 0x00, 0x00, 0x00, 0x00, 0x00, 0x00, 0x00, 0x00, 0x00, 0x00, 0x00,
  0x00, 0x00, 0x00, 0x00, 0x00, 0x00, 0x00, 0x00, 0x00, 0x00, 0x00, 0x00,
  0x00, 0x00, 0x00, 0x00, 0x00, 0x00, 0x00, 0x00, 0x00, 0x00, 0x00, 0x00,
  0x00, 0x00, 0x00, 0x00, 0x00, 0x00, 0x00, 0x00, 0x00, 0x00, 0x00, 0x00,
  0x00, 0x00, 0x00, 0x00, 0x00, 0x00, 0x00, 0x00, 0x00, 0x00, 0x00, 0x00,
  0x00, 0x00, 0x00, 0x00, 0x00, 0x00, 0x00, 0x00, 0x00, 0x00, 0x00, 0x00,
  0x00, 0x00, 0x00, 0x00, 0x00, 0x00, 0x00, 0x00, 0x00, 0x00, 0x00, 0x00,
  0x00, 0x00, 0x00, 0x00, 0x00, 0x00, 0x00, 0x00, 0x00, 0x00, 0x00, 0x00,
  0x00, 0x00, 0x00, 0x00, 0x00, 0x00, 0x00, 0x00, 0x4a, 0xfa, 0xff, 0xff,
  0x04, 0x00, 0x00, 0x00, 0x80, 0x01, 0x00, 0x00, 0x81, 0x43, 0x8e, 0x41,
  0xb7, 0x19, 0xe3, 0xf2, 0x33, 0xd8, 0x1b, 0xc8, 0x0f, 0x4e, 0x07, 0x81,
  0xdc, 0x1a, 0x1a, 0x2a, 0x04, 0x51, 0xee, 0xab, 0x04, 0x51, 0xe2, 0x05,
  0x34, 0xa9, 0x15, 0xd0, 0xfe, 0x49, 0x96, 0x81, 0x81, 0x48, 0x47, 0x50,
  0x24, 0xc4, 0xe6, 0x1a, 0xec, 0x01, 0xfa, 0xb8, 0x54, 0x7f, 0xf3, 0x23,
  0xf4, 0x12, 0x3a, 0xaf, 0xe0, 0xd8, 0xf4, 0xbe, 0xf9, 0x7f, 0xfb, 0xfe,
  0x01, 0x15, 0xfa, 0xcf, 0x27, 0xe8, 0x15, 0x45, 0xd3, 0xf9, 0xc3, 0xdc,
  0xe5, 0x2a, 0xb2, 0x81, 0xe7, 0x0d, 0x5f, 0x24, 0x2b, 0x2a, 0x38, 0xe1,
  0x6b, 0xcd, 0xd4, 0xc9, 0x81, 0x30, 0xec, 0xda, 0xc8, 0x81, 0xae, 0x08,
  0x1a, 0x08, 0x14, 0x30, 0x55, 0x56, 0x27, 0xcf, 0x3c, 0xb2, 0x05, 0x1a,
  0xfa, 0x13, 0xe4, 0xfa, 0xf7, 0x7f, 0xba, 0x6b, 0x81, 0xd9, 0xaf, 0x00,
  0x7f, 0xca, 0x06, 0xf5, 0xdf, 0x4b, 0x77, 0x08, 0x29, 0xcc, 0xd3, 0xef,
  0x41, 0xe5, 0x90, 0xee, 0x7f, 0x25, 0xa9, 0xf5, 0xc9, 0x91, 0x7f, 0x4d,
  0x3f, 0x9a, 0xe2, 0xf5, 0xe6, 0x16, 0xdd, 0x2c, 0xc2, 0x1d, 0xd6, 0xf3,
  0x0b, 0x0e, 0x12, 0x11, 0x3e, 0x4d, 0x3d, 0x7f, 0x81, 0xb2, 0xec, 0x2a,
  0xd8, 0x01, 0xfd, 0x02, 0x15, 0xf7, 0x59, 0x69, 0x7c, 0xf8, 0xfa, 0xec,
  0xd8, 0x08, 0x9d, 0x3e, 0x7f, 0xf9, 0x6e, 0xcd, 0x7f, 0xf4, 0x2b, 0xe2,
  0x5b, 0xf3, 0x60, 0x10, 0x56, 0x05, 0x6c, 0xdc, 0x06, 0xba, 0x2f, 0xde,
  0x18, 0x42, 0xa6, 0x1d, 0xc7, 0x53, 0x49, 0x81, 0x3e, 0xef, 0x7f, 0xfd,
  0x39, 0xfd, 0xce, 0x00, 0x18, 0x71, 0xb0, 0xb2, 0xe4, 0x7f, 0xea, 0xf9,
  0xe7, 0x91, 0xee, 0xdd, 0xea, 0x85, 0xd0, 0x8d, 0x81, 0x3f, 0xe3, 0xe5,
  0xe6, 0x01, 0x09, 0xd7, 0xac, 0x33, 0x97, 0x3e, 0x8b, 0x09, 0x30, 0x13,
  0x3e, 0x34, 0xc2, 0x08, 0xa7, 0xd4, 0x7f, 0xf0, 0x5a, 0x42, 0xb8, 0xfe,
  0xb8, 0x81, 0x05, 0xcf, 0x44, 0x93, 0x0d, 0x1f, 0xd3, 0xfa, 0xfc, 0xee,
  0xd7, 0x1b, 0xd9, 0xf1, 0x66, 0xde, 0x81, 0x06, 0xf9, 0x09, 0xd7, 0x81,
  0x5b, 0x03, 0xcd, 0x40, 0xbc, 0xbd, 0xde, 0xc7, 0xd7, 0x81, 0x0c, 0xc6,
  0x36, 0xda, 0x55, 0x21, 0xf2, 0x2c, 0xb9, 0xfd, 0xac, 0x12, 0x1b, 0xb9,
  0x9a, 0xbd, 0x1b, 0x3a, 0x31, 0xee, 0x7f, 0xd2, 0xa7, 0xde, 0xde, 0x01,
  0x14, 0xbc, 0x11, 0xd4, 0x26, 0xad, 0x7f, 0xe2, 0x2c, 0x0d, 0x5e, 0x67,
  0xb3, 0x33, 0x48, 0xc7, 0xaf, 0x25, 0xc2, 0x81, 0x07, 0x10, 0xdd, 0xe5,
  0x0e, 0x95, 0x15, 0xe9, 0xf8, 0xeb, 0xf6, 0x7f, 0x5f, 0x9b, 0xbe, 0xde,
  0xbc, 0xd1, 0xee, 0xb5, 0xb4, 0xd4, 0x81, 0xb3, 0xe7, 0xcf, 0x20, 0x33,
  0x5a, 0x76, 0x36, 0x33, 0xcc, 0xb7, 0x86, 0x81, 0xba, 0xfb, 0xff, 0xff,
  0x00, 0x00, 0x00, 0x09, 0x10, 0x00, 0x00, 0x00, 0x05, 0x00, 0x00, 0x00,
  0x1c, 0x00, 0x00, 0x00, 0x40, 0x00, 0x00, 0x00, 0x04, 0x00, 0x00, 0x00,
  0x20, 0x00, 0x00, 0x00, 0x06, 0x00, 0x00, 0x00, 0x02, 0x00, 0x00, 0x00,
  0x01, 0x00, 0x00, 0x00, 0x22, 0x00, 0x00, 0x00, 0x73, 0x65, 0x71, 0x75,
  0x65, 0x6e, 0x74, 0x69, 0x61, 0x6c, 0x5f, 0x31, 0x2f, 0x71, 0x75, 0x61,
  0x6e, 0x74, 0x5f, 0x63, 0x6f, 0x6e, 0x76, 0x32, 0x64, 0x5f, 0x34, 0x2f,
  0x43, 0x6f, 0x6e, 0x76, 0x32, 0x44, 0x00, 0x00, 0xc0, 0xfc, 0xff, 0xff,
  0x08, 0x00, 0x00, 0x00, 0x88, 0x00, 0x00, 0x00, 0x20, 0x00, 0x00, 0x00,
  0xbd, 0x5d, 0x19, 0x3c, 0x72, 0xdc, 0x0c, 0x3c, 0x96, 0x7d, 0x09, 0x3c,
  0xd0, 0x5b, 0x1b, 0x3c, 0x09, 0x31, 0x2e, 0x3c, 0x1e, 0x8a, 0x1c, 0x3c,
  0x73, 0x44, 0x1d, 0x3c, 0x6e, 0x9e, 0x1a, 0x3c, 0x46, 0x8d, 0x24, 0x3c,
  0x74, 0x01, 0x3a, 0x3c, 0x7c, 0x31, 0x09, 0x3c, 0xc7, 0x8d, 0x14, 0x3c,
  0xee, 0xbc, 0x00, 0x3c, 0x62, 0xb1, 0x0e, 0x3c, 0x38, 0x4f, 0x05, 0x3c,
  0x08, 0x39, 0x00, 0x3c, 0xf3, 0x72, 0x2f, 0x3c, 0x7e, 0xad, 0xf3, 0x3b,
  0xcd, 0xa2, 0xb2, 0x3b, 0x0b, 0x7c, 0x0f, 0x3c, 0x9a, 0x7a, 0x0b, 0x3c,
  0xc9, 0x2e, 0x01, 0x3c, 0x22, 0x83, 0xed, 0x3b, 0x74, 0x1f, 0x2f, 0x3c,
  0x89, 0x20, 0x0f, 0x3c, 0x99, 0xf5, 0x20, 0x3c, 0xc6, 0x03, 0x1b, 0x3c,
  0x11, 0x9f, 0x0f, 0x3c, 0x9e, 0x37, 0x02, 0x3c, 0x0a, 0xd9, 0x3f, 0x3c,
  0x93, 0xe5, 0x12, 0x3c, 0x69, 0x23, 0xd7, 0x3b, 0x20, 0x00, 0x00, 0x00,
  0x00, 0x00, 0x00, 0x00, 0x00, 0x00, 0x00, 0x00, 0x00, 0x00, 0x00, 0x00,
  0x00, 0x00, 0x00, 0x00, 0x00, 0x00, 0x00, 0x00, 0x00, 0x00, 0x00, 0x00,
  0x00, 0x00, 0x00, 0x00, 0x00, 0x00, 0x00, 0x00, 0x00, 0x00, 0x00, 0x00,
  0x00, 0x00, 0x00, 0x00, 0x00, 0x00, 0x00, 0x00, 0x00, 0x00, 0x00, 0x00,
  0x00, 0x00, 0x00, 0x00, 0x00, 0x00, 0x00, 0x00, 0x00, 0x00, 0x00, 0x00,
  0x00, 0x00, 0x00, 0x00, 0x00, 0x00, 0x00, 0x00, 0x00, 0x00, 0x00, 0x00,
  0x00, 0x00, 0x00, 0x00, 0x00, 0x00, 0x00, 0x00, 0x00, 0x00, 0x00, 0x00,
  0x00, 0x00, 0x00, 0x00, 0x00, 0x00, 0x00, 0x00, 0x00, 0x00, 0x00, 0x00,
  0x00, 0x00, 0x00, 0x00, 0x00, 0x00, 0x00, 0x00, 0x00, 0x00, 0x00, 0x00,
  0x00, 0x00, 0x00, 0x00, 0x00, 0x00, 0x00, 0x00, 0x00, 0x00, 0x00, 0x00,
  0x00, 0x00, 0x00, 0x00, 0x00, 0x00, 0x00, 0x00, 0x00, 0x00, 0x00, 0x00,
  0x00, 0x00, 0x00, 0x00, 0x00, 0x00, 0x00, 0x00, 0x00, 0x00, 0x00, 0x00,
  0x00, 0x00, 0x00, 0x00, 0x00, 0x00, 0x00, 0x00, 0x00, 0x00, 0x00, 0x00,
  0x00, 0x00, 0x00, 0x00, 0x00, 0x00, 0x00, 0x00, 0x00, 0x00, 0x00, 0x00,
  0x00, 0x00, 0x00, 0x00, 0x00, 0x00, 0x00, 0x00, 0x00, 0x00, 0x00, 0x00,
  0x00, 0x00, 0x00, 0x00, 0x00, 0x00, 0x00, 0x00, 0x00, 0x00, 0x00, 0x00,
  0x00, 0x00, 0x00, 0x00, 0x00, 0x00, 0x00, 0x00, 0x00, 0x00, 0x00, 0x00,
  0x00, 0x00, 0x00, 0x00, 0x00, 0x00, 0x00, 0x00, 0x00, 0x00, 0x00, 0x00,
  0x00, 0x00, 0x00, 0x00, 0x00, 0x00, 0x00, 0x00, 0x00, 0x00, 0x00, 0x00,
  0x00, 0x00, 0x00, 0x00, 0x00, 0x00, 0x00, 0x00, 0x00, 0x00, 0x00, 0x00,
  0x00, 0x00, 0x00, 0x00, 0x00, 0x00, 0x00, 0x00, 0x00, 0x00, 0x00, 0x00,
  0x00, 0x00, 0x00, 0x00, 0x00, 0x00, 0x0a, 0x00, 0x0c, 0x00, 0x00, 0x00,
  0x04, 0x00, 0x08, 0x00, 0x0a, 0x00, 0x00, 0x00, 0x10, 0x00, 0x00, 0x00,
  0x04, 0x00, 0x00, 0x00, 0x01, 0x00, 0x00, 0x00, 0x03, 0x00, 0x00, 0x00,
  0x01, 0x00, 0x00, 0x00, 0x00, 0x00, 0x00, 0x00, 0x0c, 0x00, 0x10, 0x00,
  0x0b, 0x00, 0x00, 0x00, 0x0c, 0x00, 0x04, 0x00, 0x0c, 0x00, 0x00, 0x00,
  0x72, 0x00, 0x00, 0x00, 0x00, 0x00, 0x00, 0x72, 0x01, 0x00, 0x00, 0x00,
  0x14, 0x00, 0x1c, 0x00, 0x08, 0x00, 0x07, 0x00, 0x0c, 0x00, 0x10, 0x00,
  0x14, 0x00, 0x00, 0x00, 0x00, 0x00, 0x18, 0x00, 0x14, 0x00, 0x00, 0x00,
  0x00, 0x00, 0x00, 0x09, 0x14, 0x00, 0x00, 0x00, 0x04, 0x00, 0x00, 0x00,
  0x34, 0x00, 0x00, 0x00, 0x4c, 0x01, 0x00, 0x00, 0x18, 0x00, 0x00, 0x00,
  0x04, 0x00, 0x00, 0x00, 0x01, 0x00, 0x00, 0x00, 0x40, 0x00, 0x00, 0x00,
  0x03, 0x00, 0x00, 0x00, 0x01, 0x00, 0x00, 0x00, 0x04, 0x00, 0x00, 0x00,
  0xff, 0xff, 0xff, 0xff, 0x40, 0x00, 0x00, 0x00, 0x03, 0x00, 0x00, 0x00,
  0x01, 0x00, 0x00, 0x00, 0x09, 0x01, 0x00, 0x00, 0x73, 0x65, 0x71, 0x75,
  0x65, 0x6e, 0x74, 0x69, 0x61, 0x6c, 0x5f, 0x31, 0x2f, 0x71, 0x75, 0x61,
  0x6e, 0x74, 0x69, 0x7a, 0x65, 0x5f, 0x6c, 0x61, 0x79, 0x65, 0x72, 0x5f,
  0x34, 0x2f, 0x41, 0x6c, 0x6c, 0x56, 0x61, 0x6c, 0x75, 0x65, 0x73, 0x51,
  0x75, 0x61, 0x6e, 0x74, 0x69, 0x7a, 0x65, 0x2f, 0x46, 0x61, 0x6b, 0x65,
  0x51, 0x75, 0x61, 0x6e, 0x74, 0x57, 0x69, 0x74, 0x68, 0x4d, 0x69, 0x6e,
  0x4d, 0x61, 0x78, 0x56, 0x61, 0x72, 0x73, 0x3b, 0x73, 0x65, 0x71, 0x75,
  0x65, 0x6e, 0x74, 0x69, 0x61, 0x6c, 0x5f, 0x31, 0x2f, 0x71, 0x75, 0x61,
  0x6e, 0x74, 0x69, 0x7a, 0x65, 0x5f, 0x6c, 0x61, 0x79, 0x65, 0x72, 0x5f,
  0x34, 0x2f, 0x41, 0x6c, 0x6c, 0x56, 0x61, 0x6c, 0x75, 0x65, 0x73, 0x51,
  0x75, 0x61, 0x6e, 0x74, 0x69, 0x7a, 0x65, 0x2f, 0x46, 0x61, 0x6b, 0x65,
  0x51, 0x75, 0x61, 0x6e, 0x74, 0x57, 0x69, 0x74, 0x68, 0x4d, 0x69, 0x6e,
  0x4d, 0x61, 0x78, 0x56, 0x61, 0x72, 0x73, 0x2f, 0x52, 0x65, 0x61, 0x64,
  0x56, 0x61, 0x72, 0x69, 0x61, 0x62, 0x6c, 0x65, 0x4f, 0x70, 0x2f, 0x72,
  0x65, 0x73, 0x6f, 0x75, 0x72, 0x63, 0x65, 0x3b, 0x73, 0x65, 0x71, 0x75,
  0x65, 0x6e, 0x74, 0x69, 0x61, 0x6c, 0x5f, 0x31, 0x2f, 0x71, 0x75, 0x61,
  0x6e, 0x74, 0x69, 0x7a, 0x65, 0x5f, 0x6c, 0x61, 0x79, 0x65, 0x72, 0x5f,
  0x34, 0x2f, 0x41, 0x6c, 0x6c, 0x56, 0x61, 0x6c, 0x75, 0x65, 0x73, 0x51,
  0x75, 0x61, 0x6e, 0x74, 0x69, 0x7a, 0x65, 0x2f, 0x46, 0x61, 0x6b, 0x65,
  0x51, 0x75, 0x61, 0x6e, 0x74, 0x57, 0x69, 0x74, 0x68, 0x4d, 0x69, 0x6e,
  0x4d, 0x61, 0x78, 0x56, 0x61, 0x72, 0x73, 0x2f, 0x52, 0x65, 0x61, 0x64,
  0x56, 0x61, 0x72, 0x69, 0x61, 0x62, 0x6c, 0x65, 0x4f, 0x70, 0x5f, 0x31,
  0x2f, 0x72, 0x65, 0x73, 0x6f, 0x75, 0x72, 0x63, 0x65, 0x00, 0x00, 0x00,
  0x0c, 0x00, 0x0c, 0x00, 0x00, 0x00, 0x00, 0x00, 0x04, 0x00, 0x08, 0x00,
  0x0c, 0x00, 0x00, 0x00, 0x08, 0x00, 0x00, 0x00, 0x0c, 0x00, 0x00, 0x00,
  0x01, 0x00, 0x00, 0x00, 0x81, 0x80, 0x00, 0x3b, 0x01, 0x00, 0x00, 0x00,
  0x00, 0x00, 0x00, 0x00, 0x00, 0x00, 0x00, 0x00, 0x00, 0x00, 0x00, 0x00,
  0x9a, 0xff, 0xff, 0xff, 0x04, 0x00, 0x00, 0x00, 0x08, 0x00, 0x00, 0x00,
  0xff, 0xff, 0xff, 0xff, 0x08, 0x00, 0x00, 0x00, 0x92, 0xff, 0xff, 0xff,
  0x00, 0x00, 0x00, 0x02, 0x10, 0x00, 0x00, 0x00, 0x03, 0x00, 0x00, 0x00,
  0x10, 0x00, 0x00, 0x00, 0x38, 0x00, 0x00, 0x00, 0x01, 0x00, 0x00, 0x00,
  0x02, 0x00, 0x00, 0x00, 0x22, 0x00, 0x00, 0x00, 0x73, 0x65, 0x71, 0x75,
  0x65, 0x6e, 0x74, 0x69, 0x61, 0x6c, 0x5f, 0x31, 0x2f, 0x71, 0x75, 0x61,
  0x6e, 0x74, 0x5f, 0x66, 0x6c, 0x61, 0x74, 0x74, 0x65, 0x6e, 0x5f, 0x31,
  0x2f, 0x43, 0x6f, 0x6e, 0x73, 0x74, 0x00, 0x00, 0x04, 0x00, 0x06, 0x00,
  0x04, 0x00, 0x00, 0x00, 0x00, 0x00, 0x06, 0x00, 0x08, 0x00, 0x04, 0x00,
  0x06, 0x00, 0x00, 0x00, 0x04, 0x00, 0x00, 0x00, 0x08, 0x00, 0x00, 0x00,
  0x01, 0x00, 0x00, 0x00, 0x02, 0x00, 0x00, 0x00, 0x00, 0x00, 0x0e, 0x00,
  0x18, 0x00, 0x08, 0x00, 0x07, 0x00, 0x0c, 0x00, 0x10, 0x00, 0x14, 0x00,
  0x0e, 0x00, 0x00, 0x00, 0x00, 0x00, 0x00, 0x02, 0x10, 0x00, 0x00, 0x00,
  0x02, 0x00, 0x00, 0x00, 0x10, 0x00, 0x00, 0x00, 0x50, 0x00, 0x00, 0x00,
  0x01, 0x00, 0x00, 0x00, 0x02, 0x00, 0x00, 0x00, 0x3f, 0x00, 0x00, 0x00,
  0x73, 0x65, 0x71, 0x75, 0x65, 0x6e, 0x74, 0x69, 0x61, 0x6c, 0x5f, 0x31,
  0x2f, 0x71, 0x75, 0x61, 0x6e, 0x74, 0x5f, 0x67, 0x6c, 0x6f, 0x62, 0x61,
  0x6c, 0x5f, 0x6d, 0x61, 0x78, 0x5f, 0x70, 0x6f, 0x6f, 0x6c, 0x69, 0x6e,
  0x67, 0x32, 0x64, 0x5f, 0x31, 0x2f, 0x4d, 0x61, 0x78, 0x2f, 0x72, 0x65,
  0x64, 0x75, 0x63, 0x74, 0x69, 0x6f, 0x6e, 0x5f, 0x69, 0x6e, 0x64, 0x69,
  0x63, 0x65, 0x73, 0x00, 0x90, 0xff, 0xff, 0xff, 0x14, 0x00, 0x18, 0x00,
  0x04, 0x00, 0x00, 0x00, 0x08, 0x00, 0x0c, 0x00, 0x10, 0x00, 0x00, 0x00,
  0x00, 0x00, 0x14, 0x00, 0x14, 0x00, 0x00, 0x00, 0x14, 0x00, 0x00, 0x00,
  0x01, 0x00, 0x00, 0x00, 0x34, 0x00, 0x00, 0x00, 0x44, 0x00, 0x00, 0x00,
  0x18, 0x00, 0x00, 0x00, 0x04, 0x00, 0x00, 0x00, 0x01, 0x00, 0x00, 0x00,
  0x40, 0x00, 0x00, 0x00, 0x03, 0x00, 0x00, 0x00, 0x01, 0x00, 0x00, 0x00,
  0x04, 0x00, 0x00, 0x00, 0xff, 0xff, 0xff, 0xff, 0x40, 0x00, 0x00, 0x00,
  0x03, 0x00, 0x00, 0x00, 0x01, 0x00, 0x00, 0x00, 0x0e, 0x00, 0x00, 0x00,
  0x63, 0x6f, 0x6e, 0x76, 0x32, 0x64, 0x5f, 0x34, 0x5f, 0x69, 0x6e, 0x70,
  0x75, 0x74, 0x00, 0x00, 0xfc, 0xff, 0xff, 0xff, 0x04, 0x00, 0x04, 0x00,
  0x04, 0x00, 0x00, 0x00
};

#endif // INCLUDE_MODEL

#endif //MODEL_27_TENSORFLOW_H