#ifndef MODEL_46_TENSORFLOW_H
#define MODEL_46_TENSORFLOW_H

#define APP_ACTIVITY_MODEL_NAME model_46_tensorflow
#define APP_ACTIVITY_RECOGNITION_PRECISION_FLOAT (0)
#define APP_ACTIVITY_RECOGNITION_SENSOR_SCALE (2)
#define APP_ACTIVITY_RECOGNITION_SENSOR_RESOLUTION (8)
#define APP_ACTIVITY_RECOGNITION_SAMPLING_FREQUENCY (10)
#define APP_ACTIVITY_RECOGNITION_FREQUENCY_DIVIDER (0)
#define APP_ACTIVITY_RECOGNITION_HIGHPASS_STAGES (2)
#define APP_ACTIVITY_RECOGNITION_INPUT_SIZE (192)
#define APP_ACTIVITY_RECOGNITION_STEP_SIZE (32)
#define APP_ACTIVITY_RECOGNITION_CLASS_COUNT (6)

#ifdef INCLUDE_MODEL
static const float highpass_coefficients[] = {0.2069928239055942f, -0.2069928239055942f, 0.0f, 0.2068179864931189f, -0.0f, 0.25f, -0.5f, 0.25f, 0.4490699651581907f, -0.2071676613180694f};
static const char* APP_ACTIVITY_RECOGNITION_CLASSES[] = {"jog","skip","stDown","stUp","stay","walk"};
static const size_t model_46_tensorflow_len = 14936;
static const uint8_t model_46_tensorflow[] = {
 0x1c, 0x00, 0x00, 0x00, 0x54, 0x46, 0x4c, 0x33, 0x14, 0x00, 0x20, 0x00,
  0x04, 0x00, 0x08, 0x00, 0x0c, 0x00, 0x10, 0x00, 0x14, 0x00, 0x00, 0x00,
  0x18, 0x00, 0x1c, 0x00, 0x14, 0x00, 0x00, 0x00, 0x03, 0x00, 0x00, 0x00,
  0x18, 0x00, 0x00, 0x00, 0x34, 0x00, 0x00, 0x00, 0xf4, 0x00, 0x00, 0x00,
  0x34, 0x00, 0x00, 0x00, 0x9c, 0x00, 0x00, 0x00, 0x94, 0x00, 0x00, 0x00,
  0x07, 0x00, 0x00, 0x00, 0x04, 0x37, 0x00, 0x00, 0xac, 0x2f, 0x00, 0x00,
  0xa0, 0x06, 0x00, 0x00, 0xdc, 0x05, 0x00, 0x00, 0x20, 0x03, 0x00, 0x00,
  0x54, 0x02, 0x00, 0x00, 0xcc, 0x01, 0x00, 0x00, 0x01, 0x00, 0x00, 0x00,
  0xe4, 0x00, 0x00, 0x00, 0x19, 0x00, 0x00, 0x00, 0xec, 0x39, 0x00, 0x00,
  0xe8, 0x39, 0x00, 0x00, 0xe8, 0x38, 0x00, 0x00, 0x78, 0x38, 0x00, 0x00,
  0xdc, 0x39, 0x00, 0x00, 0x20, 0x33, 0x00, 0x00, 0x94, 0x30, 0x00, 0x00,
  0xd0, 0x39, 0x00, 0x00, 0xa4, 0x19, 0x00, 0x00, 0xd8, 0x17, 0x00, 0x00,
  0xc4, 0x39, 0x00, 0x00, 0xd0, 0x11, 0x00, 0x00, 0x04, 0x10, 0x00, 0x00,
  0xb8, 0x39, 0x00, 0x00, 0xfc, 0x09, 0x00, 0x00, 0x30, 0x08, 0x00, 0x00,
  0xac, 0x39, 0x00, 0x00, 0xa8, 0x39, 0x00, 0x00, 0xa4, 0x39, 0x00, 0x00,
  0x14, 0x04, 0x00, 0x00, 0x6c, 0x03, 0x00, 0x00, 0x98, 0x39, 0x00, 0x00,
  0x94, 0x39, 0x00, 0x00, 0x90, 0x39, 0x00, 0x00, 0x3c, 0x00, 0x00, 0x00,
  0x00, 0x00, 0x00, 0x00, 0x01, 0x00, 0x00, 0x00, 0x0c, 0x00, 0x00, 0x00,
  0x08, 0x00, 0x0c, 0x00, 0x04, 0x00, 0x08, 0x00, 0x08, 0x00, 0x00, 0x00,
  0x08, 0x00, 0x00, 0x00, 0x18, 0x00, 0x00, 0x00, 0x13, 0x00, 0x00, 0x00,
  0x6d, 0x69, 0x6e, 0x5f, 0x72, 0x75, 0x6e, 0x74, 0x69, 0x6d, 0x65, 0x5f,
  0x76, 0x65, 0x72, 0x73, 0x69, 0x6f, 0x6e, 0x00, 0xb2, 0xc7, 0xff, 0xff,
  0x04, 0x00, 0x00, 0x00, 0x10, 0x00, 0x00, 0x00, 0x31, 0x2e, 0x31, 0x34,
  0x2e, 0x30, 0x00, 0x00, 0x00, 0x00, 0x00, 0x00, 0x00, 0x00, 0x00, 0x00,
  0x0f, 0x00, 0x00, 0x00, 0x4d, 0x4c, 0x49, 0x52, 0x20, 0x43, 0x6f, 0x6e,
  0x76, 0x65, 0x72, 0x74, 0x65, 0x64, 0x2e, 0x00, 0x00, 0x00, 0x0e, 0x00,
  0x18, 0x00, 0x04, 0x00, 0x08, 0x00, 0x0c, 0x00, 0x10, 0x00, 0x14, 0x00,
  0x0e, 0x00, 0x00, 0x00, 0x14, 0x00, 0x00, 0x00, 0x70, 0x00, 0x00, 0x00,
  0x74, 0x00, 0x00, 0x00, 0x78, 0x00, 0x00, 0x00, 0xa0, 0x00, 0x00, 0x00,
  0x17, 0x00, 0x00, 0x00, 0x98, 0x38, 0x00, 0x00, 0x18, 0x38, 0x00, 0x00,
  0x98, 0x37, 0x00, 0x00, 0xfc, 0x35, 0x00, 0x00, 0xb8, 0x33, 0x00, 0x00,
  0x2c, 0x30, 0x00, 0x00, 0x88, 0x2e, 0x00, 0x00, 0xbc, 0x2c, 0x00, 0x00,
  0x40, 0x17, 0x00, 0x00, 0xa8, 0x15, 0x00, 0x00, 0x08, 0x14, 0x00, 0x00,
  0x6c, 0x0f, 0x00, 0x00, 0xd4, 0x0d, 0x00, 0x00, 0x34, 0x0c, 0x00, 0x00,
  0x98, 0x07, 0x00, 0x00, 0x24, 0x06, 0x00, 0x00, 0x58, 0x05, 0x00, 0x00,
  0x94, 0x04, 0x00, 0x00, 0xa4, 0x03, 0x00, 0x00, 0x9c, 0x02, 0x00, 0x00,
  0xd0, 0x01, 0x00, 0x00, 0x04, 0x01, 0x00, 0x00, 0x7c, 0x00, 0x00, 0x00,
  0x01, 0x00, 0x00, 0x00, 0x00, 0x00, 0x00, 0x00, 0x01, 0x00, 0x00, 0x00,
  0x16, 0x00, 0x00, 0x00, 0x0a, 0x00, 0x00, 0x00, 0x4c, 0x35, 0x00, 0x00,
  0xd0, 0x2d, 0x00, 0x00, 0x14, 0x15, 0x00, 0x00, 0x48, 0x0d, 0x00, 0x00,
  0xa0, 0x05, 0x00, 0x00, 0xd4, 0x04, 0x00, 0x00, 0x1c, 0x04, 0x00, 0x00,
  0x50, 0x01, 0x00, 0x00, 0x88, 0x00, 0x00, 0x00, 0x10, 0x00, 0x00, 0x00,
  0x04, 0x00, 0x00, 0x00, 0x6d, 0x61, 0x69, 0x6e, 0x00, 0x00, 0x00, 0x00,
  0x0a, 0xfc, 0xff, 0xff, 0x06, 0x00, 0x00, 0x00, 0x10, 0x00, 0x00, 0x00,
  0x04, 0x00, 0x00, 0x00, 0x01, 0x00, 0x00, 0x00, 0x16, 0x00, 0x00, 0x00,
  0x01, 0x00, 0x00, 0x00, 0x15, 0x00, 0x00, 0x00, 0xec, 0xca, 0xff, 0xff,
  0x06, 0x00, 0x00, 0x00, 0x00, 0x00, 0x00, 0x06, 0x02, 0x00, 0x00, 0x00,
  0x50, 0xc8, 0xff, 0xff, 0x14, 0x00, 0x00, 0x00, 0x17, 0x00, 0x00, 0x00,
  0x24, 0x00, 0x00, 0x00, 0x30, 0x00, 0x00, 0x00, 0x10, 0x00, 0x00, 0x00,
  0x02, 0x00, 0x00, 0x00, 0x01, 0x00, 0x00, 0x00, 0x06, 0x00, 0x00, 0x00,
  0x02, 0x00, 0x00, 0x00, 0xff, 0xff, 0xff, 0xff, 0x06, 0x00, 0x00, 0x00,
  0x08, 0x00, 0x00, 0x00, 0x49, 0x64, 0x65, 0x6e, 0x74, 0x69, 0x74, 0x79,
  0x00, 0x00, 0x00, 0x00, 0x24, 0xc8, 0xff, 0xff, 0xe2, 0xd2, 0xff, 0xff,
  0x00, 0x00, 0x00, 0x09, 0x05, 0x00, 0x00, 0x00, 0x1c, 0x00, 0x00, 0x00,
  0x10, 0x00, 0x00, 0x00, 0x04, 0x00, 0x00, 0x00, 0x3e, 0xc9, 0xff, 0xff,
  0x00, 0x00, 0x80, 0x3f, 0x01, 0x00, 0x00, 0x00, 0x15, 0x00, 0x00, 0x00,
  0x01, 0x00, 0x00, 0x00, 0x14, 0x00, 0x00, 0x00, 0x70, 0xcb, 0xff, 0xff,
  0x19, 0x00, 0x00, 0x00, 0x00, 0x00, 0x00, 0x19, 0x02, 0x00, 0x00, 0x00,
  0x64, 0xcb, 0xff, 0xff, 0x00, 0x00, 0x00, 0x09, 0x14, 0x00, 0x00, 0x00,
  0x16, 0x00, 0x00, 0x00, 0x24, 0x00, 0x00, 0x00, 0x4c, 0x00, 0x00, 0x00,
  0x10, 0x00, 0x00, 0x00, 0x02, 0x00, 0x00, 0x00, 0x01, 0x00, 0x00, 0x00,
  0x06, 0x00, 0x00, 0x00, 0x02, 0x00, 0x00, 0x00, 0xff, 0xff, 0xff, 0xff,
  0x06, 0x00, 0x00, 0x00, 0x24, 0x00, 0x00, 0x00, 0x73, 0x65, 0x71, 0x75,
  0x65, 0x6e, 0x74, 0x69, 0x61, 0x6c, 0x5f, 0x38, 0x2f, 0x71, 0x75, 0x61,
  0x6e, 0x74, 0x5f, 0x73, 0x6f, 0x66, 0x74, 0x6d, 0x61, 0x78, 0x5f, 0x38,
  0x2f, 0x53, 0x6f, 0x66, 0x74, 0x6d, 0x61, 0x78, 0x00, 0x00, 0x00, 0x00,
  0x5c, 0xca, 0xff, 0xff, 0x08, 0x00, 0x00, 0x00, 0x0c, 0x00, 0x00, 0x00,
  0x01, 0x00, 0x00, 0x00, 0x00, 0x00, 0x80, 0x3b, 0x01, 0x00, 0x00, 0x00,
  0x80, 0xff, 0xff, 0xff, 0xff, 0xff, 0xff, 0xff, 0x00, 0x00, 0x00, 0x00,
  0xa6, 0xd3, 0xff, 0xff, 0x00, 0x00, 0x00, 0x08, 0x04, 0x00, 0x00, 0x00,
  0x18, 0x00, 0x00, 0x00, 0x0c, 0x00, 0x00, 0x00, 0x04, 0x00, 0x00, 0x00,
  0x04, 0xc9, 0xff, 0xff, 0x01, 0x00, 0x00, 0x00, 0x14, 0x00, 0x00, 0x00,
  0x03, 0x00, 0x00, 0x00, 0x11, 0x00, 0x00, 0x00, 0x12, 0x00, 0x00, 0x00,
  0x13, 0x00, 0x00, 0x00, 0x38, 0xcc, 0xff, 0xff, 0x09, 0x00, 0x00, 0x00,
  0x00, 0x00, 0x00, 0x09, 0x04, 0x00, 0x00, 0x00, 0x2c, 0xcc, 0xff, 0xff,
  0x00, 0x00, 0x00, 0x09, 0x14, 0x00, 0x00, 0x00, 0x15, 0x00, 0x00, 0x00,
  0x24, 0x00, 0x00, 0x00, 0x6c, 0x00, 0x00, 0x00, 0x10, 0x00, 0x00, 0x00,
  0x02, 0x00, 0x00, 0x00, 0x01, 0x00, 0x00, 0x00, 0x06, 0x00, 0x00, 0x00,
  0x02, 0x00, 0x00, 0x00, 0xff, 0xff, 0xff, 0xff, 0x06, 0x00, 0x00, 0x00,
  0x44, 0x00, 0x00, 0x00, 0x73, 0x65, 0x71, 0x75, 0x65, 0x6e, 0x74, 0x69,
  0x61, 0x6c, 0x5f, 0x38, 0x2f, 0x71, 0x75, 0x61, 0x6e, 0x74, 0x5f, 0x64,
  0x65, 0x6e, 0x73, 0x65, 0x5f, 0x38, 0x2f, 0x4d, 0x61, 0x74, 0x4d, 0x75,
  0x6c, 0x3b, 0x73, 0x65, 0x71, 0x75, 0x65, 0x6e, 0x74, 0x69, 0x61, 0x6c,
  0x5f, 0x38, 0x2f, 0x71, 0x75, 0x61, 0x6e, 0x74, 0x5f, 0x64, 0x65, 0x6e,
  0x73, 0x65, 0x5f, 0x38, 0x2f, 0x42, 0x69, 0x61, 0x73, 0x41, 0x64, 0x64,
  0x00, 0x00, 0x00, 0x00, 0x44, 0xcb, 0xff, 0xff, 0x08, 0x00, 0x00, 0x00,
  0x0c, 0x00, 0x00, 0x00, 0x01, 0x00, 0x00, 0x00, 0xfb, 0x3c, 0x73, 0x3e,
  0x01, 0x00, 0x00, 0x00, 0x59, 0x00, 0x00, 0x00, 0x00, 0x00, 0x00, 0x00,
  0x00, 0x00, 0x00, 0x00, 0xd2, 0xca, 0xff, 0xff, 0x04, 0x00, 0x00, 0x00,
  0x18, 0x00, 0x00, 0x00, 0x89, 0x04, 0x00, 0x00, 0x6a, 0xff, 0xff, 0xff,
  0x5d, 0xf2, 0xff, 0xff, 0xd0, 0xf6, 0xff, 0xff, 0x3a, 0x15, 0x00, 0x00,
  0x63, 0x04, 0x00, 0x00, 0xda, 0xca, 0xff, 0xff, 0x00, 0x00, 0x00, 0x02,
  0x10, 0x00, 0x00, 0x00, 0x14, 0x00, 0x00, 0x00, 0x10, 0x00, 0x00, 0x00,
  0x4c, 0x00, 0x00, 0x00, 0x01, 0x00, 0x00, 0x00, 0x06, 0x00, 0x00, 0x00,
  0x3a, 0x00, 0x00, 0x00, 0x73, 0x65, 0x71, 0x75, 0x65, 0x6e, 0x74, 0x69,
  0x61, 0x6c, 0x5f, 0x38, 0x2f, 0x71, 0x75, 0x61, 0x6e, 0x74, 0x5f, 0x64,
  0x65, 0x6e, 0x73, 0x65, 0x5f, 0x38, 0x2f, 0x42, 0x69, 0x61, 0x73, 0x41,
  0x64, 0x64, 0x2f, 0x52, 0x65, 0x61, 0x64, 0x56, 0x61, 0x72, 0x69, 0x61,
  0x62, 0x6c, 0x65, 0x4f, 0x70, 0x2f, 0x72, 0x65, 0x73, 0x6f, 0x75, 0x72,
  0x63, 0x65, 0x00, 0x00, 0xec, 0xcb, 0xff, 0xff, 0x08, 0x00, 0x00, 0x00,
  0x0c, 0x00, 0x00, 0x00, 0x01, 0x00, 0x00, 0x00, 0x35, 0xdd, 0x0a, 0x3a,
  0x01, 0x00, 0x00, 0x00, 0x00, 0x00, 0x00, 0x00, 0x00, 0x00, 0x00, 0x00,
  0x76, 0xcb, 0xff, 0xff, 0x04, 0x00, 0x00, 0x00, 0x78, 0x00, 0x00, 0x00,
  0x08, 0xeb, 0x0f, 0x0d, 0xe1, 0xd5, 0xd8, 0xe4, 0xe0, 0xe0, 0x0f, 0xe2,
  0xc4, 0xca, 0xe7, 0xda, 0xde, 0x04, 0xde, 0xe9, 0x01, 0x19, 0x04, 0x06,
  0x06, 0xdb, 0xd2, 0x05, 0x01, 0x0f, 0xfd, 0xdc, 0xdf, 0xfa, 0x03, 0x0c,
  0xd6, 0xfa, 0x0d, 0xeb, 0xfe, 0xdf, 0x08, 0x04, 0xf6, 0x06, 0x05, 0x04,
  0x08, 0x04, 0x0b, 0x0f, 0x0a, 0x0c, 0x0e, 0x01, 0x10, 0xfa, 0xe3, 0x10,
  0xdb, 0xcf, 0xeb, 0xe4, 0x05, 0x08, 0x05, 0x08, 0x0b, 0x0f, 0xea, 0x11,
  0x11, 0x13, 0xfe, 0x0c, 0x09, 0xd8, 0xd9, 0x0c, 0xdb, 0xbd, 0xcf, 0xe2,
  0x9e, 0xb1, 0xa9, 0xbd, 0xbf, 0x06, 0xcd, 0xb1, 0x96, 0x04, 0xb7, 0x03,
  0x81, 0xd0, 0x92, 0xa2, 0xcf, 0xf1, 0xd1, 0xd6, 0xcd, 0x0c, 0x08, 0x0b,
  0x0e, 0xd6, 0xd4, 0x14, 0xdb, 0xd9, 0xda, 0xd0, 0xf3, 0xc7, 0x0a, 0x0d,
  0xde, 0xcb, 0xff, 0xff, 0x00, 0x00, 0x00, 0x09, 0x10, 0x00, 0x00, 0x00,
  0x13, 0x00, 0x00, 0x00, 0x14, 0x00, 0x00, 0x00, 0x78, 0x00, 0x00, 0x00,
  0x02, 0x00, 0x00, 0x00, 0x06, 0x00, 0x00, 0x00, 0x14, 0x00, 0x00, 0x00,
  0x63, 0x00, 0x00, 0x00, 0x73, 0x65, 0x71, 0x75, 0x65, 0x6e, 0x74, 0x69,
  0x61, 0x6c, 0x5f, 0x38, 0x2f, 0x71, 0x75, 0x61, 0x6e, 0x74, 0x5f, 0x64,
  0x65, 0x6e, 0x73, 0x65, 0x5f, 0x38, 0x2f, 0x4d, 0x61, 0x74, 0x4d, 0x75,
  0x6c, 0x3b, 0x73, 0x65, 0x71, 0x75, 0x65, 0x6e, 0x74, 0x69, 0x61, 0x6c,
  0x5f, 0x38, 0x2f, 0x71, 0x75, 0x61, 0x6e, 0x74, 0x5f, 0x64, 0x65, 0x6e,
  0x73, 0x65, 0x5f, 0x38, 0x2f, 0x4c, 0x61, 0x73, 0x74, 0x56, 0x61, 0x6c,
  0x75, 0x65, 0x51, 0x75, 0x61, 0x6e, 0x74, 0x2f, 0x46, 0x61, 0x6b, 0x65,
  0x51, 0x75, 0x61, 0x6e, 0x74, 0x57, 0x69, 0x74, 0x68, 0x4d, 0x69, 0x6e,
  0x4d, 0x61, 0x78, 0x56, 0x61, 0x72, 0x73, 0x00, 0x1c, 0xcd, 0xff, 0xff,
  0x08, 0x00, 0x00, 0x00, 0x0c, 0x00, 0x00, 0x00, 0x01, 0x00, 0x00, 0x00,
  0x8c, 0x53, 0xd9, 0x3c, 0x01, 0x00, 0x00, 0x00, 0x00, 0x00, 0x00, 0x00,
  0x00, 0x00, 0x00, 0x00, 0x00, 0x00, 0x0a, 0x00, 0x10, 0x00, 0x04, 0x00,
  0x08, 0x00, 0x0c, 0x00, 0x0a, 0x00, 0x00, 0x00, 0x03, 0x00, 0x00, 0x00,
  0x10, 0x00, 0x00, 0x00, 0x04, 0x00, 0x00, 0x00, 0x01, 0x00, 0x00, 0x00,
  0x11, 0x00, 0x00, 0x00, 0x02, 0x00, 0x00, 0x00, 0x10, 0x00, 0x00, 0x00,
  0x02, 0x00, 0x00, 0x00, 0xf0, 0xce, 0xff, 0xff, 0x16, 0x00, 0x00, 0x00,
  0x00, 0x00, 0x00, 0x16, 0x01, 0x00, 0x00, 0x00, 0xe4, 0xce, 0xff, 0xff,
  0x00, 0x00, 0x00, 0x09, 0x14, 0x00, 0x00, 0x00, 0x12, 0x00, 0x00, 0x00,
  0x24, 0x00, 0x00, 0x00, 0x4c, 0x00, 0x00, 0x00, 0x10, 0x00, 0x00, 0x00,
  0x02, 0x00, 0x00, 0x00, 0x01, 0x00, 0x00, 0x00, 0x14, 0x00, 0x00, 0x00,
  0x02, 0x00, 0x00, 0x00, 0xff, 0xff, 0xff, 0xff, 0x14, 0x00, 0x00, 0x00,
  0x24, 0x00, 0x00, 0x00, 0x73, 0x65, 0x71, 0x75, 0x65, 0x6e, 0x74, 0x69,
  0x61, 0x6c, 0x5f, 0x38, 0x2f, 0x71, 0x75, 0x61, 0x6e, 0x74, 0x5f, 0x66,
  0x6c, 0x61, 0x74, 0x74, 0x65, 0x6e, 0x5f, 0x38, 0x2f, 0x52, 0x65, 0x73,
  0x68, 0x61, 0x70, 0x65, 0x00, 0x00, 0x00, 0x00, 0xdc, 0xcd, 0xff, 0xff,
  0x08, 0x00, 0x00, 0x00, 0x0c, 0x00, 0x00, 0x00, 0x01, 0x00, 0x00, 0x00,
  0x42, 0x93, 0xa3, 0x3c, 0x01, 0x00, 0x00, 0x00, 0x80, 0xff, 0xff, 0xff,
  0xff, 0xff, 0xff, 0xff, 0x22, 0xd7, 0xff, 0xff, 0x00, 0x00, 0x00, 0x1b,
  0x02, 0x00, 0x00, 0x00, 0x18, 0x00, 0x00, 0x00, 0x0c, 0x00, 0x00, 0x00,
  0x04, 0x00, 0x00, 0x00, 0x80, 0xcc, 0xff, 0xff, 0x01, 0x00, 0x00, 0x00,
  0x10, 0x00, 0x00, 0x00, 0x02, 0x00, 0x00, 0x00, 0x0f, 0x00, 0x00, 0x00,
  0x01, 0x00, 0x00, 0x00, 0xb0, 0xcf, 0xff, 0xff, 0x52, 0x00, 0x00, 0x00,
  0x00, 0x00, 0x00, 0x52, 0x02, 0x00, 0x00, 0x00, 0xa4, 0xcf, 0xff, 0xff,
  0x00, 0x00, 0x00, 0x09, 0x14, 0x00, 0x00, 0x00, 0x11, 0x00, 0x00, 0x00,
  0x24, 0x00, 0x00, 0x00, 0x54, 0x00, 0x00, 0x00, 0x10, 0x00, 0x00, 0x00,
  0x02, 0x00, 0x00, 0x00, 0x01, 0x00, 0x00, 0x00, 0x14, 0x00, 0x00, 0x00,
  0x02, 0x00, 0x00, 0x00, 0xff, 0xff, 0xff, 0xff, 0x14, 0x00, 0x00, 0x00,
  0x2d, 0x00, 0x00, 0x00, 0x73, 0x65, 0x71, 0x75, 0x65, 0x6e, 0x74, 0x69,
  0x61, 0x6c, 0x5f, 0x38, 0x2f, 0x71, 0x75, 0x61, 0x6e, 0x74, 0x5f, 0x67,
  0x6c, 0x6f, 0x62, 0x61, 0x6c, 0x5f, 0x6d, 0x61, 0x78, 0x5f, 0x70, 0x6f,
  0x6f, 0x6c, 0x69, 0x6e, 0x67, 0x32, 0x64, 0x5f, 0x38, 0x2f, 0x4d, 0x61,
  0x78, 0x00, 0x00, 0x00, 0xa4, 0xce, 0xff, 0xff, 0x08, 0x00, 0x00, 0x00,
  0x0c, 0x00, 0x00, 0x00, 0x01, 0x00, 0x00, 0x00, 0x42, 0x93, 0xa3, 0x3c,
  0x01, 0x00, 0x00, 0x00, 0x80, 0xff, 0xff, 0xff, 0xff, 0xff, 0xff, 0xff,
  0xea, 0xd7, 0xff, 0xff, 0x00, 0x00, 0x00, 0x01, 0x01, 0x00, 0x00, 0x00,
  0x24, 0x00, 0x00, 0x00, 0x18, 0x00, 0x00, 0x00, 0x04, 0x00, 0x00, 0x00,
  0xdc, 0xd7, 0xff, 0xff, 0x01, 0x00, 0x00, 0x00, 0x01, 0x00, 0x00, 0x00,
  0x00, 0x00, 0x01, 0x01, 0x01, 0x00, 0x00, 0x00, 0x0f, 0x00, 0x00, 0x00,
  0x03, 0x00, 0x00, 0x00, 0x0c, 0x00, 0x00, 0x00, 0x0d, 0x00, 0x00, 0x00,
  0x0e, 0x00, 0x00, 0x00, 0x6c, 0xd0, 0xff, 0xff, 0x00, 0x00, 0x00, 0x09,
  0x14, 0x00, 0x00, 0x00, 0x10, 0x00, 0x00, 0x00, 0x34, 0x00, 0x00, 0x00,
  0xdc, 0x00, 0x00, 0x00, 0x18, 0x00, 0x00, 0x00, 0x04, 0x00, 0x00, 0x00,
  0x01, 0x00, 0x00, 0x00, 0x36, 0x00, 0x00, 0x00, 0x01, 0x00, 0x00, 0x00,
  0x14, 0x00, 0x00, 0x00, 0x04, 0x00, 0x00, 0x00, 0xff, 0xff, 0xff, 0xff,
  0x36, 0x00, 0x00, 0x00, 0x01, 0x00, 0x00, 0x00, 0x14, 0x00, 0x00, 0x00,
  0xa6, 0x00, 0x00, 0x00, 0x73, 0x65, 0x71, 0x75, 0x65, 0x6e, 0x74, 0x69,
  0x61, 0x6c, 0x5f, 0x38, 0x2f, 0x71, 0x75, 0x61, 0x6e, 0x74, 0x5f, 0x72,
  0x65, 0x5f, 0x6c, 0x75, 0x5f, 0x33, 0x35, 0x2f, 0x52, 0x65, 0x6c, 0x75,
  0x3b, 0x73, 0x65, 0x71, 0x75, 0x65, 0x6e, 0x74, 0x69, 0x61, 0x6c, 0x5f,
  0x38, 0x2f, 0x71, 0x75, 0x61, 0x6e, 0x74, 0x5f, 0x63, 0x6f, 0x6e, 0x76,
  0x32, 0x64, 0x5f, 0x33, 0x35, 0x2f, 0x42, 0x69, 0x61, 0x73, 0x41, 0x64,
  0x64, 0x3b, 0x73, 0x65, 0x71, 0x75, 0x65, 0x6e, 0x74, 0x69, 0x61, 0x6c,
  0x5f, 0x38, 0x2f, 0x71, 0x75, 0x61, 0x6e, 0x74, 0x5f, 0x63, 0x6f, 0x6e,
  0x76, 0x32, 0x64, 0x5f, 0x33, 0x35, 0x2f, 0x43, 0x6f, 0x6e, 0x76, 0x32,
  0x44, 0x3b, 0x73, 0x65, 0x71, 0x75, 0x65, 0x6e, 0x74, 0x69, 0x61, 0x6c,
  0x5f, 0x38, 0x2f, 0x71, 0x75, 0x61, 0x6e, 0x74, 0x5f, 0x63, 0x6f, 0x6e,
  0x76, 0x32, 0x64, 0x5f, 0x33, 0x35, 0x2f, 0x42, 0x69, 0x61, 0x73, 0x41,
  0x64, 0x64, 0x2f, 0x52, 0x65, 0x61, 0x64, 0x56, 0x61, 0x72, 0x69, 0x61,
  0x62, 0x6c, 0x65, 0x4f, 0x70, 0x2f, 0x72, 0x65, 0x73, 0x6f, 0x75, 0x72,
  0x63, 0x65, 0x00, 0x00, 0xf4, 0xcf, 0xff, 0xff, 0x08, 0x00, 0x00, 0x00,
  0x0c, 0x00, 0x00, 0x00, 0x01, 0x00, 0x00, 0x00, 0x42, 0x93, 0xa3, 0x3c,
  0x01, 0x00, 0x00, 0x00, 0x80, 0xff, 0xff, 0xff, 0xff, 0xff, 0xff, 0xff,
  0x00, 0x00, 0x00, 0x00, 0x82, 0xcf, 0xff, 0xff, 0x04, 0x00, 0x00, 0x00,
  0x50, 0x00, 0x00, 0x00, 0x31, 0xfb, 0xff, 0xff, 0xd8, 0xfa, 0xff, 0xff,
  0x09, 0x00, 0x00, 0x00, 0x55, 0xfc, 0xff, 0xff, 0x03, 0x00, 0x00, 0x00,
  0x17, 0x02, 0x00, 0x00, 0xec, 0xfe, 0xff, 0xff, 0x53, 0x02, 0x00, 0x00,
  0x80, 0x01, 0x00, 0x00, 0xed, 0x00, 0x00, 0x00, 0x42, 0xfe, 0xff, 0xff,
  0x20, 0x00, 0x00, 0x00, 0xa8, 0x00, 0x00, 0x00, 0x59, 0x00, 0x00, 0x00,
  0x6b, 0x06, 0x00, 0x00, 0x91, 0x00, 0x00, 0x00, 0x4f, 0x01, 0x00, 0x00,
  0xd5, 0xfe, 0xff, 0xff, 0x16, 0xfa, 0xff, 0xff, 0xfa, 0xfe, 0xff, 0xff,
  0xc2, 0xcf, 0xff, 0xff, 0x00, 0x00, 0x00, 0x02, 0x10, 0x00, 0x00, 0x00,
  0x0f, 0x00, 0x00, 0x00, 0x10, 0x00, 0x00, 0x00, 0x50, 0x00, 0x00, 0x00,
  0x01, 0x00, 0x00, 0x00, 0x14, 0x00, 0x00, 0x00, 0x3c, 0x00, 0x00, 0x00,
  0x73, 0x65, 0x71, 0x75, 0x65, 0x6e, 0x74, 0x69, 0x61, 0x6c, 0x5f, 0x38,
  0x2f, 0x71, 0x75, 0x61, 0x6e, 0x74, 0x5f, 0x63, 0x6f, 0x6e, 0x76, 0x32,
  0x64, 0x5f, 0x33, 0x35, 0x2f, 0x42, 0x69, 0x61, 0x73, 0x41, 0x64, 0x64,
  0x2f, 0x52, 0x65, 0x61, 0x64, 0x56, 0x61, 0x72, 0x69, 0x61, 0x62, 0x6c,
  0x65, 0x4f, 0x70, 0x2f, 0x72, 0x65, 0x73, 0x6f, 0x75, 0x72, 0x63, 0x65,
  0x00, 0x00, 0x00, 0x00, 0xd8, 0xd0, 0xff, 0xff, 0x08, 0x00, 0x00, 0x00,
  0x58, 0x00, 0x00, 0x00, 0x14, 0x00, 0x00, 0x00, 0xdc, 0xf1, 0x6b, 0x39,
  0x10, 0x19, 0xa4, 0x39, 0x64, 0x32, 0xae, 0x39, 0x82, 0xec, 0x90, 0x39,
  0x97, 0xd2, 0xab, 0x39, 0x6d, 0xb0, 0xc2, 0x39, 0x56, 0x8f, 0x89, 0x39,
  0xd7, 0xae, 0x8c, 0x39, 0xdd, 0x28, 0xec, 0x39, 0xcf, 0x48, 0x9c, 0x39,
  0xc0, 0xe4, 0x94, 0x39, 0x21, 0xc8, 0x92, 0x39, 0xec, 0xa1, 0x6c, 0x39,
  0xbd, 0x97, 0x92, 0x39, 0x3a, 0x5e, 0x88, 0x39, 0x60, 0x0e, 0xd2, 0x39,
  0x59, 0x82, 0xe0, 0x39, 0xe1, 0x67, 0x8a, 0x39, 0xc8, 0x31, 0x79, 0x39,
  0x5a, 0xc7, 0xcf, 0x39, 0x14, 0x00, 0x00, 0x00, 0x00, 0x00, 0x00, 0x00,
  0x00, 0x00, 0x00, 0x00, 0x00, 0x00, 0x00, 0x00, 0x00, 0x00, 0x00, 0x00,
  0x00, 0x00, 0x00, 0x00, 0x00, 0x00, 0x00, 0x00, 0x00, 0x00, 0x00, 0x00,
  0x00, 0x00, 0x00, 0x00, 0x00, 0x00, 0x00, 0x00, 0x00, 0x00, 0x00, 0x00,
  0x00, 0x00, 0x00, 0x00, 0x00, 0x00, 0x00, 0x00, 0x00, 0x00, 0x00, 0x00,
  0x00, 0x00, 0x00, 0x00, 0x00, 0x00, 0x00, 0x00, 0x00, 0x00, 0x00, 0x00,
  0x00, 0x00, 0x00, 0x00, 0x00, 0x00, 0x00, 0x00, 0x00, 0x00, 0x00, 0x00,
  0x00, 0x00, 0x00, 0x00, 0x00, 0x00, 0x00, 0x00, 0x00, 0x00, 0x00, 0x00,
  0x00, 0x00, 0x00, 0x00, 0x00, 0x00, 0x00, 0x00, 0x00, 0x00, 0x00, 0x00,
  0x00, 0x00, 0x00, 0x00, 0x00, 0x00, 0x00, 0x00, 0x00, 0x00, 0x00, 0x00,
  0x00, 0x00, 0x00, 0x00, 0x00, 0x00, 0x00, 0x00, 0x00, 0x00, 0x00, 0x00,
  0x00, 0x00, 0x00, 0x00, 0x00, 0x00, 0x00, 0x00, 0x00, 0x00, 0x00, 0x00,
  0x00, 0x00, 0x00, 0x00, 0x00, 0x00, 0x00, 0x00, 0x00, 0x00, 0x00, 0x00,
  0x00, 0x00, 0x00, 0x00, 0x00, 0x00, 0x00, 0x00, 0x00, 0x00, 0x00, 0x00,
  0x00, 0x00, 0x00, 0x00, 0x4a, 0xd1, 0xff, 0xff, 0x04, 0x00, 0x00, 0x00,
  0x20, 0x03, 0x00, 0x00, 0xf3, 0x1b, 0xf6, 0x29, 0x03, 0x07, 0x15, 0x48,
  0x31, 0xd4, 0x11, 0x1d, 0xa5, 0xfc, 0x23, 0xfa, 0x1b, 0x81, 0x02, 0x06,
  0xf6, 0xa0, 0x01, 0x13, 0x92, 0xcf, 0xe3, 0x63, 0x21, 0x1c, 0xd6, 0x4b,
  0x3c, 0xf1, 0x14, 0x92, 0xe7, 0x9b, 0xe0, 0xd4, 0x81, 0xc5, 0xc7, 0x0d,
  0xf5, 0x00, 0x0f, 0xfb, 0xc4, 0x0b, 0x2b, 0x25, 0x0f, 0xea, 0xbe, 0x05,
  0xb4, 0x14, 0x0c, 0xeb, 0xec, 0x11, 0xbc, 0xdf, 0x11, 0x17, 0xcf, 0xb7,
  0xd9, 0xfe, 0x0d, 0xc5, 0xa5, 0xe8, 0xe3, 0xd9, 0x19, 0xfb, 0xe7, 0x92,
  0x06, 0x0b, 0xfb, 0xfd, 0xfd, 0x06, 0x0f, 0x3c, 0x4d, 0xff, 0x1a, 0x09,
  0x09, 0xf4, 0x17, 0x84, 0x1a, 0xd6, 0xf4, 0xd4, 0x99, 0xc5, 0x04, 0x0b,
  0xd9, 0xb1, 0xed, 0x10, 0x10, 0x0e, 0xda, 0x22, 0x32, 0xff, 0xf8, 0xd1,
  0x1d, 0x81, 0x0e, 0xf7, 0xea, 0x24, 0xfa, 0x18, 0x04, 0x09, 0x1b, 0x7f,
  0x2d, 0xca, 0x0d, 0x21, 0xb3, 0x16, 0x0d, 0xda, 0x14, 0x97, 0xf6, 0x17,
  0x01, 0xa2, 0x09, 0x10, 0x9c, 0xf5, 0xfc, 0x48, 0x2e, 0x26, 0xd6, 0x30,
  0x36, 0xf4, 0x09, 0xbb, 0xf9, 0xac, 0xdf, 0xb5, 0xdf, 0xb8, 0xfa, 0xd9,
  0xff, 0xd3, 0x1a, 0xfd, 0x27, 0x22, 0xfa, 0xcd, 0xfb, 0xfb, 0xb1, 0x19,
  0xc8, 0x1c, 0x20, 0xe3, 0x94, 0x0b, 0x0d, 0x0f, 0xc7, 0xb9, 0x1b, 0x19,
  0xc5, 0xf3, 0xfb, 0x4a, 0xf0, 0x01, 0x00, 0x1d, 0x0d, 0x1d, 0x81, 0xfc,
  0x1a, 0x08, 0x9c, 0xcc, 0x12, 0x16, 0x46, 0xf4, 0xe5, 0xb7, 0xa3, 0xad,
  0x12, 0x8b, 0xaf, 0x2c, 0x8f, 0x1d, 0xdc, 0xe1, 0x1e, 0x07, 0xf5, 0xe5,
  0xe2, 0xfe, 0xd0, 0x81, 0x04, 0xc2, 0xe9, 0xd3, 0xca, 0xb2, 0x14, 0x05,
  0x0a, 0x05, 0x26, 0x0d, 0xdf, 0x1a, 0x1b, 0xdf, 0x04, 0xf7, 0x24, 0x03,
  0xfb, 0x2f, 0xae, 0xf7, 0x1d, 0x97, 0xf0, 0x09, 0x1e, 0xa2, 0xf8, 0x1b,
  0x29, 0x16, 0x99, 0x81, 0xf6, 0x2e, 0x10, 0x01, 0x22, 0x95, 0xb8, 0xa6,
  0xa9, 0xd0, 0xb1, 0x15, 0x97, 0x27, 0x0f, 0xd5, 0xf9, 0x00, 0x27, 0x00,
  0x04, 0xcd, 0x3b, 0x19, 0xe9, 0x21, 0x01, 0xe7, 0xe2, 0xf0, 0xd7, 0x05,
  0x13, 0xf0, 0x13, 0x2f, 0xf1, 0x1e, 0xc6, 0x05, 0xcc, 0x1a, 0x22, 0xf0,
  0xa6, 0xe7, 0xea, 0x0c, 0xbd, 0xdc, 0x81, 0x1f, 0xa4, 0x44, 0xc0, 0xf7,
  0x03, 0xf9, 0xd9, 0xf1, 0xf9, 0x14, 0xc1, 0xfb, 0xd1, 0x8b, 0xf1, 0x11,
  0xa9, 0x01, 0xd4, 0x09, 0xe3, 0x11, 0xde, 0xf8, 0x23, 0xff, 0x0d, 0xf2,
  0xe1, 0x0c, 0x81, 0xfe, 0x1d, 0xe7, 0xee, 0x02, 0xf0, 0xe9, 0x18, 0x0c,
  0x18, 0xfc, 0x25, 0x09, 0x05, 0x81, 0xfa, 0xda, 0x19, 0x96, 0xdc, 0x26,
  0x2e, 0x1a, 0xf5, 0xf1, 0xed, 0x0d, 0xbc, 0x27, 0xd1, 0xfe, 0x2c, 0x19,
  0xe1, 0x99, 0x04, 0xec, 0xc4, 0xa3, 0x17, 0x21, 0xff, 0xaf, 0xf1, 0x6d,
  0xd9, 0xe0, 0xdc, 0x21, 0x08, 0x22, 0xda, 0x18, 0x03, 0xc0, 0x11, 0x15,
  0xc3, 0xc0, 0x11, 0x0e, 0x40, 0x1a, 0xf3, 0xf4, 0x26, 0xea, 0x18, 0x81,
  0x10, 0xdd, 0xd9, 0x92, 0xe0, 0x06, 0x13, 0xc2, 0x22, 0xd8, 0x19, 0x31,
  0x4c, 0xd0, 0x00, 0x16, 0x0d, 0xec, 0xeb, 0x00, 0x1a, 0xa2, 0xf8, 0x18,
  0x06, 0x26, 0x10, 0xc1, 0x07, 0xe1, 0x11, 0x18, 0xff, 0x22, 0xe7, 0x01,
  0x1f, 0xa0, 0xfe, 0xea, 0x14, 0xa4, 0x1e, 0x1f, 0x1b, 0x28, 0xc2, 0x81,
  0xf1, 0x2c, 0x12, 0x2f, 0x03, 0x88, 0x9d, 0x83, 0xcb, 0x87, 0x96, 0x32,
  0x98, 0x0f, 0xee, 0xc2, 0x3d, 0x86, 0xef, 0x83, 0x00, 0xee, 0xb8, 0x91,
  0x2e, 0x3d, 0xa4, 0x00, 0x15, 0x81, 0xf4, 0x13, 0x55, 0xe3, 0x1f, 0xcf,
  0x27, 0xc3, 0xbb, 0xaa, 0x1b, 0xbd, 0x13, 0x6e, 0x66, 0xe7, 0xce, 0xee,
  0x97, 0xb3, 0xe6, 0xfc, 0x96, 0xf3, 0x32, 0xf9, 0x36, 0x81, 0xe1, 0xc2,
  0x29, 0xcc, 0xe3, 0xf6, 0x53, 0x1e, 0x94, 0x3e, 0x08, 0xf2, 0xbf, 0x2d,
  0x00, 0x02, 0x22, 0x11, 0xd9, 0x9e, 0x17, 0xc7, 0xd3, 0x9e, 0xf0, 0x2f,
  0x68, 0xa0, 0xc0, 0xec, 0x0b, 0x0b, 0x14, 0x0d, 0xe1, 0x19, 0xfd, 0x06,
  0x12, 0xb1, 0x22, 0xe1, 0xe1, 0x0f, 0xba, 0x3e, 0x42, 0x17, 0x01, 0xfb,
  0x0c, 0xf2, 0x19, 0xa3, 0x1e, 0x90, 0xfb, 0x81, 0x88, 0xcc, 0xcc, 0xf2,
  0xe5, 0xb4, 0xdf, 0x07, 0x29, 0x15, 0xc7, 0x18, 0x0f, 0xf6, 0xd7, 0x1f,
  0x38, 0xab, 0x37, 0x0f, 0xf8, 0x81, 0xeb, 0xd7, 0x09, 0xba, 0xea, 0x15,
  0x2f, 0x0a, 0xfb, 0x11, 0xd7, 0x0e, 0xc9, 0x24, 0xe3, 0x06, 0x1d, 0x0b,
  0xfa, 0xd2, 0x0a, 0x04, 0xcc, 0xd1, 0x0c, 0x15, 0xe2, 0xc5, 0xfa, 0x51,
  0xec, 0xd7, 0xee, 0x18, 0x11, 0x12, 0xdd, 0x0f, 0xdb, 0xf9, 0x0f, 0xce,
  0xef, 0xf5, 0xf7, 0x2a, 0x23, 0x0d, 0xd7, 0x81, 0xf7, 0xb8, 0x15, 0xec,
  0x08, 0xb9, 0xde, 0xce, 0x11, 0xee, 0xe0, 0x94, 0x0e, 0x0c, 0xf3, 0xc8,
  0x43, 0x0c, 0xe6, 0x08, 0x08, 0xae, 0xdb, 0x11, 0x0d, 0xd2, 0x09, 0x1b,
  0x16, 0xc2, 0x10, 0x23, 0xab, 0xdf, 0xfd, 0x0b, 0x33, 0x19, 0x0b, 0x25,
  0x3c, 0xef, 0x16, 0x81, 0xf7, 0xd2, 0xb9, 0x9e, 0xa9, 0x1c, 0x00, 0xe2,
  0x0b, 0xc8, 0x19, 0x42, 0x25, 0xeb, 0x05, 0x1a, 0xfa, 0x1b, 0xee, 0xf7,
  0x18, 0xc7, 0x0f, 0x13, 0xbc, 0x47, 0xc7, 0x1f, 0xe0, 0xfc, 0x50, 0xaa,
  0xa4, 0x1a, 0x2b, 0x2b, 0x15, 0xe9, 0xe1, 0x10, 0xae, 0x1c, 0x13, 0x08,
  0xe5, 0x18, 0x87, 0xb3, 0xfa, 0x20, 0x01, 0xc1, 0xcb, 0xc9, 0x1e, 0xc7,
  0x9b, 0xfd, 0xb7, 0xfd, 0xf9, 0xf5, 0xea, 0x81, 0xff, 0xdd, 0xe5, 0x82,
  0x06, 0x24, 0xa3, 0xf7, 0x2b, 0xe7, 0xd4, 0x05, 0xfd, 0x9c, 0xf6, 0x15,
  0xe9, 0x13, 0x1f, 0x12, 0x1c, 0xe6, 0x15, 0x81, 0x02, 0xc9, 0xfb, 0x16,
  0x04, 0x0f, 0xd6, 0x9e, 0x0a, 0x85, 0x1f, 0xf6, 0x02, 0xc8, 0xff, 0x0c,
  0x5a, 0xd4, 0xff, 0xff, 0x00, 0x00, 0x00, 0x09, 0x10, 0x00, 0x00, 0x00,
  0x0e, 0x00, 0x00, 0x00, 0x1c, 0x00, 0x00, 0x00, 0x40, 0x00, 0x00, 0x00,
  0x04, 0x00, 0x00, 0x00, 0x14, 0x00, 0x00, 0x00, 0x02, 0x00, 0x00, 0x00,
  0x01, 0x00, 0x00, 0x00, 0x14, 0x00, 0x00, 0x00, 0x23, 0x00, 0x00, 0x00,
  0x73, 0x65, 0x71, 0x75, 0x65, 0x6e, 0x74, 0x69, 0x61, 0x6c, 0x5f, 0x38,
  0x2f, 0x71, 0x75, 0x61, 0x6e, 0x74, 0x5f, 0x63, 0x6f, 0x6e, 0x76, 0x32,
  0x64, 0x5f, 0x33, 0x35, 0x2f, 0x43, 0x6f, 0x6e, 0x76, 0x32, 0x44, 0x00,
  0x60, 0xd5, 0xff, 0xff, 0x08, 0x00, 0x00, 0x00, 0x58, 0x00, 0x00, 0x00,
  0x14, 0x00, 0x00, 0x00, 0x32, 0x55, 0xf3, 0x3b, 0x7a, 0x3c, 0x29, 0x3c,
  0xc2, 0xa6, 0x33, 0x3c, 0x38, 0x76, 0x15, 0x3c, 0xed, 0x33, 0x31, 0x3c,
  0x0f, 0xc9, 0x48, 0x3c, 0x05, 0xde, 0x0d, 0x3c, 0x8f, 0x16, 0x11, 0x3c,
  0xed, 0x8d, 0x73, 0x3c, 0x96, 0x2d, 0x21, 0x3c, 0x49, 0x8e, 0x19, 0x3c,
  0xbc, 0x60, 0x17, 0x3c, 0xc6, 0x0a, 0xf4, 0x3b, 0xd5, 0x2e, 0x17, 0x3c,
  0x5b, 0xa3, 0x0c, 0x3c, 0x30, 0xa2, 0x58, 0x3c, 0x05, 0x8a, 0x67, 0x3c,
  0x58, 0xbd, 0x0e, 0x3c, 0xaa, 0x7f, 0x00, 0x3c, 0xe9, 0x48, 0x56, 0x3c,
  0x14, 0x00, 0x00, 0x00, 0x00, 0x00, 0x00, 0x00, 0x00, 0x00, 0x00, 0x00,
  0x00, 0x00, 0x00, 0x00, 0x00, 0x00, 0x00, 0x00, 0x00, 0x00, 0x00, 0x00,
  0x00, 0x00, 0x00, 0x00, 0x00, 0x00, 0x00, 0x00, 0x00, 0x00, 0x00, 0x00,
  0x00, 0x00, 0x00, 0x00, 0x00, 0x00, 0x00, 0x00, 0x00, 0x00, 0x00, 0x00,
  0x00, 0x00, 0x00, 0x00, 0x00, 0x00, 0x00, 0x00, 0x00, 0x00, 0x00, 0x00,
  0x00, 0x00, 0x00, 0x00, 0x00, 0x00, 0x00, 0x00, 0x00, 0x00, 0x00, 0x00,
  0x00, 0x00, 0x00, 0x00, 0x00, 0x00, 0x00, 0x00, 0x00, 0x00, 0x00, 0x00,
  0x00, 0x00, 0x00, 0x00, 0x00, 0x00, 0x00, 0x00, 0x00, 0x00, 0x00, 0x00,
  0x00, 0x00, 0x00, 0x00, 0x00, 0x00, 0x00, 0x00, 0x00, 0x00, 0x00, 0x00,
  0x00, 0x00, 0x00, 0x00, 0x00, 0x00, 0x00, 0x00, 0x00, 0x00, 0x00, 0x00,
  0x00, 0x00, 0x00, 0x00, 0x00, 0x00, 0x00, 0x00, 0x00, 0x00, 0x00, 0x00,
  0x00, 0x00, 0x00, 0x00, 0x00, 0x00, 0x00, 0x00, 0x00, 0x00, 0x00, 0x00,
  0x00, 0x00, 0x00, 0x00, 0x00, 0x00, 0x00, 0x00, 0x00, 0x00, 0x00, 0x00,
  0x00, 0x00, 0x00, 0x00, 0x00, 0x00, 0x00, 0x00, 0x00, 0x00, 0x00, 0x00,
  0x8e, 0xdf, 0xff, 0xff, 0x00, 0x00, 0x00, 0x01, 0x01, 0x00, 0x00, 0x00,
  0x24, 0x00, 0x00, 0x00, 0x18, 0x00, 0x00, 0x00, 0x04, 0x00, 0x00, 0x00,
  0x80, 0xdf, 0xff, 0xff, 0x01, 0x00, 0x00, 0x00, 0x01, 0x00, 0x00, 0x00,
  0x00, 0x00, 0x01, 0x01, 0x01, 0x00, 0x00, 0x00, 0x0c, 0x00, 0x00, 0x00,
  0x03, 0x00, 0x00, 0x00, 0x09, 0x00, 0x00, 0x00, 0x0a, 0x00, 0x00, 0x00,
  0x0b, 0x00, 0x00, 0x00, 0x10, 0xd8, 0xff, 0xff, 0x00, 0x00, 0x00, 0x09,
  0x14, 0x00, 0x00, 0x00, 0x0d, 0x00, 0x00, 0x00, 0x34, 0x00, 0x00, 0x00,
  0x00, 0x01, 0x00, 0x00, 0x18, 0x00, 0x00, 0x00, 0x04, 0x00, 0x00, 0x00,
  0x01, 0x00, 0x00, 0x00, 0x37, 0x00, 0x00, 0x00, 0x01, 0x00, 0x00, 0x00,
  0x14, 0x00, 0x00, 0x00, 0x04, 0x00, 0x00, 0x00, 0xff, 0xff, 0xff, 0xff,
  0x37, 0x00, 0x00, 0x00, 0x01, 0x00, 0x00, 0x00, 0x14, 0x00, 0x00, 0x00,
  0xca, 0x00, 0x00, 0x00, 0x73, 0x65, 0x71, 0x75, 0x65, 0x6e, 0x74, 0x69,
  0x61, 0x6c, 0x5f, 0x38, 0x2f, 0x71, 0x75, 0x61, 0x6e, 0x74, 0x5f, 0x72,
  0x65, 0x5f, 0x6c, 0x75, 0x5f, 0x33, 0x34, 0x2f, 0x52, 0x65, 0x6c, 0x75,
  0x3b, 0x73, 0x65, 0x71, 0x75, 0x65, 0x6e, 0x74, 0x69, 0x61, 0x6c, 0x5f,
  0x38, 0x2f, 0x71, 0x75, 0x61, 0x6e, 0x74, 0x5f, 0x63, 0x6f, 0x6e, 0x76,
  0x32, 0x64, 0x5f, 0x33, 0x34, 0x2f, 0x42, 0x69, 0x61, 0x73, 0x41, 0x64,
  0x64, 0x3b, 0x73, 0x65, 0x71, 0x75, 0x65, 0x6e, 0x74, 0x69, 0x61, 0x6c,
  0x5f, 0x38, 0x2f, 0x71, 0x75, 0x61, 0x6e, 0x74, 0x5f, 0x63, 0x6f, 0x6e,
  0x76, 0x32, 0x64, 0x5f, 0x33, 0x35, 0x2f, 0x43, 0x6f, 0x6e, 0x76, 0x32,
  0x44, 0x3b, 0x73, 0x65, 0x71, 0x75, 0x65, 0x6e, 0x74, 0x69, 0x61, 0x6c,
  0x5f, 0x38, 0x2f, 0x71, 0x75, 0x61, 0x6e, 0x74, 0x5f, 0x63, 0x6f, 0x6e,
  0x76, 0x32, 0x64, 0x5f, 0x33, 0x34, 0x2f, 0x43, 0x6f, 0x6e, 0x76, 0x32,
  0x44, 0x3b, 0x73, 0x65, 0x71, 0x75, 0x65, 0x6e, 0x74, 0x69, 0x61, 0x6c,
  0x5f, 0x38, 0x2f, 0x71, 0x75, 0x61, 0x6e, 0x74, 0x5f, 0x63, 0x6f, 0x6e,
  0x76, 0x32, 0x64, 0x5f, 0x33, 0x34, 0x2f, 0x42, 0x69, 0x61, 0x73, 0x41,
  0x64, 0x64, 0x2f, 0x52, 0x65, 0x61, 0x64, 0x56, 0x61, 0x72, 0x69, 0x61,
  0x62, 0x6c, 0x65, 0x4f, 0x70, 0x2f, 0x72, 0x65, 0x73, 0x6f, 0x75, 0x72,
  0x63, 0x65, 0x00, 0x00, 0xbc, 0xd7, 0xff, 0xff, 0x08, 0x00, 0x00, 0x00,
  0x0c, 0x00, 0x00, 0x00, 0x01, 0x00, 0x00, 0x00, 0x34, 0x3a, 0xf8, 0x3c,
  0x01, 0x00, 0x00, 0x00, 0x80, 0xff, 0xff, 0xff, 0xff, 0xff, 0xff, 0xff,
  0x00, 0x00, 0x00, 0x00, 0x4a, 0xd7, 0xff, 0xff, 0x04, 0x00, 0x00, 0x00,
  0x50, 0x00, 0x00, 0x00, 0x0f, 0xfc, 0xff, 0xff, 0xe9, 0xfc, 0xff, 0xff,
  0x91, 0xfb, 0xff, 0xff, 0x7c, 0xfa, 0xff, 0xff, 0x8e, 0x01, 0x00, 0x00,
  0xba, 0x01, 0x00, 0x00, 0xf8, 0x01, 0x00, 0x00, 0x13, 0x02, 0x00, 0x00,
  0xa0, 0xff, 0xff, 0xff, 0xb9, 0x06, 0x00, 0x00, 0xe2, 0xf7, 0xff, 0xff,
  0xae, 0xef, 0xff, 0xff, 0x8e, 0x03, 0x00, 0x00, 0xda, 0xe5, 0xff, 0xff,
  0x5b, 0x04, 0x00, 0x00, 0xd1, 0x02, 0x00, 0x00, 0xcc, 0x07, 0x00, 0x00,
  0x52, 0x05, 0x00, 0x00, 0x60, 0x01, 0x00, 0x00, 0x94, 0x08, 0x00, 0x00,
  0x8a, 0xd7, 0xff, 0xff, 0x00, 0x00, 0x00, 0x02, 0x10, 0x00, 0x00, 0x00,
  0x0c, 0x00, 0x00, 0x00, 0x10, 0x00, 0x00, 0x00, 0x50, 0x00, 0x00, 0x00,
  0x01, 0x00, 0x00, 0x00, 0x14, 0x00, 0x00, 0x00, 0x3c, 0x00, 0x00, 0x00,
  0x73, 0x65, 0x71, 0x75, 0x65, 0x6e, 0x74, 0x69, 0x61, 0x6c, 0x5f, 0x38,
  0x2f, 0x71, 0x75, 0x61, 0x6e, 0x74, 0x5f, 0x63, 0x6f, 0x6e, 0x76, 0x32,
  0x64, 0x5f, 0x33, 0x34, 0x2f, 0x42, 0x69, 0x61, 0x73, 0x41, 0x64, 0x64,
  0x2f, 0x52, 0x65, 0x61, 0x64, 0x56, 0x61, 0x72, 0x69, 0x61, 0x62, 0x6c,
  0x65, 0x4f, 0x70, 0x2f, 0x72, 0x65, 0x73, 0x6f, 0x75, 0x72, 0x63, 0x65,
  0x00, 0x00, 0x00, 0x00, 0xa0, 0xd8, 0xff, 0xff, 0x08, 0x00, 0x00, 0x00,
  0x58, 0x00, 0x00, 0x00, 0x14, 0x00, 0x00, 0x00, 0x37, 0x5d, 0xee, 0x38,
  0xf6, 0xaa, 0x35, 0x39, 0xbf, 0x51, 0xbf, 0x38, 0xea, 0x05, 0x22, 0x39,
  0x47, 0xab, 0x2f, 0x39, 0xb3, 0x2f, 0xf6, 0x38, 0xb3, 0x90, 0x13, 0x39,
  0x92, 0x33, 0x2f, 0x39, 0x8e, 0x95, 0x9f, 0x39, 0x04, 0x15, 0x00, 0x39,
  0xda, 0x0b, 0xfd, 0x38, 0x8c, 0xe8, 0x12, 0x39, 0xba, 0x12, 0xbd, 0x38,
  0x65, 0xe3, 0xc1, 0x38, 0x9e, 0x7f, 0xe8, 0x38, 0x2b, 0x1a, 0x1a, 0x39,
  0x15, 0x75, 0xf4, 0x38, 0xca, 0x8b, 0x03, 0x39, 0xf8, 0x80, 0xf9, 0x38,
  0xb1, 0x44, 0xed, 0x38, 0x14, 0x00, 0x00, 0x00, 0x00, 0x00, 0x00, 0x00,
  0x00, 0x00, 0x00, 0x00, 0x00, 0x00, 0x00, 0x00, 0x00, 0x00, 0x00, 0x00,
  0x00, 0x00, 0x00, 0x00, 0x00, 0x00, 0x00, 0x00, 0x00, 0x00, 0x00, 0x00,
  0x00, 0x00, 0x00, 0x00, 0x00, 0x00, 0x00, 0x00, 0x00, 0x00, 0x00, 0x00,
  0x00, 0x00, 0x00, 0x00, 0x00, 0x00, 0x00, 0x00, 0x00, 0x00, 0x00, 0x00,
  0x00, 0x00, 0x00, 0x00, 0x00, 0x00, 0x00, 0x00, 0x00, 0x00, 0x00, 0x00,
  0x00, 0x00, 0x00, 0x00, 0x00, 0x00, 0x00, 0x00, 0x00, 0x00, 0x00, 0x00,
  0x00, 0x00, 0x00, 0x00, 0x00, 0x00, 0x00, 0x00, 0x00, 0x00, 0x00, 0x00,
  0x00, 0x00, 0x00, 0x00, 0x00, 0x00, 0x00, 0x00, 0x00, 0x00, 0x00, 0x00,
  0x00, 0x00, 0x00, 0x00, 0x00, 0x00, 0x00, 0x00, 0x00, 0x00, 0x00, 0x00,
  0x00, 0x00, 0x00, 0x00, 0x00, 0x00, 0x00, 0x00, 0x00, 0x00, 0x00, 0x00,
  0x00, 0x00, 0x00, 0x00, 0x00, 0x00, 0x00, 0x00, 0x00, 0x00, 0x00, 0x00,
  0x00, 0x00, 0x00, 0x00, 0x00, 0x00, 0x00, 0x00, 0x00, 0x00, 0x00, 0x00,
  0x00, 0x00, 0x00, 0x00, 0x00, 0x00, 0x00, 0x00, 0x00, 0x00, 0x00, 0x00,
  0x00, 0x00, 0x00, 0x00, 0x12, 0xd9, 0xff, 0xff, 0x04, 0x00, 0x00, 0x00,
  0x20, 0x03, 0x00, 0x00, 0x02, 0x3b, 0x28, 0xf8, 0xcd, 0xee, 0x0c, 0xa7,
  0x4c, 0xf2, 0xb8, 0xc3, 0x11, 0x98, 0xf5, 0x31, 0x81, 0x13, 0xeb, 0xfb,
  0x4f, 0xb9, 0x57, 0x0f, 0xd7, 0x22, 0xf6, 0xfc, 0x34, 0x0e, 0x87, 0x0c,
  0x34, 0x43, 0xe1, 0x60, 0xb7, 0x1b, 0xfa, 0x0d, 0x1c, 0x30, 0x03, 0xe7,
  0x2b, 0xef, 0x09, 0xbd, 0x81, 0x11, 0xef, 0x3c, 0x25, 0x1c, 0x10, 0x0c,
  0xaf, 0x1d, 0x02, 0xe0, 0x23, 0xd3, 0xe2, 0xdd, 0x16, 0xf9, 0xc8, 0xd1,
  0xe7, 0x1e, 0x02, 0x08, 0x39, 0xfc, 0xf8, 0x36, 0x89, 0x17, 0xf9, 0xf2,
  0xf8, 0x0c, 0x81, 0xb1, 0x3c, 0xec, 0xfb, 0xb7, 0x1d, 0xfd, 0x48, 0x24,
  0x1c, 0xf4, 0x2d, 0x60, 0xc5, 0xd3, 0x35, 0x0f, 0xdf, 0x56, 0xf3, 0xd6,
  0x06, 0x11, 0x27, 0xc3, 0xc4, 0x42, 0x5d, 0x40, 0x33, 0x19, 0x39, 0x6a,
  0x06, 0x4c, 0xdf, 0x23, 0x16, 0xf1, 0x0d, 0x1b, 0xe5, 0xee, 0xfb, 0x54,
  0xef, 0x6a, 0xf3, 0x14, 0xcf, 0xf6, 0xd2, 0x44, 0x0c, 0xca, 0xeb, 0x05,
  0xf5, 0x17, 0x20, 0xcd, 0x0c, 0xed, 0x32, 0x46, 0xf1, 0x27, 0xff, 0x08,
  0x81, 0x1b, 0x9c, 0xf5, 0x35, 0xe2, 0xf8, 0x01, 0x01, 0xf6, 0xff, 0x00,
  0x17, 0xf6, 0x26, 0x0b, 0xdd, 0xcd, 0x34, 0x3c, 0xc8, 0x11, 0x0c, 0xe1,
  0xe7, 0x2e, 0x11, 0xbc, 0x21, 0xe3, 0xf0, 0x34, 0x2d, 0x12, 0x0e, 0x00,
  0xec, 0x2f, 0x4a, 0x05, 0x02, 0x06, 0xdf, 0x7f, 0xe1, 0xf1, 0xfc, 0x26,
  0x29, 0x52, 0x0a, 0xf0, 0x3e, 0x10, 0xdf, 0x81, 0xd2, 0x11, 0xd2, 0x23,
  0x12, 0xff, 0x1d, 0xa2, 0xcc, 0x13, 0x0e, 0xeb, 0x4c, 0x03, 0x05, 0x59,
  0x6c, 0x01, 0xdf, 0xb1, 0x35, 0xa4, 0x26, 0x19, 0xe4, 0xe9, 0xe8, 0x0d,
  0x9b, 0xf5, 0xe5, 0x5b, 0xf7, 0xd6, 0xc2, 0x18, 0x01, 0x07, 0x10, 0x00,
  0xaf, 0x09, 0xa9, 0xe3, 0x21, 0x3e, 0x17, 0x04, 0x91, 0xfe, 0xf7, 0xe4,
  0x03, 0xe6, 0xd7, 0x1c, 0xf6, 0xf7, 0x26, 0xc6, 0x92, 0x45, 0x03, 0xdf,
  0x27, 0x1f, 0xf6, 0x7f, 0xc8, 0x1d, 0xf8, 0x38, 0xbe, 0xd6, 0x0d, 0x22,
  0xf2, 0xea, 0x1c, 0x15, 0x3b, 0xfb, 0x32, 0xdd, 0x18, 0xc5, 0x00, 0xca,
  0xe2, 0xf6, 0x1c, 0x02, 0xe2, 0x20, 0xf1, 0x25, 0x81, 0x0a, 0x35, 0xf9,
  0x19, 0xc0, 0x2b, 0x21, 0x28, 0x29, 0x11, 0xcb, 0xc4, 0x11, 0xf5, 0xd5,
  0xb6, 0x0f, 0x1b, 0x1a, 0xea, 0xf4, 0x11, 0x15, 0xba, 0x24, 0xf6, 0xc3,
  0xf0, 0xf9, 0xbd, 0xde, 0x0d, 0x18, 0xf3, 0xbf, 0xf7, 0xc2, 0x0d, 0x21,
  0xb0, 0x00, 0x16, 0x18, 0x23, 0xfc, 0x0f, 0xdb, 0x22, 0x81, 0x07, 0xed,
  0xe8, 0xbc, 0xfc, 0xd9, 0xf8, 0x6b, 0xb0, 0xe8, 0x36, 0xfd, 0x15, 0xe2,
  0x22, 0x10, 0xd5, 0x44, 0xe3, 0x22, 0xb3, 0x2c, 0x21, 0x44, 0x1e, 0x2a,
  0xbb, 0xe7, 0x4d, 0x7f, 0xbb, 0xf6, 0x21, 0xf7, 0x8a, 0xf9, 0xd3, 0x10,
  0xe8, 0xff, 0xeb, 0xfe, 0x9e, 0x0b, 0x18, 0xd1, 0x20, 0x38, 0x3e, 0x04,
  0xfc, 0xfd, 0x72, 0xdc, 0xe2, 0x1d, 0xbb, 0xb6, 0xd1, 0x0f, 0x81, 0xbc,
  0x09, 0xbd, 0x0b, 0x4a, 0x13, 0x46, 0x03, 0xe7, 0x20, 0x1f, 0x22, 0xf7,
  0xd8, 0x32, 0xff, 0x15, 0xb2, 0xf9, 0xc3, 0x36, 0x3d, 0x2d, 0x1f, 0xdb,
  0x12, 0x8f, 0x62, 0x3a, 0x0d, 0xfb, 0xae, 0xf8, 0x3f, 0x23, 0xf8, 0x0f,
  0x93, 0xb4, 0xc2, 0x30, 0xec, 0x8c, 0xe1, 0x50, 0x23, 0xf2, 0xcf, 0x81,
  0x32, 0xf5, 0x20, 0xd8, 0xcb, 0x05, 0xe1, 0x14, 0xb3, 0xb6, 0x9e, 0xe9,
  0x42, 0xe7, 0xfb, 0xf4, 0x2f, 0x39, 0xa2, 0x9e, 0x13, 0x18, 0x02, 0x43,
  0x6e, 0xd7, 0xfd, 0x22, 0x1b, 0x7b, 0x01, 0x52, 0x82, 0x34, 0x11, 0x0f,
  0xab, 0x94, 0xc7, 0x7d, 0x00, 0x13, 0x6c, 0x94, 0xdb, 0xe1, 0x32, 0x11,
  0x94, 0x30, 0xa8, 0x81, 0x8f, 0x24, 0x06, 0xcf, 0xf9, 0xed, 0xed, 0x07,
  0x38, 0x27, 0x0a, 0x00, 0xf8, 0xf4, 0x7f, 0x17, 0x91, 0x32, 0xce, 0x36,
  0x05, 0xdd, 0x21, 0xf7, 0x25, 0x04, 0x63, 0xdd, 0x22, 0xe7, 0xa8, 0x5b,
  0x0e, 0x4c, 0x62, 0xf3, 0xec, 0x17, 0xc7, 0x02, 0x3f, 0xd5, 0x0f, 0x54,
  0x39, 0x38, 0xe2, 0xd5, 0x41, 0xe8, 0xd2, 0xab, 0x62, 0xcc, 0x62, 0x1f,
  0x29, 0x21, 0xfa, 0x24, 0xb4, 0xd1, 0x0d, 0x6a, 0xc5, 0x1c, 0x9a, 0xe5,
  0x1f, 0xf0, 0x51, 0xfe, 0xf3, 0xea, 0xf5, 0x66, 0x06, 0x5c, 0x18, 0x7f,
  0x0c, 0x58, 0xf9, 0x73, 0x1a, 0x13, 0x3b, 0x4b, 0xed, 0xfb, 0xf2, 0x35,
  0x31, 0xf9, 0xe7, 0xbd, 0x35, 0xe2, 0x35, 0xf0, 0xa9, 0x3d, 0xfc, 0x81,
  0xee, 0x02, 0x3b, 0x0c, 0x18, 0x03, 0x10, 0xea, 0xc7, 0xee, 0xfe, 0x17,
  0x3c, 0xfe, 0xc3, 0xbd, 0xd0, 0x13, 0x01, 0x8a, 0xa6, 0x16, 0xd0, 0xfa,
  0xb6, 0xeb, 0x17, 0xf1, 0x79, 0x81, 0xf0, 0x52, 0x16, 0x14, 0x22, 0xdd,
  0xe6, 0x1e, 0x08, 0x47, 0xf9, 0x65, 0xe8, 0x5b, 0x11, 0xe3, 0x16, 0x84,
  0xc6, 0xe3, 0x2e, 0xa5, 0xce, 0x01, 0x31, 0x0e, 0x14, 0x60, 0xee, 0xe7,
  0xfb, 0x1b, 0x41, 0x6b, 0xc1, 0x06, 0x0d, 0x07, 0xe0, 0x1d, 0xbc, 0xc0,
  0x45, 0x8a, 0x62, 0x07, 0x20, 0xc3, 0xeb, 0x7f, 0x2c, 0x34, 0x9d, 0xfa,
  0x07, 0xff, 0x3a, 0xce, 0xd7, 0x1f, 0xa9, 0x19, 0x1a, 0x91, 0xd0, 0xde,
  0x14, 0xdc, 0x18, 0xd6, 0xf4, 0x43, 0x1c, 0x43, 0xd9, 0xeb, 0xbe, 0xfa,
  0x71, 0x20, 0x32, 0x92, 0xb0, 0x36, 0x98, 0xcc, 0x1d, 0x1e, 0xf7, 0xd7,
  0xec, 0xe3, 0x4d, 0x33, 0x0b, 0x1d, 0xe8, 0x31, 0x7f, 0x15, 0xa3, 0xba,
  0xe6, 0x94, 0x65, 0x35, 0xc0, 0xff, 0x26, 0x05, 0x22, 0x17, 0x59, 0xe6,
  0x0d, 0x1e, 0x02, 0xc3, 0x24, 0xde, 0x83, 0xeb, 0xad, 0x27, 0x0e, 0x92,
  0xe8, 0xe1, 0x1b, 0x81, 0x12, 0x0d, 0x0e, 0x21, 0xde, 0xff, 0x3d, 0xcb,
  0x14, 0x25, 0xb3, 0xd7, 0x32, 0x02, 0xd4, 0x01, 0xa5, 0x37, 0xf5, 0x2e,
  0x22, 0xdc, 0xff, 0xff, 0x00, 0x00, 0x00, 0x09, 0x10, 0x00, 0x00, 0x00,
  0x0b, 0x00, 0x00, 0x00, 0x1c, 0x00, 0x00, 0x00, 0x40, 0x00, 0x00, 0x00,
  0x04, 0x00, 0x00, 0x00, 0x14, 0x00, 0x00, 0x00, 0x02, 0x00, 0x00, 0x00,
  0x01, 0x00, 0x00, 0x00, 0x14, 0x00, 0x00, 0x00, 0x23, 0x00, 0x00, 0x00,
  0x73, 0x65, 0x71, 0x75, 0x65, 0x6e, 0x74, 0x69, 0x61, 0x6c, 0x5f, 0x38,
  0x2f, 0x71, 0x75, 0x61, 0x6e, 0x74, 0x5f, 0x63, 0x6f, 0x6e, 0x76, 0x32,
  0x64, 0x5f, 0x33, 0x34, 0x2f, 0x43, 0x6f, 0x6e, 0x76, 0x32, 0x44, 0x00,
  0x28, 0xdd, 0xff, 0xff, 0x08, 0x00, 0x00, 0x00, 0x58, 0x00, 0x00, 0x00,
  0x14, 0x00, 0x00, 0x00, 0xee, 0x18, 0xed, 0x3b, 0xcf, 0xb3, 0x34, 0x3c,
  0x76, 0x4d, 0xbe, 0x3b, 0x7d, 0x29, 0x21, 0x3c, 0x49, 0xbc, 0x2e, 0x3c,
  0xc6, 0xe0, 0xf4, 0x3b, 0xf1, 0xc7, 0x12, 0x3c, 0x36, 0x45, 0x2e, 0x3c,
  0x72, 0xbc, 0x9e, 0x3c, 0x86, 0xcd, 0xfe, 0x3b, 0x97, 0xb3, 0xfb, 0x3b,
  0xae, 0x20, 0x12, 0x3c, 0x80, 0x11, 0xbc, 0x3b, 0x9d, 0xdb, 0xc0, 0x3b,
  0x50, 0x43, 0xe7, 0x3b, 0x84, 0x48, 0x19, 0x3c, 0x81, 0x28, 0xf3, 0x3b,
  0xd3, 0xd8, 0x02, 0x3c, 0x87, 0x2d, 0xf8, 0x3b, 0xe5, 0x01, 0xec, 0x3b,
  0x14, 0x00, 0x00, 0x00, 0x00, 0x00, 0x00, 0x00, 0x00, 0x00, 0x00, 0x00,
  0x00, 0x00, 0x00, 0x00, 0x00, 0x00, 0x00, 0x00, 0x00, 0x00, 0x00, 0x00,
  0x00, 0x00, 0x00, 0x00, 0x00, 0x00, 0x00, 0x00, 0x00, 0x00, 0x00, 0x00,
  0x00, 0x00, 0x00, 0x00, 0x00, 0x00, 0x00, 0x00, 0x00, 0x00, 0x00, 0x00,
  0x00, 0x00, 0x00, 0x00, 0x00, 0x00, 0x00, 0x00, 0x00, 0x00, 0x00, 0x00,
  0x00, 0x00, 0x00, 0x00, 0x00, 0x00, 0x00, 0x00, 0x00, 0x00, 0x00, 0x00,
  0x00, 0x00, 0x00, 0x00, 0x00, 0x00, 0x00, 0x00, 0x00, 0x00, 0x00, 0x00,
  0x00, 0x00, 0x00, 0x00, 0x00, 0x00, 0x00, 0x00, 0x00, 0x00, 0x00, 0x00,
  0x00, 0x00, 0x00, 0x00, 0x00, 0x00, 0x00, 0x00, 0x00, 0x00, 0x00, 0x00,
  0x00, 0x00, 0x00, 0x00, 0x00, 0x00, 0x00, 0x00, 0x00, 0x00, 0x00, 0x00,
  0x00, 0x00, 0x00, 0x00, 0x00, 0x00, 0x00, 0x00, 0x00, 0x00, 0x00, 0x00,
  0x00, 0x00, 0x00, 0x00, 0x00, 0x00, 0x00, 0x00, 0x00, 0x00, 0x00, 0x00,
  0x00, 0x00, 0x00, 0x00, 0x00, 0x00, 0x00, 0x00, 0x00, 0x00, 0x00, 0x00,
  0x00, 0x00, 0x00, 0x00, 0x00, 0x00, 0x00, 0x00, 0x00, 0x00, 0x00, 0x00,
  0x56, 0xe7, 0xff, 0xff, 0x00, 0x00, 0x00, 0x01, 0x01, 0x00, 0x00, 0x00,
  0x24, 0x00, 0x00, 0x00, 0x18, 0x00, 0x00, 0x00, 0x04, 0x00, 0x00, 0x00,
  0x48, 0xe7, 0xff, 0xff, 0x01, 0x00, 0x00, 0x00, 0x01, 0x00, 0x00, 0x00,
  0x00, 0x00, 0x01, 0x01, 0x01, 0x00, 0x00, 0x00, 0x09, 0x00, 0x00, 0x00,
  0x03, 0x00, 0x00, 0x00, 0x06, 0x00, 0x00, 0x00, 0x07, 0x00, 0x00, 0x00,
  0x08, 0x00, 0x00, 0x00, 0xd8, 0xdf, 0xff, 0xff, 0x00, 0x00, 0x00, 0x09,
  0x14, 0x00, 0x00, 0x00, 0x0a, 0x00, 0x00, 0x00, 0x34, 0x00, 0x00, 0x00,
  0x00, 0x01, 0x00, 0x00, 0x18, 0x00, 0x00, 0x00, 0x04, 0x00, 0x00, 0x00,
  0x01, 0x00, 0x00, 0x00, 0x38, 0x00, 0x00, 0x00, 0x01, 0x00, 0x00, 0x00,
  0x14, 0x00, 0x00, 0x00, 0x04, 0x00, 0x00, 0x00, 0xff, 0xff, 0xff, 0xff,
  0x38, 0x00, 0x00, 0x00, 0x01, 0x00, 0x00, 0x00, 0x14, 0x00, 0x00, 0x00,
  0xca, 0x00, 0x00, 0x00, 0x73, 0x65, 0x71, 0x75, 0x65, 0x6e, 0x74, 0x69,
  0x61, 0x6c, 0x5f, 0x38, 0x2f, 0x71, 0x75, 0x61, 0x6e, 0x74, 0x5f, 0x72,
  0x65, 0x5f, 0x6c, 0x75, 0x5f, 0x33, 0x33, 0x2f, 0x52, 0x65, 0x6c, 0x75,
  0x3b, 0x73, 0x65, 0x71, 0x75, 0x65, 0x6e, 0x74, 0x69, 0x61, 0x6c, 0x5f,
  0x38, 0x2f, 0x71, 0x75, 0x61, 0x6e, 0x74, 0x5f, 0x63, 0x6f, 0x6e, 0x76,
  0x32, 0x64, 0x5f, 0x33, 0x33, 0x2f, 0x42, 0x69, 0x61, 0x73, 0x41, 0x64,
  0x64, 0x3b, 0x73, 0x65, 0x71, 0x75, 0x65, 0x6e, 0x74, 0x69, 0x61, 0x6c,
  0x5f, 0x38, 0x2f, 0x71, 0x75, 0x61, 0x6e, 0x74, 0x5f, 0x63, 0x6f, 0x6e,
  0x76, 0x32, 0x64, 0x5f, 0x33, 0x35, 0x2f, 0x43, 0x6f, 0x6e, 0x76, 0x32,
  0x44, 0x3b, 0x73, 0x65, 0x71, 0x75, 0x65, 0x6e, 0x74, 0x69, 0x61, 0x6c,
  0x5f, 0x38, 0x2f, 0x71, 0x75, 0x61, 0x6e, 0x74, 0x5f, 0x63, 0x6f, 0x6e,
  0x76, 0x32, 0x64, 0x5f, 0x33, 0x33, 0x2f, 0x43, 0x6f, 0x6e, 0x76, 0x32,
  0x44, 0x3b, 0x73, 0x65, 0x71, 0x75, 0x65, 0x6e, 0x74, 0x69, 0x61, 0x6c,
  0x5f, 0x38, 0x2f, 0x71, 0x75, 0x61, 0x6e, 0x74, 0x5f, 0x63, 0x6f, 0x6e,
  0x76, 0x32, 0x64, 0x5f, 0x33, 0x33, 0x2f, 0x42, 0x69, 0x61, 0x73, 0x41,
  0x64, 0x64, 0x2f, 0x52, 0x65, 0x61, 0x64, 0x56, 0x61, 0x72, 0x69, 0x61,
  0x62, 0x6c, 0x65, 0x4f, 0x70, 0x2f, 0x72, 0x65, 0x73, 0x6f, 0x75, 0x72,
  0x63, 0x65, 0x00, 0x00, 0x84, 0xdf, 0xff, 0xff, 0x08, 0x00, 0x00, 0x00,
  0x0c, 0x00, 0x00, 0x00, 0x01, 0x00, 0x00, 0x00, 0x12, 0xaf, 0x80, 0x3c,
  0x01, 0x00, 0x00, 0x00, 0x80, 0xff, 0xff, 0xff, 0xff, 0xff, 0xff, 0xff,
  0x00, 0x00, 0x00, 0x00, 0x12, 0xdf, 0xff, 0xff, 0x04, 0x00, 0x00, 0x00,
  0x50, 0x00, 0x00, 0x00, 0xef, 0xf9, 0xff, 0xff, 0xc8, 0xfd, 0xff, 0xff,
  0xd3, 0xfc, 0xff, 0xff, 0x6e, 0x05, 0x00, 0x00, 0x14, 0x01, 0x00, 0x00,
  0xbf, 0xe0, 0xff, 0xff, 0x4c, 0x05, 0x00, 0x00, 0x2d, 0xf3, 0xff, 0xff,
  0xb9, 0x0b, 0x00, 0x00, 0xcf, 0x0b, 0x00, 0x00, 0x7a, 0xe9, 0xff, 0xff,
  0x01, 0xff, 0xff, 0xff, 0x84, 0x0b, 0x00, 0x00, 0x76, 0x03, 0x00, 0x00,
  0x90, 0x0e, 0x00, 0x00, 0x9b, 0x01, 0x00, 0x00, 0xd7, 0xae, 0xff, 0xff,
  0x71, 0x0d, 0x00, 0x00, 0xb7, 0xe4, 0xff, 0xff, 0x25, 0xff, 0xff, 0xff,
  0x52, 0xdf, 0xff, 0xff, 0x00, 0x00, 0x00, 0x02, 0x10, 0x00, 0x00, 0x00,
  0x09, 0x00, 0x00, 0x00, 0x10, 0x00, 0x00, 0x00, 0x50, 0x00, 0x00, 0x00,
  0x01, 0x00, 0x00, 0x00, 0x14, 0x00, 0x00, 0x00, 0x3c, 0x00, 0x00, 0x00,
  0x73, 0x65, 0x71, 0x75, 0x65, 0x6e, 0x74, 0x69, 0x61, 0x6c, 0x5f, 0x38,
  0x2f, 0x71, 0x75, 0x61, 0x6e, 0x74, 0x5f, 0x63, 0x6f, 0x6e, 0x76, 0x32,
  0x64, 0x5f, 0x33, 0x33, 0x2f, 0x42, 0x69, 0x61, 0x73, 0x41, 0x64, 0x64,
  0x2f, 0x52, 0x65, 0x61, 0x64, 0x56, 0x61, 0x72, 0x69, 0x61, 0x62, 0x6c,
  0x65, 0x4f, 0x70, 0x2f, 0x72, 0x65, 0x73, 0x6f, 0x75, 0x72, 0x63, 0x65,
  0x00, 0x00, 0x00, 0x00, 0x68, 0xe0, 0xff, 0xff, 0x08, 0x00, 0x00, 0x00,
  0x58, 0x00, 0x00, 0x00, 0x14, 0x00, 0x00, 0x00, 0xdb, 0xe3, 0xf5, 0x37,
  0x45, 0x94, 0x0c, 0x38, 0x58, 0x8f, 0x42, 0x38, 0x01, 0x78, 0x20, 0x38,
  0x85, 0xb6, 0x2e, 0x38, 0x05, 0xae, 0xa4, 0x36, 0x47, 0x5d, 0x21, 0x38,
  0xa4, 0xcc, 0x5a, 0x38, 0xbf, 0xc3, 0x80, 0x38, 0xa9, 0x88, 0x5f, 0x38,
  0x66, 0xf7, 0x17, 0x38, 0x5c, 0xb4, 0x08, 0x38, 0x80, 0xad, 0x8a, 0x38,
  0x54, 0xa1, 0x25, 0x38, 0xdc, 0x95, 0x86, 0x38, 0xcf, 0xb2, 0x49, 0x38,
  0x78, 0xb9, 0x13, 0x38, 0xcc, 0x05, 0x59, 0x38, 0xab, 0x4c, 0xb0, 0x36,
  0x1c, 0x5f, 0x68, 0x38, 0x14, 0x00, 0x00, 0x00, 0x00, 0x00, 0x00, 0x00,
  0x00, 0x00, 0x00, 0x00, 0x00, 0x00, 0x00, 0x00, 0x00, 0x00, 0x00, 0x00,
  0x00, 0x00, 0x00, 0x00, 0x00, 0x00, 0x00, 0x00, 0x00, 0x00, 0x00, 0x00,
  0x00, 0x00, 0x00, 0x00, 0x00, 0x00, 0x00, 0x00, 0x00, 0x00, 0x00, 0x00,
  0x00, 0x00, 0x00, 0x00, 0x00, 0x00, 0x00, 0x00, 0x00, 0x00, 0x00, 0x00,
  0x00, 0x00, 0x00, 0x00, 0x00, 0x00, 0x00, 0x00, 0x00, 0x00, 0x00, 0x00,
  0x00, 0x00, 0x00, 0x00, 0x00, 0x00, 0x00, 0x00, 0x00, 0x00, 0x00, 0x00,
  0x00, 0x00, 0x00, 0x00, 0x00, 0x00, 0x00, 0x00, 0x00, 0x00, 0x00, 0x00,
  0x00, 0x00, 0x00, 0x00, 0x00, 0x00, 0x00, 0x00, 0x00, 0x00, 0x00, 0x00,
  0x00, 0x00, 0x00, 0x00, 0x00, 0x00, 0x00, 0x00, 0x00, 0x00, 0x00, 0x00,
  0x00, 0x00, 0x00, 0x00, 0x00, 0x00, 0x00, 0x00, 0x00, 0x00, 0x00, 0x00,
  0x00, 0x00, 0x00, 0x00, 0x00, 0x00, 0x00, 0x00, 0x00, 0x00, 0x00, 0x00,
  0x00, 0x00, 0x00, 0x00, 0x00, 0x00, 0x00, 0x00, 0x00, 0x00, 0x00, 0x00,
  0x00, 0x00, 0x00, 0x00, 0x00, 0x00, 0x00, 0x00, 0x00, 0x00, 0x00, 0x00,
  0x00, 0x00, 0x00, 0x00, 0xda, 0xe0, 0xff, 0xff, 0x04, 0x00, 0x00, 0x00,
  0x00, 0x14, 0x00, 0x00, 0x1b, 0x37, 0xd0, 0x08, 0x1c, 0xc4, 0x0a, 0xaa,
  0xf1, 0xf7, 0xf3, 0xff, 0xcc, 0x0e, 0x37, 0x04, 0x49, 0xd2, 0x22, 0xd4,
  0x47, 0xcc, 0xce, 0xe8, 0x03, 0x2c, 0x2d, 0x12, 0xcb, 0xfb, 0x14, 0x0c,
  0xc4, 0x39, 0xea, 0x1d, 0xfd, 0x21, 0x23, 0xbd, 0x00, 0xc8, 0x1f, 0xdd,
  0xa1, 0xee, 0x2f, 0x1c, 0xcc, 0xe5, 0x59, 0xdd, 0xde, 0x67, 0x40, 0x50,
  0xf6, 0x1b, 0xf5, 0x01, 0x66, 0xff, 0x5d, 0xf8, 0x3c, 0x29, 0xc7, 0x25,
  0xc0, 0xdb, 0x2b, 0x8c, 0x26, 0xfa, 0x42, 0x1c, 0xf2, 0x03, 0xf8, 0x0d,
  0x25, 0xe7, 0x0f, 0x2a, 0x17, 0x08, 0x59, 0xea, 0xc5, 0x23, 0x26, 0x38,
  0xa2, 0x1b, 0x2c, 0xf3, 0xf6, 0xed, 0xe0, 0x39, 0x0f, 0x13, 0x25, 0xe3,
  0x35, 0xff, 0x29, 0xaa, 0x12, 0xd1, 0x23, 0x77, 0x0a, 0x1c, 0x49, 0xb5,
  0x17, 0x29, 0x1c, 0x08, 0x38, 0x2e, 0xdb, 0x52, 0x20, 0xe9, 0xd9, 0x31,
  0xd3, 0x09, 0xee, 0xf1, 0x24, 0xde, 0x27, 0xcd, 0x1b, 0x43, 0x47, 0xed,
  0x1b, 0xf9, 0xf9, 0xd3, 0x20, 0xbd, 0x0b, 0x25, 0x23, 0xca, 0xcf, 0x06,
  0x39, 0x33, 0x28, 0x40, 0xaa, 0x0b, 0x27, 0xe6, 0xc9, 0x16, 0xde, 0x0d,
  0x15, 0x55, 0x2f, 0x02, 0xd5, 0x10, 0x1c, 0xbf, 0xd5, 0xfc, 0x46, 0x23,
  0xf9, 0xed, 0x4b, 0x09, 0x95, 0xe9, 0x27, 0x40, 0xcc, 0x1f, 0xf5, 0x14,
  0xd4, 0xeb, 0xdb, 0x02, 0xba, 0x81, 0xa9, 0x18, 0x49, 0x18, 0x17, 0xeb,
  0x00, 0xd7, 0x01, 0xe4, 0x4e, 0xeb, 0xee, 0x94, 0x00, 0xe5, 0xfc, 0xd2,
  0x2f, 0x9f, 0x03, 0xbf, 0x1a, 0x4a, 0xd9, 0x43, 0x89, 0xca, 0x45, 0x02,
  0x20, 0xff, 0xb7, 0x4b, 0x02, 0x58, 0x15, 0xcd, 0xed, 0xe7, 0x08, 0xe4,
  0x04, 0x43, 0x74, 0xdf, 0xe3, 0x16, 0x53, 0x07, 0xf2, 0xcb, 0x23, 0x6c,
  0xd7, 0x46, 0xdd, 0xe8, 0xdc, 0xda, 0xd7, 0x56, 0xdc, 0xe5, 0xeb, 0xb4,
  0x2f, 0xe6, 0x81, 0xb3, 0xfa, 0xc7, 0xf7, 0xe1, 0xc8, 0x01, 0x2a, 0xe6,
  0xeb, 0x27, 0xef, 0xcb, 0x1c, 0x00, 0xe2, 0x13, 0xdc, 0xe6, 0xec, 0xfd,
  0xd0, 0x46, 0x44, 0x8e, 0xc1, 0x23, 0x3f, 0x39, 0x09, 0xcb, 0xc8, 0x92,
  0x20, 0xfc, 0xea, 0xf0, 0xce, 0x24, 0x57, 0xac, 0x39, 0x11, 0x14, 0x1f,
  0x9f, 0x3c, 0xed, 0x2c, 0xaf, 0x35, 0xfe, 0xc6, 0x74, 0x15, 0x20, 0x12,
  0x08, 0xdf, 0x2c, 0xd9, 0xef, 0xeb, 0xd3, 0x84, 0x1b, 0x1a, 0x10, 0x22,
  0xd5, 0x0b, 0xde, 0xa1, 0xed, 0xd5, 0xf9, 0x12, 0x05, 0xcf, 0xde, 0x01,
  0xad, 0xc3, 0x1c, 0x22, 0xc4, 0x12, 0xe5, 0xf8, 0xea, 0x0a, 0x3c, 0x17,
  0x9f, 0x08, 0xf1, 0xb8, 0x16, 0x23, 0x16, 0xe0, 0x38, 0x0a, 0xfe, 0x60,
  0xdf, 0x24, 0x61, 0xff, 0x06, 0x08, 0x15, 0xe2, 0xc2, 0x19, 0xc2, 0xdb,
  0xfd, 0xe9, 0xfd, 0x12, 0x76, 0xe1, 0x27, 0xc3, 0xe7, 0xfd, 0x24, 0xce,
  0x01, 0x21, 0x00, 0xe0, 0x16, 0x08, 0xe6, 0xe2, 0x30, 0x27, 0xf0, 0x45,
  0x04, 0x69, 0x26, 0xef, 0x26, 0xdb, 0x21, 0x0a, 0xf6, 0xde, 0xe2, 0x12,
  0xd8, 0xe4, 0x42, 0x1d, 0x6a, 0x2a, 0x16, 0xf4, 0xfb, 0x09, 0xf7, 0xf5,
  0x3c, 0x15, 0xf6, 0x0f, 0xe0, 0x10, 0x7c, 0x18, 0x15, 0x35, 0x03, 0x5f,
  0xea, 0xfe, 0xf9, 0x10, 0xf1, 0xe6, 0x33, 0x19, 0x01, 0x01, 0x39, 0xdf,
  0xa2, 0x1a, 0xec, 0xa3, 0xbb, 0xe5, 0xe7, 0x1a, 0x32, 0xff, 0xfd, 0xea,
  0xe5, 0x4f, 0xee, 0xe4, 0x39, 0x1e, 0x2e, 0xee, 0x06, 0xc4, 0x1b, 0x03,
  0x0c, 0xeb, 0x10, 0x1e, 0xaa, 0x2e, 0x2a, 0x20, 0x0b, 0x6b, 0x1f, 0xba,
  0xeb, 0x0b, 0x1c, 0x38, 0x48, 0x28, 0x2f, 0xbc, 0x25, 0xb2, 0x33, 0x32,
  0x21, 0xf1, 0xfe, 0x28, 0x0a, 0xea, 0x05, 0xfa, 0x10, 0x12, 0xd5, 0x1a,
  0xbb, 0x02, 0xdf, 0x22, 0xdf, 0x3b, 0xea, 0x0e, 0xda, 0x26, 0x25, 0x0e,
  0xf7, 0xc2, 0xf3, 0xd5, 0x0a, 0xa2, 0x1a, 0x25, 0x04, 0xf3, 0xdc, 0x01,
  0x33, 0xf7, 0xf8, 0x19, 0xc4, 0x0b, 0x2a, 0xf3, 0xfb, 0x9d, 0x19, 0x00,
  0xf6, 0x00, 0x21, 0x17, 0xdb, 0x27, 0x02, 0x20, 0x3a, 0x0e, 0x07, 0x1f,
  0x3b, 0x81, 0xfe, 0x16, 0xfa, 0xde, 0xea, 0xe4, 0xd9, 0x19, 0x0e, 0x04,
  0x9e, 0xc6, 0xe0, 0xe6, 0xd3, 0xf1, 0xd9, 0x01, 0xfc, 0x22, 0xfc, 0x29,
  0x16, 0xfc, 0xf0, 0xd8, 0x1d, 0xf5, 0x1a, 0xef, 0xd6, 0x05, 0x16, 0x28,
  0xc7, 0x38, 0xde, 0xfe, 0x0e, 0xb6, 0xd8, 0xf3, 0x22, 0x1e, 0xf8, 0x0b,
  0xf3, 0xdf, 0x2b, 0x0b, 0x11, 0x15, 0x12, 0x31, 0x31, 0x14, 0xe9, 0xf3,
  0x1c, 0xd3, 0x29, 0xf1, 0x21, 0x4a, 0x1c, 0xfd, 0x1d, 0xe6, 0xf5, 0xf5,
  0x0d, 0x00, 0x23, 0x21, 0xe4, 0x0c, 0xd2, 0xd6, 0xdf, 0xdd, 0xe3, 0xf4,
  0xea, 0x3a, 0xd3, 0xff, 0x0d, 0x38, 0xde, 0x12, 0x04, 0x06, 0x12, 0xfc,
  0x12, 0x00, 0xef, 0xee, 0xeb, 0x0b, 0xd2, 0x0a, 0x16, 0x29, 0x16, 0xdd,
  0x30, 0xf4, 0x24, 0xfc, 0xde, 0xe9, 0x0f, 0x00, 0x0d, 0xd8, 0x1e, 0xfd,
  0xed, 0x04, 0x04, 0xd5, 0x0b, 0xc7, 0xf9, 0xc7, 0x08, 0x1f, 0x0d, 0xff,
  0x3a, 0xd4, 0xc5, 0x2c, 0x07, 0xdb, 0x15, 0xe6, 0x07, 0xbb, 0xda, 0x22,
  0x1f, 0x04, 0xcd, 0xeb, 0x39, 0x44, 0xfa, 0xff, 0x0a, 0x27, 0x12, 0x03,
  0x0d, 0xff, 0xd9, 0xe7, 0x0c, 0xa3, 0x03, 0xe1, 0xff, 0x02, 0x0a, 0x0f,
  0xf2, 0xe9, 0x1d, 0xe6, 0x09, 0x0d, 0xf8, 0xf2, 0x86, 0xf3, 0x1f, 0x03,
  0x06, 0xea, 0xee, 0x06, 0xf9, 0x11, 0xdb, 0xff, 0xd4, 0xf6, 0xd9, 0xc3,
  0xf6, 0xd9, 0xff, 0x28, 0x28, 0x0d, 0xbc, 0x01, 0x21, 0x03, 0x37, 0x0e,
  0x01, 0xb7, 0x24, 0x27, 0x22, 0x1d, 0xcd, 0x84, 0xc0, 0x15, 0xc6, 0x1a,
  0x0c, 0xe5, 0x02, 0xf6, 0x0f, 0x81, 0xe5, 0x4b, 0x03, 0x01, 0xf3, 0x01,
  0xe0, 0xf4, 0xf5, 0xba, 0x04, 0xae, 0xf0, 0x0f, 0xae, 0xc2, 0x30, 0xea,
  0xfd, 0x2d, 0x04, 0xac, 0xb0, 0x33, 0xd5, 0xa6, 0xe7, 0xe2, 0x25, 0xc1,
  0x23, 0xe3, 0x06, 0xe9, 0x21, 0x1b, 0x21, 0xfe, 0x95, 0xff, 0xf7, 0xf5,
  0xaa, 0xf0, 0x8d, 0x33, 0xb4, 0xd9, 0x9e, 0xd1, 0xf4, 0x18, 0x31, 0x3d,
  0xb1, 0x12, 0x1d, 0x12, 0x1d, 0xee, 0xbb, 0x0d, 0x11, 0xe3, 0x39, 0x1d,
  0x00, 0xf8, 0xc6, 0xf0, 0xd6, 0xe1, 0x48, 0xf8, 0x10, 0x02, 0x1a, 0x33,
  0x07, 0x0d, 0x18, 0x00, 0xf4, 0x1d, 0x27, 0x1e, 0xd3, 0x22, 0x93, 0x23,
  0x43, 0x06, 0x13, 0xf7, 0x0a, 0xff, 0xf4, 0x20, 0x8b, 0xf0, 0x2f, 0x00,
  0x29, 0x0f, 0x15, 0x70, 0xe9, 0x08, 0x12, 0x18, 0x18, 0x18, 0x0d, 0x0b,
  0xee, 0xf7, 0x56, 0x05, 0xe0, 0x12, 0xa9, 0x07, 0xe5, 0xe9, 0x23, 0x02,
  0x1c, 0x18, 0x2e, 0xfc, 0x0f, 0x35, 0x24, 0xec, 0x26, 0x00, 0xc2, 0xff,
  0x0d, 0x1d, 0xe7, 0xe8, 0xfc, 0x0d, 0x20, 0x07, 0xe0, 0xf9, 0x07, 0x0d,
  0x11, 0x14, 0xe9, 0xde, 0x09, 0x0d, 0xfa, 0x29, 0x09, 0xf5, 0x13, 0xd0,
  0xe5, 0x1b, 0xd1, 0x0a, 0xf0, 0xf6, 0xe0, 0x35, 0x1c, 0x33, 0xa8, 0x05,
  0x38, 0x02, 0xda, 0x40, 0x2a, 0xea, 0x22, 0xe4, 0xf3, 0x2f, 0x0e, 0x0c,
  0xcd, 0x0b, 0xd8, 0x00, 0xee, 0xfc, 0x03, 0xe3, 0xff, 0xbb, 0x11, 0xd6,
  0xba, 0xee, 0xf5, 0xfd, 0xee, 0xb6, 0xcf, 0xfd, 0x06, 0x08, 0x22, 0x1e,
  0x6a, 0x01, 0x0d, 0x19, 0x0b, 0x0d, 0x00, 0xf2, 0xe8, 0xf8, 0xde, 0xf4,
  0x06, 0x14, 0x1f, 0x0a, 0xe6, 0xc0, 0xe7, 0xd8, 0x32, 0xc7, 0xf8, 0xf3,
  0xf4, 0x49, 0xf6, 0xad, 0xaf, 0xf2, 0xbc, 0x16, 0x29, 0x07, 0xf8, 0xed,
  0x32, 0x19, 0x0e, 0xd6, 0xf7, 0x1d, 0x22, 0x06, 0x30, 0x08, 0xf8, 0x0c,
  0x56, 0xe7, 0x0e, 0x16, 0xf7, 0x0f, 0x17, 0x22, 0x2a, 0xf5, 0x00, 0x23,
  0x4a, 0x26, 0xe2, 0x01, 0x20, 0xfd, 0x2c, 0xeb, 0x2b, 0x07, 0xf4, 0x1e,
  0x09, 0x45, 0x04, 0xf9, 0xf1, 0x07, 0x37, 0x0a, 0x19, 0x12, 0x14, 0x1e,
  0x19, 0x10, 0xed, 0x31, 0xa0, 0xf2, 0x08, 0xe4, 0x3d, 0x13, 0x2f, 0xf4,
  0x39, 0xe1, 0x0e, 0x1a, 0xda, 0xfc, 0xf1, 0xcc, 0xec, 0x16, 0x17, 0x21,
  0x0c, 0xec, 0xdf, 0xf1, 0x23, 0xeb, 0xf9, 0x26, 0x04, 0x25, 0x0f, 0x0a,
  0x26, 0x03, 0x0e, 0x18, 0x39, 0x09, 0xf7, 0x0a, 0x31, 0xfb, 0xcb, 0x26,
  0x1c, 0x1c, 0x66, 0xf2, 0xf4, 0x0b, 0x10, 0xf4, 0x08, 0xf9, 0x02, 0x28,
  0x10, 0x38, 0xef, 0x07, 0x47, 0xe0, 0x20, 0xf8, 0xfc, 0xf8, 0x0b, 0xf0,
  0x0a, 0xe5, 0xff, 0x14, 0xdd, 0x27, 0x2a, 0xf3, 0xfb, 0x07, 0xd3, 0xdc,
  0x17, 0x20, 0x01, 0x0a, 0x3d, 0xed, 0xcc, 0xc5, 0x23, 0xf5, 0xf4, 0xf1,
  0xed, 0xec, 0xf3, 0xdf, 0x28, 0x0d, 0xf8, 0xfa, 0x12, 0x09, 0x2e, 0xd3,
  0xe3, 0x0a, 0x07, 0xf9, 0xf3, 0x11, 0x07, 0xf5, 0xb3, 0xe8, 0x11, 0xcd,
  0xd4, 0x12, 0xb6, 0xcc, 0xf1, 0xea, 0x34, 0xf8, 0xdf, 0x0c, 0xd0, 0x06,
  0x05, 0x07, 0xfb, 0xf6, 0xfd, 0xef, 0xeb, 0x19, 0xa7, 0x02, 0x32, 0x08,
  0x31, 0x31, 0xf5, 0x0b, 0x15, 0x0f, 0xcf, 0x1d, 0x10, 0xd1, 0x03, 0xc4,
  0x14, 0x1a, 0x14, 0xea, 0x45, 0x3f, 0xf3, 0xdc, 0xf1, 0x06, 0x06, 0x3e,
  0xd5, 0xb9, 0xf8, 0x0b, 0xfb, 0xe4, 0x25, 0xfc, 0x12, 0x0d, 0xfc, 0x81,
  0x93, 0xd8, 0x01, 0xbe, 0x2b, 0x24, 0xce, 0xf9, 0x18, 0xb0, 0xf5, 0x5d,
  0xd4, 0xec, 0x14, 0x32, 0xea, 0x11, 0xf6, 0x08, 0x33, 0xf8, 0xe2, 0x13,
  0x1e, 0xe7, 0x04, 0xc5, 0xca, 0x20, 0xdd, 0x45, 0xad, 0xb4, 0xc5, 0x12,
  0x06, 0xce, 0xec, 0x1c, 0x06, 0xd8, 0xd1, 0x25, 0x4c, 0x04, 0x2b, 0xf3,
  0x14, 0xad, 0x24, 0xc1, 0xa1, 0xf6, 0x3d, 0x23, 0xfe, 0x0c, 0xf0, 0x13,
  0x17, 0xd8, 0x35, 0xbe, 0xb9, 0x01, 0x08, 0xae, 0xf6, 0xfb, 0x9d, 0xb7,
  0x3c, 0xbe, 0xdc, 0xf5, 0x36, 0xf5, 0xb7, 0xa7, 0xd6, 0xe5, 0x20, 0xe0,
  0xe9, 0x99, 0xe9, 0xca, 0x11, 0xba, 0xa8, 0x18, 0xd1, 0x33, 0xbd, 0xed,
  0x26, 0xee, 0xb2, 0xd7, 0x0b, 0xf4, 0xaf, 0xa3, 0x0e, 0x43, 0xb4, 0x10,
  0x0f, 0xc6, 0x37, 0xb9, 0xb0, 0xec, 0x0f, 0x8b, 0x21, 0xac, 0x8e, 0xec,
  0x91, 0x18, 0x2f, 0xe3, 0x4c, 0x45, 0xbf, 0xe9, 0x47, 0x27, 0x95, 0xbc,
  0xcc, 0xc9, 0xfc, 0x06, 0x24, 0x02, 0xd3, 0xbb, 0x9e, 0x53, 0x3c, 0xf1,
  0x15, 0x35, 0x28, 0x01, 0x0b, 0xe1, 0xf7, 0xd6, 0xfd, 0xae, 0xa1, 0xde,
  0xc5, 0xed, 0xcd, 0x12, 0x04, 0xfe, 0xff, 0xb5, 0xad, 0xd9, 0x25, 0xb9,
  0x38, 0x13, 0x23, 0xd2, 0x12, 0xa6, 0x9f, 0xaf, 0x2e, 0x0f, 0x0f, 0xd3,
  0xcb, 0x18, 0x00, 0xe6, 0x4e, 0x0e, 0xcd, 0x0d, 0xb5, 0xd2, 0xdd, 0x02,
  0xd3, 0xe8, 0x2e, 0x09, 0xc7, 0x08, 0x85, 0xd5, 0x07, 0xdf, 0xbc, 0xbf,
  0xfc, 0xfb, 0xc2, 0xa4, 0xe0, 0xf6, 0xe3, 0xa8, 0x2a, 0xe1, 0xa7, 0x09,
  0xe0, 0x1b, 0x18, 0xbc, 0x3b, 0x35, 0xa7, 0xa9, 0x00, 0x39, 0xed, 0x3d,
  0x1f, 0x89, 0xad, 0x24, 0xf9, 0x42, 0xa9, 0x1f, 0xd2, 0xd6, 0x10, 0xee,
  0x0d, 0xe7, 0x81, 0xe1, 0xf3, 0xcd, 0xb0, 0x0b, 0x11, 0x08, 0x2c, 0xf0,
  0x8f, 0x07, 0xf9, 0x1a, 0x28, 0xe9, 0x42, 0x22, 0xd7, 0xc1, 0x0a, 0xaa,
  0xcc, 0x0e, 0xf9, 0xf0, 0xe4, 0x9c, 0xa1, 0x1f, 0xff, 0xd6, 0xed, 0x2f,
  0xb2, 0x2f, 0xc0, 0xa0, 0x18, 0xd3, 0x11, 0x0b, 0xdf, 0xd5, 0xe7, 0x3a,
  0x0a, 0x30, 0x2b, 0x10, 0x2a, 0xda, 0x17, 0xc0, 0xd1, 0x08, 0xe3, 0xec,
  0x0d, 0x23, 0x1c, 0xf0, 0xed, 0xf8, 0xe2, 0x1f, 0xf7, 0xce, 0x0a, 0x2c,
  0xfa, 0x28, 0x15, 0x0c, 0x1b, 0xfe, 0x2b, 0xd6, 0xf3, 0xe0, 0x2e, 0xf4,
  0x16, 0x12, 0xf7, 0xeb, 0x00, 0x2c, 0x0d, 0x1e, 0x03, 0x3f, 0x2a, 0x33,
  0xd6, 0x0a, 0xf4, 0x34, 0xdf, 0x2e, 0x06, 0xed, 0xbd, 0x21, 0xe2, 0xf3,
  0xc6, 0xec, 0xb9, 0x19, 0x2b, 0xf5, 0xdc, 0xc5, 0x1c, 0xd6, 0x0e, 0x19,
  0x04, 0xd8, 0x06, 0xf9, 0x17, 0xf0, 0xcf, 0xe8, 0x14, 0xe7, 0x13, 0xe0,
  0xf8, 0xd9, 0xdb, 0xe3, 0xa6, 0x0f, 0x23, 0x0b, 0xd8, 0x0d, 0x1c, 0xe7,
  0x0b, 0x1b, 0x0c, 0xf1, 0xfb, 0xf8, 0xfd, 0xdb, 0x15, 0x09, 0x1c, 0x5d,
  0xbd, 0x10, 0xc2, 0x03, 0x04, 0xf2, 0xc3, 0xe3, 0x2b, 0xe5, 0x30, 0x37,
  0x7f, 0x0c, 0xed, 0xf3, 0xba, 0x48, 0x29, 0xb3, 0xe3, 0xbd, 0x03, 0x05,
  0xe0, 0xea, 0x27, 0xe1, 0xec, 0xef, 0x0a, 0x3a, 0x03, 0x1d, 0xeb, 0xf3,
  0xae, 0xc5, 0xe7, 0xcd, 0xfe, 0x15, 0xc2, 0x28, 0xb5, 0x0c, 0x00, 0x06,
  0xd9, 0x04, 0x16, 0x16, 0x04, 0x0e, 0xf8, 0x02, 0x19, 0xe1, 0xdb, 0x47,
  0xf5, 0xe1, 0x58, 0x20, 0xe0, 0x22, 0xdc, 0x11, 0xfb, 0xe8, 0xfc, 0x00,
  0x03, 0x15, 0x07, 0x14, 0xf9, 0x16, 0xef, 0xe4, 0xd5, 0xe2, 0x17, 0x28,
  0x07, 0xd2, 0x0e, 0x01, 0x17, 0x2f, 0xfa, 0xdb, 0x0b, 0x2f, 0xf0, 0xe9,
  0x0b, 0x04, 0x12, 0xd6, 0x26, 0xec, 0x32, 0xbe, 0x05, 0x3e, 0xcc, 0x2b,
  0xc5, 0xf3, 0xe9, 0x0e, 0x0c, 0x0d, 0x05, 0xe1, 0x2e, 0xff, 0x3d, 0xf6,
  0x2e, 0xca, 0xfc, 0x11, 0xd0, 0xdd, 0x0c, 0x3b, 0x12, 0x48, 0xd2, 0xf3,
  0x2a, 0xf9, 0xf3, 0x1c, 0x3b, 0x31, 0x2d, 0xcf, 0x3a, 0xd9, 0x0b, 0x05,
  0xf7, 0x1d, 0x13, 0x02, 0x09, 0x02, 0xef, 0xe8, 0x3e, 0xef, 0x1a, 0xf3,
  0x3b, 0xf3, 0xf1, 0x18, 0xfa, 0xf9, 0x14, 0x2a, 0xfc, 0xe1, 0xf7, 0xd3,
  0x1e, 0x12, 0xcd, 0x09, 0x2b, 0xe7, 0x01, 0xd9, 0xe1, 0xf1, 0xd6, 0x21,
  0x04, 0xf9, 0x07, 0xf7, 0x2a, 0xef, 0xe9, 0x06, 0x0f, 0xdd, 0xf3, 0x34,
  0x1a, 0xd7, 0x22, 0xd9, 0xd3, 0xff, 0xe3, 0x26, 0xdb, 0x14, 0x08, 0xf0,
  0x08, 0x06, 0x3d, 0x31, 0xf6, 0xe3, 0xed, 0xe9, 0x05, 0x00, 0xcc, 0xee,
  0xea, 0x10, 0x10, 0xf8, 0xcb, 0x05, 0xff, 0xf1, 0xf9, 0xd3, 0xec, 0x0c,
  0xfd, 0xff, 0x09, 0xcf, 0x5b, 0x08, 0xec, 0xf4, 0xfe, 0xf7, 0x03, 0xd5,
  0xed, 0xd3, 0x02, 0xf9, 0x12, 0xfb, 0x12, 0x00, 0xf8, 0xc7, 0xfc, 0x01,
  0xf5, 0x1a, 0x2d, 0x0e, 0x0d, 0x0b, 0x03, 0x1a, 0xd6, 0xfb, 0xdf, 0x1e,
  0xe5, 0x03, 0x1c, 0x9e, 0x1c, 0xfc, 0x1a, 0xee, 0x3d, 0xf7, 0xe2, 0xce,
  0x13, 0xfb, 0xe8, 0xd6, 0x2e, 0x02, 0x09, 0xfa, 0xed, 0xe1, 0x1f, 0xc0,
  0x28, 0x15, 0xe6, 0x09, 0xf7, 0xe3, 0xe2, 0xf8, 0x24, 0xf4, 0xf4, 0xc8,
  0x07, 0xeb, 0x00, 0xd2, 0xe9, 0xe0, 0x17, 0x00, 0xe4, 0xf4, 0x1c, 0x16,
  0x0a, 0xf4, 0x00, 0xa9, 0x0a, 0x24, 0xd4, 0x2a, 0xe3, 0xfa, 0xbc, 0x14,
  0x18, 0xec, 0xc5, 0xf8, 0x11, 0xf3, 0x07, 0x22, 0x69, 0xf7, 0xfb, 0x10,
  0x01, 0x37, 0x11, 0xf8, 0x1f, 0x13, 0x0f, 0x15, 0xea, 0x10, 0x31, 0xef,
  0x12, 0xea, 0x11, 0xf9, 0xe4, 0x1c, 0xe4, 0x12, 0xe9, 0xec, 0x06, 0xeb,
  0x7f, 0x1f, 0x15, 0xb1, 0xfd, 0xf9, 0xe0, 0xf3, 0x10, 0x07, 0x0f, 0xff,
  0x45, 0x18, 0x1a, 0xfd, 0x35, 0x18, 0xf7, 0x05, 0xfa, 0xf3, 0xa6, 0x04,
  0xfe, 0x17, 0xef, 0xff, 0xf0, 0x03, 0x14, 0xf4, 0x14, 0xec, 0x06, 0x21,
  0xf7, 0x09, 0xc8, 0x2f, 0x1e, 0xf3, 0x26, 0x04, 0xe2, 0xe7, 0xf1, 0xf2,
  0xec, 0x17, 0xf5, 0x0d, 0x0e, 0xff, 0xf6, 0xf2, 0x06, 0xd1, 0x02, 0xf0,
  0xeb, 0x0c, 0xf1, 0x1a, 0x24, 0x0f, 0xee, 0x12, 0x14, 0xe5, 0xe7, 0x03,
  0xfa, 0x09, 0xe9, 0xf3, 0x00, 0xec, 0xd7, 0xe7, 0xea, 0x0e, 0x22, 0xcf,
  0x0a, 0xf5, 0xce, 0x11, 0xe2, 0x06, 0x14, 0xfe, 0x03, 0x08, 0xfc, 0x1c,
  0xfd, 0x23, 0xe0, 0x10, 0xf6, 0x1c, 0xd2, 0x13, 0xf2, 0x08, 0x1a, 0xeb,
  0x18, 0x04, 0x10, 0x0c, 0xd5, 0xf9, 0xed, 0xff, 0x11, 0xf3, 0xf8, 0x1d,
  0xfc, 0x15, 0xe9, 0xf3, 0xee, 0x23, 0x11, 0xed, 0xd3, 0x12, 0x0a, 0xcd,
  0x97, 0xf4, 0xeb, 0x16, 0x0c, 0xf9, 0xf6, 0x02, 0xfb, 0xff, 0x31, 0xe8,
  0x04, 0xfe, 0x0e, 0xf5, 0xf6, 0xce, 0x04, 0x10, 0x1d, 0xed, 0xe3, 0xc8,
  0x22, 0x01, 0x06, 0x2c, 0xc7, 0x14, 0xea, 0x07, 0xfe, 0xdf, 0xf7, 0x05,
  0x24, 0x01, 0x03, 0x2e, 0xdd, 0x12, 0x15, 0xf4, 0x00, 0xe1, 0xe9, 0x08,
  0xfe, 0x19, 0x0b, 0xf4, 0xf4, 0x10, 0x05, 0x04, 0xed, 0x14, 0xbe, 0xe6,
  0xf1, 0xdd, 0x11, 0xad, 0x18, 0xe8, 0xe6, 0xfb, 0x1e, 0x0b, 0x0d, 0x02,
  0xe8, 0x12, 0x16, 0xda, 0x2e, 0xf8, 0x17, 0xba, 0x3c, 0x13, 0x20, 0xf7,
  0x08, 0x04, 0x02, 0x0c, 0xf8, 0xef, 0x16, 0xe2, 0xe4, 0x10, 0x01, 0x01,
  0x0b, 0xf3, 0xf9, 0x0b, 0x33, 0x0e, 0x2a, 0x15, 0xf6, 0x1c, 0xfb, 0x0d,
  0x07, 0xaa, 0xd9, 0x00, 0xda, 0x09, 0xe6, 0x10, 0x2d, 0xe1, 0x2f, 0xb9,
  0xe4, 0x01, 0x13, 0xf9, 0xe0, 0x81, 0x03, 0xf1, 0x16, 0xfa, 0x16, 0x1e,
  0xc8, 0x19, 0x13, 0x07, 0xe0, 0xe2, 0xf1, 0x10, 0x02, 0xf0, 0xd4, 0xfd,
  0xcb, 0x0d, 0x22, 0xe0, 0x24, 0xf6, 0x14, 0xdc, 0x0a, 0x06, 0x25, 0xec,
  0xac, 0xfa, 0xe4, 0x06, 0x08, 0x12, 0xec, 0xed, 0x32, 0x03, 0xdb, 0x2b,
  0x16, 0x25, 0x02, 0xfa, 0x18, 0x81, 0x04, 0x13, 0xea, 0xe4, 0xf9, 0x0e,
  0x46, 0xbc, 0x3d, 0x0b, 0x13, 0xd6, 0xf3, 0xfe, 0x11, 0xd7, 0x1a, 0xf4,
  0x1b, 0x01, 0xdf, 0x1a, 0xf6, 0x0f, 0xfd, 0xf6, 0xc4, 0x05, 0x01, 0x0a,
  0x11, 0xfd, 0xc9, 0x10, 0x0e, 0x10, 0x1d, 0x0b, 0x4c, 0xf2, 0x16, 0xdd,
  0x11, 0x03, 0x14, 0xf0, 0x02, 0xfd, 0x2a, 0x01, 0x0b, 0x18, 0x00, 0x12,
  0xff, 0xf2, 0x37, 0xf9, 0xe3, 0x1a, 0xd5, 0xf3, 0x10, 0xee, 0x0a, 0x11,
  0x0a, 0xe2, 0xe7, 0x18, 0x0d, 0x0a, 0xf4, 0x18, 0xf9, 0x16, 0xfc, 0xf7,
  0xd4, 0xe6, 0x0d, 0x0b, 0xe1, 0xd8, 0x0c, 0x06, 0xfc, 0x07, 0x06, 0xf5,
  0xf1, 0xe0, 0x0c, 0xe8, 0xfd, 0xf0, 0xd0, 0xf8, 0xeb, 0x5e, 0x17, 0x16,
  0x06, 0x08, 0x0d, 0x12, 0xd7, 0xf7, 0xf8, 0xf3, 0xd0, 0x02, 0x0a, 0xbf,
  0x17, 0x23, 0x0a, 0xf5, 0xf7, 0x1a, 0x08, 0xd4, 0x0c, 0xe3, 0xef, 0x03,
  0x08, 0xf7, 0x1e, 0xfe, 0x1b, 0x0f, 0xec, 0xe5, 0x0b, 0x0d, 0x1c, 0xf8,
  0x19, 0x00, 0x26, 0x19, 0x15, 0x0a, 0x02, 0x10, 0x98, 0x25, 0xed, 0xfc,
  0x0b, 0xdd, 0x1b, 0xc6, 0x06, 0xd2, 0x0d, 0x00, 0xf4, 0xe7, 0xf7, 0xd9,
  0x1d, 0xe0, 0x0e, 0xf0, 0x11, 0xf4, 0xe0, 0x20, 0x12, 0x0d, 0x0f, 0x06,
  0x41, 0xdd, 0x03, 0xe3, 0x36, 0x14, 0x0a, 0xfd, 0x19, 0xf6, 0x2d, 0x02,
  0x1d, 0xfe, 0x15, 0x08, 0xc7, 0x25, 0x0e, 0xfd, 0x0d, 0xf7, 0x12, 0x33,
  0xf1, 0xcc, 0xd9, 0x15, 0xef, 0xf0, 0xf9, 0xb6, 0xf7, 0x24, 0x02, 0xfb,
  0xee, 0x26, 0x01, 0xd2, 0x02, 0x1a, 0xff, 0x0e, 0x13, 0x11, 0x13, 0xe0,
  0xe4, 0xd4, 0xcd, 0x10, 0xe5, 0x0e, 0x0b, 0x0b, 0xe0, 0x06, 0xf9, 0xec,
  0xe5, 0xf5, 0x04, 0xf2, 0xe2, 0x0d, 0x0e, 0xe8, 0x53, 0x1b, 0xfd, 0xdd,
  0x55, 0x31, 0xfc, 0x96, 0x1d, 0xf7, 0x25, 0xcf, 0x49, 0xee, 0xda, 0x2e,
  0x49, 0x51, 0xb2, 0xf5, 0x0a, 0xf2, 0x37, 0x18, 0x00, 0xbe, 0x0c, 0x10,
  0x7f, 0x12, 0x08, 0xce, 0xfb, 0xb2, 0xa7, 0xae, 0x2f, 0x2d, 0x27, 0x18,
  0xe7, 0x17, 0x1a, 0x0e, 0x38, 0xec, 0x27, 0xa5, 0x16, 0x26, 0x97, 0x5e,
  0xf5, 0xfa, 0xfa, 0x1d, 0x03, 0xfd, 0xcd, 0x06, 0x78, 0xe6, 0xf5, 0xde,
  0x68, 0xfa, 0x3c, 0x25, 0x2f, 0xd6, 0x05, 0xd2, 0x39, 0xe0, 0x01, 0xaf,
  0x0e, 0x06, 0xf3, 0x21, 0x14, 0x1a, 0x22, 0x1d, 0x0e, 0x4a, 0x09, 0x09,
  0x17, 0x1a, 0xfc, 0xfa, 0x3e, 0xf5, 0x09, 0xe0, 0x9b, 0xf0, 0xf0, 0x09,
  0x10, 0x01, 0x01, 0x13, 0x12, 0xcd, 0xc6, 0xe0, 0x16, 0x09, 0xfc, 0xeb,
  0x44, 0x39, 0x36, 0xf5, 0x20, 0xf9, 0xb1, 0xcc, 0x26, 0xfe, 0xfb, 0xeb,
  0x19, 0x16, 0xf5, 0x0e, 0x13, 0xc3, 0xe4, 0x1c, 0xe5, 0x1b, 0xe1, 0x21,
  0xea, 0x1a, 0xd3, 0x17, 0xd1, 0x0e, 0x18, 0x40, 0x30, 0xfe, 0x1d, 0xe5,
  0x56, 0x07, 0xd9, 0x0a, 0xfa, 0xf6, 0x03, 0x21, 0x41, 0x00, 0x35, 0xe9,
  0xe0, 0x14, 0x12, 0xdd, 0xfb, 0x3d, 0x22, 0xfb, 0x03, 0xd4, 0xda, 0xf9,
  0x20, 0x0c, 0x14, 0x44, 0x48, 0xc3, 0xbc, 0x40, 0x1b, 0x0d, 0xa6, 0x04,
  0xd4, 0xf8, 0x16, 0xc8, 0xb4, 0x2c, 0x0c, 0xfd, 0x2f, 0x04, 0xf4, 0x29,
  0x54, 0x0a, 0x37, 0x1d, 0xe9, 0x23, 0xdc, 0xf2, 0x01, 0xef, 0xf4, 0x33,
  0x70, 0xd0, 0xd9, 0x37, 0x04, 0xe9, 0xec, 0x16, 0x18, 0xf1, 0x21, 0x06,
  0x36, 0xe5, 0xee, 0x06, 0x3c, 0xeb, 0xa5, 0x46, 0xf5, 0x11, 0xd5, 0xe0,
  0xed, 0xf0, 0x35, 0x3a, 0x19, 0xf1, 0x28, 0x08, 0x40, 0xdf, 0xf7, 0xfb,
  0x0a, 0xd4, 0xfe, 0xb5, 0x1a, 0xfa, 0x10, 0xdf, 0x22, 0x24, 0x0d, 0x20,
  0xe1, 0xed, 0x1d, 0xe1, 0x53, 0x4e, 0x30, 0x8e, 0x07, 0xf6, 0x3a, 0x0e,
  0x49, 0x0a, 0xd9, 0xfa, 0xd7, 0x14, 0x02, 0x03, 0xe9, 0xe1, 0xfa, 0x35,
  0x02, 0x11, 0x51, 0xbe, 0xbf, 0x39, 0xbd, 0xfa, 0x15, 0xfd, 0xea, 0xce,
  0x68, 0xdc, 0x4c, 0x03, 0x2a, 0x31, 0xe2, 0x09, 0x05, 0x0f, 0x24, 0x02,
  0x02, 0x5e, 0xa0, 0x26, 0x1c, 0xc1, 0xd1, 0xfc, 0x1b, 0xa0, 0x3b, 0xb9,
  0xe4, 0xc1, 0xaf, 0x33, 0xa3, 0x17, 0x1f, 0x06, 0xf5, 0x34, 0x00, 0xe1,
  0x3a, 0xd7, 0xc8, 0xe3, 0x27, 0xf8, 0x03, 0x0a, 0x03, 0x5d, 0x28, 0xbd,
  0xf5, 0x00, 0x81, 0x0c, 0xf8, 0xde, 0xf6, 0xeb, 0xaa, 0x20, 0x11, 0xf2,
  0x90, 0x38, 0xc8, 0xda, 0x2a, 0x52, 0xfa, 0xed, 0xea, 0xec, 0x3d, 0xe9,
  0x41, 0x28, 0x0a, 0xd4, 0x0c, 0x48, 0x0e, 0xf6, 0x26, 0x3e, 0xab, 0x0f,
  0x6b, 0xef, 0x4b, 0x01, 0x27, 0x36, 0x0a, 0x15, 0x36, 0xf3, 0xfb, 0x0b,
  0x88, 0x31, 0xed, 0xb3, 0xee, 0xfc, 0x13, 0x30, 0xce, 0x11, 0x0d, 0x2d,
  0xf5, 0x48, 0xf7, 0x01, 0x2d, 0xf8, 0xd2, 0x17, 0x05, 0xe1, 0xfa, 0xdf,
  0x3b, 0xe7, 0x21, 0x17, 0xfb, 0x22, 0x2d, 0xd8, 0xe2, 0x0c, 0xee, 0xc1,
  0x02, 0xeb, 0xcd, 0x0a, 0xe9, 0xe6, 0xf7, 0xfa, 0xe1, 0xd8, 0x98, 0xe4,
  0x3a, 0xe6, 0xcd, 0xf9, 0xf4, 0xca, 0x4e, 0xe2, 0x01, 0x20, 0x35, 0x0c,
  0xe2, 0x0c, 0x11, 0x4c, 0x8c, 0x16, 0xdc, 0xfc, 0x1a, 0xe6, 0x01, 0xfb,
  0xec, 0x1d, 0xeb, 0x1b, 0xf6, 0xd8, 0x08, 0x1f, 0xc7, 0x0c, 0xdf, 0x15,
  0xef, 0x5c, 0xfd, 0xda, 0x03, 0x25, 0x0e, 0xf2, 0xed, 0xe6, 0xec, 0xd1,
  0xa5, 0xe2, 0xfa, 0xca, 0x19, 0x1a, 0x1a, 0xdd, 0x0d, 0x9e, 0x83, 0x01,
  0xda, 0xd7, 0x06, 0xa8, 0x21, 0x38, 0xf4, 0xa6, 0xc7, 0xf6, 0xac, 0x2a,
  0x2a, 0x0f, 0x35, 0xaa, 0xe7, 0x02, 0x0c, 0xf5, 0xdb, 0xf7, 0x03, 0xdc,
  0x0c, 0xfc, 0x2f, 0x12, 0xf6, 0xfe, 0xf3, 0x03, 0xfa, 0xf3, 0xff, 0xd4,
  0xf2, 0xd2, 0xff, 0xfe, 0xca, 0xf2, 0x19, 0x07, 0x0f, 0xf6, 0xc8, 0xff,
  0xfc, 0xe8, 0xf7, 0x0f, 0xac, 0x3c, 0x1e, 0xf2, 0x16, 0x07, 0xf5, 0x01,
  0x10, 0xff, 0xfa, 0x07, 0xef, 0x0f, 0x03, 0xe4, 0x04, 0x12, 0xf9, 0x09,
  0xf3, 0x0c, 0x06, 0x05, 0xea, 0xfe, 0xeb, 0x14, 0xf9, 0x12, 0x0d, 0x03,
  0xf5, 0xe7, 0xf4, 0xd1, 0x08, 0xff, 0x03, 0x08, 0xbe, 0x06, 0x0b, 0xe7,
  0x09, 0x25, 0x07, 0xfc, 0xde, 0xe4, 0xf4, 0xf5, 0xfd, 0xfc, 0xfc, 0x2b,
  0x18, 0x09, 0xfb, 0xff, 0x09, 0xee, 0xf0, 0x1b, 0xe5, 0x17, 0xe4, 0xde,
  0x18, 0xf9, 0xf5, 0xeb, 0xff, 0xea, 0x00, 0x0d, 0xcc, 0xe5, 0x00, 0x02,
  0xcb, 0x0f, 0x0b, 0x08, 0xf1, 0x1c, 0xdb, 0x10, 0xc5, 0x02, 0x0b, 0x02,
  0x00, 0x0c, 0xf6, 0xe3, 0xd3, 0xfb, 0xf6, 0xee, 0x02, 0xf9, 0x10, 0xfb,
  0xf6, 0x0b, 0x0f, 0x07, 0x08, 0xf4, 0x11, 0xe3, 0xfb, 0x06, 0xf4, 0x00,
  0x0f, 0xe8, 0x01, 0x0f, 0x05, 0x18, 0x2a, 0xe7, 0x13, 0xe7, 0x07, 0xfb,
  0xcd, 0x10, 0xf1, 0xf8, 0x09, 0xfd, 0x07, 0xd7, 0x05, 0xe5, 0x24, 0x81,
  0x02, 0xe1, 0xe5, 0x1a, 0xce, 0x12, 0xf7, 0x07, 0xd2, 0x08, 0xeb, 0x00,
  0xc9, 0x08, 0xf9, 0xfc, 0xe1, 0xf6, 0xf4, 0x07, 0xd0, 0x01, 0x0f, 0xf2,
  0xdf, 0xed, 0xf5, 0x23, 0xdf, 0x09, 0xed, 0xfc, 0xf2, 0xff, 0xf9, 0xf9,
  0x25, 0xed, 0xeb, 0x00, 0xf3, 0xe5, 0x0e, 0xf8, 0xbb, 0x03, 0x10, 0xf0,
  0x00, 0x22, 0xef, 0x2d, 0x04, 0x06, 0xed, 0xf2, 0x17, 0xfc, 0xe1, 0xd7,
  0xc9, 0x0d, 0x1e, 0xba, 0xd9, 0xd7, 0x3a, 0xfc, 0xee, 0x11, 0xfe, 0x1b,
  0xc2, 0x14, 0x28, 0xfd, 0xe2, 0x14, 0x05, 0xe0, 0x8e, 0xcd, 0xfb, 0x1c,
  0x28, 0x34, 0x16, 0x9c, 0x12, 0xdc, 0x1a, 0xdb, 0x47, 0xfa, 0xf7, 0xeb,
  0x30, 0xec, 0x0c, 0x3f, 0x18, 0xf5, 0xf9, 0x10, 0xf6, 0x36, 0x2d, 0x0f,
  0x09, 0x09, 0xe7, 0xf9, 0xd5, 0xd6, 0xcf, 0x14, 0x31, 0x12, 0x45, 0xb5,
  0xc5, 0x01, 0xf6, 0x3f, 0x14, 0x07, 0x08, 0x02, 0x33, 0x1c, 0xf0, 0x3c,
  0x4b, 0x81, 0xb2, 0x25, 0xfa, 0x0a, 0x62, 0xbc, 0xfc, 0x02, 0xda, 0xf3,
  0xb8, 0xf9, 0xe4, 0x23, 0x08, 0x03, 0xd8, 0xb8, 0x0b, 0x02, 0xde, 0xdc,
  0x08, 0xff, 0x22, 0x2d, 0x10, 0xb9, 0x25, 0xb6, 0x33, 0xf6, 0xe8, 0xe1,
  0x30, 0x0a, 0x15, 0x1c, 0x31, 0xd1, 0x13, 0x06, 0xf4, 0xf8, 0x0d, 0x19,
  0x27, 0x07, 0x2e, 0xb1, 0x16, 0xe5, 0x16, 0x18, 0x30, 0xe8, 0x0e, 0xcd,
  0xed, 0x04, 0x3e, 0xe6, 0x2c, 0xd7, 0xb8, 0x11, 0x14, 0x09, 0x35, 0x0d,
  0xfa, 0xea, 0x15, 0xeb, 0xbb, 0xed, 0xcc, 0x2a, 0xc8, 0x1d, 0x1a, 0xca,
  0xd3, 0x00, 0xed, 0x00, 0x24, 0xda, 0x1d, 0x23, 0x06, 0xbe, 0xe9, 0x08,
  0x2e, 0xfd, 0xe0, 0xf3, 0x1f, 0xdb, 0x0b, 0x27, 0x18, 0xf5, 0xf7, 0xf6,
  0xe8, 0x15, 0x0a, 0xfe, 0x0a, 0x11, 0xdb, 0xa5, 0xe7, 0x09, 0xe9, 0x3f,
  0x29, 0xec, 0x2d, 0xff, 0xd1, 0xc6, 0x02, 0x09, 0xe8, 0xe9, 0xe9, 0xc9,
  0xfb, 0xcf, 0x29, 0xe3, 0x0e, 0x09, 0x56, 0x0b, 0xb7, 0xff, 0xd1, 0x42,
  0xf8, 0x41, 0xf4, 0xc2, 0xf5, 0x00, 0xfd, 0xfb, 0x10, 0x0d, 0xf4, 0xff,
  0xff, 0xc3, 0xbf, 0x13, 0xdf, 0xb9, 0xa8, 0xfe, 0x0c, 0x6f, 0x22, 0xd5,
  0x32, 0x06, 0xc6, 0x1f, 0xf9, 0xc9, 0x0b, 0x0a, 0xda, 0xf3, 0x0f, 0x90,
  0x33, 0x08, 0x08, 0xe6, 0x36, 0xcf, 0x4d, 0x1c, 0x19, 0xaf, 0xe5, 0x18,
  0x17, 0x07, 0xe3, 0x8f, 0x20, 0xe7, 0xe3, 0x17, 0x23, 0x29, 0x57, 0xeb,
  0xcf, 0x0e, 0xf3, 0xeb, 0xc7, 0xd9, 0xfb, 0xeb, 0x0a, 0xed, 0x0d, 0x07,
  0xed, 0xf6, 0x02, 0x03, 0xcb, 0x16, 0xf3, 0xe1, 0x81, 0xf3, 0xe4, 0x0e,
  0x09, 0xe4, 0xf4, 0xf2, 0xe9, 0x1d, 0xe3, 0xe3, 0xdf, 0x04, 0xf7, 0x13,
  0xc1, 0x0c, 0x11, 0xf7, 0x0b, 0x28, 0xea, 0xf9, 0xe9, 0x09, 0x07, 0xf6,
  0x1a, 0xdd, 0x22, 0x00, 0xc5, 0xe5, 0xde, 0xd5, 0x09, 0x01, 0xe5, 0x0a,
  0xf9, 0xfe, 0x10, 0x0a, 0xfd, 0xf1, 0x09, 0x0a, 0xe0, 0xf0, 0xfd, 0x01,
  0xf0, 0x00, 0x28, 0xf1, 0xe7, 0x25, 0xea, 0xcd, 0xe8, 0xd2, 0x03, 0xd4,
  0xcc, 0x05, 0xb3, 0x0b, 0xce, 0x05, 0x19, 0x12, 0x0d, 0xf6, 0x19, 0x03,
  0x06, 0x08, 0xdc, 0x05, 0xe4, 0xf8, 0xe2, 0xf9, 0x0e, 0xea, 0x15, 0xfb,
  0x16, 0x11, 0x0c, 0x01, 0xeb, 0xf4, 0xf1, 0x24, 0xe7, 0x05, 0x11, 0x25,
  0xdd, 0x0a, 0x0a, 0x0a, 0xe1, 0x10, 0xf8, 0xf9, 0xe7, 0x01, 0x11, 0xf8,
  0xfa, 0x01, 0xfd, 0xfc, 0xfe, 0xf9, 0x13, 0xfb, 0xeb, 0xfd, 0xf9, 0x01,
  0x0c, 0x0b, 0x05, 0x08, 0x1a, 0x05, 0x1e, 0x05, 0xf1, 0xe6, 0xf4, 0x00,
  0xfb, 0x10, 0xd9, 0xff, 0x38, 0x0d, 0xff, 0xea, 0x11, 0xfc, 0xf1, 0xfe,
  0x02, 0x21, 0xde, 0x11, 0x20, 0xfc, 0xde, 0x11, 0xf5, 0x12, 0xc2, 0xcd,
  0xf6, 0xfa, 0x0d, 0xdd, 0xdb, 0xfd, 0x05, 0xf2, 0xfb, 0x12, 0xf7, 0xff,
  0x01, 0xef, 0xe0, 0xea, 0x01, 0xff, 0x04, 0xe6, 0xf2, 0x14, 0xf4, 0x0f,
  0xea, 0xfe, 0xea, 0xf1, 0xb8, 0xc3, 0x04, 0x14, 0xeb, 0x1a, 0x06, 0x0f,
  0xed, 0xe4, 0x19, 0x15, 0xb9, 0xdf, 0xea, 0x06, 0xe3, 0x1c, 0xda, 0x07,
  0x13, 0x17, 0x04, 0xf3, 0x20, 0xf1, 0x04, 0xe5, 0x11, 0x12, 0xf6, 0x17,
  0xe6, 0xf3, 0x21, 0x11, 0xf2, 0x0f, 0x0d, 0xeb, 0x1d, 0x01, 0x14, 0x00,
  0x1a, 0x1c, 0xfc, 0x03, 0x07, 0xe8, 0x15, 0xfc, 0x34, 0x1a, 0xf2, 0xf4,
  0xe4, 0x01, 0x0b, 0x0d, 0x01, 0xdb, 0x16, 0xf5, 0x30, 0xfd, 0xfd, 0x0f,
  0xf7, 0xed, 0xd7, 0xe8, 0x16, 0xfe, 0x26, 0x0b, 0x24, 0x0f, 0xeb, 0xe8,
  0xf9, 0x19, 0xdf, 0xe0, 0xe3, 0xf4, 0xf1, 0xc6, 0x07, 0x06, 0xdb, 0xee,
  0xf4, 0x0a, 0x0b, 0xef, 0x02, 0xd6, 0xc9, 0x08, 0x14, 0xc0, 0xd2, 0xa3,
  0xfe, 0xf6, 0x18, 0x06, 0x48, 0xfe, 0x36, 0xfe, 0xac, 0x13, 0xd0, 0x1e,
  0xd4, 0x08, 0x1d, 0xfa, 0xf2, 0xe2, 0xda, 0x24, 0x23, 0x25, 0x14, 0x0d,
  0x2a, 0x35, 0xb2, 0xf8, 0x1d, 0x09, 0xc7, 0xfc, 0xf8, 0x0a, 0x21, 0xd9,
  0xe7, 0x14, 0xfd, 0x28, 0xef, 0xf5, 0x1c, 0x2a, 0x0d, 0xf7, 0x94, 0xb6,
  0xff, 0x14, 0xec, 0x11, 0x1a, 0xe5, 0xbd, 0x21, 0xdb, 0xff, 0xee, 0xe5,
  0x34, 0x0d, 0xdb, 0xf0, 0xdb, 0xe3, 0x22, 0xfa, 0xf0, 0xed, 0x01, 0xb9,
  0xe1, 0x0a, 0x2b, 0x8a, 0x3f, 0xc7, 0xe3, 0xab, 0x02, 0x05, 0xee, 0x14,
  0x1c, 0xff, 0x1a, 0x08, 0xea, 0x5b, 0xea, 0xc1, 0x0c, 0xfd, 0xc2, 0x02,
  0x1d, 0xe2, 0x37, 0x12, 0x1c, 0xf5, 0x20, 0xf8, 0x0a, 0x07, 0xd7, 0xef,
  0x03, 0x16, 0xba, 0xe1, 0x1d, 0x0d, 0xf9, 0xee, 0x28, 0x11, 0x25, 0x06,
  0x1c, 0x21, 0x01, 0x4e, 0xf6, 0x01, 0xb8, 0x00, 0x11, 0xe4, 0xec, 0xf9,
  0x1c, 0xd4, 0x1e, 0xd1, 0xe3, 0xe9, 0x2a, 0x24, 0xfa, 0x26, 0x07, 0x81,
  0x1c, 0x9c, 0x23, 0xf9, 0x15, 0xc7, 0x41, 0xe6, 0x10, 0x46, 0x23, 0x24,
  0xe2, 0x0f, 0xe1, 0x09, 0xc4, 0x06, 0x0e, 0x2e, 0xff, 0x01, 0x0d, 0x13,
  0xef, 0x21, 0x1b, 0xfc, 0x9f, 0x24, 0x00, 0x08, 0x0d, 0x16, 0xe5, 0x3a,
  0x16, 0x3c, 0x0d, 0x48, 0xf9, 0xee, 0xe4, 0x23, 0xde, 0x01, 0x01, 0x0d,
  0xdc, 0x0e, 0x10, 0xe5, 0x44, 0x01, 0x08, 0x20, 0x02, 0xe5, 0x03, 0x17,
  0x47, 0x1d, 0x20, 0x66, 0x0f, 0x03, 0x0d, 0xfd, 0x00, 0xf1, 0xf5, 0x04,
  0x98, 0x15, 0x09, 0x27, 0xe9, 0x22, 0x35, 0x05, 0x1a, 0x11, 0x09, 0x19,
  0xfe, 0xed, 0x02, 0x03, 0x09, 0x27, 0xec, 0xff, 0x48, 0xf1, 0x03, 0x0f,
  0xdb, 0xda, 0x35, 0x11, 0x34, 0xc7, 0xdd, 0xfd, 0x23, 0x15, 0x0d, 0xde,
  0x0a, 0xf0, 0x17, 0x37, 0x14, 0x19, 0x23, 0x1c, 0xb8, 0x2f, 0xd4, 0x1e,
  0x0c, 0xc9, 0xe4, 0xf8, 0x00, 0x35, 0xe6, 0x65, 0xf0, 0xfb, 0xf7, 0xda,
  0x05, 0x07, 0x35, 0x47, 0x21, 0x2f, 0x12, 0x0b, 0xe7, 0xe3, 0x24, 0x0a,
  0x24, 0x35, 0x02, 0x2d, 0x04, 0xbb, 0xda, 0xe8, 0x12, 0xd5, 0xdd, 0xf1,
  0x05, 0x1c, 0x10, 0x11, 0xfe, 0xd6, 0x14, 0x11, 0x28, 0x04, 0x35, 0xea,
  0x1a, 0x30, 0xd1, 0x54, 0x04, 0x0e, 0x0e, 0x57, 0xf8, 0x12, 0x22, 0x2f,
  0x1b, 0x16, 0x04, 0x28, 0x40, 0x32, 0xf0, 0x24, 0x39, 0x40, 0x2c, 0x20,
  0xd5, 0xfd, 0xfd, 0xe9, 0xd6, 0x01, 0x37, 0x4d, 0x12, 0x03, 0x14, 0x23,
  0x0c, 0xde, 0x2f, 0x1d, 0xcb, 0x04, 0x0d, 0xfd, 0xf5, 0xf9, 0xd3, 0x22,
  0x44, 0xfd, 0xfd, 0x01, 0xf9, 0xf5, 0xf9, 0x25, 0x07, 0xfa, 0xe0, 0x2b,
  0xd1, 0xf4, 0xf3, 0x1a, 0x04, 0xfd, 0xda, 0x3c, 0x05, 0xe8, 0x10, 0xcb,
  0xe9, 0x1c, 0x13, 0x24, 0x61, 0x0e, 0xe6, 0xf1, 0x03, 0xee, 0x19, 0xf6,
  0x15, 0xad, 0xf5, 0x43, 0x09, 0xea, 0xde, 0xfc, 0xdc, 0x12, 0x02, 0x43,
  0x1a, 0x07, 0x1f, 0x1b, 0x07, 0x09, 0x12, 0x07, 0xe7, 0x43, 0xfb, 0x02,
  0xbc, 0x0e, 0x21, 0x06, 0x2f, 0xf8, 0x18, 0xe5, 0xc4, 0xfe, 0xea, 0x33,
  0x1c, 0xc4, 0xe1, 0xd3, 0x17, 0xda, 0xf2, 0xeb, 0x55, 0x69, 0x1e, 0x28,
  0x08, 0x27, 0x4b, 0xf6, 0x65, 0x12, 0xca, 0x16, 0x7f, 0xf9, 0xff, 0xdc,
  0xce, 0xee, 0x05, 0x0a, 0x46, 0xd6, 0x07, 0xc2, 0xf2, 0xe9, 0x0d, 0xff,
  0xde, 0x07, 0xe9, 0x11, 0xf5, 0x2e, 0x0b, 0xec, 0xe5, 0x01, 0x07, 0x1d,
  0x09, 0xfc, 0xfd, 0x2b, 0xfc, 0x04, 0x16, 0xdb, 0xb4, 0xf9, 0x18, 0x11,
  0x12, 0x14, 0x0c, 0xe5, 0xe8, 0x23, 0x03, 0xff, 0x1e, 0x26, 0x12, 0x24,
  0x04, 0x07, 0x1d, 0xf7, 0x36, 0xd1, 0xa5, 0xf4, 0x28, 0x09, 0x0e, 0xef,
  0xdb, 0x28, 0xed, 0xf9, 0x0e, 0xf0, 0xc3, 0x12, 0x1e, 0xdd, 0x03, 0xda,
  0xf7, 0x0f, 0x03, 0xef, 0x0e, 0x0e, 0xf8, 0xed, 0x10, 0xfb, 0x00, 0xf1,
  0xee, 0x0d, 0x01, 0x06, 0xec, 0xf5, 0xff, 0x18, 0x19, 0x01, 0x25, 0xea,
  0xe8, 0xce, 0x29, 0xf6, 0xe2, 0xfc, 0x07, 0xed, 0xeb, 0x2e, 0xff, 0x05,
  0xe3, 0x06, 0xfe, 0xf1, 0xe5, 0x16, 0xf5, 0x17, 0xea, 0x0c, 0xe1, 0x08,
  0xc8, 0xf9, 0xf9, 0x0d, 0x8b, 0x0e, 0xeb, 0xfb, 0x01, 0xfc, 0xee, 0x0a,
  0xbd, 0x1a, 0xf8, 0xc9, 0xeb, 0x0f, 0xf5, 0x0c, 0xf1, 0x00, 0x16, 0xef,
  0x16, 0xcd, 0x09, 0xf1, 0x53, 0x1c, 0x10, 0x03, 0xdd, 0xf2, 0x0f, 0x00,
  0xcc, 0xe8, 0xf7, 0x0a, 0xd5, 0x01, 0xdb, 0x08, 0xf1, 0xf4, 0xfe, 0xd9,
  0x0b, 0x09, 0xf1, 0xe4, 0x19, 0xe6, 0xc4, 0xc9, 0xd7, 0xcf, 0xf3, 0xe4,
  0x16, 0x1c, 0xe5, 0xf5, 0xec, 0xf5, 0x19, 0x0d, 0x19, 0xf6, 0x12, 0x00,
  0xb9, 0xf2, 0x13, 0x0e, 0xaa, 0xf3, 0xf5, 0x05, 0x22, 0x23, 0xe2, 0x04,
  0xf4, 0x04, 0xf9, 0xf5, 0xa5, 0x81, 0x0a, 0x17, 0xb4, 0xe0, 0xa6, 0x0e,
  0xe6, 0x14, 0xf7, 0x05, 0xa7, 0xe7, 0xe6, 0x22, 0xb7, 0x0d, 0xea, 0x17,
  0xa7, 0x0c, 0xf5, 0xea, 0x0d, 0x02, 0x23, 0xda, 0x0f, 0xe3, 0xe3, 0xdb,
  0xf3, 0xb4, 0x1a, 0xd7, 0xfe, 0x0d, 0x03, 0xd9, 0xce, 0x11, 0xe7, 0x14,
  0xcf, 0x1f, 0x09, 0x02, 0xe3, 0x99, 0xc7, 0x07, 0x14, 0x1c, 0xeb, 0xc6,
  0x0c, 0xca, 0xca, 0xc5, 0xfd, 0x00, 0xb4, 0x5b, 0xc4, 0x1f, 0xdf, 0xff,
  0x25, 0xf7, 0xc2, 0x3d, 0xac, 0xb6, 0xfb, 0x05, 0xc3, 0x05, 0x9f, 0xb7,
  0xa6, 0x20, 0x93, 0x95, 0x51, 0xa8, 0x3d, 0x07, 0xfc, 0xf0, 0x8f, 0xe2,
  0x34, 0xfb, 0x24, 0xff, 0xd8, 0xfe, 0x23, 0xa8, 0x1e, 0x17, 0xef, 0xd6,
  0x32, 0xd9, 0xb6, 0xe1, 0x36, 0x16, 0x14, 0x23, 0xcc, 0x87, 0x1e, 0xab,
  0xb3, 0x1f, 0x00, 0xeb, 0xcc, 0x04, 0x1d, 0x12, 0xf1, 0xea, 0xbd, 0x1c,
  0xe6, 0xde, 0x34, 0x34, 0xc8, 0xbf, 0x44, 0x11, 0x06, 0xb2, 0x84, 0x08,
  0x3c, 0xa3, 0xc1, 0xe6, 0x0a, 0xbd, 0x2d, 0xff, 0x5d, 0xd9, 0xf9, 0xac,
  0xd6, 0xd9, 0xe7, 0xb0, 0x1e, 0xa6, 0xdf, 0xfc, 0xcd, 0x1a, 0xd0, 0xf7,
  0xc8, 0xd8, 0x0b, 0xd6, 0x02, 0x0d, 0xf7, 0xfc, 0xdc, 0x81, 0xf1, 0x10,
  0x8c, 0xa7, 0xe1, 0x89, 0xbc, 0xab, 0xe7, 0xd3, 0x20, 0x09, 0xfe, 0x81,
  0xd7, 0xb5, 0xc5, 0xbd, 0xa7, 0x19, 0xcf, 0x1b, 0xbb, 0x93, 0x19, 0x8c,
  0xda, 0xc9, 0x14, 0x36, 0x10, 0x0d, 0x22, 0x0d, 0xbe, 0x15, 0x00, 0xeb,
  0xae, 0x05, 0xcf, 0xaa, 0xf8, 0xe4, 0xc7, 0x89, 0xea, 0xd7, 0xb2, 0x19,
  0xc5, 0xb5, 0xd8, 0x4a, 0xad, 0x40, 0x37, 0xe9, 0xe7, 0xbe, 0x0b, 0xc5,
  0x44, 0xb9, 0x23, 0xc8, 0x1a, 0x1b, 0xf2, 0xf2, 0x25, 0xb2, 0xc0, 0x0b,
  0xd3, 0x01, 0xb4, 0xa0, 0x0b, 0x91, 0xc0, 0x06, 0xe2, 0x56, 0x09, 0x40,
  0x0f, 0xc3, 0xb2, 0x41, 0xbf, 0xb5, 0x99, 0xc4, 0xc4, 0xed, 0x8d, 0x21,
  0xe4, 0xc7, 0xd5, 0x28, 0xdb, 0x35, 0xd1, 0xe0, 0xe0, 0x9b, 0xb6, 0x18,
  0xda, 0x9a, 0xc9, 0x9d, 0x19, 0xfc, 0xf7, 0xc2, 0x0d, 0xc1, 0x2b, 0x9b,
  0x33, 0x1f, 0xcf, 0x81, 0xc1, 0xaa, 0xd1, 0xe3, 0x20, 0x01, 0xfd, 0xdf,
  0xd9, 0x0c, 0xe7, 0xe9, 0xe6, 0xf1, 0x26, 0xeb, 0xf0, 0x04, 0xd1, 0xec,
  0xd0, 0xef, 0xec, 0xd4, 0xed, 0xc2, 0x40, 0x10, 0x10, 0x06, 0x11, 0x1c,
  0x21, 0xec, 0xec, 0x03, 0xf7, 0xef, 0xea, 0xfe, 0xcc, 0xdb, 0x02, 0x0e,
  0xec, 0xf6, 0xfe, 0xda, 0xad, 0xe7, 0x19, 0x1b, 0x0a, 0xe9, 0xaf, 0xfe,
  0x06, 0x14, 0xf7, 0xdc, 0xcd, 0xfc, 0x0d, 0xf0, 0x2f, 0xf2, 0xe1, 0xd8,
  0x12, 0xf0, 0xf9, 0x13, 0xe9, 0xfa, 0x02, 0xa0, 0x2d, 0xb4, 0xf7, 0xe3,
  0x1f, 0x0a, 0x20, 0x01, 0xde, 0x1b, 0x09, 0x22, 0xe0, 0x34, 0x1e, 0xfe,
  0x0f, 0x22, 0xb4, 0x28, 0x32, 0xf8, 0x0f, 0x11, 0xe2, 0xfa, 0x10, 0x0b,
  0xb6, 0xc3, 0xe8, 0x81, 0xf4, 0xc1, 0xf8, 0xe2, 0xe8, 0x01, 0xf1, 0x0c,
  0xf8, 0xda, 0xfc, 0xb5, 0xef, 0x09, 0xe6, 0x96, 0x06, 0x11, 0xf4, 0xe7,
  0x06, 0x0c, 0x1e, 0x01, 0x34, 0xea, 0x00, 0x19, 0x3d, 0xe7, 0xe7, 0x00,
  0xfc, 0x02, 0x1a, 0x18, 0x2b, 0x1a, 0x1b, 0x22, 0x30, 0x27, 0x06, 0xf8,
  0x19, 0x10, 0xff, 0x27, 0x24, 0xff, 0xed, 0xb8, 0x11, 0x0a, 0x04, 0x06,
  0xf6, 0xfa, 0x2f, 0xd1, 0x0c, 0x24, 0xde, 0xd2, 0x19, 0x06, 0xd7, 0x1a,
  0x29, 0x07, 0xeb, 0x10, 0x27, 0xd0, 0xd3, 0xe9, 0xf7, 0x17, 0xe8, 0x13,
  0x23, 0xe1, 0x0b, 0xfa, 0x0a, 0x16, 0x41, 0xe7, 0xda, 0xf7, 0x13, 0x05,
  0x48, 0x34, 0x30, 0x21, 0xdf, 0x17, 0x0a, 0x01, 0x11, 0x04, 0xf3, 0x29,
  0xdc, 0xae, 0xfb, 0x43, 0x15, 0xf8, 0xf0, 0x13, 0xf7, 0xcf, 0xff, 0x1b,
  0x00, 0x11, 0x06, 0x1f, 0x2b, 0x19, 0x23, 0x03, 0xe0, 0x0a, 0xd4, 0x05,
  0x19, 0x0c, 0xfb, 0x3d, 0x00, 0xde, 0xfa, 0x1d, 0x25, 0xf4, 0xe3, 0x0d,
  0x09, 0x0c, 0x08, 0xc0, 0x2c, 0xf0, 0x04, 0xf6, 0xf4, 0x02, 0xe0, 0xfc,
  0xca, 0xf4, 0xff, 0xff, 0x00, 0x00, 0x00, 0x09, 0x10, 0x00, 0x00, 0x00,
  0x08, 0x00, 0x00, 0x00, 0x1c, 0x00, 0x00, 0x00, 0x40, 0x00, 0x00, 0x00,
  0x04, 0x00, 0x00, 0x00, 0x14, 0x00, 0x00, 0x00, 0x04, 0x00, 0x00, 0x00,
  0x02, 0x00, 0x00, 0x00, 0x20, 0x00, 0x00, 0x00, 0x23, 0x00, 0x00, 0x00,
  0x73, 0x65, 0x71, 0x75, 0x65, 0x6e, 0x74, 0x69, 0x61, 0x6c, 0x5f, 0x38,
  0x2f, 0x71, 0x75, 0x61, 0x6e, 0x74, 0x5f, 0x63, 0x6f, 0x6e, 0x76, 0x32,
  0x64, 0x5f, 0x33, 0x33, 0x2f, 0x43, 0x6f, 0x6e, 0x76, 0x32, 0x44, 0x00,
  0xd0, 0xf5, 0xff, 0xff, 0x08, 0x00, 0x00, 0x00, 0x58, 0x00, 0x00, 0x00,
  0x14, 0x00, 0x00, 0x00, 0x8b, 0x92, 0x01, 0x3c, 0x3b, 0x28, 0x14, 0x3c,
  0x3a, 0x0c, 0x4d, 0x3c, 0x70, 0x1e, 0x29, 0x3c, 0x85, 0x21, 0x38, 0x3c,
  0x90, 0x8e, 0xad, 0x3a, 0x12, 0x10, 0x2a, 0x3c, 0x06, 0x98, 0x66, 0x3c,
  0xab, 0xb4, 0x87, 0x3c, 0x61, 0x95, 0x6b, 0x3c, 0x81, 0x28, 0x20, 0x3c,
  0xdb, 0x12, 0x10, 0x3c, 0x39, 0x27, 0x92, 0x3c, 0xfd, 0x8e, 0x2e, 0x3c,
  0x1c, 0xd7, 0x8d, 0x3c, 0x34, 0x92, 0x54, 0x3c, 0x09, 0xb0, 0x1b, 0x3c,
  0xa9, 0xb8, 0x64, 0x3c, 0x90, 0xcd, 0xb9, 0x3a, 0xca, 0xe5, 0x74, 0x3c,
  0x14, 0x00, 0x00, 0x00, 0x00, 0x00, 0x00, 0x00, 0x00, 0x00, 0x00, 0x00,
  0x00, 0x00, 0x00, 0x00, 0x00, 0x00, 0x00, 0x00, 0x00, 0x00, 0x00, 0x00,
  0x00, 0x00, 0x00, 0x00, 0x00, 0x00, 0x00, 0x00, 0x00, 0x00, 0x00, 0x00,
  0x00, 0x00, 0x00, 0x00, 0x00, 0x00, 0x00, 0x00, 0x00, 0x00, 0x00, 0x00,
  0x00, 0x00, 0x00, 0x00, 0x00, 0x00, 0x00, 0x00, 0x00, 0x00, 0x00, 0x00,
  0x00, 0x00, 0x00, 0x00, 0x00, 0x00, 0x00, 0x00, 0x00, 0x00, 0x00, 0x00,
  0x00, 0x00, 0x00, 0x00, 0x00, 0x00, 0x00, 0x00, 0x00, 0x00, 0x00, 0x00,
  0x00, 0x00, 0x00, 0x00, 0x00, 0x00, 0x00, 0x00, 0x00, 0x00, 0x00, 0x00,
  0x00, 0x00, 0x00, 0x00, 0x00, 0x00, 0x00, 0x00, 0x00, 0x00, 0x00, 0x00,
  0x00, 0x00, 0x00, 0x00, 0x00, 0x00, 0x00, 0x00, 0x00, 0x00, 0x00, 0x00,
  0x00, 0x00, 0x00, 0x00, 0x00, 0x00, 0x00, 0x00, 0x00, 0x00, 0x00, 0x00,
  0x00, 0x00, 0x00, 0x00, 0x00, 0x00, 0x00, 0x00, 0x00, 0x00, 0x00, 0x00,
  0x00, 0x00, 0x00, 0x00, 0x00, 0x00, 0x00, 0x00, 0x00, 0x00, 0x00, 0x00,
  0x00, 0x00, 0x00, 0x00, 0x00, 0x00, 0x00, 0x00, 0x00, 0x00, 0x00, 0x00,
  0x00, 0x00, 0x0e, 0x00, 0x18, 0x00, 0x08, 0x00, 0x0c, 0x00, 0x10, 0x00,
  0x07, 0x00, 0x14, 0x00, 0x0e, 0x00, 0x00, 0x00, 0x00, 0x00, 0x00, 0x01,
  0x01, 0x00, 0x00, 0x00, 0x30, 0x00, 0x00, 0x00, 0x24, 0x00, 0x00, 0x00,
  0x10, 0x00, 0x00, 0x00, 0x0c, 0x00, 0x10, 0x00, 0x0e, 0x00, 0x04, 0x00,
  0x08, 0x00, 0x0f, 0x00, 0x0c, 0x00, 0x00, 0x00, 0x01, 0x00, 0x00, 0x00,
  0x01, 0x00, 0x00, 0x00, 0x00, 0x00, 0x01, 0x01, 0x01, 0x00, 0x00, 0x00,
  0x06, 0x00, 0x00, 0x00, 0x03, 0x00, 0x00, 0x00, 0x03, 0x00, 0x00, 0x00,
  0x04, 0x00, 0x00, 0x00, 0x05, 0x00, 0x00, 0x00, 0xb8, 0xf8, 0xff, 0xff,
  0x03, 0x00, 0x00, 0x00, 0x00, 0x00, 0x00, 0x03, 0x03, 0x00, 0x00, 0x00,
  0xac, 0xf8, 0xff, 0xff, 0x00, 0x00, 0x00, 0x09, 0x14, 0x00, 0x00, 0x00,
  0x07, 0x00, 0x00, 0x00, 0x34, 0x00, 0x00, 0x00, 0xdc, 0x00, 0x00, 0x00,
  0x18, 0x00, 0x00, 0x00, 0x04, 0x00, 0x00, 0x00, 0x01, 0x00, 0x00, 0x00,
  0x3b, 0x00, 0x00, 0x00, 0x02, 0x00, 0x00, 0x00, 0x20, 0x00, 0x00, 0x00,
  0x04, 0x00, 0x00, 0x00, 0xff, 0xff, 0xff, 0xff, 0x3b, 0x00, 0x00, 0x00,
  0x02, 0x00, 0x00, 0x00, 0x20, 0x00, 0x00, 0x00, 0xa6, 0x00, 0x00, 0x00,
  0x73, 0x65, 0x71, 0x75, 0x65, 0x6e, 0x74, 0x69, 0x61, 0x6c, 0x5f, 0x38,
  0x2f, 0x71, 0x75, 0x61, 0x6e, 0x74, 0x5f, 0x72, 0x65, 0x5f, 0x6c, 0x75,
  0x5f, 0x33, 0x32, 0x2f, 0x52, 0x65, 0x6c, 0x75, 0x3b, 0x73, 0x65, 0x71,
  0x75, 0x65, 0x6e, 0x74, 0x69, 0x61, 0x6c, 0x5f, 0x38, 0x2f, 0x71, 0x75,
  0x61, 0x6e, 0x74, 0x5f, 0x63, 0x6f, 0x6e, 0x76, 0x32, 0x64, 0x5f, 0x33,
  0x32, 0x2f, 0x42, 0x69, 0x61, 0x73, 0x41, 0x64, 0x64, 0x3b, 0x73, 0x65,
  0x71, 0x75, 0x65, 0x6e, 0x74, 0x69, 0x61, 0x6c, 0x5f, 0x38, 0x2f, 0x71,
  0x75, 0x61, 0x6e, 0x74, 0x5f, 0x63, 0x6f, 0x6e, 0x76, 0x32, 0x64, 0x5f,
  0x33, 0x32, 0x2f, 0x43, 0x6f, 0x6e, 0x76, 0x32, 0x44, 0x3b, 0x73, 0x65,
  0x71, 0x75, 0x65, 0x6e, 0x74, 0x69, 0x61, 0x6c, 0x5f, 0x38, 0x2f, 0x71,
  0x75, 0x61, 0x6e, 0x74, 0x5f, 0x63, 0x6f, 0x6e, 0x76, 0x32, 0x64, 0x5f,
  0x33, 0x32, 0x2f, 0x42, 0x69, 0x61, 0x73, 0x41, 0x64, 0x64, 0x2f, 0x52,
  0x65, 0x61, 0x64, 0x56, 0x61, 0x72, 0x69, 0x61, 0x62, 0x6c, 0x65, 0x4f,
  0x70, 0x2f, 0x72, 0x65, 0x73, 0x6f, 0x75, 0x72, 0x63, 0x65, 0x00, 0x00,
  0x34, 0xf8, 0xff, 0xff, 0x08, 0x00, 0x00, 0x00, 0x0c, 0x00, 0x00, 0x00,
  0x01, 0x00, 0x00, 0x00, 0xf3, 0xe7, 0x72, 0x3b, 0x01, 0x00, 0x00, 0x00,
  0x80, 0xff, 0xff, 0xff, 0xff, 0xff, 0xff, 0xff, 0x00, 0x00, 0x00, 0x00,
  0xc2, 0xf7, 0xff, 0xff, 0x04, 0x00, 0x00, 0x00, 0x80, 0x00, 0x00, 0x00,
  0x79, 0xd4, 0xff, 0xff, 0x03, 0xe3, 0xff, 0xff, 0xd4, 0xf8, 0xff, 0xff,
  0x38, 0xeb, 0xff, 0xff, 0x79, 0xd5, 0xff, 0xff, 0xef, 0xf9, 0xff, 0xff,
  0xa4, 0xef, 0xff, 0xff, 0x27, 0xd8, 0xff, 0xff, 0x03, 0xf6, 0xff, 0xff,
  0xe7, 0xfe, 0xff, 0xff, 0xcd, 0xf5, 0xff, 0xff, 0x8c, 0xff, 0xff, 0xff,
  0x2a, 0xec, 0xff, 0xff, 0xdf, 0x03, 0x00, 0x00, 0x8b, 0xf9, 0xff, 0xff,
  0xc1, 0xd3, 0xff, 0xff, 0xaa, 0xda, 0xff, 0xff, 0x91, 0xd4, 0xff, 0xff,
  0x89, 0xf7, 0xff, 0xff, 0xaa, 0xe0, 0xff, 0xff, 0x0d, 0xe1, 0xff, 0xff,
  0x52, 0xf5, 0xff, 0xff, 0x82, 0xeb, 0xff, 0xff, 0xeb, 0xfc, 0xff, 0xff,
  0x99, 0xec, 0xff, 0xff, 0x2b, 0xfb, 0xff, 0xff, 0xac, 0xe6, 0xff, 0xff,
  0x43, 0xf9, 0xff, 0xff, 0xc0, 0xbf, 0xff, 0xff, 0x29, 0x03, 0x00, 0x00,
  0xc5, 0xdf, 0xff, 0xff, 0xe2, 0x03, 0x00, 0x00, 0x32, 0xf8, 0xff, 0xff,
  0x00, 0x00, 0x00, 0x02, 0x10, 0x00, 0x00, 0x00, 0x06, 0x00, 0x00, 0x00,
  0x10, 0x00, 0x00, 0x00, 0x50, 0x00, 0x00, 0x00, 0x01, 0x00, 0x00, 0x00,
  0x20, 0x00, 0x00, 0x00, 0x3c, 0x00, 0x00, 0x00, 0x73, 0x65, 0x71, 0x75,
  0x65, 0x6e, 0x74, 0x69, 0x61, 0x6c, 0x5f, 0x38, 0x2f, 0x71, 0x75, 0x61,
  0x6e, 0x74, 0x5f, 0x63, 0x6f, 0x6e, 0x76, 0x32, 0x64, 0x5f, 0x33, 0x32,
  0x2f, 0x42, 0x69, 0x61, 0x73, 0x41, 0x64, 0x64, 0x2f, 0x52, 0x65, 0x61,
  0x64, 0x56, 0x61, 0x72, 0x69, 0x61, 0x62, 0x6c, 0x65, 0x4f, 0x70, 0x2f,
  0x72, 0x65, 0x73, 0x6f, 0x75, 0x72, 0x63, 0x65, 0x00, 0x00, 0x00, 0x00,
  0x48, 0xf9, 0xff, 0xff, 0x08, 0x00, 0x00, 0x00, 0x88, 0x00, 0x00, 0x00,
  0x20, 0x00, 0x00, 0x00, 0xa6, 0xf2, 0x86, 0x37, 0x18, 0xa3, 0x38, 0x37,
  0xa8, 0x33, 0x8f, 0x37, 0xde, 0x2e, 0x36, 0x37, 0xc0, 0xe8, 0xa8, 0x37,
  0xfe, 0x00, 0xa5, 0x37, 0xe0, 0xae, 0x95, 0x37, 0x5a, 0xec, 0x97, 0x37,
  0x62, 0xe5, 0x66, 0x37, 0x1e, 0x39, 0xa0, 0x37, 0xab, 0x41, 0x6b, 0x37,
  0x2b, 0xcb, 0x95, 0x37, 0x23, 0x53, 0x8d, 0x37, 0x54, 0xc0, 0x6e, 0x37,
  0x70, 0x9f, 0xa4, 0x37, 0x30, 0xe2, 0x93, 0x37, 0x79, 0xa2, 0x70, 0x37,
  0xc0, 0x3d, 0x97, 0x37, 0x9b, 0xed, 0xa0, 0x37, 0x8a, 0xc4, 0x74, 0x37,
  0x07, 0x42, 0x98, 0x37, 0xe1, 0xbe, 0x87, 0x37, 0xab, 0x20, 0x97, 0x37,
  0xc8, 0x84, 0xb2, 0x37, 0x96, 0x9e, 0xb6, 0x37, 0xd8, 0xa4, 0x7e, 0x37,
  0xfb, 0xed, 0x7f, 0x37, 0xd8, 0xfb, 0x90, 0x37, 0x96, 0x34, 0x71, 0x37,
  0x95, 0x45, 0x82, 0x37, 0x75, 0xcc, 0x4a, 0x37, 0xe0, 0xbc, 0x7f, 0x37,
  0x20, 0x00, 0x00, 0x00, 0x00, 0x00, 0x00, 0x00, 0x00, 0x00, 0x00, 0x00,
  0x00, 0x00, 0x00, 0x00, 0x00, 0x00, 0x00, 0x00, 0x00, 0x00, 0x00, 0x00,
  0x00, 0x00, 0x00, 0x00, 0x00, 0x00, 0x00, 0x00, 0x00, 0x00, 0x00, 0x00,
  0x00, 0x00, 0x00, 0x00, 0x00, 0x00, 0x00, 0x00, 0x00, 0x00, 0x00, 0x00,
  0x00, 0x00, 0x00, 0x00, 0x00, 0x00, 0x00, 0x00, 0x00, 0x00, 0x00, 0x00,
  0x00, 0x00, 0x00, 0x00, 0x00, 0x00, 0x00, 0x00, 0x00, 0x00, 0x00, 0x00,
  0x00, 0x00, 0x00, 0x00, 0x00, 0x00, 0x00, 0x00, 0x00, 0x00, 0x00, 0x00,
  0x00, 0x00, 0x00, 0x00, 0x00, 0x00, 0x00, 0x00, 0x00, 0x00, 0x00, 0x00,
  0x00, 0x00, 0x00, 0x00, 0x00, 0x00, 0x00, 0x00, 0x00, 0x00, 0x00, 0x00,
  0x00, 0x00, 0x00, 0x00, 0x00, 0x00, 0x00, 0x00, 0x00, 0x00, 0x00, 0x00,
  0x00, 0x00, 0x00, 0x00, 0x00, 0x00, 0x00, 0x00, 0x00, 0x00, 0x00, 0x00,
  0x00, 0x00, 0x00, 0x00, 0x00, 0x00, 0x00, 0x00, 0x00, 0x00, 0x00, 0x00,
  0x00, 0x00, 0x00, 0x00, 0x00, 0x00, 0x00, 0x00, 0x00, 0x00, 0x00, 0x00,
  0x00, 0x00, 0x00, 0x00, 0x00, 0x00, 0x00, 0x00, 0x00, 0x00, 0x00, 0x00,
  0x00, 0x00, 0x00, 0x00, 0x00, 0x00, 0x00, 0x00, 0x00, 0x00, 0x00, 0x00,
  0x00, 0x00, 0x00, 0x00, 0x00, 0x00, 0x00, 0x00, 0x00, 0x00, 0x00, 0x00,
  0x00, 0x00, 0x00, 0x00, 0x00, 0x00, 0x00, 0x00, 0x00, 0x00, 0x00, 0x00,
  0x00, 0x00, 0x00, 0x00, 0x00, 0x00, 0x00, 0x00, 0x00, 0x00, 0x00, 0x00,
  0x00, 0x00, 0x00, 0x00, 0x00, 0x00, 0x00, 0x00, 0x00, 0x00, 0x00, 0x00,
  0x00, 0x00, 0x00, 0x00, 0x00, 0x00, 0x00, 0x00, 0x00, 0x00, 0x00, 0x00,
  0x00, 0x00, 0x00, 0x00, 0x00, 0x00, 0x00, 0x00, 0x00, 0x00, 0x00, 0x00,
  0x00, 0x00, 0x00, 0x00, 0x00, 0x00, 0x00, 0x00, 0x00, 0x00, 0x00, 0x00,
  0x4a, 0xfa, 0xff, 0xff, 0x04, 0x00, 0x00, 0x00, 0x80, 0x01, 0x00, 0x00,
  0x81, 0x1d, 0x9b, 0x08, 0x25, 0xb9, 0x39, 0x22, 0x35, 0x00, 0x74, 0x1a,
  0x2e, 0x23, 0x82, 0x10, 0xab, 0x41, 0xa8, 0xa6, 0xe0, 0xb9, 0x81, 0xab,
  0x2a, 0xd3, 0x6d, 0x5d, 0x36, 0x0e, 0x78, 0x09, 0x7f, 0x28, 0x32, 0x54,
  0x65, 0x74, 0x40, 0x2f, 0xf2, 0x81, 0x91, 0x8e, 0x56, 0x2e, 0x47, 0x33,
  0x7f, 0xdf, 0x5f, 0xfb, 0xd4, 0x17, 0x3b, 0x3f, 0x13, 0x18, 0xcb, 0x2f,
  0xfd, 0x6a, 0x0f, 0x81, 0x13, 0x0c, 0xf9, 0xfd, 0x01, 0xbd, 0x35, 0x2d,
  0x62, 0x49, 0x36, 0x7f, 0xe7, 0x12, 0xcf, 0xdd, 0xf3, 0xd8, 0x08, 0x17,
  0x4a, 0x25, 0x7f, 0x06, 0x66, 0xcf, 0xcb, 0xc7, 0xad, 0xd2, 0xb4, 0xf7,
  0x2e, 0xf7, 0x23, 0x15, 0xf5, 0xd6, 0x56, 0x11, 0xd3, 0x0d, 0x91, 0x81,
  0x7f, 0xdd, 0x38, 0x0a, 0x06, 0xea, 0x1d, 0x1b, 0xf5, 0x06, 0xe3, 0x06,
  0xbb, 0x7f, 0xa2, 0x09, 0x19, 0xdf, 0x2e, 0xc8, 0xab, 0xe9, 0xfe, 0xa9,
  0x4f, 0x00, 0xf3, 0x81, 0x17, 0xb4, 0x03, 0xd7, 0x17, 0xbc, 0x00, 0xad,
  0xe2, 0xbd, 0x34, 0x99, 0xd1, 0x7f, 0x15, 0xe0, 0x31, 0x07, 0xf9, 0x29,
  0x39, 0xff, 0xf4, 0x4d, 0x0d, 0x22, 0x1b, 0x41, 0x7f, 0xb9, 0x55, 0x93,
  0x0d, 0xf0, 0x14, 0xff, 0x26, 0xf4, 0x00, 0xf7, 0xed, 0x7f, 0x3c, 0x92,
  0xff, 0xfe, 0xd4, 0xf6, 0xde, 0x1a, 0x58, 0x3a, 0x1d, 0xaf, 0xb4, 0x81,
  0xe0, 0xc9, 0x7f, 0x7e, 0xef, 0x47, 0xdf, 0xb4, 0xb7, 0x33, 0x3f, 0xf7,
  0xf4, 0x1d, 0x00, 0xfc, 0x81, 0xe4, 0xbb, 0x31, 0x93, 0x42, 0xa7, 0xb1,
  0xee, 0x52, 0xe5, 0xf5, 0xfa, 0x8d, 0xef, 0xf8, 0x01, 0x37, 0x09, 0x7f,
  0xab, 0x66, 0x9d, 0x81, 0xd8, 0xaa, 0x26, 0x6f, 0xdf, 0xb0, 0x13, 0x27,
  0x44, 0xb3, 0x81, 0xdb, 0xeb, 0x42, 0x20, 0x07, 0xff, 0xdf, 0xd3, 0x33,
  0xbe, 0x2a, 0xb6, 0xfa, 0x8d, 0xaa, 0xb4, 0x04, 0x98, 0xe4, 0x81, 0x0e,
  0x9d, 0x3d, 0xce, 0x0b, 0x34, 0xd0, 0x64, 0x0b, 0x7f, 0x1a, 0x09, 0xf6,
  0x1b, 0x26, 0x10, 0x57, 0xf8, 0x16, 0x12, 0xe9, 0x06, 0x81, 0x35, 0x9d,
  0xc3, 0x7f, 0x0d, 0x0d, 0x3b, 0xf9, 0xda, 0x15, 0xfd, 0x27, 0x2b, 0xe5,
  0x6b, 0x3e, 0xef, 0xd6, 0xca, 0xb4, 0xe1, 0xa6, 0x04, 0xf1, 0x7f, 0x3e,
  0x7f, 0x5d, 0x8f, 0x9e, 0xf7, 0x13, 0x17, 0x32, 0xfb, 0xe9, 0xc0, 0xb4,
  0xa4, 0x3a, 0xe9, 0x00, 0x12, 0xd8, 0xfd, 0x11, 0x25, 0xcb, 0x81, 0x3b,
  0x96, 0xe1, 0x4e, 0x81, 0x08, 0xcf, 0xa5, 0x23, 0xaa, 0x2b, 0x78, 0x1b,
  0x81, 0x66, 0xdc, 0xe4, 0xc2, 0x31, 0xdb, 0x17, 0x14, 0xef, 0x48, 0x98,
  0x98, 0xf7, 0xce, 0xef, 0xb5, 0x52, 0xba, 0x16, 0x96, 0xd8, 0x65, 0x7f,
  0x32, 0x81, 0xc4, 0xdc, 0xc1, 0x4c, 0xdd, 0xf1, 0x09, 0x63, 0x0f, 0x02,
  0xba, 0xfb, 0xff, 0xff, 0x00, 0x00, 0x00, 0x09, 0x10, 0x00, 0x00, 0x00,
  0x05, 0x00, 0x00, 0x00, 0x1c, 0x00, 0x00, 0x00, 0x40, 0x00, 0x00, 0x00,
  0x04, 0x00, 0x00, 0x00, 0x20, 0x00, 0x00, 0x00, 0x06, 0x00, 0x00, 0x00,
  0x02, 0x00, 0x00, 0x00, 0x01, 0x00, 0x00, 0x00, 0x23, 0x00, 0x00, 0x00,
  0x73, 0x65, 0x71, 0x75, 0x65, 0x6e, 0x74, 0x69, 0x61, 0x6c, 0x5f, 0x38,
  0x2f, 0x71, 0x75, 0x61, 0x6e, 0x74, 0x5f, 0x63, 0x6f, 0x6e, 0x76, 0x32,
  0x64, 0x5f, 0x33, 0x32, 0x2f, 0x43, 0x6f, 0x6e, 0x76, 0x32, 0x44, 0x00,
  0xc0, 0xfc, 0xff, 0xff, 0x08, 0x00, 0x00, 0x00, 0x88, 0x00, 0x00, 0x00,
  0x20, 0x00, 0x00, 0x00, 0xb3, 0x6b, 0x06, 0x3c, 0x75, 0xea, 0xb7, 0x3b,
  0x74, 0xa4, 0x0e, 0x3c, 0xaf, 0x78, 0xb5, 0x3b, 0xd8, 0x3f, 0x28, 0x3c,
  0xfd, 0x5b, 0x24, 0x3c, 0x31, 0x19, 0x15, 0x3c, 0x6e, 0x54, 0x17, 0x3c,
  0x7d, 0xfe, 0xe5, 0x3b, 0xe5, 0x98, 0x1f, 0x3c, 0x6a, 0x56, 0xea, 0x3b,
  0x60, 0x35, 0x15, 0x3c, 0xd0, 0xc5, 0x0c, 0x3c, 0x94, 0xd1, 0xed, 0x3b,
  0xd1, 0xfa, 0x23, 0x3c, 0x4e, 0x4e, 0x13, 0x3c, 0xd7, 0xb1, 0xef, 0x3b,
  0x82, 0xa6, 0x16, 0x3c, 0xad, 0x4c, 0x20, 0x3c, 0xc6, 0xcf, 0xf3, 0x3b,
  0xc5, 0xa9, 0x17, 0x3c, 0x22, 0x37, 0x07, 0x3c, 0x8a, 0x89, 0x16, 0x3c,
  0x44, 0xd2, 0x31, 0x3c, 0xf7, 0xe7, 0x35, 0x3c, 0x33, 0xa6, 0xfd, 0x3b,
  0x0d, 0xee, 0xfe, 0x3b, 0xdc, 0x6a, 0x10, 0x3c, 0x62, 0x43, 0xf0, 0x3b,
  0x50, 0xc3, 0x01, 0x3c, 0xa8, 0x01, 0xca, 0x3b, 0x23, 0xbd, 0xfe, 0x3b,
  0x20, 0x00, 0x00, 0x00, 0x00, 0x00, 0x00, 0x00, 0x00, 0x00, 0x00, 0x00,
  0x00, 0x00, 0x00, 0x00, 0x00, 0x00, 0x00, 0x00, 0x00, 0x00, 0x00, 0x00,
  0x00, 0x00, 0x00, 0x00, 0x00, 0x00, 0x00, 0x00, 0x00, 0x00, 0x00, 0x00,
  0x00, 0x00, 0x00, 0x00, 0x00, 0x00, 0x00, 0x00, 0x00, 0x00, 0x00, 0x00,
  0x00, 0x00, 0x00, 0x00, 0x00, 0x00, 0x00, 0x00, 0x00, 0x00, 0x00, 0x00,
  0x00, 0x00, 0x00, 0x00, 0x00, 0x00, 0x00, 0x00, 0x00, 0x00, 0x00, 0x00,
  0x00, 0x00, 0x00, 0x00, 0x00, 0x00, 0x00, 0x00, 0x00, 0x00, 0x00, 0x00,
  0x00, 0x00, 0x00, 0x00, 0x00, 0x00, 0x00, 0x00, 0x00, 0x00, 0x00, 0x00,
  0x00, 0x00, 0x00, 0x00, 0x00, 0x00, 0x00, 0x00, 0x00, 0x00, 0x00, 0x00,
  0x00, 0x00, 0x00, 0x00, 0x00, 0x00, 0x00, 0x00, 0x00, 0x00, 0x00, 0x00,
  0x00, 0x00, 0x00, 0x00, 0x00, 0x00, 0x00, 0x00, 0x00, 0x00, 0x00, 0x00,
  0x00, 0x00, 0x00, 0x00, 0x00, 0x00, 0x00, 0x00, 0x00, 0x00, 0x00, 0x00,
  0x00, 0x00, 0x00, 0x00, 0x00, 0x00, 0x00, 0x00, 0x00, 0x00, 0x00, 0x00,
  0x00, 0x00, 0x00, 0x00, 0x00, 0x00, 0x00, 0x00, 0x00, 0x00, 0x00, 0x00,
  0x00, 0x00, 0x00, 0x00, 0x00, 0x00, 0x00, 0x00, 0x00, 0x00, 0x00, 0x00,
  0x00, 0x00, 0x00, 0x00, 0x00, 0x00, 0x00, 0x00, 0x00, 0x00, 0x00, 0x00,
  0x00, 0x00, 0x00, 0x00, 0x00, 0x00, 0x00, 0x00, 0x00, 0x00, 0x00, 0x00,
  0x00, 0x00, 0x00, 0x00, 0x00, 0x00, 0x00, 0x00, 0x00, 0x00, 0x00, 0x00,
  0x00, 0x00, 0x00, 0x00, 0x00, 0x00, 0x00, 0x00, 0x00, 0x00, 0x00, 0x00,
  0x00, 0x00, 0x00, 0x00, 0x00, 0x00, 0x00, 0x00, 0x00, 0x00, 0x00, 0x00,
  0x00, 0x00, 0x00, 0x00, 0x00, 0x00, 0x00, 0x00, 0x00, 0x00, 0x00, 0x00,
  0x00, 0x00, 0x00, 0x00, 0x00, 0x00, 0x00, 0x00, 0x00, 0x00, 0x0a, 0x00,
  0x0c, 0x00, 0x00, 0x00, 0x04, 0x00, 0x08, 0x00, 0x0a, 0x00, 0x00, 0x00,
  0x10, 0x00, 0x00, 0x00, 0x04, 0x00, 0x00, 0x00, 0x01, 0x00, 0x00, 0x00,
  0x03, 0x00, 0x00, 0x00, 0x01, 0x00, 0x00, 0x00, 0x00, 0x00, 0x00, 0x00,
  0x0c, 0x00, 0x10, 0x00, 0x0b, 0x00, 0x00, 0x00, 0x0c, 0x00, 0x04, 0x00,
  0x0c, 0x00, 0x00, 0x00, 0x72, 0x00, 0x00, 0x00, 0x00, 0x00, 0x00, 0x72,
  0x01, 0x00, 0x00, 0x00, 0x14, 0x00, 0x1c, 0x00, 0x08, 0x00, 0x07, 0x00,
  0x0c, 0x00, 0x10, 0x00, 0x14, 0x00, 0x00, 0x00, 0x00, 0x00, 0x18, 0x00,
  0x14, 0x00, 0x00, 0x00, 0x00, 0x00, 0x00, 0x09, 0x14, 0x00, 0x00, 0x00,
  0x04, 0x00, 0x00, 0x00, 0x34, 0x00, 0x00, 0x00, 0x4c, 0x01, 0x00, 0x00,
  0x18, 0x00, 0x00, 0x00, 0x04, 0x00, 0x00, 0x00, 0x01, 0x00, 0x00, 0x00,
  0x40, 0x00, 0x00, 0x00, 0x03, 0x00, 0x00, 0x00, 0x01, 0x00, 0x00, 0x00,
  0x04, 0x00, 0x00, 0x00, 0xff, 0xff, 0xff, 0xff, 0x40, 0x00, 0x00, 0x00,
  0x03, 0x00, 0x00, 0x00, 0x01, 0x00, 0x00, 0x00, 0x09, 0x01, 0x00, 0x00,
  0x73, 0x65, 0x71, 0x75, 0x65, 0x6e, 0x74, 0x69, 0x61, 0x6c, 0x5f, 0x38,
  0x2f, 0x71, 0x75, 0x61, 0x6e, 0x74, 0x69, 0x7a, 0x65, 0x5f, 0x6c, 0x61,
  0x79, 0x65, 0x72, 0x5f, 0x36, 0x2f, 0x41, 0x6c, 0x6c, 0x56, 0x61, 0x6c,
  0x75, 0x65, 0x73, 0x51, 0x75, 0x61, 0x6e, 0x74, 0x69, 0x7a, 0x65, 0x2f,
  0x46, 0x61, 0x6b, 0x65, 0x51, 0x75, 0x61, 0x6e, 0x74, 0x57, 0x69, 0x74,
  0x68, 0x4d, 0x69, 0x6e, 0x4d, 0x61, 0x78, 0x56, 0x61, 0x72, 0x73, 0x3b,
  0x73, 0x65, 0x71, 0x75, 0x65, 0x6e, 0x74, 0x69, 0x61, 0x6c, 0x5f, 0x38,
  0x2f, 0x71, 0x75, 0x61, 0x6e, 0x74, 0x69, 0x7a, 0x65, 0x5f, 0x6c, 0x61,
  0x79, 0x65, 0x72, 0x5f, 0x36, 0x2f, 0x41, 0x6c, 0x6c, 0x56, 0x61, 0x6c,
  0x75, 0x65, 0x73, 0x51, 0x75, 0x61, 0x6e, 0x74, 0x69, 0x7a, 0x65, 0x2f,
  0x46, 0x61, 0x6b, 0x65, 0x51, 0x75, 0x61, 0x6e, 0x74, 0x57, 0x69, 0x74,
  0x68, 0x4d, 0x69, 0x6e, 0x4d, 0x61, 0x78, 0x56, 0x61, 0x72, 0x73, 0x2f,
  0x52, 0x65, 0x61, 0x64, 0x56, 0x61, 0x72, 0x69, 0x61, 0x62, 0x6c, 0x65,
  0x4f, 0x70, 0x2f, 0x72, 0x65, 0x73, 0x6f, 0x75, 0x72, 0x63, 0x65, 0x3b,
  0x73, 0x65, 0x71, 0x75, 0x65, 0x6e, 0x74, 0x69, 0x61, 0x6c, 0x5f, 0x38,
  0x2f, 0x71, 0x75, 0x61, 0x6e, 0x74, 0x69, 0x7a, 0x65, 0x5f, 0x6c, 0x61,
  0x79, 0x65, 0x72, 0x5f, 0x36, 0x2f, 0x41, 0x6c, 0x6c, 0x56, 0x61, 0x6c,
  0x75, 0x65, 0x73, 0x51, 0x75, 0x61, 0x6e, 0x74, 0x69, 0x7a, 0x65, 0x2f,
  0x46, 0x61, 0x6b, 0x65, 0x51, 0x75, 0x61, 0x6e, 0x74, 0x57, 0x69, 0x74,
  0x68, 0x4d, 0x69, 0x6e, 0x4d, 0x61, 0x78, 0x56, 0x61, 0x72, 0x73, 0x2f,
  0x52, 0x65, 0x61, 0x64, 0x56, 0x61, 0x72, 0x69, 0x61, 0x62, 0x6c, 0x65,
  0x4f, 0x70, 0x5f, 0x31, 0x2f, 0x72, 0x65, 0x73, 0x6f, 0x75, 0x72, 0x63,
  0x65, 0x00, 0x00, 0x00, 0x0c, 0x00, 0x0c, 0x00, 0x00, 0x00, 0x00, 0x00,
  0x04, 0x00, 0x08, 0x00, 0x0c, 0x00, 0x00, 0x00, 0x08, 0x00, 0x00, 0x00,
  0x0c, 0x00, 0x00, 0x00, 0x01, 0x00, 0x00, 0x00, 0x81, 0x80, 0x00, 0x3b,
  0x01, 0x00, 0x00, 0x00, 0x00, 0x00, 0x00, 0x00, 0x00, 0x00, 0x00, 0x00,
  0x00, 0x00, 0x00, 0x00, 0x9a, 0xff, 0xff, 0xff, 0x04, 0x00, 0x00, 0x00,
  0x08, 0x00, 0x00, 0x00, 0xff, 0xff, 0xff, 0xff, 0x14, 0x00, 0x00, 0x00,
  0x92, 0xff, 0xff, 0xff, 0x00, 0x00, 0x00, 0x02, 0x10, 0x00, 0x00, 0x00,
  0x03, 0x00, 0x00, 0x00, 0x10, 0x00, 0x00, 0x00, 0x38, 0x00, 0x00, 0x00,
  0x01, 0x00, 0x00, 0x00, 0x02, 0x00, 0x00, 0x00, 0x22, 0x00, 0x00, 0x00,
  0x73, 0x65, 0x71, 0x75, 0x65, 0x6e, 0x74, 0x69, 0x61, 0x6c, 0x5f, 0x38,
  0x2f, 0x71, 0x75, 0x61, 0x6e, 0x74, 0x5f, 0x66, 0x6c, 0x61, 0x74, 0x74,
  0x65, 0x6e, 0x5f, 0x38, 0x2f, 0x43, 0x6f, 0x6e, 0x73, 0x74, 0x00, 0x00,
  0x04, 0x00, 0x06, 0x00, 0x04, 0x00, 0x00, 0x00, 0x00, 0x00, 0x06, 0x00,
  0x08, 0x00, 0x04, 0x00, 0x06, 0x00, 0x00, 0x00, 0x04, 0x00, 0x00, 0x00,
  0x08, 0x00, 0x00, 0x00, 0x01, 0x00, 0x00, 0x00, 0x02, 0x00, 0x00, 0x00,
  0x00, 0x00, 0x0e, 0x00, 0x18, 0x00, 0x08, 0x00, 0x07, 0x00, 0x0c, 0x00,
  0x10, 0x00, 0x14, 0x00, 0x0e, 0x00, 0x00, 0x00, 0x00, 0x00, 0x00, 0x02,
  0x10, 0x00, 0x00, 0x00, 0x02, 0x00, 0x00, 0x00, 0x10, 0x00, 0x00, 0x00,
  0x50, 0x00, 0x00, 0x00, 0x01, 0x00, 0x00, 0x00, 0x02, 0x00, 0x00, 0x00,
  0x3f, 0x00, 0x00, 0x00, 0x73, 0x65, 0x71, 0x75, 0x65, 0x6e, 0x74, 0x69,
  0x61, 0x6c, 0x5f, 0x38, 0x2f, 0x71, 0x75, 0x61, 0x6e, 0x74, 0x5f, 0x67,
  0x6c, 0x6f, 0x62, 0x61, 0x6c, 0x5f, 0x6d, 0x61, 0x78, 0x5f, 0x70, 0x6f,
  0x6f, 0x6c, 0x69, 0x6e, 0x67, 0x32, 0x64, 0x5f, 0x38, 0x2f, 0x4d, 0x61,
  0x78, 0x2f, 0x72, 0x65, 0x64, 0x75, 0x63, 0x74, 0x69, 0x6f, 0x6e, 0x5f,
  0x69, 0x6e, 0x64, 0x69, 0x63, 0x65, 0x73, 0x00, 0x90, 0xff, 0xff, 0xff,
  0x14, 0x00, 0x18, 0x00, 0x04, 0x00, 0x00, 0x00, 0x08, 0x00, 0x0c, 0x00,
  0x10, 0x00, 0x00, 0x00, 0x00, 0x00, 0x14, 0x00, 0x14, 0x00, 0x00, 0x00,
  0x14, 0x00, 0x00, 0x00, 0x01, 0x00, 0x00, 0x00, 0x34, 0x00, 0x00, 0x00,
  0x44, 0x00, 0x00, 0x00, 0x18, 0x00, 0x00, 0x00, 0x04, 0x00, 0x00, 0x00,
  0x01, 0x00, 0x00, 0x00, 0x40, 0x00, 0x00, 0x00, 0x03, 0x00, 0x00, 0x00,
  0x01, 0x00, 0x00, 0x00, 0x04, 0x00, 0x00, 0x00, 0xff, 0xff, 0xff, 0xff,
  0x40, 0x00, 0x00, 0x00, 0x03, 0x00, 0x00, 0x00, 0x01, 0x00, 0x00, 0x00,
  0x0f, 0x00, 0x00, 0x00, 0x63, 0x6f, 0x6e, 0x76, 0x32, 0x64, 0x5f, 0x33,
  0x32, 0x5f, 0x69, 0x6e, 0x70, 0x75, 0x74, 0x00, 0xfc, 0xff, 0xff, 0xff,
  0x04, 0x00, 0x04, 0x00, 0x04, 0x00, 0x00, 0x00
};

#endif // INCLUDE_MODEL

#endif //MODEL_46_TENSORFLOW_H