#ifndef MODEL_15_TENSORFLOW_H
#define MODEL_15_TENSORFLOW_H

#define APP_ACTIVITY_MODEL_NAME model_15_tensorflow
#define APP_ACTIVITY_RECOGNITION_PRECISION_FLOAT (0)
#define APP_ACTIVITY_RECOGNITION_SENSOR_SCALE (2)
#define APP_ACTIVITY_RECOGNITION_SENSOR_RESOLUTION (8)
#define APP_ACTIVITY_RECOGNITION_SAMPLING_FREQUENCY (10)
#define APP_ACTIVITY_RECOGNITION_FREQUENCY_DIVIDER (0)
#define APP_ACTIVITY_RECOGNITION_HIGHPASS_STAGES (2)
#define APP_ACTIVITY_RECOGNITION_INPUT_SIZE (192)
#define APP_ACTIVITY_RECOGNITION_STEP_SIZE (32)
#define APP_ACTIVITY_RECOGNITION_CLASS_COUNT (6)

#ifdef INCLUDE_MODEL
static const float highpass_coefficients[] = {0.2069928239055942f, -0.2069928239055942f, 0.0f, 0.2068179864931189f, -0.0f, 0.25f, -0.5f, 0.25f, 0.4490699651581907f, -0.2071676613180694f};
static const char* APP_ACTIVITY_RECOGNITION_CLASSES[] = {"jog","skip","stDown","stUp","stay","walk"};
static const size_t model_15_tensorflow_len = 11304;
static const uint8_t model_15_tensorflow[] = {
 0x1c, 0x00, 0x00, 0x00, 0x54, 0x46, 0x4c, 0x33, 0x14, 0x00, 0x20, 0x00,
  0x04, 0x00, 0x08, 0x00, 0x0c, 0x00, 0x10, 0x00, 0x14, 0x00, 0x00, 0x00,
  0x18, 0x00, 0x1c, 0x00, 0x14, 0x00, 0x00, 0x00, 0x03, 0x00, 0x00, 0x00,
  0x18, 0x00, 0x00, 0x00, 0x34, 0x00, 0x00, 0x00, 0xf4, 0x00, 0x00, 0x00,
  0x34, 0x00, 0x00, 0x00, 0x9c, 0x00, 0x00, 0x00, 0x94, 0x00, 0x00, 0x00,
  0x07, 0x00, 0x00, 0x00, 0xd4, 0x28, 0x00, 0x00, 0xbc, 0x22, 0x00, 0x00,
  0x98, 0x06, 0x00, 0x00, 0xd4, 0x05, 0x00, 0x00, 0x20, 0x03, 0x00, 0x00,
  0x54, 0x02, 0x00, 0x00, 0xcc, 0x01, 0x00, 0x00, 0x01, 0x00, 0x00, 0x00,
  0xe4, 0x00, 0x00, 0x00, 0x19, 0x00, 0x00, 0x00, 0xbc, 0x2b, 0x00, 0x00,
  0xb8, 0x2b, 0x00, 0x00, 0xb8, 0x2a, 0x00, 0x00, 0x48, 0x2a, 0x00, 0x00,
  0xac, 0x2b, 0x00, 0x00, 0xb0, 0x25, 0x00, 0x00, 0xa4, 0x23, 0x00, 0x00,
  0xa0, 0x2b, 0x00, 0x00, 0xe4, 0x14, 0x00, 0x00, 0x58, 0x13, 0x00, 0x00,
  0x94, 0x2b, 0x00, 0x00, 0x78, 0x0f, 0x00, 0x00, 0x2c, 0x0e, 0x00, 0x00,
  0x88, 0x2b, 0x00, 0x00, 0xd4, 0x09, 0x00, 0x00, 0x28, 0x08, 0x00, 0x00,
  0x7c, 0x2b, 0x00, 0x00, 0x78, 0x2b, 0x00, 0x00, 0x74, 0x2b, 0x00, 0x00,
  0x18, 0x04, 0x00, 0x00, 0x6c, 0x03, 0x00, 0x00, 0x68, 0x2b, 0x00, 0x00,
  0x64, 0x2b, 0x00, 0x00, 0x60, 0x2b, 0x00, 0x00, 0x3c, 0x00, 0x00, 0x00,
  0x00, 0x00, 0x00, 0x00, 0x01, 0x00, 0x00, 0x00, 0x0c, 0x00, 0x00, 0x00,
  0x08, 0x00, 0x0c, 0x00, 0x04, 0x00, 0x08, 0x00, 0x08, 0x00, 0x00, 0x00,
  0x08, 0x00, 0x00, 0x00, 0x18, 0x00, 0x00, 0x00, 0x13, 0x00, 0x00, 0x00,
  0x6d, 0x69, 0x6e, 0x5f, 0x72, 0x75, 0x6e, 0x74, 0x69, 0x6d, 0x65, 0x5f,
  0x76, 0x65, 0x72, 0x73, 0x69, 0x6f, 0x6e, 0x00, 0xe2, 0xd5, 0xff, 0xff,
  0x04, 0x00, 0x00, 0x00, 0x10, 0x00, 0x00, 0x00, 0x31, 0x2e, 0x31, 0x34,
  0x2e, 0x30, 0x00, 0x00, 0x00, 0x00, 0x00, 0x00, 0x00, 0x00, 0x00, 0x00,
  0x0f, 0x00, 0x00, 0x00, 0x4d, 0x4c, 0x49, 0x52, 0x20, 0x43, 0x6f, 0x6e,
  0x76, 0x65, 0x72, 0x74, 0x65, 0x64, 0x2e, 0x00, 0x00, 0x00, 0x0e, 0x00,
  0x18, 0x00, 0x04, 0x00, 0x08, 0x00, 0x0c, 0x00, 0x10, 0x00, 0x14, 0x00,
  0x0e, 0x00, 0x00, 0x00, 0x14, 0x00, 0x00, 0x00, 0x70, 0x00, 0x00, 0x00,
  0x74, 0x00, 0x00, 0x00, 0x78, 0x00, 0x00, 0x00, 0xa0, 0x00, 0x00, 0x00,
  0x17, 0x00, 0x00, 0x00, 0x68, 0x2a, 0x00, 0x00, 0xe8, 0x29, 0x00, 0x00,
  0x68, 0x29, 0x00, 0x00, 0xcc, 0x27, 0x00, 0x00, 0xe8, 0x25, 0x00, 0x00,
  0x1c, 0x23, 0x00, 0x00, 0x98, 0x21, 0x00, 0x00, 0xfc, 0x1f, 0x00, 0x00,
  0xb0, 0x12, 0x00, 0x00, 0x4c, 0x11, 0x00, 0x00, 0x10, 0x10, 0x00, 0x00,
  0x74, 0x0d, 0x00, 0x00, 0x20, 0x0c, 0x00, 0x00, 0x9c, 0x0a, 0x00, 0x00,
  0x88, 0x07, 0x00, 0x00, 0x1c, 0x06, 0x00, 0x00, 0x50, 0x05, 0x00, 0x00,
  0x8c, 0x04, 0x00, 0x00, 0x9c, 0x03, 0x00, 0x00, 0x9c, 0x02, 0x00, 0x00,
  0xd0, 0x01, 0x00, 0x00, 0x04, 0x01, 0x00, 0x00, 0x7c, 0x00, 0x00, 0x00,
  0x01, 0x00, 0x00, 0x00, 0x00, 0x00, 0x00, 0x00, 0x01, 0x00, 0x00, 0x00,
  0x16, 0x00, 0x00, 0x00, 0x0a, 0x00, 0x00, 0x00, 0x1c, 0x27, 0x00, 0x00,
  0xe0, 0x20, 0x00, 0x00, 0xb8, 0x10, 0x00, 0x00, 0x94, 0x0b, 0x00, 0x00,
  0x98, 0x05, 0x00, 0x00, 0xcc, 0x04, 0x00, 0x00, 0x14, 0x04, 0x00, 0x00,
  0x50, 0x01, 0x00, 0x00, 0x88, 0x00, 0x00, 0x00, 0x10, 0x00, 0x00, 0x00,
  0x04, 0x00, 0x00, 0x00, 0x6d, 0x61, 0x69, 0x6e, 0x00, 0x00, 0x00, 0x00,
  0x12, 0xfc, 0xff, 0xff, 0x06, 0x00, 0x00, 0x00, 0x10, 0x00, 0x00, 0x00,
  0x04, 0x00, 0x00, 0x00, 0x01, 0x00, 0x00, 0x00, 0x16, 0x00, 0x00, 0x00,
  0x01, 0x00, 0x00, 0x00, 0x15, 0x00, 0x00, 0x00, 0x1c, 0xd9, 0xff, 0xff,
  0x06, 0x00, 0x00, 0x00, 0x00, 0x00, 0x00, 0x06, 0x02, 0x00, 0x00, 0x00,
  0x80, 0xd6, 0xff, 0xff, 0x14, 0x00, 0x00, 0x00, 0x17, 0x00, 0x00, 0x00,
  0x24, 0x00, 0x00, 0x00, 0x30, 0x00, 0x00, 0x00, 0x10, 0x00, 0x00, 0x00,
  0x02, 0x00, 0x00, 0x00, 0x01, 0x00, 0x00, 0x00, 0x06, 0x00, 0x00, 0x00,
  0x02, 0x00, 0x00, 0x00, 0xff, 0xff, 0xff, 0xff, 0x06, 0x00, 0x00, 0x00,
  0x08, 0x00, 0x00, 0x00, 0x49, 0x64, 0x65, 0x6e, 0x74, 0x69, 0x74, 0x79,
  0x00, 0x00, 0x00, 0x00, 0x54, 0xd6, 0xff, 0xff, 0xd2, 0xdf, 0xff, 0xff,
  0x00, 0x00, 0x00, 0x09, 0x05, 0x00, 0x00, 0x00, 0x1c, 0x00, 0x00, 0x00,
  0x10, 0x00, 0x00, 0x00, 0x04, 0x00, 0x00, 0x00, 0x6e, 0xd7, 0xff, 0xff,
  0x00, 0x00, 0x80, 0x3f, 0x01, 0x00, 0x00, 0x00, 0x15, 0x00, 0x00, 0x00,
  0x01, 0x00, 0x00, 0x00, 0x14, 0x00, 0x00, 0x00, 0xa0, 0xd9, 0xff, 0xff,
  0x19, 0x00, 0x00, 0x00, 0x00, 0x00, 0x00, 0x19, 0x02, 0x00, 0x00, 0x00,
  0x94, 0xd9, 0xff, 0xff, 0x00, 0x00, 0x00, 0x09, 0x14, 0x00, 0x00, 0x00,
  0x16, 0x00, 0x00, 0x00, 0x24, 0x00, 0x00, 0x00, 0x4c, 0x00, 0x00, 0x00,
  0x10, 0x00, 0x00, 0x00, 0x02, 0x00, 0x00, 0x00, 0x01, 0x00, 0x00, 0x00,
  0x06, 0x00, 0x00, 0x00, 0x02, 0x00, 0x00, 0x00, 0xff, 0xff, 0xff, 0xff,
  0x06, 0x00, 0x00, 0x00, 0x24, 0x00, 0x00, 0x00, 0x73, 0x65, 0x71, 0x75,
  0x65, 0x6e, 0x74, 0x69, 0x61, 0x6c, 0x5f, 0x35, 0x2f, 0x71, 0x75, 0x61,
  0x6e, 0x74, 0x5f, 0x73, 0x6f, 0x66, 0x74, 0x6d, 0x61, 0x78, 0x5f, 0x35,
  0x2f, 0x53, 0x6f, 0x66, 0x74, 0x6d, 0x61, 0x78, 0x00, 0x00, 0x00, 0x00,
  0x8c, 0xd8, 0xff, 0xff, 0x08, 0x00, 0x00, 0x00, 0x0c, 0x00, 0x00, 0x00,
  0x01, 0x00, 0x00, 0x00, 0x00, 0x00, 0x80, 0x3b, 0x01, 0x00, 0x00, 0x00,
  0x80, 0xff, 0xff, 0xff, 0xff, 0xff, 0xff, 0xff, 0x00, 0x00, 0x00, 0x00,
  0x96, 0xe0, 0xff, 0xff, 0x00, 0x00, 0x00, 0x08, 0x04, 0x00, 0x00, 0x00,
  0x18, 0x00, 0x00, 0x00, 0x0c, 0x00, 0x00, 0x00, 0x04, 0x00, 0x00, 0x00,
  0x34, 0xd7, 0xff, 0xff, 0x01, 0x00, 0x00, 0x00, 0x14, 0x00, 0x00, 0x00,
  0x03, 0x00, 0x00, 0x00, 0x11, 0x00, 0x00, 0x00, 0x12, 0x00, 0x00, 0x00,
  0x13, 0x00, 0x00, 0x00, 0x68, 0xda, 0xff, 0xff, 0x09, 0x00, 0x00, 0x00,
  0x00, 0x00, 0x00, 0x09, 0x04, 0x00, 0x00, 0x00, 0x5c, 0xda, 0xff, 0xff,
  0x00, 0x00, 0x00, 0x09, 0x14, 0x00, 0x00, 0x00, 0x15, 0x00, 0x00, 0x00,
  0x24, 0x00, 0x00, 0x00, 0x6c, 0x00, 0x00, 0x00, 0x10, 0x00, 0x00, 0x00,
  0x02, 0x00, 0x00, 0x00, 0x01, 0x00, 0x00, 0x00, 0x06, 0x00, 0x00, 0x00,
  0x02, 0x00, 0x00, 0x00, 0xff, 0xff, 0xff, 0xff, 0x06, 0x00, 0x00, 0x00,
  0x44, 0x00, 0x00, 0x00, 0x73, 0x65, 0x71, 0x75, 0x65, 0x6e, 0x74, 0x69,
  0x61, 0x6c, 0x5f, 0x35, 0x2f, 0x71, 0x75, 0x61, 0x6e, 0x74, 0x5f, 0x64,
  0x65, 0x6e, 0x73, 0x65, 0x5f, 0x35, 0x2f, 0x4d, 0x61, 0x74, 0x4d, 0x75,
  0x6c, 0x3b, 0x73, 0x65, 0x71, 0x75, 0x65, 0x6e, 0x74, 0x69, 0x61, 0x6c,
  0x5f, 0x35, 0x2f, 0x71, 0x75, 0x61, 0x6e, 0x74, 0x5f, 0x64, 0x65, 0x6e,
  0x73, 0x65, 0x5f, 0x35, 0x2f, 0x42, 0x69, 0x61, 0x73, 0x41, 0x64, 0x64,
  0x00, 0x00, 0x00, 0x00, 0x74, 0xd9, 0xff, 0xff, 0x08, 0x00, 0x00, 0x00,
  0x0c, 0x00, 0x00, 0x00, 0x01, 0x00, 0x00, 0x00, 0x10, 0x49, 0x35, 0x3e,
  0x01, 0x00, 0x00, 0x00, 0x60, 0x00, 0x00, 0x00, 0x00, 0x00, 0x00, 0x00,
  0x00, 0x00, 0x00, 0x00, 0x02, 0xd9, 0xff, 0xff, 0x04, 0x00, 0x00, 0x00,
  0x18, 0x00, 0x00, 0x00, 0x8d, 0xf5, 0xff, 0xff, 0xcb, 0x02, 0x00, 0x00,
  0xd9, 0xee, 0xff, 0xff, 0xc8, 0xf9, 0xff, 0xff, 0x95, 0x22, 0x00, 0x00,
  0xee, 0xfe, 0xff, 0xff, 0x0a, 0xd9, 0xff, 0xff, 0x00, 0x00, 0x00, 0x02,
  0x10, 0x00, 0x00, 0x00, 0x14, 0x00, 0x00, 0x00, 0x10, 0x00, 0x00, 0x00,
  0x4c, 0x00, 0x00, 0x00, 0x01, 0x00, 0x00, 0x00, 0x06, 0x00, 0x00, 0x00,
  0x3a, 0x00, 0x00, 0x00, 0x73, 0x65, 0x71, 0x75, 0x65, 0x6e, 0x74, 0x69,
  0x61, 0x6c, 0x5f, 0x35, 0x2f, 0x71, 0x75, 0x61, 0x6e, 0x74, 0x5f, 0x64,
  0x65, 0x6e, 0x73, 0x65, 0x5f, 0x35, 0x2f, 0x42, 0x69, 0x61, 0x73, 0x41,
  0x64, 0x64, 0x2f, 0x52, 0x65, 0x61, 0x64, 0x56, 0x61, 0x72, 0x69, 0x61,
  0x62, 0x6c, 0x65, 0x4f, 0x70, 0x2f, 0x72, 0x65, 0x73, 0x6f, 0x75, 0x72,
  0x63, 0x65, 0x00, 0x00, 0x1c, 0xda, 0xff, 0xff, 0x08, 0x00, 0x00, 0x00,
  0x0c, 0x00, 0x00, 0x00, 0x01, 0x00, 0x00, 0x00, 0xbb, 0xca, 0xac, 0x39,
  0x01, 0x00, 0x00, 0x00, 0x00, 0x00, 0x00, 0x00, 0x00, 0x00, 0x00, 0x00,
  0x00, 0x00, 0x00, 0x00, 0xaa, 0xd9, 0xff, 0xff, 0x04, 0x00, 0x00, 0x00,
  0x6c, 0x00, 0x00, 0x00, 0xf5, 0x13, 0xf3, 0x00, 0x14, 0xc8, 0x0d, 0xd4,
  0xcc, 0x11, 0x0c, 0x02, 0xd9, 0xfd, 0xfa, 0x01, 0x11, 0xd4, 0xa5, 0xe2,
  0x06, 0xcc, 0xd1, 0x0f, 0x0c, 0xfc, 0x00, 0x09, 0x0b, 0x03, 0x05, 0xf4,
  0xaf, 0xfa, 0x10, 0xe0, 0xfb, 0x1c, 0xfe, 0x09, 0x1c, 0x15, 0xd9, 0x03,
  0x0b, 0x0a, 0xd9, 0xf9, 0x0c, 0xf2, 0x04, 0xcf, 0xea, 0x0e, 0xd8, 0xef,
  0xef, 0x0b, 0xe6, 0x1c, 0xac, 0x07, 0x0f, 0xd9, 0xb1, 0x10, 0x10, 0xea,
  0x00, 0x96, 0xc0, 0x10, 0x81, 0xb0, 0x00, 0xac, 0xa3, 0x96, 0xdc, 0xab,
  0x97, 0xdf, 0xd9, 0x06, 0xaf, 0xb3, 0x9f, 0xbc, 0xe1, 0xa5, 0x02, 0xd1,
  0xfb, 0x16, 0xbb, 0xdb, 0xc9, 0xfe, 0x00, 0xcb, 0xc9, 0x0f, 0x07, 0x91,
  0x11, 0xf6, 0xe0, 0x14, 0x06, 0xda, 0xff, 0xff, 0x00, 0x00, 0x00, 0x09,
  0x10, 0x00, 0x00, 0x00, 0x13, 0x00, 0x00, 0x00, 0x14, 0x00, 0x00, 0x00,
  0x78, 0x00, 0x00, 0x00, 0x02, 0x00, 0x00, 0x00, 0x06, 0x00, 0x00, 0x00,
  0x12, 0x00, 0x00, 0x00, 0x63, 0x00, 0x00, 0x00, 0x73, 0x65, 0x71, 0x75,
  0x65, 0x6e, 0x74, 0x69, 0x61, 0x6c, 0x5f, 0x35, 0x2f, 0x71, 0x75, 0x61,
  0x6e, 0x74, 0x5f, 0x64, 0x65, 0x6e, 0x73, 0x65, 0x5f, 0x35, 0x2f, 0x4d,
  0x61, 0x74, 0x4d, 0x75, 0x6c, 0x3b, 0x73, 0x65, 0x71, 0x75, 0x65, 0x6e,
  0x74, 0x69, 0x61, 0x6c, 0x5f, 0x35, 0x2f, 0x71, 0x75, 0x61, 0x6e, 0x74,
  0x5f, 0x64, 0x65, 0x6e, 0x73, 0x65, 0x5f, 0x35, 0x2f, 0x4c, 0x61, 0x73,
  0x74, 0x56, 0x61, 0x6c, 0x75, 0x65, 0x51, 0x75, 0x61, 0x6e, 0x74, 0x2f,
  0x46, 0x61, 0x6b, 0x65, 0x51, 0x75, 0x61, 0x6e, 0x74, 0x57, 0x69, 0x74,
  0x68, 0x4d, 0x69, 0x6e, 0x4d, 0x61, 0x78, 0x56, 0x61, 0x72, 0x73, 0x00,
  0x44, 0xdb, 0xff, 0xff, 0x08, 0x00, 0x00, 0x00, 0x0c, 0x00, 0x00, 0x00,
  0x01, 0x00, 0x00, 0x00, 0x5c, 0xf6, 0xc9, 0x3c, 0x01, 0x00, 0x00, 0x00,
  0x00, 0x00, 0x00, 0x00, 0x00, 0x00, 0x00, 0x00, 0x00, 0x00, 0x0a, 0x00,
  0x10, 0x00, 0x04, 0x00, 0x08, 0x00, 0x0c, 0x00, 0x0a, 0x00, 0x00, 0x00,
  0x03, 0x00, 0x00, 0x00, 0x10, 0x00, 0x00, 0x00, 0x04, 0x00, 0x00, 0x00,
  0x01, 0x00, 0x00, 0x00, 0x11, 0x00, 0x00, 0x00, 0x02, 0x00, 0x00, 0x00,
  0x10, 0x00, 0x00, 0x00, 0x02, 0x00, 0x00, 0x00, 0x18, 0xdd, 0xff, 0xff,
  0x16, 0x00, 0x00, 0x00, 0x00, 0x00, 0x00, 0x16, 0x01, 0x00, 0x00, 0x00,
  0x0c, 0xdd, 0xff, 0xff, 0x00, 0x00, 0x00, 0x09, 0x14, 0x00, 0x00, 0x00,
  0x12, 0x00, 0x00, 0x00, 0x24, 0x00, 0x00, 0x00, 0x4c, 0x00, 0x00, 0x00,
  0x10, 0x00, 0x00, 0x00, 0x02, 0x00, 0x00, 0x00, 0x01, 0x00, 0x00, 0x00,
  0x12, 0x00, 0x00, 0x00, 0x02, 0x00, 0x00, 0x00, 0xff, 0xff, 0xff, 0xff,
  0x12, 0x00, 0x00, 0x00, 0x24, 0x00, 0x00, 0x00, 0x73, 0x65, 0x71, 0x75,
  0x65, 0x6e, 0x74, 0x69, 0x61, 0x6c, 0x5f, 0x35, 0x2f, 0x71, 0x75, 0x61,
  0x6e, 0x74, 0x5f, 0x66, 0x6c, 0x61, 0x74, 0x74, 0x65, 0x6e, 0x5f, 0x35,
  0x2f, 0x52, 0x65, 0x73, 0x68, 0x61, 0x70, 0x65, 0x00, 0x00, 0x00, 0x00,
  0x04, 0xdc, 0xff, 0xff, 0x08, 0x00, 0x00, 0x00, 0x0c, 0x00, 0x00, 0x00,
  0x01, 0x00, 0x00, 0x00, 0x4f, 0x06, 0x5b, 0x3c, 0x01, 0x00, 0x00, 0x00,
  0x80, 0xff, 0xff, 0xff, 0xff, 0xff, 0xff, 0xff, 0x0a, 0xe4, 0xff, 0xff,
  0x00, 0x00, 0x00, 0x1b, 0x02, 0x00, 0x00, 0x00, 0x18, 0x00, 0x00, 0x00,
  0x0c, 0x00, 0x00, 0x00, 0x04, 0x00, 0x00, 0x00, 0xa8, 0xda, 0xff, 0xff,
  0x01, 0x00, 0x00, 0x00, 0x10, 0x00, 0x00, 0x00, 0x02, 0x00, 0x00, 0x00,
  0x0f, 0x00, 0x00, 0x00, 0x01, 0x00, 0x00, 0x00, 0xd8, 0xdd, 0xff, 0xff,
  0x52, 0x00, 0x00, 0x00, 0x00, 0x00, 0x00, 0x52, 0x02, 0x00, 0x00, 0x00,
  0xcc, 0xdd, 0xff, 0xff, 0x00, 0x00, 0x00, 0x09, 0x14, 0x00, 0x00, 0x00,
  0x11, 0x00, 0x00, 0x00, 0x24, 0x00, 0x00, 0x00, 0x54, 0x00, 0x00, 0x00,
  0x10, 0x00, 0x00, 0x00, 0x02, 0x00, 0x00, 0x00, 0x01, 0x00, 0x00, 0x00,
  0x12, 0x00, 0x00, 0x00, 0x02, 0x00, 0x00, 0x00, 0xff, 0xff, 0xff, 0xff,
  0x12, 0x00, 0x00, 0x00, 0x2d, 0x00, 0x00, 0x00, 0x73, 0x65, 0x71, 0x75,
  0x65, 0x6e, 0x74, 0x69, 0x61, 0x6c, 0x5f, 0x35, 0x2f, 0x71, 0x75, 0x61,
  0x6e, 0x74, 0x5f, 0x67, 0x6c, 0x6f, 0x62, 0x61, 0x6c, 0x5f, 0x6d, 0x61,
  0x78, 0x5f, 0x70, 0x6f, 0x6f, 0x6c, 0x69, 0x6e, 0x67, 0x32, 0x64, 0x5f,
  0x35, 0x2f, 0x4d, 0x61, 0x78, 0x00, 0x00, 0x00, 0xcc, 0xdc, 0xff, 0xff,
  0x08, 0x00, 0x00, 0x00, 0x0c, 0x00, 0x00, 0x00, 0x01, 0x00, 0x00, 0x00,
  0x4f, 0x06, 0x5b, 0x3c, 0x01, 0x00, 0x00, 0x00, 0x80, 0xff, 0xff, 0xff,
  0xff, 0xff, 0xff, 0xff, 0xd2, 0xe4, 0xff, 0xff, 0x00, 0x00, 0x00, 0x01,
  0x01, 0x00, 0x00, 0x00, 0x24, 0x00, 0x00, 0x00, 0x18, 0x00, 0x00, 0x00,
  0x04, 0x00, 0x00, 0x00, 0xc4, 0xe4, 0xff, 0xff, 0x01, 0x00, 0x00, 0x00,
  0x01, 0x00, 0x00, 0x00, 0x00, 0x00, 0x01, 0x01, 0x01, 0x00, 0x00, 0x00,
  0x0f, 0x00, 0x00, 0x00, 0x03, 0x00, 0x00, 0x00, 0x0c, 0x00, 0x00, 0x00,
  0x0d, 0x00, 0x00, 0x00, 0x0e, 0x00, 0x00, 0x00, 0x94, 0xde, 0xff, 0xff,
  0x00, 0x00, 0x00, 0x09, 0x14, 0x00, 0x00, 0x00, 0x10, 0x00, 0x00, 0x00,
  0x34, 0x00, 0x00, 0x00, 0xdc, 0x00, 0x00, 0x00, 0x18, 0x00, 0x00, 0x00,
  0x04, 0x00, 0x00, 0x00, 0x01, 0x00, 0x00, 0x00, 0x36, 0x00, 0x00, 0x00,
  0x01, 0x00, 0x00, 0x00, 0x12, 0x00, 0x00, 0x00, 0x04, 0x00, 0x00, 0x00,
  0xff, 0xff, 0xff, 0xff, 0x36, 0x00, 0x00, 0x00, 0x01, 0x00, 0x00, 0x00,
  0x12, 0x00, 0x00, 0x00, 0xa6, 0x00, 0x00, 0x00, 0x73, 0x65, 0x71, 0x75,
  0x65, 0x6e, 0x74, 0x69, 0x61, 0x6c, 0x5f, 0x35, 0x2f, 0x71, 0x75, 0x61,
  0x6e, 0x74, 0x5f, 0x72, 0x65, 0x5f, 0x6c, 0x75, 0x5f, 0x32, 0x33, 0x2f,
  0x52, 0x65, 0x6c, 0x75, 0x3b, 0x73, 0x65, 0x71, 0x75, 0x65, 0x6e, 0x74,
  0x69, 0x61, 0x6c, 0x5f, 0x35, 0x2f, 0x71, 0x75, 0x61, 0x6e, 0x74, 0x5f,
  0x63, 0x6f, 0x6e, 0x76, 0x32, 0x64, 0x5f, 0x32, 0x33, 0x2f, 0x42, 0x69,
  0x61, 0x73, 0x41, 0x64, 0x64, 0x3b, 0x73, 0x65, 0x71, 0x75, 0x65, 0x6e,
  0x74, 0x69, 0x61, 0x6c, 0x5f, 0x35, 0x2f, 0x71, 0x75, 0x61, 0x6e, 0x74,
  0x5f, 0x63, 0x6f, 0x6e, 0x76, 0x32, 0x64, 0x5f, 0x32, 0x33, 0x2f, 0x43,
  0x6f, 0x6e, 0x76, 0x32, 0x44, 0x3b, 0x73, 0x65, 0x71, 0x75, 0x65, 0x6e,
  0x74, 0x69, 0x61, 0x6c, 0x5f, 0x35, 0x2f, 0x71, 0x75, 0x61, 0x6e, 0x74,
  0x5f, 0x63, 0x6f, 0x6e, 0x76, 0x32, 0x64, 0x5f, 0x32, 0x33, 0x2f, 0x42,
  0x69, 0x61, 0x73, 0x41, 0x64, 0x64, 0x2f, 0x52, 0x65, 0x61, 0x64, 0x56,
  0x61, 0x72, 0x69, 0x61, 0x62, 0x6c, 0x65, 0x4f, 0x70, 0x2f, 0x72, 0x65,
  0x73, 0x6f, 0x75, 0x72, 0x63, 0x65, 0x00, 0x00, 0x1c, 0xde, 0xff, 0xff,
  0x08, 0x00, 0x00, 0x00, 0x0c, 0x00, 0x00, 0x00, 0x01, 0x00, 0x00, 0x00,
  0x4f, 0x06, 0x5b, 0x3c, 0x01, 0x00, 0x00, 0x00, 0x80, 0xff, 0xff, 0xff,
  0xff, 0xff, 0xff, 0xff, 0x00, 0x00, 0x00, 0x00, 0xaa, 0xdd, 0xff, 0xff,
  0x04, 0x00, 0x00, 0x00, 0x48, 0x00, 0x00, 0x00, 0x1f, 0x01, 0x00, 0x00,
  0xbe, 0x00, 0x00, 0x00, 0x94, 0xf8, 0xff, 0xff, 0x1d, 0x00, 0x00, 0x00,
  0x29, 0x01, 0x00, 0x00, 0x73, 0x01, 0x00, 0x00, 0x2a, 0xf1, 0xff, 0xff,
  0xfe, 0x00, 0x00, 0x00, 0x99, 0x03, 0x00, 0x00, 0x22, 0xfa, 0xff, 0xff,
  0x99, 0xf0, 0xff, 0xff, 0x16, 0xfb, 0xff, 0xff, 0x2b, 0x01, 0x00, 0x00,
  0x45, 0xf9, 0xff, 0xff, 0xfb, 0xff, 0xff, 0xff, 0x32, 0xfc, 0xff, 0xff,
  0xb3, 0xf8, 0xff, 0xff, 0x19, 0xfe, 0xff, 0xff, 0xe2, 0xdd, 0xff, 0xff,
  0x00, 0x00, 0x00, 0x02, 0x10, 0x00, 0x00, 0x00, 0x0f, 0x00, 0x00, 0x00,
  0x10, 0x00, 0x00, 0x00, 0x50, 0x00, 0x00, 0x00, 0x01, 0x00, 0x00, 0x00,
  0x12, 0x00, 0x00, 0x00, 0x3c, 0x00, 0x00, 0x00, 0x73, 0x65, 0x71, 0x75,
  0x65, 0x6e, 0x74, 0x69, 0x61, 0x6c, 0x5f, 0x35, 0x2f, 0x71, 0x75, 0x61,
  0x6e, 0x74, 0x5f, 0x63, 0x6f, 0x6e, 0x76, 0x32, 0x64, 0x5f, 0x32, 0x33,
  0x2f, 0x42, 0x69, 0x61, 0x73, 0x41, 0x64, 0x64, 0x2f, 0x52, 0x65, 0x61,
  0x64, 0x56, 0x61, 0x72, 0x69, 0x61, 0x62, 0x6c, 0x65, 0x4f, 0x70, 0x2f,
  0x72, 0x65, 0x73, 0x6f, 0x75, 0x72, 0x63, 0x65, 0x00, 0x00, 0x00, 0x00,
  0xf8, 0xde, 0xff, 0xff, 0x08, 0x00, 0x00, 0x00, 0x50, 0x00, 0x00, 0x00,
  0x12, 0x00, 0x00, 0x00, 0xd6, 0x92, 0x42, 0x39, 0x6a, 0x90, 0x4f, 0x39,
  0xa1, 0xe9, 0xa6, 0x38, 0x85, 0x2a, 0x96, 0x39, 0x45, 0x05, 0x8f, 0x39,
  0x12, 0x70, 0x4d, 0x39, 0xdc, 0x14, 0x3a, 0x39, 0xbd, 0x47, 0x56, 0x39,
  0x1c, 0x1e, 0x93, 0x39, 0xeb, 0xbe, 0x50, 0x39, 0xdd, 0x29, 0x1a, 0x39,
  0x47, 0x43, 0x5d, 0x38, 0x7f, 0x08, 0x4c, 0x39, 0x1f, 0xdb, 0x12, 0x39,
  0xbf, 0xf3, 0x82, 0x39, 0x7f, 0xdb, 0x3a, 0x39, 0x2d, 0xdc, 0xa8, 0x39,
  0x32, 0xb0, 0x49, 0x39, 0x12, 0x00, 0x00, 0x00, 0x00, 0x00, 0x00, 0x00,
  0x00, 0x00, 0x00, 0x00, 0x00, 0x00, 0x00, 0x00, 0x00, 0x00, 0x00, 0x00,
  0x00, 0x00, 0x00, 0x00, 0x00, 0x00, 0x00, 0x00, 0x00, 0x00, 0x00, 0x00,
  0x00, 0x00, 0x00, 0x00, 0x00, 0x00, 0x00, 0x00, 0x00, 0x00, 0x00, 0x00,
  0x00, 0x00, 0x00, 0x00, 0x00, 0x00, 0x00, 0x00, 0x00, 0x00, 0x00, 0x00,
  0x00, 0x00, 0x00, 0x00, 0x00, 0x00, 0x00, 0x00, 0x00, 0x00, 0x00, 0x00,
  0x00, 0x00, 0x00, 0x00, 0x00, 0x00, 0x00, 0x00, 0x00, 0x00, 0x00, 0x00,
  0x00, 0x00, 0x00, 0x00, 0x00, 0x00, 0x00, 0x00, 0x00, 0x00, 0x00, 0x00,
  0x00, 0x00, 0x00, 0x00, 0x00, 0x00, 0x00, 0x00, 0x00, 0x00, 0x00, 0x00,
  0x00, 0x00, 0x00, 0x00, 0x00, 0x00, 0x00, 0x00, 0x00, 0x00, 0x00, 0x00,
  0x00, 0x00, 0x00, 0x00, 0x00, 0x00, 0x00, 0x00, 0x00, 0x00, 0x00, 0x00,
  0x00, 0x00, 0x00, 0x00, 0x00, 0x00, 0x00, 0x00, 0x00, 0x00, 0x00, 0x00,
  0x00, 0x00, 0x00, 0x00, 0x00, 0x00, 0x00, 0x00, 0x00, 0x00, 0x00, 0x00,
  0x52, 0xdf, 0xff, 0xff, 0x04, 0x00, 0x00, 0x00, 0xb0, 0x01, 0x00, 0x00,
  0xe3, 0x19, 0x49, 0x81, 0xd1, 0xc0, 0x3e, 0xed, 0xd8, 0xed, 0xf6, 0x2d,
  0x35, 0xcd, 0xa3, 0xc3, 0xf4, 0xb1, 0xf1, 0xa3, 0x33, 0x3b, 0xf7, 0xbb,
  0x0b, 0x01, 0x41, 0x26, 0x8e, 0x1a, 0xd2, 0x97, 0x81, 0xc3, 0x97, 0x82,
  0x4a, 0x02, 0x09, 0xad, 0xf3, 0xfe, 0x2a, 0x0a, 0xf6, 0x1b, 0x08, 0x35,
  0xd9, 0xd5, 0xbb, 0xf6, 0xcf, 0xc5, 0x9f, 0x81, 0xf2, 0xc3, 0x0c, 0x22,
  0x3a, 0xe9, 0x05, 0xe1, 0xf7, 0xd5, 0xde, 0xa8, 0x3d, 0x20, 0xdb, 0xc5,
  0xf8, 0x09, 0x36, 0xdb, 0xfb, 0xaa, 0x35, 0x0b, 0x27, 0xf6, 0x1e, 0xd6,
  0x0f, 0xcd, 0x2b, 0xe1, 0xd5, 0x81, 0xa4, 0xef, 0x01, 0x1a, 0xba, 0xf4,
  0x81, 0x03, 0x14, 0xed, 0xe4, 0xd2, 0xe8, 0x19, 0x08, 0x13, 0xd9, 0x06,
  0x1c, 0xfa, 0x1e, 0x19, 0xce, 0x32, 0xce, 0xbb, 0xc6, 0xdf, 0xc6, 0xcb,
  0xda, 0xa6, 0xd6, 0x0f, 0xb4, 0xf8, 0x23, 0x1d, 0x09, 0x96, 0x0d, 0x51,
  0xfb, 0x81, 0x8c, 0xec, 0x0f, 0x30, 0x17, 0xfc, 0xfd, 0xc0, 0xe8, 0x58,
  0x14, 0x81, 0x30, 0xe8, 0xfd, 0x54, 0xfe, 0xcf, 0xb1, 0xfd, 0xf4, 0xe4,
  0x12, 0x33, 0x1a, 0x17, 0x00, 0x2f, 0xe4, 0x05, 0xb6, 0xf3, 0x54, 0xe8,
  0xe9, 0xe5, 0xde, 0x1a, 0xd3, 0x27, 0x28, 0xef, 0x11, 0x85, 0x38, 0x23,
  0x05, 0xa5, 0x81, 0xe6, 0xfa, 0x02, 0x15, 0x08, 0x27, 0x82, 0x1f, 0x0f,
  0x04, 0xb1, 0xe2, 0x02, 0xf9, 0x13, 0x1d, 0xf8, 0x1e, 0x81, 0x15, 0x35,
  0xeb, 0xe9, 0xd0, 0xf8, 0xf4, 0x05, 0xfe, 0x10, 0x13, 0xc0, 0xf5, 0xc5,
  0xf5, 0xef, 0x4e, 0x2a, 0x0c, 0x19, 0xb2, 0xa6, 0x81, 0xdc, 0xd4, 0x86,
  0x0c, 0x11, 0xe0, 0xdf, 0xeb, 0x1f, 0x28, 0xef, 0xe1, 0x1a, 0x2a, 0x38,
  0x08, 0x81, 0x32, 0x01, 0x05, 0x57, 0x0a, 0xd5, 0xb8, 0x0f, 0xdf, 0x05,
  0x27, 0x31, 0xd8, 0xf9, 0x02, 0x31, 0xb3, 0x00, 0x85, 0xf1, 0x67, 0xab,
  0xa7, 0xe4, 0xa4, 0xa8, 0x08, 0x81, 0xf9, 0x06, 0xf7, 0x0d, 0x88, 0x8d,
  0xe0, 0xb7, 0xa9, 0xa4, 0x16, 0xa4, 0x30, 0x87, 0xef, 0xd7, 0xeb, 0x17,
  0x20, 0xb5, 0xde, 0x26, 0xd7, 0x20, 0x34, 0xe5, 0x20, 0x97, 0x37, 0x1f,
  0xfc, 0xc1, 0x81, 0xee, 0xf0, 0x00, 0x03, 0x1f, 0x2c, 0x97, 0x13, 0xea,
  0xca, 0x92, 0xf4, 0xce, 0xe6, 0xf1, 0x1f, 0x2c, 0xe2, 0x4f, 0x01, 0x4c,
  0x11, 0xe4, 0x2d, 0x3a, 0xf5, 0x58, 0x0d, 0x81, 0x32, 0xb1, 0x0b, 0x3f,
  0xf3, 0x15, 0x40, 0xc4, 0xe1, 0xc3, 0x41, 0xf7, 0x11, 0xf8, 0x10, 0xd3,
  0x38, 0xc7, 0xf6, 0xb5, 0xf8, 0x81, 0xe8, 0xd4, 0x1a, 0x1d, 0xf4, 0xda,
  0x09, 0x90, 0x38, 0x13, 0xfb, 0xf6, 0xaf, 0xcb, 0x18, 0x36, 0x81, 0x90,
  0x23, 0xf9, 0xe5, 0xef, 0x2c, 0x0a, 0xab, 0x03, 0x29, 0x05, 0x35, 0xd3,
  0xf3, 0x15, 0x06, 0xe2, 0x17, 0x1d, 0xf8, 0x04, 0xf0, 0x01, 0x10, 0x01,
  0x11, 0xf9, 0xf4, 0x11, 0x0a, 0x1a, 0xe1, 0xec, 0x81, 0x00, 0xc4, 0xd0,
  0xf2, 0xcd, 0xd0, 0xc9, 0xd2, 0xd4, 0x44, 0xfa, 0x34, 0x81, 0x5a, 0xf4,
  0x95, 0xd7, 0x23, 0xb9, 0x8b, 0xac, 0xb5, 0x16, 0x1a, 0x53, 0xec, 0x0d,
  0xf2, 0xe0, 0xff, 0xff, 0x00, 0x00, 0x00, 0x09, 0x10, 0x00, 0x00, 0x00,
  0x0e, 0x00, 0x00, 0x00, 0x1c, 0x00, 0x00, 0x00, 0x40, 0x00, 0x00, 0x00,
  0x04, 0x00, 0x00, 0x00, 0x12, 0x00, 0x00, 0x00, 0x02, 0x00, 0x00, 0x00,
  0x01, 0x00, 0x00, 0x00, 0x0c, 0x00, 0x00, 0x00, 0x23, 0x00, 0x00, 0x00,
  0x73, 0x65, 0x71, 0x75, 0x65, 0x6e, 0x74, 0x69, 0x61, 0x6c, 0x5f, 0x35,
  0x2f, 0x71, 0x75, 0x61, 0x6e, 0x74, 0x5f, 0x63, 0x6f, 0x6e, 0x76, 0x32,
  0x64, 0x5f, 0x32, 0x33, 0x2f, 0x43, 0x6f, 0x6e, 0x76, 0x32, 0x44, 0x00,
  0xf8, 0xe1, 0xff, 0xff, 0x08, 0x00, 0x00, 0x00, 0x50, 0x00, 0x00, 0x00,
  0x12, 0x00, 0x00, 0x00, 0x85, 0xcb, 0x16, 0x3c, 0xda, 0xdc, 0x20, 0x3c,
  0x91, 0x5b, 0x81, 0x3b, 0x17, 0xc2, 0x68, 0x3c, 0xbf, 0xae, 0x5d, 0x3c,
  0xfc, 0x36, 0x1f, 0x3c, 0xae, 0x36, 0x10, 0x3c, 0x55, 0x11, 0x26, 0x3c,
  0x75, 0x08, 0x64, 0x3c, 0x4b, 0xc7, 0x21, 0x3c, 0x48, 0xf4, 0xee, 0x3b,
  0xad, 0x7a, 0x2b, 0x3b, 0x50, 0x20, 0x1e, 0x3c, 0x9f, 0xa0, 0xe3, 0x3b,
  0xf8, 0xf9, 0x4a, 0x3c, 0xa0, 0xd0, 0x10, 0x3c, 0xf1, 0xdd, 0x82, 0x3c,
  0x14, 0x4f, 0x1c, 0x3c, 0x12, 0x00, 0x00, 0x00, 0x00, 0x00, 0x00, 0x00,
  0x00, 0x00, 0x00, 0x00, 0x00, 0x00, 0x00, 0x00, 0x00, 0x00, 0x00, 0x00,
  0x00, 0x00, 0x00, 0x00, 0x00, 0x00, 0x00, 0x00, 0x00, 0x00, 0x00, 0x00,
  0x00, 0x00, 0x00, 0x00, 0x00, 0x00, 0x00, 0x00, 0x00, 0x00, 0x00, 0x00,
  0x00, 0x00, 0x00, 0x00, 0x00, 0x00, 0x00, 0x00, 0x00, 0x00, 0x00, 0x00,
  0x00, 0x00, 0x00, 0x00, 0x00, 0x00, 0x00, 0x00, 0x00, 0x00, 0x00, 0x00,
  0x00, 0x00, 0x00, 0x00, 0x00, 0x00, 0x00, 0x00, 0x00, 0x00, 0x00, 0x00,
  0x00, 0x00, 0x00, 0x00, 0x00, 0x00, 0x00, 0x00, 0x00, 0x00, 0x00, 0x00,
  0x00, 0x00, 0x00, 0x00, 0x00, 0x00, 0x00, 0x00, 0x00, 0x00, 0x00, 0x00,
  0x00, 0x00, 0x00, 0x00, 0x00, 0x00, 0x00, 0x00, 0x00, 0x00, 0x00, 0x00,
  0x00, 0x00, 0x00, 0x00, 0x00, 0x00, 0x00, 0x00, 0x00, 0x00, 0x00, 0x00,
  0x00, 0x00, 0x00, 0x00, 0x00, 0x00, 0x00, 0x00, 0x00, 0x00, 0x00, 0x00,
  0x00, 0x00, 0x00, 0x00, 0x00, 0x00, 0x00, 0x00, 0xca, 0xea, 0xff, 0xff,
  0x00, 0x00, 0x00, 0x01, 0x01, 0x00, 0x00, 0x00, 0x24, 0x00, 0x00, 0x00,
  0x18, 0x00, 0x00, 0x00, 0x04, 0x00, 0x00, 0x00, 0xbc, 0xea, 0xff, 0xff,
  0x01, 0x00, 0x00, 0x00, 0x01, 0x00, 0x00, 0x00, 0x00, 0x00, 0x01, 0x01,
  0x01, 0x00, 0x00, 0x00, 0x0c, 0x00, 0x00, 0x00, 0x03, 0x00, 0x00, 0x00,
  0x09, 0x00, 0x00, 0x00, 0x0a, 0x00, 0x00, 0x00, 0x0b, 0x00, 0x00, 0x00,
  0x8c, 0xe4, 0xff, 0xff, 0x00, 0x00, 0x00, 0x09, 0x14, 0x00, 0x00, 0x00,
  0x0d, 0x00, 0x00, 0x00, 0x34, 0x00, 0x00, 0x00, 0xdc, 0x00, 0x00, 0x00,
  0x18, 0x00, 0x00, 0x00, 0x04, 0x00, 0x00, 0x00, 0x01, 0x00, 0x00, 0x00,
  0x37, 0x00, 0x00, 0x00, 0x01, 0x00, 0x00, 0x00, 0x0c, 0x00, 0x00, 0x00,
  0x04, 0x00, 0x00, 0x00, 0xff, 0xff, 0xff, 0xff, 0x37, 0x00, 0x00, 0x00,
  0x01, 0x00, 0x00, 0x00, 0x0c, 0x00, 0x00, 0x00, 0xa6, 0x00, 0x00, 0x00,
  0x73, 0x65, 0x71, 0x75, 0x65, 0x6e, 0x74, 0x69, 0x61, 0x6c, 0x5f, 0x35,
  0x2f, 0x71, 0x75, 0x61, 0x6e, 0x74, 0x5f, 0x72, 0x65, 0x5f, 0x6c, 0x75,
  0x5f, 0x32, 0x32, 0x2f, 0x52, 0x65, 0x6c, 0x75, 0x3b, 0x73, 0x65, 0x71,
  0x75, 0x65, 0x6e, 0x74, 0x69, 0x61, 0x6c, 0x5f, 0x35, 0x2f, 0x71, 0x75,
  0x61, 0x6e, 0x74, 0x5f, 0x63, 0x6f, 0x6e, 0x76, 0x32, 0x64, 0x5f, 0x32,
  0x32, 0x2f, 0x42, 0x69, 0x61, 0x73, 0x41, 0x64, 0x64, 0x3b, 0x73, 0x65,
  0x71, 0x75, 0x65, 0x6e, 0x74, 0x69, 0x61, 0x6c, 0x5f, 0x35, 0x2f, 0x71,
  0x75, 0x61, 0x6e, 0x74, 0x5f, 0x63, 0x6f, 0x6e, 0x76, 0x32, 0x64, 0x5f,
  0x32, 0x32, 0x2f, 0x43, 0x6f, 0x6e, 0x76, 0x32, 0x44, 0x3b, 0x73, 0x65,
  0x71, 0x75, 0x65, 0x6e, 0x74, 0x69, 0x61, 0x6c, 0x5f, 0x35, 0x2f, 0x71,
  0x75, 0x61, 0x6e, 0x74, 0x5f, 0x63, 0x6f, 0x6e, 0x76, 0x32, 0x64, 0x5f,
  0x32, 0x32, 0x2f, 0x42, 0x69, 0x61, 0x73, 0x41, 0x64, 0x64, 0x2f, 0x52,
  0x65, 0x61, 0x64, 0x56, 0x61, 0x72, 0x69, 0x61, 0x62, 0x6c, 0x65, 0x4f,
  0x70, 0x2f, 0x72, 0x65, 0x73, 0x6f, 0x75, 0x72, 0x63, 0x65, 0x00, 0x00,
  0x14, 0xe4, 0xff, 0xff, 0x08, 0x00, 0x00, 0x00, 0x0c, 0x00, 0x00, 0x00,
  0x01, 0x00, 0x00, 0x00, 0x28, 0x29, 0xa5, 0x3c, 0x01, 0x00, 0x00, 0x00,
  0x80, 0xff, 0xff, 0xff, 0xff, 0xff, 0xff, 0xff, 0x00, 0x00, 0x00, 0x00,
  0xa2, 0xe3, 0xff, 0xff, 0x04, 0x00, 0x00, 0x00, 0x30, 0x00, 0x00, 0x00,
  0x36, 0xf6, 0xff, 0xff, 0x06, 0x05, 0x00, 0x00, 0xf5, 0xfa, 0xff, 0xff,
  0xc8, 0xfe, 0xff, 0xff, 0xe5, 0xeb, 0xff, 0xff, 0x95, 0xed, 0xff, 0xff,
  0x5c, 0x07, 0x00, 0x00, 0xef, 0xff, 0xff, 0xff, 0x17, 0x07, 0x00, 0x00,
  0xc8, 0x07, 0x00, 0x00, 0x30, 0x03, 0x00, 0x00, 0x6c, 0x04, 0x00, 0x00,
  0xc2, 0xe3, 0xff, 0xff, 0x00, 0x00, 0x00, 0x02, 0x10, 0x00, 0x00, 0x00,
  0x0c, 0x00, 0x00, 0x00, 0x10, 0x00, 0x00, 0x00, 0x50, 0x00, 0x00, 0x00,
  0x01, 0x00, 0x00, 0x00, 0x0c, 0x00, 0x00, 0x00, 0x3c, 0x00, 0x00, 0x00,
  0x73, 0x65, 0x71, 0x75, 0x65, 0x6e, 0x74, 0x69, 0x61, 0x6c, 0x5f, 0x35,
  0x2f, 0x71, 0x75, 0x61, 0x6e, 0x74, 0x5f, 0x63, 0x6f, 0x6e, 0x76, 0x32,
  0x64, 0x5f, 0x32, 0x32, 0x2f, 0x42, 0x69, 0x61, 0x73, 0x41, 0x64, 0x64,
  0x2f, 0x52, 0x65, 0x61, 0x64, 0x56, 0x61, 0x72, 0x69, 0x61, 0x62, 0x6c,
  0x65, 0x4f, 0x70, 0x2f, 0x72, 0x65, 0x73, 0x6f, 0x75, 0x72, 0x63, 0x65,
  0x00, 0x00, 0x00, 0x00, 0xd8, 0xe4, 0xff, 0xff, 0x08, 0x00, 0x00, 0x00,
  0x38, 0x00, 0x00, 0x00, 0x0c, 0x00, 0x00, 0x00, 0x75, 0xb6, 0xcb, 0x38,
  0x6c, 0x33, 0xf2, 0x38, 0x72, 0x27, 0x9a, 0x38, 0x2f, 0xd8, 0x94, 0x38,
  0x4e, 0xa0, 0x88, 0x38, 0xc3, 0x60, 0x9a, 0x38, 0x0b, 0x1d, 0xeb, 0x38,
  0xd0, 0x41, 0xb0, 0x38, 0x4f, 0x1a, 0x00, 0x39, 0x03, 0x23, 0xa6, 0x38,
  0x74, 0x90, 0x9a, 0x38, 0x54, 0x51, 0x31, 0x39, 0x0c, 0x00, 0x00, 0x00,
  0x00, 0x00, 0x00, 0x00, 0x00, 0x00, 0x00, 0x00, 0x00, 0x00, 0x00, 0x00,
  0x00, 0x00, 0x00, 0x00, 0x00, 0x00, 0x00, 0x00, 0x00, 0x00, 0x00, 0x00,
  0x00, 0x00, 0x00, 0x00, 0x00, 0x00, 0x00, 0x00, 0x00, 0x00, 0x00, 0x00,
  0x00, 0x00, 0x00, 0x00, 0x00, 0x00, 0x00, 0x00, 0x00, 0x00, 0x00, 0x00,
  0x00, 0x00, 0x00, 0x00, 0x00, 0x00, 0x00, 0x00, 0x00, 0x00, 0x00, 0x00,
  0x00, 0x00, 0x00, 0x00, 0x00, 0x00, 0x00, 0x00, 0x00, 0x00, 0x00, 0x00,
  0x00, 0x00, 0x00, 0x00, 0x00, 0x00, 0x00, 0x00, 0x00, 0x00, 0x00, 0x00,
  0x00, 0x00, 0x00, 0x00, 0x00, 0x00, 0x00, 0x00, 0x00, 0x00, 0x00, 0x00,
  0x00, 0x00, 0x00, 0x00, 0xea, 0xe4, 0xff, 0xff, 0x04, 0x00, 0x00, 0x00,
  0x80, 0x01, 0x00, 0x00, 0x84, 0x0d, 0xdf, 0x45, 0xee, 0x07, 0x37, 0x13,
  0xc8, 0x00, 0xf2, 0x0e, 0x3a, 0x8f, 0x25, 0x29, 0x81, 0x23, 0xdb, 0xab,
  0x0b, 0xd3, 0x15, 0xe3, 0xf4, 0xe2, 0xdc, 0x11, 0x17, 0x01, 0xc0, 0x08,
  0xf7, 0x0c, 0x33, 0xd3, 0x34, 0x47, 0x03, 0x1f, 0x3d, 0x05, 0x47, 0xcc,
  0xf2, 0xd0, 0xfd, 0x43, 0xe0, 0x15, 0xdb, 0x81, 0xe6, 0x19, 0xf3, 0xe6,
  0xdd, 0x0f, 0xf3, 0x1f, 0x52, 0x41, 0xa4, 0x48, 0x23, 0xbb, 0xaa, 0x29,
  0x55, 0x45, 0x8c, 0xfb, 0x4a, 0xd1, 0xfc, 0x08, 0xee, 0x94, 0x06, 0x81,
  0x7b, 0x53, 0x3c, 0x58, 0x5b, 0x36, 0x04, 0xd7, 0x29, 0xa0, 0x7a, 0xf6,
  0x11, 0xa0, 0x6f, 0x05, 0xcf, 0xc0, 0xdb, 0x15, 0x93, 0x56, 0xbb, 0x2d,
  0x46, 0x10, 0xf7, 0x81, 0x55, 0x3b, 0x2c, 0x00, 0x3d, 0x4c, 0x38, 0x3c,
  0x3d, 0x2a, 0x60, 0xfa, 0x15, 0xd3, 0x2d, 0xc1, 0x29, 0xcf, 0x36, 0x22,
  0xf5, 0x61, 0x62, 0x7f, 0x13, 0x3a, 0x5b, 0x0c, 0x84, 0x16, 0x30, 0xbf,
  0x0d, 0x18, 0x6b, 0x0f, 0x1c, 0x7b, 0x13, 0x3f, 0x08, 0xfa, 0x23, 0xfe,
  0xe9, 0xf2, 0x35, 0x56, 0xd7, 0x06, 0x2c, 0x43, 0x43, 0x95, 0x47, 0x17,
  0x81, 0x86, 0x0f, 0x01, 0xd3, 0x22, 0x95, 0x31, 0xc4, 0x4f, 0x0f, 0x02,
  0xc4, 0x40, 0xd9, 0x26, 0x12, 0x9b, 0x3e, 0xcf, 0xa6, 0x0d, 0x8e, 0x11,
  0xf7, 0xfc, 0x2d, 0x53, 0x43, 0x0f, 0x2d, 0xd3, 0xa7, 0x37, 0xa5, 0xfa,
  0x18, 0xb1, 0xfa, 0x81, 0x28, 0x22, 0x11, 0x26, 0xb9, 0x91, 0x25, 0x03,
  0x1a, 0xbf, 0x05, 0x18, 0x39, 0x19, 0xb2, 0x0b, 0xb9, 0x48, 0x01, 0xca,
  0xa1, 0x4d, 0xf0, 0xda, 0xe2, 0xdc, 0x11, 0x16, 0x29, 0xf6, 0x66, 0xe9,
  0xe1, 0x97, 0x79, 0x35, 0x81, 0xc3, 0x08, 0xfc, 0xc8, 0x13, 0x10, 0xfa,
  0x42, 0x4c, 0xb6, 0xa6, 0x45, 0xdf, 0xe6, 0x27, 0x9b, 0xdd, 0x23, 0xc5,
  0x81, 0xde, 0x09, 0xfb, 0x26, 0x1d, 0xc4, 0x0a, 0x00, 0x0e, 0x11, 0xf4,
  0xb8, 0xa6, 0x0f, 0xe4, 0xc9, 0xf6, 0xfc, 0xfa, 0x3a, 0x1b, 0xb6, 0xd5,
  0xe9, 0x03, 0x16, 0xf5, 0x3b, 0x6f, 0x04, 0xc0, 0x2b, 0x8f, 0x18, 0xf6,
  0xc5, 0x16, 0x0a, 0x7f, 0x39, 0x57, 0x06, 0xfa, 0x25, 0x42, 0x98, 0xbc,
  0x50, 0x1e, 0xc1, 0xe5, 0x06, 0xed, 0x05, 0x2f, 0xfa, 0x10, 0x9e, 0x0c,
  0xc1, 0x08, 0x26, 0xb7, 0x0a, 0xd0, 0xf1, 0xf0, 0xdd, 0xd1, 0x81, 0xcd,
  0x4a, 0x1e, 0xe7, 0xe2, 0x37, 0xcc, 0x52, 0xdd, 0xc9, 0xb3, 0x29, 0xf9,
  0xe8, 0x49, 0x0f, 0xe0, 0x33, 0x73, 0x4d, 0xc3, 0x47, 0x1b, 0xf7, 0xcb,
  0xee, 0xf3, 0x03, 0xf2, 0xee, 0xb3, 0xf8, 0xce, 0x2b, 0xf4, 0x19, 0xe2,
  0xf3, 0xd4, 0x0b, 0xcd, 0x10, 0x20, 0x03, 0xf4, 0x3a, 0xd1, 0xef, 0x81,
  0x25, 0x0c, 0xf3, 0x00, 0x5a, 0xe6, 0xff, 0xff, 0x00, 0x00, 0x00, 0x09,
  0x10, 0x00, 0x00, 0x00, 0x0b, 0x00, 0x00, 0x00, 0x1c, 0x00, 0x00, 0x00,
  0x40, 0x00, 0x00, 0x00, 0x04, 0x00, 0x00, 0x00, 0x0c, 0x00, 0x00, 0x00,
  0x02, 0x00, 0x00, 0x00, 0x01, 0x00, 0x00, 0x00, 0x10, 0x00, 0x00, 0x00,
  0x23, 0x00, 0x00, 0x00, 0x73, 0x65, 0x71, 0x75, 0x65, 0x6e, 0x74, 0x69,
  0x61, 0x6c, 0x5f, 0x35, 0x2f, 0x71, 0x75, 0x61, 0x6e, 0x74, 0x5f, 0x63,
  0x6f, 0x6e, 0x76, 0x32, 0x64, 0x5f, 0x32, 0x32, 0x2f, 0x43, 0x6f, 0x6e,
  0x76, 0x32, 0x44, 0x00, 0x60, 0xe7, 0xff, 0xff, 0x08, 0x00, 0x00, 0x00,
  0x38, 0x00, 0x00, 0x00, 0x0c, 0x00, 0x00, 0x00, 0x87, 0x56, 0x0d, 0x3c,
  0x9e, 0x0a, 0x28, 0x3c, 0x4c, 0xe8, 0xd5, 0x3b, 0x28, 0x8a, 0xce, 0x3b,
  0xd9, 0x95, 0xbd, 0x3b, 0xd5, 0x37, 0xd6, 0x3b, 0xc9, 0x1f, 0x23, 0x3c,
  0xf7, 0x93, 0xf4, 0x3b, 0x10, 0xc2, 0x31, 0x3c, 0xea, 0x88, 0xe6, 0x3b,
  0x02, 0x7a, 0xd6, 0x3b, 0xb9, 0x0c, 0x76, 0x3c, 0x0c, 0x00, 0x00, 0x00,
  0x00, 0x00, 0x00, 0x00, 0x00, 0x00, 0x00, 0x00, 0x00, 0x00, 0x00, 0x00,
  0x00, 0x00, 0x00, 0x00, 0x00, 0x00, 0x00, 0x00, 0x00, 0x00, 0x00, 0x00,
  0x00, 0x00, 0x00, 0x00, 0x00, 0x00, 0x00, 0x00, 0x00, 0x00, 0x00, 0x00,
  0x00, 0x00, 0x00, 0x00, 0x00, 0x00, 0x00, 0x00, 0x00, 0x00, 0x00, 0x00,
  0x00, 0x00, 0x00, 0x00, 0x00, 0x00, 0x00, 0x00, 0x00, 0x00, 0x00, 0x00,
  0x00, 0x00, 0x00, 0x00, 0x00, 0x00, 0x00, 0x00, 0x00, 0x00, 0x00, 0x00,
  0x00, 0x00, 0x00, 0x00, 0x00, 0x00, 0x00, 0x00, 0x00, 0x00, 0x00, 0x00,
  0x00, 0x00, 0x00, 0x00, 0x00, 0x00, 0x00, 0x00, 0x00, 0x00, 0x00, 0x00,
  0xea, 0xef, 0xff, 0xff, 0x00, 0x00, 0x00, 0x01, 0x01, 0x00, 0x00, 0x00,
  0x24, 0x00, 0x00, 0x00, 0x18, 0x00, 0x00, 0x00, 0x04, 0x00, 0x00, 0x00,
  0xdc, 0xef, 0xff, 0xff, 0x01, 0x00, 0x00, 0x00, 0x01, 0x00, 0x00, 0x00,
  0x00, 0x00, 0x01, 0x01, 0x01, 0x00, 0x00, 0x00, 0x09, 0x00, 0x00, 0x00,
  0x03, 0x00, 0x00, 0x00, 0x06, 0x00, 0x00, 0x00, 0x07, 0x00, 0x00, 0x00,
  0x08, 0x00, 0x00, 0x00, 0xac, 0xe9, 0xff, 0xff, 0x00, 0x00, 0x00, 0x09,
  0x14, 0x00, 0x00, 0x00, 0x0a, 0x00, 0x00, 0x00, 0x34, 0x00, 0x00, 0x00,
  0xdc, 0x00, 0x00, 0x00, 0x18, 0x00, 0x00, 0x00, 0x04, 0x00, 0x00, 0x00,
  0x01, 0x00, 0x00, 0x00, 0x38, 0x00, 0x00, 0x00, 0x01, 0x00, 0x00, 0x00,
  0x10, 0x00, 0x00, 0x00, 0x04, 0x00, 0x00, 0x00, 0xff, 0xff, 0xff, 0xff,
  0x38, 0x00, 0x00, 0x00, 0x01, 0x00, 0x00, 0x00, 0x10, 0x00, 0x00, 0x00,
  0xa6, 0x00, 0x00, 0x00, 0x73, 0x65, 0x71, 0x75, 0x65, 0x6e, 0x74, 0x69,
  0x61, 0x6c, 0x5f, 0x35, 0x2f, 0x71, 0x75, 0x61, 0x6e, 0x74, 0x5f, 0x72,
  0x65, 0x5f, 0x6c, 0x75, 0x5f, 0x32, 0x31, 0x2f, 0x52, 0x65, 0x6c, 0x75,
  0x3b, 0x73, 0x65, 0x71, 0x75, 0x65, 0x6e, 0x74, 0x69, 0x61, 0x6c, 0x5f,
  0x35, 0x2f, 0x71, 0x75, 0x61, 0x6e, 0x74, 0x5f, 0x63, 0x6f, 0x6e, 0x76,
  0x32, 0x64, 0x5f, 0x32, 0x31, 0x2f, 0x42, 0x69, 0x61, 0x73, 0x41, 0x64,
  0x64, 0x3b, 0x73, 0x65, 0x71, 0x75, 0x65, 0x6e, 0x74, 0x69, 0x61, 0x6c,
  0x5f, 0x35, 0x2f, 0x71, 0x75, 0x61, 0x6e, 0x74, 0x5f, 0x63, 0x6f, 0x6e,
  0x76, 0x32, 0x64, 0x5f, 0x32, 0x31, 0x2f, 0x43, 0x6f, 0x6e, 0x76, 0x32,
  0x44, 0x3b, 0x73, 0x65, 0x71, 0x75, 0x65, 0x6e, 0x74, 0x69, 0x61, 0x6c,
  0x5f, 0x35, 0x2f, 0x71, 0x75, 0x61, 0x6e, 0x74, 0x5f, 0x63, 0x6f, 0x6e,
  0x76, 0x32, 0x64, 0x5f, 0x32, 0x31, 0x2f, 0x42, 0x69, 0x61, 0x73, 0x41,
  0x64, 0x64, 0x2f, 0x52, 0x65, 0x61, 0x64, 0x56, 0x61, 0x72, 0x69, 0x61,
  0x62, 0x6c, 0x65, 0x4f, 0x70, 0x2f, 0x72, 0x65, 0x73, 0x6f, 0x75, 0x72,
  0x63, 0x65, 0x00, 0x00, 0x34, 0xe9, 0xff, 0xff, 0x08, 0x00, 0x00, 0x00,
  0x0c, 0x00, 0x00, 0x00, 0x01, 0x00, 0x00, 0x00, 0x0b, 0x7d, 0x38, 0x3c,
  0x01, 0x00, 0x00, 0x00, 0x80, 0xff, 0xff, 0xff, 0xff, 0xff, 0xff, 0xff,
  0x00, 0x00, 0x00, 0x00, 0xc2, 0xe8, 0xff, 0xff, 0x04, 0x00, 0x00, 0x00,
  0x40, 0x00, 0x00, 0x00, 0xb2, 0xf0, 0xff, 0xff, 0x10, 0xfb, 0xff, 0xff,
  0x8d, 0x0e, 0x00, 0x00, 0x65, 0xbe, 0xff, 0xff, 0xe3, 0x06, 0x00, 0x00,
  0x3f, 0x19, 0x00, 0x00, 0x53, 0xc0, 0xff, 0xff, 0x88, 0xd8, 0xff, 0xff,
  0xff, 0x1f, 0x00, 0x00, 0xde, 0x0e, 0x00, 0x00, 0x62, 0xfe, 0xff, 0xff,
  0x36, 0x00, 0x00, 0x00, 0x9d, 0x01, 0x00, 0x00, 0xba, 0x0a, 0x00, 0x00,
  0xc5, 0x05, 0x00, 0x00, 0x58, 0xf1, 0xff, 0xff, 0xf2, 0xe8, 0xff, 0xff,
  0x00, 0x00, 0x00, 0x02, 0x10, 0x00, 0x00, 0x00, 0x09, 0x00, 0x00, 0x00,
  0x10, 0x00, 0x00, 0x00, 0x50, 0x00, 0x00, 0x00, 0x01, 0x00, 0x00, 0x00,
  0x10, 0x00, 0x00, 0x00, 0x3c, 0x00, 0x00, 0x00, 0x73, 0x65, 0x71, 0x75,
  0x65, 0x6e, 0x74, 0x69, 0x61, 0x6c, 0x5f, 0x35, 0x2f, 0x71, 0x75, 0x61,
  0x6e, 0x74, 0x5f, 0x63, 0x6f, 0x6e, 0x76, 0x32, 0x64, 0x5f, 0x32, 0x31,
  0x2f, 0x42, 0x69, 0x61, 0x73, 0x41, 0x64, 0x64, 0x2f, 0x52, 0x65, 0x61,
  0x64, 0x56, 0x61, 0x72, 0x69, 0x61, 0x62, 0x6c, 0x65, 0x4f, 0x70, 0x2f,
  0x72, 0x65, 0x73, 0x6f, 0x75, 0x72, 0x63, 0x65, 0x00, 0x00, 0x00, 0x00,
  0x08, 0xea, 0xff, 0xff, 0x08, 0x00, 0x00, 0x00, 0x48, 0x00, 0x00, 0x00,
  0x10, 0x00, 0x00, 0x00, 0xb5, 0x2f, 0x0d, 0x38, 0x30, 0x81, 0x5f, 0x38,
  0x3c, 0x3c, 0xcc, 0x37, 0xbd, 0x91, 0x26, 0x38, 0xa5, 0x35, 0x32, 0x38,
  0xec, 0xf2, 0x12, 0x38, 0x60, 0x88, 0xdd, 0x37, 0x5c, 0xdf, 0xa9, 0x36,
  0x43, 0x77, 0x0a, 0x38, 0x9f, 0xbb, 0x22, 0x38, 0x1a, 0xf8, 0x3f, 0x38,
  0x1d, 0xba, 0x08, 0x38, 0xcf, 0xec, 0x0b, 0x38, 0xc6, 0xbf, 0x7e, 0x38,
  0x51, 0x8d, 0x6b, 0x38, 0x03, 0xe6, 0xeb, 0x37, 0x10, 0x00, 0x00, 0x00,
  0x00, 0x00, 0x00, 0x00, 0x00, 0x00, 0x00, 0x00, 0x00, 0x00, 0x00, 0x00,
  0x00, 0x00, 0x00, 0x00, 0x00, 0x00, 0x00, 0x00, 0x00, 0x00, 0x00, 0x00,
  0x00, 0x00, 0x00, 0x00, 0x00, 0x00, 0x00, 0x00, 0x00, 0x00, 0x00, 0x00,
  0x00, 0x00, 0x00, 0x00, 0x00, 0x00, 0x00, 0x00, 0x00, 0x00, 0x00, 0x00,
  0x00, 0x00, 0x00, 0x00, 0x00, 0x00, 0x00, 0x00, 0x00, 0x00, 0x00, 0x00,
  0x00, 0x00, 0x00, 0x00, 0x00, 0x00, 0x00, 0x00, 0x00, 0x00, 0x00, 0x00,
  0x00, 0x00, 0x00, 0x00, 0x00, 0x00, 0x00, 0x00, 0x00, 0x00, 0x00, 0x00,
  0x00, 0x00, 0x00, 0x00, 0x00, 0x00, 0x00, 0x00, 0x00, 0x00, 0x00, 0x00,
  0x00, 0x00, 0x00, 0x00, 0x00, 0x00, 0x00, 0x00, 0x00, 0x00, 0x00, 0x00,
  0x00, 0x00, 0x00, 0x00, 0x00, 0x00, 0x00, 0x00, 0x00, 0x00, 0x00, 0x00,
  0x00, 0x00, 0x00, 0x00, 0x00, 0x00, 0x00, 0x00, 0x00, 0x00, 0x00, 0x00,
  0x4a, 0xea, 0xff, 0xff, 0x04, 0x00, 0x00, 0x00, 0x00, 0x0c, 0x00, 0x00,
  0x0c, 0xeb, 0xcf, 0x23, 0x26, 0x49, 0xd5, 0x00, 0xef, 0x01, 0xec, 0x1d,
  0xf6, 0xd1, 0x1b, 0x18, 0xed, 0x12, 0xee, 0xfc, 0x2d, 0xea, 0xdf, 0x08,
  0xf7, 0x0d, 0xce, 0xeb, 0x2c, 0x44, 0xfc, 0x48, 0xeb, 0x00, 0x07, 0x85,
  0xec, 0x95, 0xfe, 0x30, 0xa0, 0x0c, 0x2e, 0xb9, 0xaa, 0xc4, 0x81, 0xb6,
  0xac, 0x13, 0x35, 0x07, 0xd4, 0x3e, 0xfe, 0xf3, 0xc3, 0x22, 0x1f, 0x51,
  0xe4, 0xc7, 0xf6, 0x9b, 0x0c, 0x23, 0xee, 0x16, 0xd1, 0x18, 0xd3, 0xeb,
  0xec, 0xc3, 0x3f, 0x85, 0x40, 0x1a, 0x9f, 0x34, 0x14, 0xf1, 0xe1, 0x20,
  0xf5, 0x39, 0x0d, 0x1b, 0x11, 0x0a, 0xfb, 0x05, 0xc6, 0x23, 0x02, 0x0d,
  0x04, 0xcd, 0x1c, 0x04, 0x03, 0xcb, 0x5b, 0xfb, 0xe6, 0x3a, 0xe5, 0x65,
  0x33, 0x0d, 0xd0, 0xe4, 0x0c, 0xc7, 0x35, 0x1a, 0x01, 0x1b, 0x32, 0xfd,
  0xbf, 0x66, 0xae, 0xd6, 0x22, 0x06, 0x20, 0x1e, 0x3c, 0xd7, 0x0f, 0xec,
  0xd5, 0x0f, 0xd6, 0x1d, 0x18, 0x0e, 0x06, 0x12, 0x18, 0xae, 0x2a, 0x31,
  0x0f, 0xf8, 0x32, 0xdf, 0xf6, 0xbd, 0x2a, 0x27, 0x16, 0x1d, 0x09, 0xc4,
  0x40, 0xfd, 0x03, 0xd5, 0xef, 0x17, 0x8d, 0x2d, 0xfe, 0xc7, 0x29, 0x21,
  0xc0, 0xf4, 0x0c, 0xff, 0x3b, 0x3d, 0x09, 0xff, 0x8e, 0xfa, 0xe5, 0xf2,
  0x14, 0xf5, 0x14, 0x22, 0x0d, 0x03, 0x2d, 0x8b, 0x01, 0x0b, 0xc4, 0x58,
  0x08, 0xdf, 0xe8, 0x10, 0x08, 0xed, 0x15, 0x03, 0xf8, 0x07, 0xfe, 0x2a,
  0x06, 0xd5, 0xf5, 0xe1, 0x19, 0x1f, 0x05, 0x1d, 0x19, 0x0c, 0xf3, 0x14,
  0x08, 0x04, 0x00, 0x02, 0x06, 0xd8, 0x05, 0x19, 0x06, 0x00, 0x14, 0x03,
  0xe8, 0x0d, 0xf3, 0xfa, 0xf8, 0x03, 0xfc, 0x0a, 0xf1, 0xdb, 0x0d, 0x1e,
  0xfc, 0x06, 0x09, 0xf7, 0xfe, 0x13, 0x3b, 0x18, 0xf2, 0xe7, 0xe3, 0x1e,
  0xda, 0x18, 0x0d, 0xf2, 0x02, 0x24, 0x06, 0xf3, 0xff, 0xf6, 0x0b, 0xee,
  0xfd, 0xf2, 0xf3, 0x02, 0x2b, 0x0c, 0x28, 0xfd, 0xdc, 0xfc, 0xdd, 0xfe,
  0x12, 0xfb, 0x00, 0xe9, 0xd9, 0x08, 0x29, 0xfa, 0xf7, 0xdb, 0xea, 0xdc,
  0x04, 0x19, 0x03, 0xfa, 0xda, 0x1f, 0xf9, 0xfa, 0x17, 0xd4, 0x03, 0x29,
  0xff, 0xe9, 0x0f, 0x03, 0x12, 0x10, 0xf2, 0x10, 0x06, 0xe9, 0x0a, 0x10,
  0x16, 0x07, 0xfc, 0xe2, 0xf9, 0x03, 0x19, 0xfc, 0xfd, 0xf6, 0xd1, 0x16,
  0x24, 0xe7, 0xca, 0x81, 0x13, 0xe6, 0x1d, 0xe0, 0x1f, 0x10, 0xd4, 0x08,
  0xdf, 0x1d, 0x30, 0x1b, 0x22, 0x12, 0x04, 0x21, 0xee, 0xdc, 0xf4, 0x18,
  0x0b, 0xca, 0x38, 0x04, 0xe7, 0xeb, 0x06, 0xce, 0x0f, 0x1a, 0x0c, 0xfc,
  0x07, 0xb1, 0x0e, 0x2a, 0x11, 0x1b, 0xfc, 0x1b, 0xfc, 0xe3, 0x21, 0xf3,
  0x2e, 0xc6, 0x26, 0x25, 0x0e, 0x04, 0xdf, 0xff, 0xfc, 0xd8, 0x03, 0xed,
  0xfd, 0x6d, 0xff, 0x05, 0x30, 0xd3, 0x82, 0xa1, 0xce, 0xfe, 0xfd, 0x0c,
  0xa4, 0xc1, 0x05, 0xf7, 0xf3, 0xb5, 0xa8, 0xd2, 0xf1, 0x19, 0x62, 0xfa,
  0x27, 0x7f, 0x9e, 0x34, 0xec, 0x36, 0x08, 0x34, 0xff, 0xc2, 0x17, 0x0a,
  0x24, 0xa4, 0xdd, 0x1e, 0x09, 0xc1, 0x29, 0xf0, 0xdb, 0x00, 0x01, 0x20,
  0x00, 0xd8, 0xff, 0x04, 0xfb, 0x1e, 0x16, 0x45, 0xfe, 0x45, 0xde, 0xe8,
  0xb3, 0xe1, 0x25, 0xb7, 0x10, 0x01, 0xae, 0xc1, 0x14, 0xfd, 0x12, 0xd2,
  0xf3, 0x0c, 0x43, 0x19, 0x2c, 0x2f, 0xd5, 0xd4, 0x04, 0x0b, 0xfe, 0xfe,
  0x36, 0xdb, 0xf4, 0xef, 0xff, 0x60, 0xcc, 0xf8, 0xe6, 0x0b, 0xd8, 0xc4,
  0x14, 0x0d, 0x0b, 0xf1, 0xff, 0x37, 0x54, 0x07, 0x12, 0x28, 0xbc, 0x0f,
  0x07, 0xd2, 0xff, 0x35, 0xff, 0x17, 0xeb, 0xed, 0x04, 0x0b, 0x50, 0x11,
  0x0f, 0xde, 0xd4, 0x0c, 0x31, 0x02, 0xff, 0x04, 0xf4, 0xad, 0xe1, 0xa2,
  0xf7, 0xd3, 0xd6, 0xf4, 0xfb, 0x4f, 0xf7, 0x31, 0x4c, 0xef, 0x39, 0x1a,
  0x2b, 0xd3, 0x23, 0x87, 0x68, 0xde, 0x03, 0xf8, 0x4d, 0x4f, 0x22, 0xd3,
  0x23, 0x66, 0x01, 0x00, 0x05, 0x75, 0xa7, 0x50, 0x13, 0x98, 0x36, 0xf8,
  0xed, 0x11, 0xa4, 0xea, 0x0f, 0xd2, 0xb3, 0x34, 0xba, 0xd8, 0xe3, 0x04,
  0x2e, 0x21, 0xe9, 0xe7, 0x22, 0x1b, 0x1d, 0x89, 0xb7, 0x11, 0x05, 0x34,
  0x1b, 0x02, 0x11, 0xf6, 0x19, 0x32, 0x1f, 0xee, 0xde, 0x36, 0x81, 0x10,
  0x00, 0x06, 0x2c, 0xd4, 0x21, 0x0d, 0x13, 0xfa, 0xda, 0x0c, 0x05, 0x1a,
  0xc3, 0xd2, 0xe0, 0xf0, 0xae, 0x14, 0x2d, 0x13, 0x02, 0x01, 0x04, 0xda,
  0x18, 0x0e, 0x19, 0x0d, 0x0e, 0x08, 0x28, 0x1a, 0xfc, 0x13, 0xfb, 0x3f,
  0xfa, 0x1e, 0x14, 0xc1, 0xff, 0x02, 0x1a, 0xd4, 0xdf, 0x33, 0x14, 0xf9,
  0x0c, 0xdc, 0xf4, 0x25, 0xd1, 0xba, 0x05, 0x03, 0xe8, 0xfd, 0x1d, 0xaa,
  0xd9, 0x11, 0xed, 0xfb, 0xdf, 0x1e, 0xa4, 0x02, 0x06, 0xf9, 0x1c, 0xca,
  0x03, 0x14, 0xd2, 0x26, 0x08, 0xfd, 0xe8, 0xf3, 0xce, 0xfa, 0x01, 0x15,
  0xf2, 0x12, 0x1c, 0x00, 0x11, 0xf1, 0x18, 0x26, 0xeb, 0x2a, 0xfa, 0x1c,
  0x0b, 0x1a, 0x44, 0xef, 0xd8, 0x26, 0x01, 0xfa, 0xfe, 0x14, 0x31, 0x09,
  0xf7, 0x37, 0x03, 0xfb, 0x1c, 0x03, 0xef, 0x1b, 0x02, 0xf6, 0x12, 0x04,
  0x22, 0x00, 0x12, 0x09, 0xfa, 0x09, 0x07, 0xeb, 0xce, 0xfd, 0x08, 0x1f,
  0xe9, 0x26, 0x24, 0x01, 0xe7, 0x2f, 0xfc, 0x14, 0xea, 0x13, 0x13, 0x0a,
  0x3d, 0x15, 0x29, 0x23, 0x04, 0x27, 0xed, 0xf4, 0x12, 0xf8, 0x3f, 0xe7,
  0x0f, 0x46, 0x09, 0xd5, 0xfe, 0x1f, 0x0b, 0xdc, 0x05, 0x08, 0x07, 0x12,
  0x14, 0xfc, 0x07, 0xc3, 0xdb, 0xf4, 0xee, 0x1c, 0x00, 0x0a, 0x08, 0x13,
  0x09, 0xe7, 0xd7, 0x05, 0x21, 0x04, 0xdc, 0xf0, 0x30, 0xb0, 0x1b, 0x74,
  0x90, 0xfe, 0x3d, 0x12, 0xc5, 0x0d, 0x1c, 0x18, 0x14, 0xd0, 0x2b, 0x24,
  0xf7, 0xf8, 0xde, 0xe7, 0x22, 0x07, 0xd0, 0x33, 0x05, 0xd0, 0xda, 0x27,
  0xfd, 0xfe, 0x0b, 0xf5, 0x12, 0xf1, 0xea, 0xeb, 0x0e, 0xfb, 0x07, 0x01,
  0x0d, 0xb2, 0x14, 0x16, 0x1e, 0x4c, 0x02, 0x42, 0x0e, 0xe7, 0x15, 0x50,
  0xe2, 0x30, 0x2c, 0xfd, 0xfd, 0x28, 0x02, 0xef, 0x0c, 0xe8, 0x02, 0x17,
  0xf7, 0xe6, 0xfa, 0x11, 0x2d, 0x17, 0xee, 0x01, 0x0a, 0xbc, 0x14, 0x39,
  0xf4, 0xf5, 0x2a, 0x13, 0x09, 0x0a, 0xf1, 0xfa, 0x0b, 0xd6, 0x06, 0xc7,
  0x27, 0xf4, 0x0f, 0x0e, 0x1d, 0x20, 0x32, 0x11, 0x09, 0xbf, 0xf0, 0x31,
  0xde, 0x0f, 0xf8, 0xe4, 0x17, 0x1e, 0xd9, 0xed, 0x10, 0x10, 0xee, 0x3c,
  0x07, 0xcc, 0x04, 0x18, 0x1a, 0xf1, 0x02, 0xfe, 0x1d, 0x81, 0xee, 0x11,
  0x15, 0xea, 0x2d, 0x01, 0x11, 0xfc, 0x1c, 0xf6, 0x21, 0xf1, 0xf5, 0xe8,
  0x0d, 0xbf, 0x13, 0x09, 0x2a, 0xeb, 0xff, 0x0b, 0xf9, 0xcd, 0x1a, 0x2d,
  0xbd, 0xf7, 0x26, 0xf5, 0x14, 0x13, 0xca, 0xfe, 0x19, 0xf0, 0x02, 0x16,
  0xe2, 0x17, 0xe3, 0xda, 0x13, 0x17, 0x05, 0x21, 0x08, 0xcd, 0xa0, 0x28,
  0x23, 0xed, 0x0e, 0x0f, 0x08, 0xb9, 0xfd, 0xb9, 0x09, 0xfc, 0x94, 0xc6,
  0xfb, 0xf3, 0xee, 0xd4, 0xc4, 0xf1, 0xc1, 0xe6, 0x09, 0xcd, 0x0f, 0xc3,
  0xde, 0x33, 0xe8, 0x09, 0xd4, 0xde, 0x25, 0x29, 0x37, 0xdf, 0x00, 0xbf,
  0x01, 0xd0, 0xb6, 0xe2, 0x48, 0xf6, 0xce, 0x20, 0x2a, 0xd1, 0x01, 0x2d,
  0xfb, 0x14, 0xaf, 0xf7, 0xda, 0xd6, 0xf5, 0xf2, 0x13, 0xe9, 0x08, 0xdd,
  0xdf, 0xaf, 0xb1, 0x23, 0xf4, 0xfc, 0x0b, 0x43, 0x25, 0x0c, 0x38, 0xe5,
  0x07, 0x57, 0xb6, 0xa8, 0x61, 0x09, 0x1a, 0x1e, 0xee, 0xea, 0xf6, 0xd8,
  0xe8, 0xae, 0xed, 0x07, 0xf7, 0xed, 0xfa, 0xc7, 0x1f, 0xfc, 0xf4, 0x0a,
  0xea, 0x0c, 0xf8, 0xcf, 0xe8, 0xfd, 0x18, 0xe8, 0xe7, 0x2d, 0xdf, 0xb0,
  0xf0, 0x14, 0xe9, 0x35, 0xb5, 0xf6, 0x57, 0xd1, 0xec, 0x12, 0xf2, 0xfb,
  0x31, 0x0a, 0xc7, 0xdb, 0x0d, 0xbb, 0xf0, 0x11, 0x18, 0x03, 0xd6, 0x51,
  0x0f, 0xaa, 0xfb, 0xe4, 0xf0, 0xfa, 0xd3, 0x51, 0x1a, 0xfe, 0x17, 0x1a,
  0xdc, 0x37, 0xf4, 0x1d, 0x1d, 0xfc, 0xed, 0x17, 0x09, 0x05, 0xe0, 0xaa,
  0x2c, 0x3f, 0xfb, 0x06, 0x31, 0xcf, 0xd8, 0xf7, 0x04, 0xf9, 0x0d, 0x29,
  0xe0, 0x1a, 0xe5, 0xd3, 0x1a, 0xad, 0xfb, 0x15, 0x11, 0x49, 0xc3, 0x0c,
  0x1e, 0x8e, 0xb7, 0xde, 0xe8, 0xb3, 0xf2, 0x7f, 0x4b, 0x19, 0x0f, 0xf9,
  0xfe, 0x0e, 0xe4, 0x28, 0xf7, 0xbf, 0x00, 0xef, 0x25, 0xf7, 0xef, 0x11,
  0xb6, 0x18, 0x04, 0xfd, 0x0f, 0x0c, 0x61, 0xf1, 0x13, 0x14, 0xcc, 0x24,
  0xe9, 0xef, 0xfc, 0x64, 0x28, 0xcb, 0x34, 0x13, 0xe0, 0xfe, 0x0c, 0x37,
  0xdc, 0xf2, 0x53, 0x16, 0xeb, 0x23, 0x5e, 0x27, 0x2c, 0x49, 0xe9, 0xf2,
  0x11, 0x40, 0xc2, 0x31, 0xe0, 0x16, 0x14, 0x12, 0x44, 0x02, 0x09, 0x11,
  0xf3, 0x17, 0x0d, 0x26, 0xe2, 0x35, 0x35, 0x3c, 0xeb, 0x08, 0x14, 0xe7,
  0xfb, 0x08, 0x25, 0x28, 0x42, 0xec, 0xf2, 0xf6, 0xfc, 0x0e, 0x1c, 0x1d,
  0x09, 0x10, 0xee, 0xfd, 0x11, 0x09, 0x1d, 0x02, 0xfe, 0x1e, 0x06, 0xd8,
  0x1b, 0x36, 0xe6, 0xa1, 0xe7, 0x5e, 0x0c, 0xf0, 0xd3, 0xdd, 0xdb, 0x04,
  0xdc, 0x5f, 0x16, 0x0f, 0x04, 0x28, 0x10, 0x06, 0xf6, 0x0d, 0x1a, 0xf1,
  0x2f, 0x02, 0x0c, 0x3a, 0x08, 0x1c, 0x09, 0x06, 0xe5, 0x28, 0x3c, 0x19,
  0x19, 0x01, 0xdd, 0xf2, 0x00, 0xd4, 0x15, 0xfd, 0xe7, 0x12, 0x08, 0x41,
  0x2b, 0x52, 0xe4, 0xbf, 0xe4, 0xc8, 0xf0, 0x03, 0xe8, 0xec, 0x26, 0xf3,
  0xc1, 0x4b, 0x12, 0x1f, 0x1c, 0x01, 0x08, 0x0f, 0x02, 0x00, 0x4d, 0xe4,
  0x43, 0x51, 0x54, 0xfe, 0xf5, 0x7f, 0x01, 0x17, 0x03, 0xe7, 0x27, 0x5d,
  0x20, 0x0d, 0xbd, 0x08, 0x01, 0x2b, 0xe2, 0x79, 0xc8, 0x2f, 0x1c, 0x5b,
  0x3d, 0x68, 0x3c, 0x1f, 0xff, 0xac, 0xe1, 0x03, 0x30, 0x13, 0xfb, 0x06,
  0xdc, 0xa1, 0x30, 0x93, 0xa6, 0xc7, 0x14, 0x01, 0xb8, 0x30, 0x14, 0x30,
  0xea, 0x48, 0xb6, 0xb2, 0x06, 0x2e, 0x27, 0x24, 0x14, 0x9c, 0xb5, 0xfb,
  0x26, 0xd2, 0xdf, 0x23, 0x20, 0x9b, 0x43, 0xc9, 0x03, 0xe7, 0xa5, 0xb9,
  0xae, 0xb2, 0xdc, 0xd0, 0xa3, 0xbc, 0x35, 0x3f, 0xf2, 0xe5, 0x0c, 0x2d,
  0x2d, 0x17, 0xdf, 0xdb, 0x41, 0xe3, 0xae, 0x1e, 0xbf, 0x8f, 0x89, 0xdb,
  0xf7, 0xeb, 0xab, 0x40, 0xf6, 0x09, 0xbd, 0xdd, 0xea, 0xc0, 0xda, 0x0a,
  0x20, 0x25, 0xdc, 0xba, 0xfa, 0xb6, 0x93, 0xcd, 0xe2, 0x41, 0xf1, 0x14,
  0xad, 0xbe, 0xa4, 0xaf, 0x37, 0xbc, 0xa1, 0x11, 0xed, 0xd5, 0x02, 0xa0,
  0x97, 0x0f, 0xbd, 0x3c, 0xb7, 0xac, 0x98, 0xdc, 0x0e, 0xc2, 0xc9, 0xcb,
  0xce, 0xd0, 0xd5, 0xf7, 0x14, 0x2c, 0xe7, 0xd5, 0xa1, 0xbe, 0xab, 0x19,
  0x29, 0x44, 0xfb, 0xbc, 0xb6, 0x09, 0x32, 0xa1, 0x95, 0x3e, 0x21, 0x30,
  0xea, 0x29, 0xdc, 0x0e, 0xde, 0xf4, 0x97, 0x81, 0xe6, 0x94, 0x89, 0x9c,
  0xbf, 0x9e, 0x28, 0x95, 0xe3, 0xa9, 0xfb, 0x30, 0xc5, 0x29, 0x51, 0x45,
  0xb7, 0xae, 0x26, 0xc8, 0x29, 0xb1, 0xfa, 0xcf, 0xfc, 0xa8, 0xea, 0xcd,
  0xbd, 0xc7, 0xb2, 0xf9, 0xd4, 0x00, 0x1b, 0x56, 0x9a, 0xee, 0xf5, 0xbd,
  0xe5, 0xef, 0x2e, 0x14, 0xde, 0x49, 0xdd, 0xf7, 0xb3, 0x9f, 0x0e, 0xf5,
  0x10, 0xb9, 0x02, 0x1a, 0xb9, 0xa1, 0xba, 0xc8, 0xeb, 0xbe, 0x30, 0x84,
  0xda, 0xf2, 0xe7, 0xe0, 0xb4, 0xe7, 0x0c, 0x25, 0x25, 0xec, 0xec, 0xc2,
  0x3d, 0xfd, 0x0d, 0xff, 0x95, 0x2d, 0x2a, 0x96, 0x02, 0xfb, 0x17, 0xc2,
  0xfb, 0x26, 0x0d, 0x37, 0x3b, 0xa1, 0x01, 0x24, 0x01, 0x2b, 0x07, 0xde,
  0x09, 0xff, 0xcb, 0x34, 0x9b, 0x81, 0x91, 0x0a, 0x13, 0xf4, 0x3b, 0xc8,
  0xf3, 0x12, 0x91, 0xf3, 0x12, 0xbe, 0x14, 0x04, 0x28, 0xf9, 0x05, 0xbd,
  0xe1, 0x01, 0xd2, 0x27, 0xa8, 0xde, 0x17, 0xd0, 0xec, 0x21, 0x0b, 0xb5,
  0x21, 0xdf, 0xa1, 0x07, 0xdd, 0x0c, 0xf5, 0x09, 0xef, 0x11, 0x05, 0x00,
  0xe0, 0x03, 0xf7, 0x25, 0xc3, 0xd7, 0x00, 0x03, 0x26, 0xf7, 0x03, 0xe0,
  0x42, 0x1d, 0xc9, 0xf1, 0x1a, 0xdb, 0xce, 0x06, 0x03, 0xf8, 0xae, 0xa2,
  0x12, 0xd1, 0xf0, 0x11, 0xdc, 0xc0, 0xf7, 0xf2, 0x2a, 0xfe, 0xf7, 0xf0,
  0xd2, 0xc3, 0xfa, 0x9b, 0x25, 0x06, 0xfb, 0x46, 0xf7, 0x2a, 0x08, 0x20,
  0x17, 0xf9, 0xf3, 0xb5, 0xcb, 0x19, 0xed, 0xc2, 0x08, 0xd9, 0xea, 0x00,
  0x24, 0x43, 0xfd, 0xfc, 0x15, 0x9a, 0x2a, 0x3d, 0xf2, 0xfe, 0xfc, 0xd6,
  0xf9, 0xbd, 0x28, 0x16, 0x1e, 0xc5, 0x2b, 0x19, 0x0c, 0xfa, 0x0c, 0xb8,
  0xbd, 0x3a, 0x01, 0x04, 0x0d, 0x0d, 0x29, 0xe5, 0xcd, 0x36, 0x02, 0xff,
  0x12, 0xd8, 0xeb, 0xf5, 0x1e, 0xc9, 0x36, 0xeb, 0xfa, 0xf7, 0x0d, 0xef,
  0xb2, 0x18, 0x53, 0xe9, 0xfc, 0x06, 0x10, 0x19, 0xed, 0xe9, 0x0c, 0xec,
  0x15, 0x35, 0x7f, 0xfb, 0x17, 0x12, 0xe7, 0xfa, 0x26, 0xf0, 0xbc, 0x50,
  0xf7, 0xfb, 0x0c, 0xeb, 0x14, 0x23, 0x17, 0xff, 0x23, 0x32, 0x07, 0x50,
  0xf1, 0x2d, 0xf1, 0x01, 0xf3, 0xfd, 0xfd, 0xe3, 0x1b, 0xf4, 0x17, 0xcc,
  0xea, 0xec, 0xf2, 0x01, 0x13, 0xec, 0x27, 0x09, 0xe2, 0x07, 0x1f, 0xf3,
  0x24, 0xef, 0x05, 0x01, 0xfc, 0xc1, 0x29, 0x0e, 0x21, 0x36, 0xf9, 0x15,
  0x2f, 0xe3, 0xe9, 0xe4, 0x01, 0x19, 0xea, 0x32, 0xf6, 0xf0, 0x08, 0x07,
  0x06, 0xc7, 0xe1, 0xd6, 0xd3, 0xd8, 0xfc, 0xd7, 0x08, 0x08, 0x32, 0xfa,
  0x01, 0xf1, 0xed, 0x07, 0x0e, 0x1e, 0x10, 0x1f, 0xde, 0xeb, 0xf4, 0xec,
  0x33, 0x1c, 0x14, 0x14, 0xd0, 0xdf, 0x0b, 0xe4, 0xd0, 0x19, 0x04, 0x42,
  0x25, 0xf2, 0xdf, 0xef, 0xef, 0x2a, 0x12, 0x01, 0x0a, 0x21, 0xef, 0x35,
  0xfa, 0xfe, 0xdb, 0x2c, 0xfe, 0x0b, 0xdc, 0xd1, 0xf8, 0xf6, 0x42, 0xe7,
  0xdd, 0xea, 0xcf, 0xd8, 0xf5, 0xed, 0x1c, 0x01, 0xbe, 0xd6, 0x17, 0x1e,
  0x49, 0xda, 0x00, 0x01, 0x11, 0x30, 0xd2, 0xdb, 0x0d, 0x38, 0x08, 0xf1,
  0xbe, 0xfa, 0xfc, 0xa7, 0x04, 0xfa, 0x02, 0x4a, 0xed, 0x02, 0xee, 0xf1,
  0x28, 0x10, 0x1d, 0xf7, 0x1a, 0x12, 0x10, 0xf3, 0xfd, 0xe0, 0x09, 0x22,
  0xdd, 0xce, 0xd8, 0x2b, 0xac, 0x81, 0x15, 0x0b, 0x0e, 0xee, 0x0f, 0xf6,
  0x03, 0xf9, 0x09, 0x1b, 0x30, 0x11, 0xde, 0xc6, 0x11, 0xb7, 0xdf, 0xee,
  0x96, 0xdc, 0xe8, 0x2b, 0x19, 0xd0, 0xdf, 0xeb, 0xf7, 0x05, 0xf2, 0xd7,
  0xff, 0x00, 0xfd, 0xf4, 0x0e, 0x2d, 0x05, 0x37, 0x00, 0x19, 0x01, 0x3e,
  0x2d, 0x01, 0xc7, 0xbc, 0x0b, 0xe1, 0x0d, 0x0c, 0xe9, 0x19, 0xdd, 0xb5,
  0xe3, 0xeb, 0xf8, 0x04, 0xfb, 0x01, 0xb5, 0xd4, 0xf5, 0xd3, 0x04, 0x33,
  0x24, 0x08, 0x10, 0x16, 0x21, 0x06, 0xf2, 0xfa, 0xc7, 0x17, 0xf2, 0xd8,
  0xfc, 0xfe, 0x10, 0x1c, 0xd4, 0xf0, 0x08, 0xce, 0x0e, 0x06, 0xe4, 0x27,
  0x09, 0x03, 0xed, 0x29, 0x10, 0xef, 0x09, 0x0b, 0xf4, 0x06, 0x21, 0x31,
  0xff, 0x16, 0xcd, 0xe9, 0x09, 0xb2, 0x10, 0xfa, 0x08, 0xd0, 0xf5, 0xf9,
  0xfa, 0xd5, 0xcb, 0xec, 0x10, 0xb8, 0x02, 0x09, 0xf9, 0x01, 0xda, 0xe8,
  0x16, 0xc0, 0x17, 0x12, 0x0e, 0xcd, 0x03, 0x14, 0x10, 0x19, 0x3a, 0xfd,
  0x0c, 0xf3, 0x1b, 0x01, 0xfe, 0xfe, 0x03, 0x18, 0xe5, 0x11, 0xe6, 0xdb,
  0x15, 0x10, 0x9f, 0xee, 0x07, 0xc8, 0x0d, 0x1f, 0xcd, 0x01, 0xe9, 0xfb,
  0x20, 0xf4, 0xb3, 0xcf, 0xc9, 0xa7, 0xfa, 0xd3, 0x0d, 0xf3, 0x99, 0x03,
  0x19, 0x19, 0x0c, 0xb6, 0x2a, 0x55, 0xd8, 0x4d, 0x15, 0x07, 0xc1, 0x6e,
  0xbf, 0xf6, 0xe4, 0xb6, 0x01, 0x24, 0x28, 0x08, 0xd3, 0x12, 0x02, 0xff,
  0xc8, 0x9a, 0xf9, 0x0f, 0x0c, 0xed, 0x51, 0x01, 0x08, 0xbf, 0x0e, 0xea,
  0xc7, 0xdb, 0xce, 0xe0, 0xfe, 0x47, 0xc4, 0x03, 0xc8, 0x28, 0x0a, 0x2f,
  0x24, 0x14, 0x07, 0xf4, 0x13, 0xf9, 0x27, 0xb6, 0xfd, 0x9c, 0xff, 0xd6,
  0x91, 0x8c, 0x3c, 0xf0, 0xd8, 0xf2, 0x2f, 0x07, 0xea, 0x17, 0xca, 0x13,
  0x1d, 0x05, 0xff, 0xfe, 0x1b, 0x15, 0x37, 0x22, 0x18, 0xf9, 0x32, 0xd2,
  0x81, 0x2e, 0xfb, 0x11, 0x01, 0x0d, 0xf3, 0x42, 0xf6, 0xe5, 0x17, 0x64,
  0x10, 0x46, 0xf5, 0x24, 0x35, 0x09, 0x0e, 0xdd, 0xe4, 0xcc, 0x18, 0xdb,
  0xb4, 0xd1, 0x55, 0x0e, 0xf1, 0x2a, 0x07, 0xfe, 0x25, 0xa3, 0x5f, 0x37,
  0x12, 0xe5, 0xe2, 0x2e, 0x2f, 0x17, 0x02, 0xad, 0xf0, 0x24, 0x0e, 0x8f,
  0x0a, 0xf0, 0xfe, 0x34, 0xe9, 0xc8, 0xd7, 0x0f, 0x01, 0xf2, 0xf9, 0x19,
  0xc1, 0xad, 0xe9, 0x0e, 0x06, 0xee, 0xfa, 0x1f, 0xec, 0x08, 0xd2, 0xec,
  0xcb, 0xdc, 0x36, 0x15, 0xef, 0xd3, 0xee, 0xd4, 0xd6, 0xf6, 0xe4, 0xde,
  0x07, 0x52, 0x25, 0xf8, 0x38, 0xe6, 0x39, 0x9d, 0xf9, 0x2d, 0xe6, 0x11,
  0x0a, 0xf1, 0xb0, 0xb9, 0xfd, 0xf9, 0x0d, 0x11, 0xd1, 0x28, 0xd5, 0x1b,
  0xfa, 0xfc, 0x23, 0x1c, 0xdf, 0xf1, 0x20, 0x0d, 0x0d, 0xf9, 0x11, 0xef,
  0x7f, 0xd6, 0xdc, 0xbe, 0x16, 0xf1, 0xee, 0x02, 0xe8, 0xfa, 0xaa, 0xf3,
  0x11, 0x0b, 0xe7, 0x33, 0xdd, 0xe7, 0xc7, 0xf7, 0xe8, 0x1a, 0x44, 0xed,
  0xe7, 0x42, 0xef, 0x0e, 0xfb, 0x16, 0xe8, 0x18, 0xed, 0xf4, 0x1a, 0xe5,
  0x18, 0x0a, 0xf2, 0x29, 0xc0, 0xef, 0xe9, 0x1b, 0xe7, 0xb7, 0x0c, 0xf5,
  0x1f, 0x23, 0xbe, 0x2e, 0x0d, 0xcc, 0xe3, 0xe0, 0x07, 0x2c, 0xe4, 0xf6,
  0x12, 0xfd, 0x33, 0x1a, 0x29, 0xd5, 0xc1, 0x38, 0x14, 0x04, 0x34, 0xd6,
  0xe4, 0x2c, 0x0a, 0xc6, 0x16, 0xfa, 0x32, 0xf0, 0x1c, 0x00, 0x1b, 0xe7,
  0xf8, 0xc5, 0xfb, 0x00, 0xc1, 0x1e, 0xff, 0xe6, 0x22, 0x01, 0xfd, 0x02,
  0xf4, 0xdc, 0x27, 0xfa, 0xbe, 0xea, 0xf7, 0x0b, 0x29, 0x28, 0xed, 0x17,
  0x0e, 0xee, 0x0d, 0x27, 0xdd, 0xf0, 0x2e, 0x5e, 0xfc, 0x24, 0x06, 0x56,
  0x08, 0x54, 0xfd, 0x19, 0x10, 0xc6, 0xb4, 0xd9, 0xec, 0x01, 0x26, 0xe2,
  0xda, 0xf1, 0x1c, 0xd6, 0xfd, 0xc5, 0x17, 0x4e, 0xd6, 0xcd, 0xf3, 0xf1,
  0xef, 0xf5, 0xaf, 0x23, 0xbd, 0xb3, 0x1a, 0xde, 0x1d, 0x45, 0xac, 0x0d,
  0xf2, 0x2e, 0xfb, 0xf9, 0x2d, 0x38, 0x26, 0xfe, 0xcf, 0xf3, 0x4f, 0xdd,
  0x19, 0x7a, 0x26, 0x3f, 0xef, 0xfe, 0xe1, 0x14, 0x78, 0x15, 0x46, 0x25,
  0xfe, 0x01, 0xf1, 0xef, 0xef, 0xf7, 0x08, 0xe0, 0xd6, 0x07, 0xdd, 0xd7,
  0x10, 0xcd, 0x05, 0xeb, 0xff, 0xec, 0xf5, 0x81, 0xc4, 0x02, 0x06, 0x02,
  0x00, 0xec, 0x1a, 0x05, 0x0d, 0xf0, 0xe4, 0x09, 0xfe, 0xd0, 0xff, 0x00,
  0xe9, 0xe6, 0xfb, 0xd8, 0x11, 0xf7, 0x03, 0x01, 0x0b, 0x0e, 0xf7, 0x09,
  0x05, 0xee, 0x06, 0xfb, 0xfd, 0x23, 0xef, 0xea, 0xf7, 0x1a, 0xec, 0xee,
  0xf8, 0x08, 0x1d, 0xe8, 0xe4, 0x27, 0xe4, 0xf4, 0x17, 0x18, 0x13, 0x0b,
  0xfd, 0xd2, 0xf9, 0xf8, 0x0b, 0x0d, 0xd1, 0x0d, 0xfb, 0xe8, 0xeb, 0xee,
  0xb5, 0xf1, 0x11, 0xe0, 0x18, 0x10, 0xf4, 0xf9, 0xdd, 0x0d, 0x1b, 0xf6,
  0x03, 0xdf, 0xfd, 0xbb, 0x08, 0x02, 0xeb, 0xec, 0x0d, 0x1c, 0xea, 0xdb,
  0xd8, 0xe4, 0xe5, 0xde, 0xaf, 0xe4, 0xfd, 0x0b, 0x06, 0xfa, 0x1d, 0xeb,
  0xe8, 0x18, 0xdc, 0x08, 0xf4, 0x15, 0xde, 0xf0, 0xf3, 0x04, 0x0e, 0x1b,
  0xff, 0x16, 0x06, 0xfd, 0x03, 0xfd, 0xfc, 0xf3, 0xe2, 0x05, 0x1f, 0x08,
  0x15, 0x0a, 0x14, 0x18, 0x14, 0x08, 0x04, 0x02, 0x12, 0xef, 0x14, 0xfa,
  0xd3, 0xf2, 0x1f, 0xe4, 0xec, 0x42, 0xf7, 0x16, 0xef, 0xa3, 0x1b, 0xea,
  0x0c, 0x08, 0xe9, 0xfb, 0x03, 0x2f, 0xe7, 0xef, 0x0f, 0xf1, 0x10, 0x0e,
  0xe9, 0x0b, 0x08, 0xbf, 0x04, 0x03, 0xe6, 0x35, 0xfc, 0x0f, 0x1b, 0x11,
  0xeb, 0xfa, 0x0f, 0x11, 0xff, 0xff, 0xfe, 0x12, 0x04, 0x32, 0xee, 0x2a,
  0x4c, 0xf4, 0xfb, 0xd8, 0xe5, 0xc6, 0xec, 0xe8, 0x25, 0x0d, 0x10, 0x2e,
  0x09, 0x05, 0xfa, 0x0f, 0xe6, 0x15, 0x08, 0xf9, 0x05, 0xfe, 0x1a, 0x15,
  0x0d, 0x18, 0x0d, 0x27, 0x20, 0xda, 0x10, 0x05, 0x17, 0xfa, 0x02, 0x1b,
  0xf1, 0xda, 0x09, 0xe0, 0xda, 0x0d, 0x02, 0x14, 0x1d, 0x2c, 0x16, 0xf9,
  0xef, 0xd7, 0x05, 0xed, 0xe4, 0xe3, 0x0d, 0xfd, 0x10, 0xf8, 0x03, 0xe4,
  0xff, 0xf7, 0xf1, 0x0b, 0xf7, 0xfc, 0xff, 0xe5, 0xf0, 0xe1, 0x0f, 0xb9,
  0xfe, 0x2f, 0xeb, 0x0b, 0xf8, 0xf0, 0xfc, 0xed, 0xfe, 0x0a, 0xfc, 0xea,
  0xf9, 0xcf, 0x06, 0x17, 0xe5, 0x01, 0x13, 0xfe, 0xfe, 0x30, 0x0f, 0x14,
  0x09, 0xed, 0x0e, 0x07, 0x19, 0x1c, 0x16, 0x07, 0xf1, 0xc5, 0x08, 0xff,
  0xf8, 0x01, 0xea, 0x0f, 0x09, 0xca, 0xe0, 0xf5, 0x06, 0xe9, 0xc9, 0xfb,
  0x16, 0x03, 0xf5, 0xf4, 0xfe, 0xf3, 0xc2, 0xea, 0x0c, 0x02, 0xe0, 0xf4,
  0x05, 0x0f, 0xf5, 0xf4, 0xe8, 0xf8, 0x0d, 0xdc, 0x18, 0x1a, 0xfc, 0x12,
  0x11, 0x1f, 0x03, 0xff, 0x07, 0x19, 0xf5, 0xf8, 0x02, 0xd5, 0x0e, 0x1b,
  0x05, 0xd7, 0xf4, 0x1e, 0xf5, 0xdc, 0xf7, 0x15, 0x05, 0xef, 0xcf, 0x16,
  0x07, 0x0a, 0x30, 0x81, 0x08, 0x12, 0xf5, 0xd7, 0xd2, 0xda, 0xe2, 0xed,
  0xfb, 0xec, 0x2f, 0x13, 0xbd, 0x2c, 0xf7, 0x1d, 0x1f, 0x10, 0x23, 0x39,
  0xaf, 0xe0, 0xa0, 0x2e, 0xc4, 0xf4, 0x16, 0x08, 0x35, 0xd6, 0x08, 0xf8,
  0xe5, 0xdb, 0x00, 0x0b, 0xb9, 0x57, 0xd7, 0x1c, 0x13, 0x1b, 0xd3, 0xbd,
  0x51, 0xf7, 0x81, 0x35, 0x05, 0x4e, 0xcc, 0x0e, 0xb4, 0x45, 0xd2, 0x21,
  0xdc, 0xfc, 0xed, 0xe6, 0xf5, 0x02, 0x2e, 0x2d, 0x23, 0x01, 0x19, 0x39,
  0x07, 0x00, 0xf5, 0xa7, 0x10, 0xee, 0x28, 0x0c, 0x1a, 0x30, 0xe1, 0xf4,
  0x06, 0xe8, 0xf7, 0x04, 0xba, 0xfa, 0x98, 0x46, 0x20, 0x97, 0x12, 0xf1,
  0x2d, 0xfd, 0x43, 0xe8, 0x04, 0x1a, 0xe6, 0x2a, 0xc6, 0x01, 0xfe, 0x8c,
  0xf8, 0x6a, 0x21, 0x03, 0x05, 0x07, 0xff, 0xd6, 0xcf, 0xdf, 0xce, 0xec,
  0x33, 0x1e, 0x4b, 0xcd, 0x1a, 0x09, 0xe2, 0xdc, 0x43, 0x46, 0x2f, 0x10,
  0xe4, 0x16, 0xd4, 0xf8, 0xfd, 0xf5, 0xee, 0x3f, 0x02, 0xf7, 0x1d, 0x3a,
  0xea, 0x26, 0x28, 0xfd, 0xfe, 0x06, 0xe8, 0x3f, 0xf2, 0x2a, 0x23, 0xb7,
  0x16, 0x4d, 0xf2, 0xfd, 0x2c, 0x00, 0xea, 0xef, 0xdc, 0x10, 0x28, 0xac,
  0x39, 0x38, 0x1f, 0x4e, 0xed, 0x1d, 0x01, 0xf9, 0x6f, 0x2c, 0x2f, 0xe4,
  0x0e, 0x37, 0xf6, 0xff, 0xf5, 0xf3, 0x25, 0x48, 0x00, 0x07, 0x0d, 0x29,
  0x12, 0x3d, 0xf2, 0x55, 0x1f, 0xc7, 0x18, 0xef, 0x1d, 0x24, 0x11, 0xf6,
  0x3a, 0xf6, 0xff, 0xff, 0x00, 0x00, 0x00, 0x09, 0x10, 0x00, 0x00, 0x00,
  0x08, 0x00, 0x00, 0x00, 0x1c, 0x00, 0x00, 0x00, 0x40, 0x00, 0x00, 0x00,
  0x04, 0x00, 0x00, 0x00, 0x10, 0x00, 0x00, 0x00, 0x04, 0x00, 0x00, 0x00,
  0x02, 0x00, 0x00, 0x00, 0x18, 0x00, 0x00, 0x00, 0x23, 0x00, 0x00, 0x00,
  0x73, 0x65, 0x71, 0x75, 0x65, 0x6e, 0x74, 0x69, 0x61, 0x6c, 0x5f, 0x35,
  0x2f, 0x71, 0x75, 0x61, 0x6e, 0x74, 0x5f, 0x63, 0x6f, 0x6e, 0x76, 0x32,
  0x64, 0x5f, 0x32, 0x31, 0x2f, 0x43, 0x6f, 0x6e, 0x76, 0x32, 0x44, 0x00,
  0x40, 0xf7, 0xff, 0xff, 0x08, 0x00, 0x00, 0x00, 0x48, 0x00, 0x00, 0x00,
  0x10, 0x00, 0x00, 0x00, 0x0b, 0x3f, 0x23, 0x3c, 0x98, 0x36, 0x81, 0x3c,
  0x7a, 0x25, 0xec, 0x3b, 0x60, 0x98, 0x40, 0x3c, 0xe2, 0x0d, 0x4e, 0x3c,
  0xc3, 0xe8, 0x29, 0x3c, 0xc0, 0x12, 0x00, 0x3c, 0x1e, 0x6a, 0xc4, 0x3a,
  0xc9, 0x19, 0x20, 0x3c, 0xce, 0x28, 0x3c, 0x3c, 0xb5, 0xf6, 0x5d, 0x3c,
  0x15, 0x17, 0x1e, 0x3c, 0xb1, 0xc9, 0x21, 0x3c, 0xc4, 0x46, 0x93, 0x3c,
  0x9a, 0x2d, 0x88, 0x3c, 0xe1, 0x60, 0x08, 0x3c, 0x10, 0x00, 0x00, 0x00,
  0x00, 0x00, 0x00, 0x00, 0x00, 0x00, 0x00, 0x00, 0x00, 0x00, 0x00, 0x00,
  0x00, 0x00, 0x00, 0x00, 0x00, 0x00, 0x00, 0x00, 0x00, 0x00, 0x00, 0x00,
  0x00, 0x00, 0x00, 0x00, 0x00, 0x00, 0x00, 0x00, 0x00, 0x00, 0x00, 0x00,
  0x00, 0x00, 0x00, 0x00, 0x00, 0x00, 0x00, 0x00, 0x00, 0x00, 0x00, 0x00,
  0x00, 0x00, 0x00, 0x00, 0x00, 0x00, 0x00, 0x00, 0x00, 0x00, 0x00, 0x00,
  0x00, 0x00, 0x00, 0x00, 0x00, 0x00, 0x00, 0x00, 0x00, 0x00, 0x00, 0x00,
  0x00, 0x00, 0x00, 0x00, 0x00, 0x00, 0x00, 0x00, 0x00, 0x00, 0x00, 0x00,
  0x00, 0x00, 0x00, 0x00, 0x00, 0x00, 0x00, 0x00, 0x00, 0x00, 0x00, 0x00,
  0x00, 0x00, 0x00, 0x00, 0x00, 0x00, 0x00, 0x00, 0x00, 0x00, 0x00, 0x00,
  0x00, 0x00, 0x00, 0x00, 0x00, 0x00, 0x00, 0x00, 0x00, 0x00, 0x00, 0x00,
  0x00, 0x00, 0x00, 0x00, 0x00, 0x00, 0x00, 0x00, 0x00, 0x00, 0x00, 0x00,
  0x00, 0x00, 0x0e, 0x00, 0x18, 0x00, 0x08, 0x00, 0x0c, 0x00, 0x10, 0x00,
  0x07, 0x00, 0x14, 0x00, 0x0e, 0x00, 0x00, 0x00, 0x00, 0x00, 0x00, 0x01,
  0x01, 0x00, 0x00, 0x00, 0x30, 0x00, 0x00, 0x00, 0x24, 0x00, 0x00, 0x00,
  0x10, 0x00, 0x00, 0x00, 0x0c, 0x00, 0x10, 0x00, 0x0e, 0x00, 0x04, 0x00,
  0x08, 0x00, 0x0f, 0x00, 0x0c, 0x00, 0x00, 0x00, 0x01, 0x00, 0x00, 0x00,
  0x01, 0x00, 0x00, 0x00, 0x00, 0x00, 0x01, 0x01, 0x01, 0x00, 0x00, 0x00,
  0x06, 0x00, 0x00, 0x00, 0x03, 0x00, 0x00, 0x00, 0x03, 0x00, 0x00, 0x00,
  0x04, 0x00, 0x00, 0x00, 0x05, 0x00, 0x00, 0x00, 0xf8, 0xf9, 0xff, 0xff,
  0x03, 0x00, 0x00, 0x00, 0x00, 0x00, 0x00, 0x03, 0x03, 0x00, 0x00, 0x00,
  0xec, 0xf9, 0xff, 0xff, 0x00, 0x00, 0x00, 0x09, 0x14, 0x00, 0x00, 0x00,
  0x07, 0x00, 0x00, 0x00, 0x34, 0x00, 0x00, 0x00, 0xdc, 0x00, 0x00, 0x00,
  0x18, 0x00, 0x00, 0x00, 0x04, 0x00, 0x00, 0x00, 0x01, 0x00, 0x00, 0x00,
  0x3b, 0x00, 0x00, 0x00, 0x02, 0x00, 0x00, 0x00, 0x18, 0x00, 0x00, 0x00,
  0x04, 0x00, 0x00, 0x00, 0xff, 0xff, 0xff, 0xff, 0x3b, 0x00, 0x00, 0x00,
  0x02, 0x00, 0x00, 0x00, 0x18, 0x00, 0x00, 0x00, 0xa6, 0x00, 0x00, 0x00,
  0x73, 0x65, 0x71, 0x75, 0x65, 0x6e, 0x74, 0x69, 0x61, 0x6c, 0x5f, 0x35,
  0x2f, 0x71, 0x75, 0x61, 0x6e, 0x74, 0x5f, 0x72, 0x65, 0x5f, 0x6c, 0x75,
  0x5f, 0x32, 0x30, 0x2f, 0x52, 0x65, 0x6c, 0x75, 0x3b, 0x73, 0x65, 0x71,
  0x75, 0x65, 0x6e, 0x74, 0x69, 0x61, 0x6c, 0x5f, 0x35, 0x2f, 0x71, 0x75,
  0x61, 0x6e, 0x74, 0x5f, 0x63, 0x6f, 0x6e, 0x76, 0x32, 0x64, 0x5f, 0x32,
  0x30, 0x2f, 0x42, 0x69, 0x61, 0x73, 0x41, 0x64, 0x64, 0x3b, 0x73, 0x65,
  0x71, 0x75, 0x65, 0x6e, 0x74, 0x69, 0x61, 0x6c, 0x5f, 0x35, 0x2f, 0x71,
  0x75, 0x61, 0x6e, 0x74, 0x5f, 0x63, 0x6f, 0x6e, 0x76, 0x32, 0x64, 0x5f,
  0x32, 0x30, 0x2f, 0x43, 0x6f, 0x6e, 0x76, 0x32, 0x44, 0x3b, 0x73, 0x65,
  0x71, 0x75, 0x65, 0x6e, 0x74, 0x69, 0x61, 0x6c, 0x5f, 0x35, 0x2f, 0x71,
  0x75, 0x61, 0x6e, 0x74, 0x5f, 0x63, 0x6f, 0x6e, 0x76, 0x32, 0x64, 0x5f,
  0x32, 0x30, 0x2f, 0x42, 0x69, 0x61, 0x73, 0x41, 0x64, 0x64, 0x2f, 0x52,
  0x65, 0x61, 0x64, 0x56, 0x61, 0x72, 0x69, 0x61, 0x62, 0x6c, 0x65, 0x4f,
  0x70, 0x2f, 0x72, 0x65, 0x73, 0x6f, 0x75, 0x72, 0x63, 0x65, 0x00, 0x00,
  0x74, 0xf9, 0xff, 0xff, 0x08, 0x00, 0x00, 0x00, 0x0c, 0x00, 0x00, 0x00,
  0x01, 0x00, 0x00, 0x00, 0xf1, 0x67, 0x5d, 0x3b, 0x01, 0x00, 0x00, 0x00,
  0x80, 0xff, 0xff, 0xff, 0xff, 0xff, 0xff, 0xff, 0x00, 0x00, 0x00, 0x00,
  0x02, 0xf9, 0xff, 0xff, 0x04, 0x00, 0x00, 0x00, 0x60, 0x00, 0x00, 0x00,
  0xf4, 0x00, 0x00, 0x00, 0x28, 0xc6, 0xff, 0xff, 0xd4, 0xfc, 0xff, 0xff,
  0xe5, 0x03, 0x00, 0x00, 0x6d, 0xd8, 0xff, 0xff, 0x4c, 0xe6, 0xff, 0xff,
  0x03, 0xea, 0xff, 0xff, 0xcb, 0xe3, 0xff, 0xff, 0x55, 0xfa, 0xff, 0xff,
  0x99, 0xf1, 0xff, 0xff, 0x6e, 0xfc, 0xff, 0xff, 0x0d, 0xcf, 0xff, 0xff,
  0x3c, 0xe0, 0xff, 0xff, 0x6e, 0xfc, 0xff, 0xff, 0x8d, 0xd7, 0xff, 0xff,
  0x0c, 0xdf, 0xff, 0xff, 0x5f, 0x07, 0x00, 0x00, 0x0d, 0xd4, 0xff, 0xff,
  0x4d, 0xfd, 0xff, 0xff, 0x9c, 0x03, 0x00, 0x00, 0xfb, 0xf7, 0xff, 0xff,
  0x4b, 0x04, 0x00, 0x00, 0x91, 0xfb, 0xff, 0xff, 0xdb, 0xea, 0xff, 0xff,
  0x52, 0xf9, 0xff, 0xff, 0x00, 0x00, 0x00, 0x02, 0x10, 0x00, 0x00, 0x00,
  0x06, 0x00, 0x00, 0x00, 0x10, 0x00, 0x00, 0x00, 0x50, 0x00, 0x00, 0x00,
  0x01, 0x00, 0x00, 0x00, 0x18, 0x00, 0x00, 0x00, 0x3c, 0x00, 0x00, 0x00,
  0x73, 0x65, 0x71, 0x75, 0x65, 0x6e, 0x74, 0x69, 0x61, 0x6c, 0x5f, 0x35,
  0x2f, 0x71, 0x75, 0x61, 0x6e, 0x74, 0x5f, 0x63, 0x6f, 0x6e, 0x76, 0x32,
  0x64, 0x5f, 0x32, 0x30, 0x2f, 0x42, 0x69, 0x61, 0x73, 0x41, 0x64, 0x64,
  0x2f, 0x52, 0x65, 0x61, 0x64, 0x56, 0x61, 0x72, 0x69, 0x61, 0x62, 0x6c,
  0x65, 0x4f, 0x70, 0x2f, 0x72, 0x65, 0x73, 0x6f, 0x75, 0x72, 0x63, 0x65,
  0x00, 0x00, 0x00, 0x00, 0x68, 0xfa, 0xff, 0xff, 0x08, 0x00, 0x00, 0x00,
  0x68, 0x00, 0x00, 0x00, 0x18, 0x00, 0x00, 0x00, 0x1d, 0x91, 0x61, 0x37,
  0x9d, 0xaa, 0x73, 0x37, 0xeb, 0x98, 0x78, 0x37, 0x44, 0x03, 0x57, 0x37,
  0x92, 0xf8, 0x5c, 0x37, 0x36, 0xc3, 0x8b, 0x37, 0x24, 0x8f, 0x84, 0x37,
  0x3b, 0x5c, 0x86, 0x37, 0xa9, 0x15, 0x3f, 0x37, 0xeb, 0xc1, 0x5a, 0x37,
  0x97, 0xa3, 0xa7, 0x37, 0x2b, 0x42, 0x8b, 0x37, 0xef, 0xc9, 0x90, 0x37,
  0xf9, 0x97, 0xa2, 0x37, 0xee, 0x99, 0x5a, 0x37, 0xf9, 0x94, 0x74, 0x37,
  0x53, 0xe4, 0x72, 0x37, 0xa3, 0x52, 0x44, 0x37, 0x2b, 0xce, 0xb7, 0x37,
  0x64, 0xb3, 0x42, 0x37, 0x74, 0x6b, 0x82, 0x37, 0xe3, 0x5d, 0x73, 0x37,
  0xcf, 0x6d, 0x67, 0x37, 0x0d, 0x2d, 0x98, 0x37, 0x18, 0x00, 0x00, 0x00,
  0x00, 0x00, 0x00, 0x00, 0x00, 0x00, 0x00, 0x00, 0x00, 0x00, 0x00, 0x00,
  0x00, 0x00, 0x00, 0x00, 0x00, 0x00, 0x00, 0x00, 0x00, 0x00, 0x00, 0x00,
  0x00, 0x00, 0x00, 0x00, 0x00, 0x00, 0x00, 0x00, 0x00, 0x00, 0x00, 0x00,
  0x00, 0x00, 0x00, 0x00, 0x00, 0x00, 0x00, 0x00, 0x00, 0x00, 0x00, 0x00,
  0x00, 0x00, 0x00, 0x00, 0x00, 0x00, 0x00, 0x00, 0x00, 0x00, 0x00, 0x00,
  0x00, 0x00, 0x00, 0x00, 0x00, 0x00, 0x00, 0x00, 0x00, 0x00, 0x00, 0x00,
  0x00, 0x00, 0x00, 0x00, 0x00, 0x00, 0x00, 0x00, 0x00, 0x00, 0x00, 0x00,
  0x00, 0x00, 0x00, 0x00, 0x00, 0x00, 0x00, 0x00, 0x00, 0x00, 0x00, 0x00,
  0x00, 0x00, 0x00, 0x00, 0x00, 0x00, 0x00, 0x00, 0x00, 0x00, 0x00, 0x00,
  0x00, 0x00, 0x00, 0x00, 0x00, 0x00, 0x00, 0x00, 0x00, 0x00, 0x00, 0x00,
  0x00, 0x00, 0x00, 0x00, 0x00, 0x00, 0x00, 0x00, 0x00, 0x00, 0x00, 0x00,
  0x00, 0x00, 0x00, 0x00, 0x00, 0x00, 0x00, 0x00, 0x00, 0x00, 0x00, 0x00,
  0x00, 0x00, 0x00, 0x00, 0x00, 0x00, 0x00, 0x00, 0x00, 0x00, 0x00, 0x00,
  0x00, 0x00, 0x00, 0x00, 0x00, 0x00, 0x00, 0x00, 0x00, 0x00, 0x00, 0x00,
  0x00, 0x00, 0x00, 0x00, 0x00, 0x00, 0x00, 0x00, 0x00, 0x00, 0x00, 0x00,
  0x00, 0x00, 0x00, 0x00, 0x00, 0x00, 0x00, 0x00, 0x00, 0x00, 0x00, 0x00,
  0x00, 0x00, 0x00, 0x00, 0x0a, 0xfb, 0xff, 0xff, 0x04, 0x00, 0x00, 0x00,
  0x20, 0x01, 0x00, 0x00, 0x51, 0x7f, 0x0f, 0x45, 0xf6, 0xcc, 0x17, 0x0a,
  0x1b, 0x0c, 0x44, 0x20, 0x5e, 0x2d, 0x1d, 0x5b, 0xb5, 0x4b, 0xba, 0xdb,
  0xfc, 0xb0, 0x7f, 0xf1, 0x46, 0x74, 0x2c, 0x26, 0xf6, 0xe5, 0x1c, 0xb9,
  0xd7, 0x81, 0xba, 0x3a, 0x49, 0xde, 0x56, 0xe6, 0x4b, 0x17, 0x16, 0x3e,
  0x1b, 0x7f, 0xad, 0x3d, 0x57, 0x48, 0x8c, 0x81, 0xb4, 0xf7, 0x23, 0x41,
  0x58, 0xe1, 0x36, 0xab, 0x2b, 0x15, 0xda, 0xb8, 0xef, 0x29, 0x0a, 0xcb,
  0x04, 0xc3, 0xbd, 0x7f, 0x9c, 0x7f, 0xc6, 0x09, 0x02, 0xce, 0x42, 0x37,
  0x15, 0xc0, 0x1a, 0xbf, 0xdc, 0x05, 0x34, 0xc8, 0x22, 0xf8, 0xf2, 0x05,
  0xbf, 0x33, 0x6c, 0x7f, 0xe7, 0x81, 0xd8, 0x25, 0xe4, 0x8d, 0x02, 0xeb,
  0x05, 0x97, 0x11, 0x61, 0xc2, 0xd4, 0x81, 0x8e, 0xbc, 0xfa, 0x0c, 0x32,
  0x52, 0x73, 0x59, 0x2f, 0xe0, 0x4b, 0x12, 0x0b, 0x07, 0x0a, 0x01, 0x4b,
  0xee, 0x4a, 0xbb, 0x7f, 0x81, 0xfb, 0xf6, 0x30, 0xe6, 0xcd, 0xc0, 0xd9,
  0xf6, 0xf6, 0x47, 0x41, 0xc0, 0xf3, 0xe4, 0x9c, 0x07, 0xfe, 0x2d, 0xf7,
  0x2a, 0x2a, 0x40, 0x7f, 0xeb, 0xb1, 0x24, 0xbc, 0x13, 0xc3, 0x2f, 0x81,
  0x02, 0xaa, 0x2e, 0xcc, 0x20, 0xb1, 0x9f, 0x34, 0xcb, 0xdc, 0x42, 0x1d,
  0x65, 0x9d, 0x81, 0x25, 0x77, 0x14, 0x54, 0xe6, 0x7a, 0xbd, 0x56, 0x01,
  0x81, 0x05, 0xa0, 0x0e, 0x3a, 0x81, 0x47, 0x99, 0x3b, 0xe8, 0xe8, 0xdd,
  0xf7, 0x9c, 0xcb, 0xf2, 0x6a, 0x04, 0x68, 0x8f, 0xbd, 0x5f, 0x4a, 0x75,
  0xe9, 0xf3, 0xcd, 0x7f, 0x81, 0xfc, 0xf7, 0xe9, 0xf0, 0xe9, 0xe7, 0x22,
  0xd4, 0x15, 0xf3, 0x0d, 0xa0, 0x79, 0xe9, 0x4c, 0x49, 0xc4, 0x4f, 0xba,
  0x63, 0x3f, 0xe9, 0x7f, 0xe4, 0x5b, 0x23, 0x37, 0x5c, 0x40, 0x20, 0x1e,
  0x67, 0x5a, 0x7f, 0x1a, 0x0a, 0x83, 0xe7, 0xfb, 0xcf, 0xf9, 0xd1, 0x10,
  0xc5, 0xe1, 0x31, 0x81, 0xe5, 0xda, 0x2b, 0x2f, 0x39, 0x79, 0x43, 0x03,
  0xe5, 0xdb, 0x94, 0x81, 0x49, 0xc3, 0xff, 0xd7, 0xc6, 0x42, 0xd0, 0xdd,
  0xd2, 0x7f, 0x0b, 0x12, 0x1a, 0xfc, 0xff, 0xff, 0x00, 0x00, 0x00, 0x09,
  0x10, 0x00, 0x00, 0x00, 0x05, 0x00, 0x00, 0x00, 0x1c, 0x00, 0x00, 0x00,
  0x40, 0x00, 0x00, 0x00, 0x04, 0x00, 0x00, 0x00, 0x18, 0x00, 0x00, 0x00,
  0x06, 0x00, 0x00, 0x00, 0x02, 0x00, 0x00, 0x00, 0x01, 0x00, 0x00, 0x00,
  0x23, 0x00, 0x00, 0x00, 0x73, 0x65, 0x71, 0x75, 0x65, 0x6e, 0x74, 0x69,
  0x61, 0x6c, 0x5f, 0x35, 0x2f, 0x71, 0x75, 0x61, 0x6e, 0x74, 0x5f, 0x63,
  0x6f, 0x6e, 0x76, 0x32, 0x64, 0x5f, 0x32, 0x30, 0x2f, 0x43, 0x6f, 0x6e,
  0x76, 0x32, 0x44, 0x00, 0x20, 0xfd, 0xff, 0xff, 0x08, 0x00, 0x00, 0x00,
  0x68, 0x00, 0x00, 0x00, 0x18, 0x00, 0x00, 0x00, 0x8c, 0xaf, 0xe0, 0x3b,
  0xf2, 0xb6, 0xf2, 0x3b, 0x52, 0xa0, 0xf7, 0x3b, 0x41, 0x2c, 0xd6, 0x3b,
  0x99, 0x1b, 0xdc, 0x3b, 0x73, 0x37, 0x0b, 0x3c, 0x95, 0x0a, 0x04, 0x3c,
  0xdf, 0xd5, 0x05, 0x3c, 0x93, 0x56, 0xbe, 0x3b, 0x29, 0xe7, 0xd9, 0x3b,
  0xf4, 0xfb, 0x26, 0x3c, 0xe9, 0xb6, 0x0a, 0x3c, 0x25, 0x39, 0x10, 0x3c,
  0x61, 0xf5, 0x21, 0x3c, 0x54, 0xbf, 0xd9, 0x3b, 0x64, 0xa0, 0xf3, 0x3b,
  0x6f, 0xf1, 0xf1, 0x3b, 0x51, 0x8e, 0xc3, 0x3b, 0x5d, 0x16, 0x37, 0x3c,
  0xb0, 0xf0, 0xc1, 0x3b, 0x08, 0xe9, 0x01, 0x3c, 0x85, 0x6a, 0xf2, 0x3b,
  0x61, 0x86, 0xe6, 0x3b, 0xe0, 0x94, 0x17, 0x3c, 0x18, 0x00, 0x00, 0x00,
  0x00, 0x00, 0x00, 0x00, 0x00, 0x00, 0x00, 0x00, 0x00, 0x00, 0x00, 0x00,
  0x00, 0x00, 0x00, 0x00, 0x00, 0x00, 0x00, 0x00, 0x00, 0x00, 0x00, 0x00,
  0x00, 0x00, 0x00, 0x00, 0x00, 0x00, 0x00, 0x00, 0x00, 0x00, 0x00, 0x00,
  0x00, 0x00, 0x00, 0x00, 0x00, 0x00, 0x00, 0x00, 0x00, 0x00, 0x00, 0x00,
  0x00, 0x00, 0x00, 0x00, 0x00, 0x00, 0x00, 0x00, 0x00, 0x00, 0x00, 0x00,
  0x00, 0x00, 0x00, 0x00, 0x00, 0x00, 0x00, 0x00, 0x00, 0x00, 0x00, 0x00,
  0x00, 0x00, 0x00, 0x00, 0x00, 0x00, 0x00, 0x00, 0x00, 0x00, 0x00, 0x00,
  0x00, 0x00, 0x00, 0x00, 0x00, 0x00, 0x00, 0x00, 0x00, 0x00, 0x00, 0x00,
  0x00, 0x00, 0x00, 0x00, 0x00, 0x00, 0x00, 0x00, 0x00, 0x00, 0x00, 0x00,
  0x00, 0x00, 0x00, 0x00, 0x00, 0x00, 0x00, 0x00, 0x00, 0x00, 0x00, 0x00,
  0x00, 0x00, 0x00, 0x00, 0x00, 0x00, 0x00, 0x00, 0x00, 0x00, 0x00, 0x00,
  0x00, 0x00, 0x00, 0x00, 0x00, 0x00, 0x00, 0x00, 0x00, 0x00, 0x00, 0x00,
  0x00, 0x00, 0x00, 0x00, 0x00, 0x00, 0x00, 0x00, 0x00, 0x00, 0x00, 0x00,
  0x00, 0x00, 0x00, 0x00, 0x00, 0x00, 0x00, 0x00, 0x00, 0x00, 0x00, 0x00,
  0x00, 0x00, 0x00, 0x00, 0x00, 0x00, 0x00, 0x00, 0x00, 0x00, 0x00, 0x00,
  0x00, 0x00, 0x00, 0x00, 0x00, 0x00, 0x00, 0x00, 0x00, 0x00, 0x00, 0x00,
  0x00, 0x00, 0x0a, 0x00, 0x0c, 0x00, 0x00, 0x00, 0x04, 0x00, 0x08, 0x00,
  0x0a, 0x00, 0x00, 0x00, 0x10, 0x00, 0x00, 0x00, 0x04, 0x00, 0x00, 0x00,
  0x01, 0x00, 0x00, 0x00, 0x03, 0x00, 0x00, 0x00, 0x01, 0x00, 0x00, 0x00,
  0x00, 0x00, 0x00, 0x00, 0x0c, 0x00, 0x10, 0x00, 0x0b, 0x00, 0x00, 0x00,
  0x0c, 0x00, 0x04, 0x00, 0x0c, 0x00, 0x00, 0x00, 0x72, 0x00, 0x00, 0x00,
  0x00, 0x00, 0x00, 0x72, 0x01, 0x00, 0x00, 0x00, 0x14, 0x00, 0x1c, 0x00,
  0x08, 0x00, 0x07, 0x00, 0x0c, 0x00, 0x10, 0x00, 0x14, 0x00, 0x00, 0x00,
  0x00, 0x00, 0x18, 0x00, 0x14, 0x00, 0x00, 0x00, 0x00, 0x00, 0x00, 0x09,
  0x14, 0x00, 0x00, 0x00, 0x04, 0x00, 0x00, 0x00, 0x34, 0x00, 0x00, 0x00,
  0x4c, 0x01, 0x00, 0x00, 0x18, 0x00, 0x00, 0x00, 0x04, 0x00, 0x00, 0x00,
  0x01, 0x00, 0x00, 0x00, 0x40, 0x00, 0x00, 0x00, 0x03, 0x00, 0x00, 0x00,
  0x01, 0x00, 0x00, 0x00, 0x04, 0x00, 0x00, 0x00, 0xff, 0xff, 0xff, 0xff,
  0x40, 0x00, 0x00, 0x00, 0x03, 0x00, 0x00, 0x00, 0x01, 0x00, 0x00, 0x00,
  0x09, 0x01, 0x00, 0x00, 0x73, 0x65, 0x71, 0x75, 0x65, 0x6e, 0x74, 0x69,
  0x61, 0x6c, 0x5f, 0x35, 0x2f, 0x71, 0x75, 0x61, 0x6e, 0x74, 0x69, 0x7a,
  0x65, 0x5f, 0x6c, 0x61, 0x79, 0x65, 0x72, 0x5f, 0x33, 0x2f, 0x41, 0x6c,
  0x6c, 0x56, 0x61, 0x6c, 0x75, 0x65, 0x73, 0x51, 0x75, 0x61, 0x6e, 0x74,
  0x69, 0x7a, 0x65, 0x2f, 0x46, 0x61, 0x6b, 0x65, 0x51, 0x75, 0x61, 0x6e,
  0x74, 0x57, 0x69, 0x74, 0x68, 0x4d, 0x69, 0x6e, 0x4d, 0x61, 0x78, 0x56,
  0x61, 0x72, 0x73, 0x3b, 0x73, 0x65, 0x71, 0x75, 0x65, 0x6e, 0x74, 0x69,
  0x61, 0x6c, 0x5f, 0x35, 0x2f, 0x71, 0x75, 0x61, 0x6e, 0x74, 0x69, 0x7a,
  0x65, 0x5f, 0x6c, 0x61, 0x79, 0x65, 0x72, 0x5f, 0x33, 0x2f, 0x41, 0x6c,
  0x6c, 0x56, 0x61, 0x6c, 0x75, 0x65, 0x73, 0x51, 0x75, 0x61, 0x6e, 0x74,
  0x69, 0x7a, 0x65, 0x2f, 0x46, 0x61, 0x6b, 0x65, 0x51, 0x75, 0x61, 0x6e,
  0x74, 0x57, 0x69, 0x74, 0x68, 0x4d, 0x69, 0x6e, 0x4d, 0x61, 0x78, 0x56,
  0x61, 0x72, 0x73, 0x2f, 0x52, 0x65, 0x61, 0x64, 0x56, 0x61, 0x72, 0x69,
  0x61, 0x62, 0x6c, 0x65, 0x4f, 0x70, 0x2f, 0x72, 0x65, 0x73, 0x6f, 0x75,
  0x72, 0x63, 0x65, 0x3b, 0x73, 0x65, 0x71, 0x75, 0x65, 0x6e, 0x74, 0x69,
  0x61, 0x6c, 0x5f, 0x35, 0x2f, 0x71, 0x75, 0x61, 0x6e, 0x74, 0x69, 0x7a,
  0x65, 0x5f, 0x6c, 0x61, 0x79, 0x65, 0x72, 0x5f, 0x33, 0x2f, 0x41, 0x6c,
  0x6c, 0x56, 0x61, 0x6c, 0x75, 0x65, 0x73, 0x51, 0x75, 0x61, 0x6e, 0x74,
  0x69, 0x7a, 0x65, 0x2f, 0x46, 0x61, 0x6b, 0x65, 0x51, 0x75, 0x61, 0x6e,
  0x74, 0x57, 0x69, 0x74, 0x68, 0x4d, 0x69, 0x6e, 0x4d, 0x61, 0x78, 0x56,
  0x61, 0x72, 0x73, 0x2f, 0x52, 0x65, 0x61, 0x64, 0x56, 0x61, 0x72, 0x69,
  0x61, 0x62, 0x6c, 0x65, 0x4f, 0x70, 0x5f, 0x31, 0x2f, 0x72, 0x65, 0x73,
  0x6f, 0x75, 0x72, 0x63, 0x65, 0x00, 0x00, 0x00, 0x0c, 0x00, 0x0c, 0x00,
  0x00, 0x00, 0x00, 0x00, 0x04, 0x00, 0x08, 0x00, 0x0c, 0x00, 0x00, 0x00,
  0x08, 0x00, 0x00, 0x00, 0x0c, 0x00, 0x00, 0x00, 0x01, 0x00, 0x00, 0x00,
  0x81, 0x80, 0x00, 0x3b, 0x01, 0x00, 0x00, 0x00, 0x00, 0x00, 0x00, 0x00,
  0x00, 0x00, 0x00, 0x00, 0x00, 0x00, 0x00, 0x00, 0x9a, 0xff, 0xff, 0xff,
  0x04, 0x00, 0x00, 0x00, 0x08, 0x00, 0x00, 0x00, 0xff, 0xff, 0xff, 0xff,
  0x12, 0x00, 0x00, 0x00, 0x92, 0xff, 0xff, 0xff, 0x00, 0x00, 0x00, 0x02,
  0x10, 0x00, 0x00, 0x00, 0x03, 0x00, 0x00, 0x00, 0x10, 0x00, 0x00, 0x00,
  0x38, 0x00, 0x00, 0x00, 0x01, 0x00, 0x00, 0x00, 0x02, 0x00, 0x00, 0x00,
  0x22, 0x00, 0x00, 0x00, 0x73, 0x65, 0x71, 0x75, 0x65, 0x6e, 0x74, 0x69,
  0x61, 0x6c, 0x5f, 0x35, 0x2f, 0x71, 0x75, 0x61, 0x6e, 0x74, 0x5f, 0x66,
  0x6c, 0x61, 0x74, 0x74, 0x65, 0x6e, 0x5f, 0x35, 0x2f, 0x43, 0x6f, 0x6e,
  0x73, 0x74, 0x00, 0x00, 0x04, 0x00, 0x06, 0x00, 0x04, 0x00, 0x00, 0x00,
  0x00, 0x00, 0x06, 0x00, 0x08, 0x00, 0x04, 0x00, 0x06, 0x00, 0x00, 0x00,
  0x04, 0x00, 0x00, 0x00, 0x08, 0x00, 0x00, 0x00, 0x01, 0x00, 0x00, 0x00,
  0x02, 0x00, 0x00, 0x00, 0x00, 0x00, 0x0e, 0x00, 0x18, 0x00, 0x08, 0x00,
  0x07, 0x00, 0x0c, 0x00, 0x10, 0x00, 0x14, 0x00, 0x0e, 0x00, 0x00, 0x00,
  0x00, 0x00, 0x00, 0x02, 0x10, 0x00, 0x00, 0x00, 0x02, 0x00, 0x00, 0x00,
  0x10, 0x00, 0x00, 0x00, 0x50, 0x00, 0x00, 0x00, 0x01, 0x00, 0x00, 0x00,
  0x02, 0x00, 0x00, 0x00, 0x3f, 0x00, 0x00, 0x00, 0x73, 0x65, 0x71, 0x75,
  0x65, 0x6e, 0x74, 0x69, 0x61, 0x6c, 0x5f, 0x35, 0x2f, 0x71, 0x75, 0x61,
  0x6e, 0x74, 0x5f, 0x67, 0x6c, 0x6f, 0x62, 0x61, 0x6c, 0x5f, 0x6d, 0x61,
  0x78, 0x5f, 0x70, 0x6f, 0x6f, 0x6c, 0x69, 0x6e, 0x67, 0x32, 0x64, 0x5f,
  0x35, 0x2f, 0x4d, 0x61, 0x78, 0x2f, 0x72, 0x65, 0x64, 0x75, 0x63, 0x74,
  0x69, 0x6f, 0x6e, 0x5f, 0x69, 0x6e, 0x64, 0x69, 0x63, 0x65, 0x73, 0x00,
  0x90, 0xff, 0xff, 0xff, 0x14, 0x00, 0x18, 0x00, 0x04, 0x00, 0x00, 0x00,
  0x08, 0x00, 0x0c, 0x00, 0x10, 0x00, 0x00, 0x00, 0x00, 0x00, 0x14, 0x00,
  0x14, 0x00, 0x00, 0x00, 0x14, 0x00, 0x00, 0x00, 0x01, 0x00, 0x00, 0x00,
  0x34, 0x00, 0x00, 0x00, 0x44, 0x00, 0x00, 0x00, 0x18, 0x00, 0x00, 0x00,
  0x04, 0x00, 0x00, 0x00, 0x01, 0x00, 0x00, 0x00, 0x40, 0x00, 0x00, 0x00,
  0x03, 0x00, 0x00, 0x00, 0x01, 0x00, 0x00, 0x00, 0x04, 0x00, 0x00, 0x00,
  0xff, 0xff, 0xff, 0xff, 0x40, 0x00, 0x00, 0x00, 0x03, 0x00, 0x00, 0x00,
  0x01, 0x00, 0x00, 0x00, 0x0f, 0x00, 0x00, 0x00, 0x63, 0x6f, 0x6e, 0x76,
  0x32, 0x64, 0x5f, 0x32, 0x30, 0x5f, 0x69, 0x6e, 0x70, 0x75, 0x74, 0x00,
  0xfc, 0xff, 0xff, 0xff, 0x04, 0x00, 0x04, 0x00, 0x04, 0x00, 0x00, 0x00
 
};

#endif // INCLUDE_MODEL

#endif //MODEL_15_TENSORFLOW_H