#ifndef MODEL_22_TENSORFLOW_H
#define MODEL_22_TENSORFLOW_H

#define APP_ACTIVITY_MODEL_NAME model_22_tensorflow
#define APP_ACTIVITY_RECOGNITION_PRECISION_FLOAT (0)
#define APP_ACTIVITY_RECOGNITION_SENSOR_SCALE (2)
#define APP_ACTIVITY_RECOGNITION_SENSOR_RESOLUTION (8)
#define APP_ACTIVITY_RECOGNITION_SAMPLING_FREQUENCY (10)
#define APP_ACTIVITY_RECOGNITION_FREQUENCY_DIVIDER (0)
#define APP_ACTIVITY_RECOGNITION_HIGHPASS_STAGES (2)
#define APP_ACTIVITY_RECOGNITION_INPUT_SIZE (192)
#define APP_ACTIVITY_RECOGNITION_STEP_SIZE (32)
#define APP_ACTIVITY_RECOGNITION_CLASS_COUNT (6)

#ifdef INCLUDE_MODEL
static const float highpass_coefficients[] = {0.2069928239055942f, -0.2069928239055942f, 0.0f, 0.2068179864931189f, -0.0f, 0.25f, -0.5f, 0.25f, 0.4490699651581907f, -0.2071676613180694f};
static const char* APP_ACTIVITY_RECOGNITION_CLASSES[] = {"jog","skip","stDown","stUp","stay","walk"};
static const size_t model_22_tensorflow_len = 10712;
static const uint8_t model_22_tensorflow[] = {
 0x1c, 0x00, 0x00, 0x00, 0x54, 0x46, 0x4c, 0x33, 0x14, 0x00, 0x20, 0x00,
  0x04, 0x00, 0x08, 0x00, 0x0c, 0x00, 0x10, 0x00, 0x14, 0x00, 0x00, 0x00,
  0x18, 0x00, 0x1c, 0x00, 0x14, 0x00, 0x00, 0x00, 0x03, 0x00, 0x00, 0x00,
  0x18, 0x00, 0x00, 0x00, 0x34, 0x00, 0x00, 0x00, 0xf4, 0x00, 0x00, 0x00,
  0x34, 0x00, 0x00, 0x00, 0x9c, 0x00, 0x00, 0x00, 0x94, 0x00, 0x00, 0x00,
  0x07, 0x00, 0x00, 0x00, 0x8c, 0x26, 0x00, 0x00, 0x74, 0x20, 0x00, 0x00,
  0x58, 0x06, 0x00, 0x00, 0x94, 0x05, 0x00, 0x00, 0x20, 0x03, 0x00, 0x00,
  0x54, 0x02, 0x00, 0x00, 0xcc, 0x01, 0x00, 0x00, 0x01, 0x00, 0x00, 0x00,
  0xe4, 0x00, 0x00, 0x00, 0x19, 0x00, 0x00, 0x00, 0x6c, 0x29, 0x00, 0x00,
  0x68, 0x29, 0x00, 0x00, 0x68, 0x28, 0x00, 0x00, 0xf8, 0x27, 0x00, 0x00,
  0x5c, 0x29, 0x00, 0x00, 0x68, 0x23, 0x00, 0x00, 0x5c, 0x21, 0x00, 0x00,
  0x50, 0x29, 0x00, 0x00, 0x9c, 0x12, 0x00, 0x00, 0x10, 0x11, 0x00, 0x00,
  0x44, 0x29, 0x00, 0x00, 0x30, 0x0d, 0x00, 0x00, 0xe4, 0x0b, 0x00, 0x00,
  0x38, 0x29, 0x00, 0x00, 0xf4, 0x08, 0x00, 0x00, 0xe8, 0x07, 0x00, 0x00,
  0x2c, 0x29, 0x00, 0x00, 0x28, 0x29, 0x00, 0x00, 0x24, 0x29, 0x00, 0x00,
  0x14, 0x04, 0x00, 0x00, 0x6c, 0x03, 0x00, 0x00, 0x18, 0x29, 0x00, 0x00,
  0x14, 0x29, 0x00, 0x00, 0x10, 0x29, 0x00, 0x00, 0x3c, 0x00, 0x00, 0x00,
  0x00, 0x00, 0x00, 0x00, 0x01, 0x00, 0x00, 0x00, 0x0c, 0x00, 0x00, 0x00,
  0x08, 0x00, 0x0c, 0x00, 0x04, 0x00, 0x08, 0x00, 0x08, 0x00, 0x00, 0x00,
  0x08, 0x00, 0x00, 0x00, 0x18, 0x00, 0x00, 0x00, 0x13, 0x00, 0x00, 0x00,
  0x6d, 0x69, 0x6e, 0x5f, 0x72, 0x75, 0x6e, 0x74, 0x69, 0x6d, 0x65, 0x5f,
  0x76, 0x65, 0x72, 0x73, 0x69, 0x6f, 0x6e, 0x00, 0x32, 0xd8, 0xff, 0xff,
  0x04, 0x00, 0x00, 0x00, 0x10, 0x00, 0x00, 0x00, 0x31, 0x2e, 0x31, 0x34,
  0x2e, 0x30, 0x00, 0x00, 0x00, 0x00, 0x00, 0x00, 0x00, 0x00, 0x00, 0x00,
  0x0f, 0x00, 0x00, 0x00, 0x4d, 0x4c, 0x49, 0x52, 0x20, 0x43, 0x6f, 0x6e,
  0x76, 0x65, 0x72, 0x74, 0x65, 0x64, 0x2e, 0x00, 0x00, 0x00, 0x0e, 0x00,
  0x18, 0x00, 0x04, 0x00, 0x08, 0x00, 0x0c, 0x00, 0x10, 0x00, 0x14, 0x00,
  0x0e, 0x00, 0x00, 0x00, 0x14, 0x00, 0x00, 0x00, 0x70, 0x00, 0x00, 0x00,
  0x74, 0x00, 0x00, 0x00, 0x78, 0x00, 0x00, 0x00, 0xa0, 0x00, 0x00, 0x00,
  0x17, 0x00, 0x00, 0x00, 0x18, 0x28, 0x00, 0x00, 0x98, 0x27, 0x00, 0x00,
  0x18, 0x27, 0x00, 0x00, 0x84, 0x25, 0x00, 0x00, 0xa0, 0x23, 0x00, 0x00,
  0xd4, 0x20, 0x00, 0x00, 0x50, 0x1f, 0x00, 0x00, 0xb4, 0x1d, 0x00, 0x00,
  0x68, 0x10, 0x00, 0x00, 0x04, 0x0f, 0x00, 0x00, 0xc8, 0x0d, 0x00, 0x00,
  0x2c, 0x0b, 0x00, 0x00, 0xd8, 0x09, 0x00, 0x00, 0xcc, 0x08, 0x00, 0x00,
  0x20, 0x07, 0x00, 0x00, 0xdc, 0x05, 0x00, 0x00, 0x10, 0x05, 0x00, 0x00,
  0x4c, 0x04, 0x00, 0x00, 0x5c, 0x03, 0x00, 0x00, 0x9c, 0x02, 0x00, 0x00,
  0xd0, 0x01, 0x00, 0x00, 0x04, 0x01, 0x00, 0x00, 0x7c, 0x00, 0x00, 0x00,
  0x01, 0x00, 0x00, 0x00, 0x00, 0x00, 0x00, 0x00, 0x01, 0x00, 0x00, 0x00,
  0x16, 0x00, 0x00, 0x00, 0x0a, 0x00, 0x00, 0x00, 0xd4, 0x24, 0x00, 0x00,
  0x98, 0x1e, 0x00, 0x00, 0x70, 0x0e, 0x00, 0x00, 0x4c, 0x09, 0x00, 0x00,
  0x58, 0x05, 0x00, 0x00, 0x8c, 0x04, 0x00, 0x00, 0xd4, 0x03, 0x00, 0x00,
  0x50, 0x01, 0x00, 0x00, 0x88, 0x00, 0x00, 0x00, 0x10, 0x00, 0x00, 0x00,
  0x04, 0x00, 0x00, 0x00, 0x6d, 0x61, 0x69, 0x6e, 0x00, 0x00, 0x00, 0x00,
  0x52, 0xfc, 0xff, 0xff, 0x06, 0x00, 0x00, 0x00, 0x10, 0x00, 0x00, 0x00,
  0x04, 0x00, 0x00, 0x00, 0x01, 0x00, 0x00, 0x00, 0x16, 0x00, 0x00, 0x00,
  0x01, 0x00, 0x00, 0x00, 0x15, 0x00, 0x00, 0x00, 0x64, 0xdb, 0xff, 0xff,
  0x06, 0x00, 0x00, 0x00, 0x00, 0x00, 0x00, 0x06, 0x02, 0x00, 0x00, 0x00,
  0xd0, 0xd8, 0xff, 0xff, 0x14, 0x00, 0x00, 0x00, 0x17, 0x00, 0x00, 0x00,
  0x24, 0x00, 0x00, 0x00, 0x30, 0x00, 0x00, 0x00, 0x10, 0x00, 0x00, 0x00,
  0x02, 0x00, 0x00, 0x00, 0x01, 0x00, 0x00, 0x00, 0x06, 0x00, 0x00, 0x00,
  0x02, 0x00, 0x00, 0x00, 0xff, 0xff, 0xff, 0xff, 0x06, 0x00, 0x00, 0x00,
  0x08, 0x00, 0x00, 0x00, 0x49, 0x64, 0x65, 0x6e, 0x74, 0x69, 0x74, 0x79,
  0x00, 0x00, 0x00, 0x00, 0xa4, 0xd8, 0xff, 0xff, 0x1a, 0xe2, 0xff, 0xff,
  0x00, 0x00, 0x00, 0x09, 0x05, 0x00, 0x00, 0x00, 0x1c, 0x00, 0x00, 0x00,
  0x10, 0x00, 0x00, 0x00, 0x04, 0x00, 0x00, 0x00, 0xbe, 0xd9, 0xff, 0xff,
  0x00, 0x00, 0x80, 0x3f, 0x01, 0x00, 0x00, 0x00, 0x15, 0x00, 0x00, 0x00,
  0x01, 0x00, 0x00, 0x00, 0x14, 0x00, 0x00, 0x00, 0xe8, 0xdb, 0xff, 0xff,
  0x19, 0x00, 0x00, 0x00, 0x00, 0x00, 0x00, 0x19, 0x02, 0x00, 0x00, 0x00,
  0xdc, 0xdb, 0xff, 0xff, 0x00, 0x00, 0x00, 0x09, 0x14, 0x00, 0x00, 0x00,
  0x16, 0x00, 0x00, 0x00, 0x24, 0x00, 0x00, 0x00, 0x4c, 0x00, 0x00, 0x00,
  0x10, 0x00, 0x00, 0x00, 0x02, 0x00, 0x00, 0x00, 0x01, 0x00, 0x00, 0x00,
  0x06, 0x00, 0x00, 0x00, 0x02, 0x00, 0x00, 0x00, 0xff, 0xff, 0xff, 0xff,
  0x06, 0x00, 0x00, 0x00, 0x24, 0x00, 0x00, 0x00, 0x73, 0x65, 0x71, 0x75,
  0x65, 0x6e, 0x74, 0x69, 0x61, 0x6c, 0x5f, 0x33, 0x2f, 0x71, 0x75, 0x61,
  0x6e, 0x74, 0x5f, 0x73, 0x6f, 0x66, 0x74, 0x6d, 0x61, 0x78, 0x5f, 0x33,
  0x2f, 0x53, 0x6f, 0x66, 0x74, 0x6d, 0x61, 0x78, 0x00, 0x00, 0x00, 0x00,
  0xdc, 0xda, 0xff, 0xff, 0x08, 0x00, 0x00, 0x00, 0x0c, 0x00, 0x00, 0x00,
  0x01, 0x00, 0x00, 0x00, 0x00, 0x00, 0x80, 0x3b, 0x01, 0x00, 0x00, 0x00,
  0x80, 0xff, 0xff, 0xff, 0xff, 0xff, 0xff, 0xff, 0x00, 0x00, 0x00, 0x00,
  0xde, 0xe2, 0xff, 0xff, 0x00, 0x00, 0x00, 0x08, 0x04, 0x00, 0x00, 0x00,
  0x18, 0x00, 0x00, 0x00, 0x0c, 0x00, 0x00, 0x00, 0x04, 0x00, 0x00, 0x00,
  0x84, 0xd9, 0xff, 0xff, 0x01, 0x00, 0x00, 0x00, 0x14, 0x00, 0x00, 0x00,
  0x03, 0x00, 0x00, 0x00, 0x11, 0x00, 0x00, 0x00, 0x12, 0x00, 0x00, 0x00,
  0x13, 0x00, 0x00, 0x00, 0xb0, 0xdc, 0xff, 0xff, 0x09, 0x00, 0x00, 0x00,
  0x00, 0x00, 0x00, 0x09, 0x04, 0x00, 0x00, 0x00, 0xa4, 0xdc, 0xff, 0xff,
  0x00, 0x00, 0x00, 0x09, 0x14, 0x00, 0x00, 0x00, 0x15, 0x00, 0x00, 0x00,
  0x24, 0x00, 0x00, 0x00, 0x6c, 0x00, 0x00, 0x00, 0x10, 0x00, 0x00, 0x00,
  0x02, 0x00, 0x00, 0x00, 0x01, 0x00, 0x00, 0x00, 0x06, 0x00, 0x00, 0x00,
  0x02, 0x00, 0x00, 0x00, 0xff, 0xff, 0xff, 0xff, 0x06, 0x00, 0x00, 0x00,
  0x44, 0x00, 0x00, 0x00, 0x73, 0x65, 0x71, 0x75, 0x65, 0x6e, 0x74, 0x69,
  0x61, 0x6c, 0x5f, 0x33, 0x2f, 0x71, 0x75, 0x61, 0x6e, 0x74, 0x5f, 0x64,
  0x65, 0x6e, 0x73, 0x65, 0x5f, 0x33, 0x2f, 0x4d, 0x61, 0x74, 0x4d, 0x75,
  0x6c, 0x3b, 0x73, 0x65, 0x71, 0x75, 0x65, 0x6e, 0x74, 0x69, 0x61, 0x6c,
  0x5f, 0x33, 0x2f, 0x71, 0x75, 0x61, 0x6e, 0x74, 0x5f, 0x64, 0x65, 0x6e,
  0x73, 0x65, 0x5f, 0x33, 0x2f, 0x42, 0x69, 0x61, 0x73, 0x41, 0x64, 0x64,
  0x00, 0x00, 0x00, 0x00, 0xc4, 0xdb, 0xff, 0xff, 0x08, 0x00, 0x00, 0x00,
  0x0c, 0x00, 0x00, 0x00, 0x01, 0x00, 0x00, 0x00, 0x1a, 0xa4, 0xe0, 0x3e,
  0x01, 0x00, 0x00, 0x00, 0x73, 0x00, 0x00, 0x00, 0x00, 0x00, 0x00, 0x00,
  0x00, 0x00, 0x00, 0x00, 0x52, 0xdb, 0xff, 0xff, 0x04, 0x00, 0x00, 0x00,
  0x18, 0x00, 0x00, 0x00, 0x13, 0xfd, 0xff, 0xff, 0x44, 0xff, 0xff, 0xff,
  0x12, 0xfa, 0xff, 0xff, 0x4e, 0xff, 0xff, 0xff, 0x97, 0x07, 0x00, 0x00,
  0x74, 0x01, 0x00, 0x00, 0x5a, 0xdb, 0xff, 0xff, 0x00, 0x00, 0x00, 0x02,
  0x10, 0x00, 0x00, 0x00, 0x14, 0x00, 0x00, 0x00, 0x10, 0x00, 0x00, 0x00,
  0x4c, 0x00, 0x00, 0x00, 0x01, 0x00, 0x00, 0x00, 0x06, 0x00, 0x00, 0x00,
  0x3a, 0x00, 0x00, 0x00, 0x73, 0x65, 0x71, 0x75, 0x65, 0x6e, 0x74, 0x69,
  0x61, 0x6c, 0x5f, 0x33, 0x2f, 0x71, 0x75, 0x61, 0x6e, 0x74, 0x5f, 0x64,
  0x65, 0x6e, 0x73, 0x65, 0x5f, 0x33, 0x2f, 0x42, 0x69, 0x61, 0x73, 0x41,
  0x64, 0x64, 0x2f, 0x52, 0x65, 0x61, 0x64, 0x56, 0x61, 0x72, 0x69, 0x61,
  0x62, 0x6c, 0x65, 0x4f, 0x70, 0x2f, 0x72, 0x65, 0x73, 0x6f, 0x75, 0x72,
  0x63, 0x65, 0x00, 0x00, 0x6c, 0xdc, 0xff, 0xff, 0x08, 0x00, 0x00, 0x00,
  0x0c, 0x00, 0x00, 0x00, 0x01, 0x00, 0x00, 0x00, 0x8b, 0xd8, 0xa0, 0x3a,
  0x01, 0x00, 0x00, 0x00, 0x00, 0x00, 0x00, 0x00, 0x00, 0x00, 0x00, 0x00,
  0xf6, 0xdb, 0xff, 0xff, 0x04, 0x00, 0x00, 0x00, 0x30, 0x00, 0x00, 0x00,
  0xe4, 0xe6, 0x03, 0xbf, 0x02, 0xc3, 0x05, 0x09, 0xd9, 0x0c, 0xfd, 0xf1,
  0xdb, 0xf8, 0x00, 0x03, 0x0d, 0x07, 0xe3, 0xfd, 0x02, 0x05, 0xff, 0xf3,
  0x07, 0x02, 0xbb, 0xfa, 0xf8, 0x02, 0xde, 0xc4, 0xa3, 0x90, 0xc8, 0x85,
  0x81, 0x8f, 0xd1, 0xdb, 0x0f, 0xd4, 0xd0, 0xef, 0xf8, 0xf8, 0xd9, 0xcd,
  0x16, 0xdc, 0xff, 0xff, 0x00, 0x00, 0x00, 0x09, 0x10, 0x00, 0x00, 0x00,
  0x13, 0x00, 0x00, 0x00, 0x14, 0x00, 0x00, 0x00, 0x78, 0x00, 0x00, 0x00,
  0x02, 0x00, 0x00, 0x00, 0x06, 0x00, 0x00, 0x00, 0x08, 0x00, 0x00, 0x00,
  0x63, 0x00, 0x00, 0x00, 0x73, 0x65, 0x71, 0x75, 0x65, 0x6e, 0x74, 0x69,
  0x61, 0x6c, 0x5f, 0x33, 0x2f, 0x71, 0x75, 0x61, 0x6e, 0x74, 0x5f, 0x64,
  0x65, 0x6e, 0x73, 0x65, 0x5f, 0x33, 0x2f, 0x4d, 0x61, 0x74, 0x4d, 0x75,
  0x6c, 0x3b, 0x73, 0x65, 0x71, 0x75, 0x65, 0x6e, 0x74, 0x69, 0x61, 0x6c,
  0x5f, 0x33, 0x2f, 0x71, 0x75, 0x61, 0x6e, 0x74, 0x5f, 0x64, 0x65, 0x6e,
  0x73, 0x65, 0x5f, 0x33, 0x2f, 0x4c, 0x61, 0x73, 0x74, 0x56, 0x61, 0x6c,
  0x75, 0x65, 0x51, 0x75, 0x61, 0x6e, 0x74, 0x2f, 0x46, 0x61, 0x6b, 0x65,
  0x51, 0x75, 0x61, 0x6e, 0x74, 0x57, 0x69, 0x74, 0x68, 0x4d, 0x69, 0x6e,
  0x4d, 0x61, 0x78, 0x56, 0x61, 0x72, 0x73, 0x00, 0x54, 0xdd, 0xff, 0xff,
  0x08, 0x00, 0x00, 0x00, 0x0c, 0x00, 0x00, 0x00, 0x01, 0x00, 0x00, 0x00,
  0xd3, 0x7a, 0x30, 0x3d, 0x01, 0x00, 0x00, 0x00, 0x00, 0x00, 0x00, 0x00,
  0x00, 0x00, 0x00, 0x00, 0x00, 0x00, 0x0a, 0x00, 0x10, 0x00, 0x04, 0x00,
  0x08, 0x00, 0x0c, 0x00, 0x0a, 0x00, 0x00, 0x00, 0x03, 0x00, 0x00, 0x00,
  0x10, 0x00, 0x00, 0x00, 0x04, 0x00, 0x00, 0x00, 0x01, 0x00, 0x00, 0x00,
  0x11, 0x00, 0x00, 0x00, 0x02, 0x00, 0x00, 0x00, 0x10, 0x00, 0x00, 0x00,
  0x02, 0x00, 0x00, 0x00, 0x20, 0xdf, 0xff, 0xff, 0x16, 0x00, 0x00, 0x00,
  0x00, 0x00, 0x00, 0x16, 0x01, 0x00, 0x00, 0x00, 0x14, 0xdf, 0xff, 0xff,
  0x00, 0x00, 0x00, 0x09, 0x14, 0x00, 0x00, 0x00, 0x12, 0x00, 0x00, 0x00,
  0x24, 0x00, 0x00, 0x00, 0x4c, 0x00, 0x00, 0x00, 0x10, 0x00, 0x00, 0x00,
  0x02, 0x00, 0x00, 0x00, 0x01, 0x00, 0x00, 0x00, 0x08, 0x00, 0x00, 0x00,
  0x02, 0x00, 0x00, 0x00, 0xff, 0xff, 0xff, 0xff, 0x08, 0x00, 0x00, 0x00,
  0x24, 0x00, 0x00, 0x00, 0x73, 0x65, 0x71, 0x75, 0x65, 0x6e, 0x74, 0x69,
  0x61, 0x6c, 0x5f, 0x33, 0x2f, 0x71, 0x75, 0x61, 0x6e, 0x74, 0x5f, 0x66,
  0x6c, 0x61, 0x74, 0x74, 0x65, 0x6e, 0x5f, 0x33, 0x2f, 0x52, 0x65, 0x73,
  0x68, 0x61, 0x70, 0x65, 0x00, 0x00, 0x00, 0x00, 0x14, 0xde, 0xff, 0xff,
  0x08, 0x00, 0x00, 0x00, 0x0c, 0x00, 0x00, 0x00, 0x01, 0x00, 0x00, 0x00,
  0x53, 0x52, 0xe9, 0x3c, 0x01, 0x00, 0x00, 0x00, 0x80, 0xff, 0xff, 0xff,
  0xff, 0xff, 0xff, 0xff, 0x12, 0xe6, 0xff, 0xff, 0x00, 0x00, 0x00, 0x1b,
  0x02, 0x00, 0x00, 0x00, 0x18, 0x00, 0x00, 0x00, 0x0c, 0x00, 0x00, 0x00,
  0x04, 0x00, 0x00, 0x00, 0xb8, 0xdc, 0xff, 0xff, 0x01, 0x00, 0x00, 0x00,
  0x10, 0x00, 0x00, 0x00, 0x02, 0x00, 0x00, 0x00, 0x0f, 0x00, 0x00, 0x00,
  0x01, 0x00, 0x00, 0x00, 0xe0, 0xdf, 0xff, 0xff, 0x52, 0x00, 0x00, 0x00,
  0x00, 0x00, 0x00, 0x52, 0x02, 0x00, 0x00, 0x00, 0xd4, 0xdf, 0xff, 0xff,
  0x00, 0x00, 0x00, 0x09, 0x14, 0x00, 0x00, 0x00, 0x11, 0x00, 0x00, 0x00,
  0x24, 0x00, 0x00, 0x00, 0x54, 0x00, 0x00, 0x00, 0x10, 0x00, 0x00, 0x00,
  0x02, 0x00, 0x00, 0x00, 0x01, 0x00, 0x00, 0x00, 0x08, 0x00, 0x00, 0x00,
  0x02, 0x00, 0x00, 0x00, 0xff, 0xff, 0xff, 0xff, 0x08, 0x00, 0x00, 0x00,
  0x2d, 0x00, 0x00, 0x00, 0x73, 0x65, 0x71, 0x75, 0x65, 0x6e, 0x74, 0x69,
  0x61, 0x6c, 0x5f, 0x33, 0x2f, 0x71, 0x75, 0x61, 0x6e, 0x74, 0x5f, 0x67,
  0x6c, 0x6f, 0x62, 0x61, 0x6c, 0x5f, 0x6d, 0x61, 0x78, 0x5f, 0x70, 0x6f,
  0x6f, 0x6c, 0x69, 0x6e, 0x67, 0x32, 0x64, 0x5f, 0x33, 0x2f, 0x4d, 0x61,
  0x78, 0x00, 0x00, 0x00, 0xdc, 0xde, 0xff, 0xff, 0x08, 0x00, 0x00, 0x00,
  0x0c, 0x00, 0x00, 0x00, 0x01, 0x00, 0x00, 0x00, 0x53, 0x52, 0xe9, 0x3c,
  0x01, 0x00, 0x00, 0x00, 0x80, 0xff, 0xff, 0xff, 0xff, 0xff, 0xff, 0xff,
  0xda, 0xe6, 0xff, 0xff, 0x00, 0x00, 0x00, 0x01, 0x01, 0x00, 0x00, 0x00,
  0x24, 0x00, 0x00, 0x00, 0x18, 0x00, 0x00, 0x00, 0x04, 0x00, 0x00, 0x00,
  0xcc, 0xe6, 0xff, 0xff, 0x01, 0x00, 0x00, 0x00, 0x01, 0x00, 0x00, 0x00,
  0x00, 0x00, 0x01, 0x01, 0x01, 0x00, 0x00, 0x00, 0x0f, 0x00, 0x00, 0x00,
  0x03, 0x00, 0x00, 0x00, 0x0c, 0x00, 0x00, 0x00, 0x0d, 0x00, 0x00, 0x00,
  0x0e, 0x00, 0x00, 0x00, 0x9c, 0xe0, 0xff, 0xff, 0x00, 0x00, 0x00, 0x09,
  0x14, 0x00, 0x00, 0x00, 0x10, 0x00, 0x00, 0x00, 0x34, 0x00, 0x00, 0x00,
  0xdc, 0x00, 0x00, 0x00, 0x18, 0x00, 0x00, 0x00, 0x04, 0x00, 0x00, 0x00,
  0x01, 0x00, 0x00, 0x00, 0x36, 0x00, 0x00, 0x00, 0x01, 0x00, 0x00, 0x00,
  0x08, 0x00, 0x00, 0x00, 0x04, 0x00, 0x00, 0x00, 0xff, 0xff, 0xff, 0xff,
  0x36, 0x00, 0x00, 0x00, 0x01, 0x00, 0x00, 0x00, 0x08, 0x00, 0x00, 0x00,
  0xa6, 0x00, 0x00, 0x00, 0x73, 0x65, 0x71, 0x75, 0x65, 0x6e, 0x74, 0x69,
  0x61, 0x6c, 0x5f, 0x33, 0x2f, 0x71, 0x75, 0x61, 0x6e, 0x74, 0x5f, 0x72,
  0x65, 0x5f, 0x6c, 0x75, 0x5f, 0x31, 0x35, 0x2f, 0x52, 0x65, 0x6c, 0x75,
  0x3b, 0x73, 0x65, 0x71, 0x75, 0x65, 0x6e, 0x74, 0x69, 0x61, 0x6c, 0x5f,
  0x33, 0x2f, 0x71, 0x75, 0x61, 0x6e, 0x74, 0x5f, 0x63, 0x6f, 0x6e, 0x76,
  0x32, 0x64, 0x5f, 0x31, 0x35, 0x2f, 0x42, 0x69, 0x61, 0x73, 0x41, 0x64,
  0x64, 0x3b, 0x73, 0x65, 0x71, 0x75, 0x65, 0x6e, 0x74, 0x69, 0x61, 0x6c,
  0x5f, 0x33, 0x2f, 0x71, 0x75, 0x61, 0x6e, 0x74, 0x5f, 0x63, 0x6f, 0x6e,
  0x76, 0x32, 0x64, 0x5f, 0x31, 0x35, 0x2f, 0x43, 0x6f, 0x6e, 0x76, 0x32,
  0x44, 0x3b, 0x73, 0x65, 0x71, 0x75, 0x65, 0x6e, 0x74, 0x69, 0x61, 0x6c,
  0x5f, 0x33, 0x2f, 0x71, 0x75, 0x61, 0x6e, 0x74, 0x5f, 0x63, 0x6f, 0x6e,
  0x76, 0x32, 0x64, 0x5f, 0x31, 0x35, 0x2f, 0x42, 0x69, 0x61, 0x73, 0x41,
  0x64, 0x64, 0x2f, 0x52, 0x65, 0x61, 0x64, 0x56, 0x61, 0x72, 0x69, 0x61,
  0x62, 0x6c, 0x65, 0x4f, 0x70, 0x2f, 0x72, 0x65, 0x73, 0x6f, 0x75, 0x72,
  0x63, 0x65, 0x00, 0x00, 0x2c, 0xe0, 0xff, 0xff, 0x08, 0x00, 0x00, 0x00,
  0x0c, 0x00, 0x00, 0x00, 0x01, 0x00, 0x00, 0x00, 0x53, 0x52, 0xe9, 0x3c,
  0x01, 0x00, 0x00, 0x00, 0x80, 0xff, 0xff, 0xff, 0xff, 0xff, 0xff, 0xff,
  0x00, 0x00, 0x00, 0x00, 0xba, 0xdf, 0xff, 0xff, 0x04, 0x00, 0x00, 0x00,
  0x20, 0x00, 0x00, 0x00, 0x3e, 0x00, 0x00, 0x00, 0xd0, 0x05, 0x00, 0x00,
  0xae, 0xfe, 0xff, 0xff, 0xde, 0x03, 0x00, 0x00, 0x39, 0x01, 0x00, 0x00,
  0xb1, 0x02, 0x00, 0x00, 0x04, 0x00, 0x00, 0x00, 0x65, 0xfe, 0xff, 0xff,
  0xca, 0xdf, 0xff, 0xff, 0x00, 0x00, 0x00, 0x02, 0x10, 0x00, 0x00, 0x00,
  0x0f, 0x00, 0x00, 0x00, 0x10, 0x00, 0x00, 0x00, 0x50, 0x00, 0x00, 0x00,
  0x01, 0x00, 0x00, 0x00, 0x08, 0x00, 0x00, 0x00, 0x3c, 0x00, 0x00, 0x00,
  0x73, 0x65, 0x71, 0x75, 0x65, 0x6e, 0x74, 0x69, 0x61, 0x6c, 0x5f, 0x33,
  0x2f, 0x71, 0x75, 0x61, 0x6e, 0x74, 0x5f, 0x63, 0x6f, 0x6e, 0x76, 0x32,
  0x64, 0x5f, 0x31, 0x35, 0x2f, 0x42, 0x69, 0x61, 0x73, 0x41, 0x64, 0x64,
  0x2f, 0x52, 0x65, 0x61, 0x64, 0x56, 0x61, 0x72, 0x69, 0x61, 0x62, 0x6c,
  0x65, 0x4f, 0x70, 0x2f, 0x72, 0x65, 0x73, 0x6f, 0x75, 0x72, 0x63, 0x65,
  0x00, 0x00, 0x00, 0x00, 0xe0, 0xe0, 0xff, 0xff, 0x08, 0x00, 0x00, 0x00,
  0x28, 0x00, 0x00, 0x00, 0x08, 0x00, 0x00, 0x00, 0x44, 0x73, 0xdf, 0x39,
  0x8c, 0x4e, 0x58, 0x39, 0x1c, 0xb0, 0x83, 0x39, 0xc6, 0x8d, 0x89, 0x39,
  0x4f, 0xa3, 0x66, 0x39, 0xd4, 0xaf, 0x8f, 0x39, 0xf0, 0xd0, 0xb4, 0x39,
  0x43, 0xdb, 0xa4, 0x39, 0x08, 0x00, 0x00, 0x00, 0x00, 0x00, 0x00, 0x00,
  0x00, 0x00, 0x00, 0x00, 0x00, 0x00, 0x00, 0x00, 0x00, 0x00, 0x00, 0x00,
  0x00, 0x00, 0x00, 0x00, 0x00, 0x00, 0x00, 0x00, 0x00, 0x00, 0x00, 0x00,
  0x00, 0x00, 0x00, 0x00, 0x00, 0x00, 0x00, 0x00, 0x00, 0x00, 0x00, 0x00,
  0x00, 0x00, 0x00, 0x00, 0x00, 0x00, 0x00, 0x00, 0x00, 0x00, 0x00, 0x00,
  0x00, 0x00, 0x00, 0x00, 0x00, 0x00, 0x00, 0x00, 0x00, 0x00, 0x00, 0x00,
  0x00, 0x00, 0x00, 0x00, 0xc2, 0xe0, 0xff, 0xff, 0x04, 0x00, 0x00, 0x00,
  0xc0, 0x00, 0x00, 0x00, 0xea, 0xa6, 0x13, 0xcb, 0xef, 0x8c, 0x1a, 0xb6,
  0xf0, 0xd1, 0xcd, 0xec, 0x1f, 0x07, 0x0f, 0x3b, 0x02, 0x81, 0xf9, 0x34,
  0xd7, 0xb0, 0xff, 0xf5, 0xf1, 0xba, 0xf5, 0x28, 0x35, 0xe0, 0xac, 0xb7,
  0x49, 0xbb, 0xff, 0xea, 0xa0, 0xf9, 0x1d, 0x52, 0x8e, 0xfb, 0x4c, 0xde,
  0x35, 0x9c, 0x81, 0xe9, 0xf9, 0x00, 0xce, 0x1e, 0xc9, 0xfe, 0x23, 0x0e,
  0x01, 0xe2, 0x0c, 0xca, 0xcb, 0xf1, 0xf6, 0x09, 0xf7, 0x15, 0xba, 0x1b,
  0x4a, 0x06, 0x7f, 0x07, 0x0b, 0xee, 0x0d, 0x17, 0x02, 0xf3, 0xe3, 0x86,
  0x0f, 0x0f, 0x15, 0xc2, 0xb1, 0x0d, 0x7b, 0x10, 0x8e, 0xf0, 0x27, 0xdb,
  0xb0, 0xc8, 0x81, 0xfd, 0xe1, 0x8d, 0x66, 0xb8, 0xc1, 0xd1, 0x08, 0x19,
  0xee, 0xc6, 0x7f, 0x3a, 0x1c, 0x13, 0xa6, 0xb1, 0x33, 0xe5, 0x14, 0x19,
  0x0e, 0x96, 0x4a, 0xda, 0xfb, 0xf7, 0x10, 0x08, 0x04, 0xf7, 0xf4, 0x8b,
  0xfa, 0x0e, 0x1c, 0xbe, 0xaf, 0x0b, 0x76, 0x15, 0x9e, 0xed, 0x1e, 0xe1,
  0xb8, 0xd9, 0x81, 0xf0, 0xf9, 0x13, 0xee, 0x10, 0xe9, 0xf2, 0x03, 0x09,
  0x19, 0xbf, 0x35, 0xe6, 0xd3, 0xe6, 0x3a, 0x22, 0xee, 0x0f, 0xd3, 0x28,
  0x2e, 0x04, 0x7f, 0xd9, 0x03, 0xf3, 0xa3, 0x1a, 0x17, 0x2a, 0xd3, 0x96,
  0x1c, 0x00, 0x7f, 0xcf, 0xfe, 0xfa, 0xe4, 0xff, 0xf2, 0xdb, 0xb5, 0x0b,
  0x66, 0xf0, 0xf5, 0x2f, 0x72, 0xe1, 0xff, 0xff, 0x00, 0x00, 0x00, 0x09,
  0x10, 0x00, 0x00, 0x00, 0x0e, 0x00, 0x00, 0x00, 0x1c, 0x00, 0x00, 0x00,
  0x40, 0x00, 0x00, 0x00, 0x04, 0x00, 0x00, 0x00, 0x08, 0x00, 0x00, 0x00,
  0x02, 0x00, 0x00, 0x00, 0x01, 0x00, 0x00, 0x00, 0x0c, 0x00, 0x00, 0x00,
  0x23, 0x00, 0x00, 0x00, 0x73, 0x65, 0x71, 0x75, 0x65, 0x6e, 0x74, 0x69,
  0x61, 0x6c, 0x5f, 0x33, 0x2f, 0x71, 0x75, 0x61, 0x6e, 0x74, 0x5f, 0x63,
  0x6f, 0x6e, 0x76, 0x32, 0x64, 0x5f, 0x31, 0x35, 0x2f, 0x43, 0x6f, 0x6e,
  0x76, 0x32, 0x44, 0x00, 0x78, 0xe2, 0xff, 0xff, 0x08, 0x00, 0x00, 0x00,
  0x28, 0x00, 0x00, 0x00, 0x08, 0x00, 0x00, 0x00, 0x28, 0x33, 0x8a, 0x3c,
  0x21, 0xc8, 0x05, 0x3c, 0xa0, 0xe4, 0x22, 0x3c, 0x21, 0x26, 0x2a, 0x3c,
  0x30, 0xa5, 0x0e, 0x3c, 0x3a, 0xbc, 0x31, 0x3c, 0xb2, 0xa9, 0x5f, 0x3c,
  0xde, 0xeb, 0x4b, 0x3c, 0x08, 0x00, 0x00, 0x00, 0x00, 0x00, 0x00, 0x00,
  0x00, 0x00, 0x00, 0x00, 0x00, 0x00, 0x00, 0x00, 0x00, 0x00, 0x00, 0x00,
  0x00, 0x00, 0x00, 0x00, 0x00, 0x00, 0x00, 0x00, 0x00, 0x00, 0x00, 0x00,
  0x00, 0x00, 0x00, 0x00, 0x00, 0x00, 0x00, 0x00, 0x00, 0x00, 0x00, 0x00,
  0x00, 0x00, 0x00, 0x00, 0x00, 0x00, 0x00, 0x00, 0x00, 0x00, 0x00, 0x00,
  0x00, 0x00, 0x00, 0x00, 0x00, 0x00, 0x00, 0x00, 0x00, 0x00, 0x00, 0x00,
  0xca, 0xea, 0xff, 0xff, 0x00, 0x00, 0x00, 0x01, 0x01, 0x00, 0x00, 0x00,
  0x24, 0x00, 0x00, 0x00, 0x18, 0x00, 0x00, 0x00, 0x04, 0x00, 0x00, 0x00,
  0xbc, 0xea, 0xff, 0xff, 0x01, 0x00, 0x00, 0x00, 0x01, 0x00, 0x00, 0x00,
  0x00, 0x00, 0x01, 0x01, 0x01, 0x00, 0x00, 0x00, 0x0c, 0x00, 0x00, 0x00,
  0x03, 0x00, 0x00, 0x00, 0x09, 0x00, 0x00, 0x00, 0x0a, 0x00, 0x00, 0x00,
  0x0b, 0x00, 0x00, 0x00, 0x8c, 0xe4, 0xff, 0xff, 0x00, 0x00, 0x00, 0x09,
  0x14, 0x00, 0x00, 0x00, 0x0d, 0x00, 0x00, 0x00, 0x34, 0x00, 0x00, 0x00,
  0xdc, 0x00, 0x00, 0x00, 0x18, 0x00, 0x00, 0x00, 0x04, 0x00, 0x00, 0x00,
  0x01, 0x00, 0x00, 0x00, 0x37, 0x00, 0x00, 0x00, 0x01, 0x00, 0x00, 0x00,
  0x0c, 0x00, 0x00, 0x00, 0x04, 0x00, 0x00, 0x00, 0xff, 0xff, 0xff, 0xff,
  0x37, 0x00, 0x00, 0x00, 0x01, 0x00, 0x00, 0x00, 0x0c, 0x00, 0x00, 0x00,
  0xa6, 0x00, 0x00, 0x00, 0x73, 0x65, 0x71, 0x75, 0x65, 0x6e, 0x74, 0x69,
  0x61, 0x6c, 0x5f, 0x33, 0x2f, 0x71, 0x75, 0x61, 0x6e, 0x74, 0x5f, 0x72,
  0x65, 0x5f, 0x6c, 0x75, 0x5f, 0x31, 0x34, 0x2f, 0x52, 0x65, 0x6c, 0x75,
  0x3b, 0x73, 0x65, 0x71, 0x75, 0x65, 0x6e, 0x74, 0x69, 0x61, 0x6c, 0x5f,
  0x33, 0x2f, 0x71, 0x75, 0x61, 0x6e, 0x74, 0x5f, 0x63, 0x6f, 0x6e, 0x76,
  0x32, 0x64, 0x5f, 0x31, 0x34, 0x2f, 0x42, 0x69, 0x61, 0x73, 0x41, 0x64,
  0x64, 0x3b, 0x73, 0x65, 0x71, 0x75, 0x65, 0x6e, 0x74, 0x69, 0x61, 0x6c,
  0x5f, 0x33, 0x2f, 0x71, 0x75, 0x61, 0x6e, 0x74, 0x5f, 0x63, 0x6f, 0x6e,
  0x76, 0x32, 0x64, 0x5f, 0x31, 0x34, 0x2f, 0x43, 0x6f, 0x6e, 0x76, 0x32,
  0x44, 0x3b, 0x73, 0x65, 0x71, 0x75, 0x65, 0x6e, 0x74, 0x69, 0x61, 0x6c,
  0x5f, 0x33, 0x2f, 0x71, 0x75, 0x61, 0x6e, 0x74, 0x5f, 0x63, 0x6f, 0x6e,
  0x76, 0x32, 0x64, 0x5f, 0x31, 0x34, 0x2f, 0x42, 0x69, 0x61, 0x73, 0x41,
  0x64, 0x64, 0x2f, 0x52, 0x65, 0x61, 0x64, 0x56, 0x61, 0x72, 0x69, 0x61,
  0x62, 0x6c, 0x65, 0x4f, 0x70, 0x2f, 0x72, 0x65, 0x73, 0x6f, 0x75, 0x72,
  0x63, 0x65, 0x00, 0x00, 0x1c, 0xe4, 0xff, 0xff, 0x08, 0x00, 0x00, 0x00,
  0x0c, 0x00, 0x00, 0x00, 0x01, 0x00, 0x00, 0x00, 0x61, 0xf5, 0xce, 0x3c,
  0x01, 0x00, 0x00, 0x00, 0x80, 0xff, 0xff, 0xff, 0xff, 0xff, 0xff, 0xff,
  0x00, 0x00, 0x00, 0x00, 0xaa, 0xe3, 0xff, 0xff, 0x04, 0x00, 0x00, 0x00,
  0x30, 0x00, 0x00, 0x00, 0x84, 0x05, 0x00, 0x00, 0x61, 0xff, 0xff, 0xff,
  0x34, 0x03, 0x00, 0x00, 0xc0, 0xf8, 0xff, 0xff, 0x81, 0x05, 0x00, 0x00,
  0x5a, 0xee, 0xff, 0xff, 0x3a, 0x0a, 0x00, 0x00, 0xf8, 0xfe, 0xff, 0xff,
  0x96, 0x03, 0x00, 0x00, 0x6a, 0x03, 0x00, 0x00, 0xdc, 0xfe, 0xff, 0xff,
  0x57, 0xf9, 0xff, 0xff, 0xca, 0xe3, 0xff, 0xff, 0x00, 0x00, 0x00, 0x02,
  0x10, 0x00, 0x00, 0x00, 0x0c, 0x00, 0x00, 0x00, 0x10, 0x00, 0x00, 0x00,
  0x50, 0x00, 0x00, 0x00, 0x01, 0x00, 0x00, 0x00, 0x0c, 0x00, 0x00, 0x00,
  0x3c, 0x00, 0x00, 0x00, 0x73, 0x65, 0x71, 0x75, 0x65, 0x6e, 0x74, 0x69,
  0x61, 0x6c, 0x5f, 0x33, 0x2f, 0x71, 0x75, 0x61, 0x6e, 0x74, 0x5f, 0x63,
  0x6f, 0x6e, 0x76, 0x32, 0x64, 0x5f, 0x31, 0x34, 0x2f, 0x42, 0x69, 0x61,
  0x73, 0x41, 0x64, 0x64, 0x2f, 0x52, 0x65, 0x61, 0x64, 0x56, 0x61, 0x72,
  0x69, 0x61, 0x62, 0x6c, 0x65, 0x4f, 0x70, 0x2f, 0x72, 0x65, 0x73, 0x6f,
  0x75, 0x72, 0x63, 0x65, 0x00, 0x00, 0x00, 0x00, 0xe0, 0xe4, 0xff, 0xff,
  0x08, 0x00, 0x00, 0x00, 0x38, 0x00, 0x00, 0x00, 0x0c, 0x00, 0x00, 0x00,
  0xcd, 0x5b, 0x16, 0x39, 0xfa, 0x83, 0x03, 0x39, 0x08, 0xf6, 0x87, 0x39,
  0x8a, 0x43, 0x11, 0x39, 0x6a, 0x91, 0x31, 0x39, 0x4f, 0x96, 0xca, 0x38,
  0x11, 0x50, 0x34, 0x39, 0xdd, 0xcf, 0x2c, 0x39, 0x32, 0xf2, 0xce, 0x38,
  0xd8, 0x85, 0x2b, 0x39, 0x97, 0xb0, 0x51, 0x39, 0x0c, 0x35, 0xb5, 0x38,
  0x0c, 0x00, 0x00, 0x00, 0x00, 0x00, 0x00, 0x00, 0x00, 0x00, 0x00, 0x00,
  0x00, 0x00, 0x00, 0x00, 0x00, 0x00, 0x00, 0x00, 0x00, 0x00, 0x00, 0x00,
  0x00, 0x00, 0x00, 0x00, 0x00, 0x00, 0x00, 0x00, 0x00, 0x00, 0x00, 0x00,
  0x00, 0x00, 0x00, 0x00, 0x00, 0x00, 0x00, 0x00, 0x00, 0x00, 0x00, 0x00,
  0x00, 0x00, 0x00, 0x00, 0x00, 0x00, 0x00, 0x00, 0x00, 0x00, 0x00, 0x00,
  0x00, 0x00, 0x00, 0x00, 0x00, 0x00, 0x00, 0x00, 0x00, 0x00, 0x00, 0x00,
  0x00, 0x00, 0x00, 0x00, 0x00, 0x00, 0x00, 0x00, 0x00, 0x00, 0x00, 0x00,
  0x00, 0x00, 0x00, 0x00, 0x00, 0x00, 0x00, 0x00, 0x00, 0x00, 0x00, 0x00,
  0x00, 0x00, 0x00, 0x00, 0x00, 0x00, 0x00, 0x00, 0xf2, 0xe4, 0xff, 0xff,
  0x04, 0x00, 0x00, 0x00, 0x80, 0x01, 0x00, 0x00, 0x0b, 0xa7, 0xe0, 0x11,
  0xc7, 0xe6, 0xc7, 0x1c, 0x14, 0x30, 0xfa, 0xc5, 0x19, 0x7f, 0x2d, 0xf6,
  0x55, 0x8b, 0x17, 0x36, 0x09, 0xf4, 0x9f, 0x48, 0x3b, 0xd0, 0x29, 0xd4,
  0x08, 0xed, 0xee, 0x2a, 0xe5, 0x48, 0x28, 0x16, 0x01, 0xf6, 0x54, 0xff,
  0x9c, 0x3d, 0x37, 0xb8, 0x31, 0x7f, 0x47, 0x2e, 0xe2, 0x0a, 0x0d, 0x25,
  0x56, 0x4c, 0xd7, 0x1b, 0x0b, 0x07, 0x1c, 0x03, 0xd9, 0xc5, 0xfa, 0x32,
  0x37, 0x05, 0xbd, 0x12, 0xe0, 0x81, 0x1f, 0x09, 0x23, 0xd1, 0x4b, 0x46,
  0xfa, 0x03, 0x2a, 0x09, 0xda, 0x22, 0xaa, 0x0d, 0xfa, 0x89, 0x30, 0xd9,
  0x15, 0x04, 0xe7, 0x0b, 0x1e, 0x15, 0xeb, 0xf4, 0xb2, 0xeb, 0x39, 0xec,
  0xbc, 0xd0, 0x32, 0xc1, 0x3b, 0x11, 0xfe, 0xc3, 0x32, 0xc2, 0x06, 0xf8,
  0x2c, 0x09, 0x1f, 0x41, 0x81, 0x2d, 0x0d, 0xcc, 0xda, 0x09, 0xca, 0x13,
  0xb8, 0xe9, 0xc5, 0x08, 0xcc, 0x9c, 0xd5, 0x19, 0x09, 0x02, 0xea, 0x47,
  0x11, 0x08, 0x06, 0x81, 0x09, 0x0a, 0x00, 0xe3, 0x45, 0xd0, 0x02, 0x37,
  0xea, 0xe7, 0xce, 0x26, 0x4e, 0x0c, 0x3d, 0xd1, 0x31, 0xfa, 0x10, 0xfb,
  0x13, 0x16, 0x3a, 0xc4, 0x01, 0x04, 0x35, 0x4a, 0x09, 0xf4, 0xb5, 0x01,
  0x55, 0xbe, 0xf5, 0x25, 0x09, 0x62, 0x48, 0xf9, 0xde, 0x58, 0x31, 0x3a,
  0xd5, 0x1d, 0x28, 0xe6, 0x09, 0x7f, 0x36, 0xcc, 0xf1, 0xd7, 0x1a, 0xfe,
  0xbe, 0xad, 0xf0, 0xf2, 0x12, 0xea, 0x1d, 0xf2, 0x10, 0x81, 0xfd, 0x2a,
  0xfc, 0x21, 0xd9, 0x1b, 0xf4, 0x0a, 0x0b, 0x9b, 0x23, 0x1c, 0xc5, 0xea,
  0x32, 0xc7, 0xfa, 0x03, 0x0b, 0x1a, 0x05, 0x0f, 0xcb, 0xb1, 0x05, 0x28,
  0x1b, 0x34, 0xf7, 0x19, 0x00, 0x37, 0x46, 0xf1, 0x19, 0x81, 0xfb, 0x22,
  0xff, 0xeb, 0xab, 0x46, 0xc4, 0xba, 0xea, 0x0f, 0x24, 0x06, 0xb9, 0xc1,
  0x3d, 0x22, 0xda, 0xb4, 0x34, 0xb2, 0xa2, 0x14, 0xcd, 0xf2, 0xc1, 0x3e,
  0xa9, 0x0c, 0xe6, 0x2f, 0x39, 0xe8, 0xbd, 0xe0, 0xdf, 0xe2, 0xd8, 0x42,
  0xbc, 0x15, 0x7f, 0xf1, 0x1f, 0x67, 0xaa, 0x07, 0x58, 0xdb, 0x0a, 0xf9,
  0xf9, 0xef, 0xd9, 0x08, 0x81, 0xcd, 0x0a, 0x84, 0x34, 0xf4, 0xfc, 0x18,
  0x16, 0xd8, 0xff, 0x20, 0xb6, 0xcb, 0xff, 0x05, 0x9d, 0x18, 0x9e, 0xbd,
  0x14, 0x13, 0xc0, 0xce, 0x02, 0xb8, 0x0e, 0xeb, 0xd1, 0xf7, 0x1c, 0x08,
  0xf7, 0x81, 0x9c, 0x30, 0xa5, 0x0f, 0x99, 0xe9, 0x9a, 0xb2, 0xf4, 0xe0,
  0xde, 0x04, 0x81, 0x12, 0xa4, 0x18, 0xc6, 0x1f, 0x12, 0x3f, 0xfc, 0xa7,
  0xf2, 0xbc, 0xef, 0x17, 0x65, 0x81, 0xea, 0xef, 0xd4, 0x57, 0x2e, 0x8c,
  0xee, 0x6c, 0xe6, 0x12, 0x53, 0xc9, 0x05, 0x1a, 0x78, 0x92, 0x3f, 0xd4,
  0xa1, 0x21, 0xad, 0x31, 0x9b, 0xd0, 0x13, 0x1a, 0x62, 0xe6, 0xff, 0xff,
  0x00, 0x00, 0x00, 0x09, 0x10, 0x00, 0x00, 0x00, 0x0b, 0x00, 0x00, 0x00,
  0x1c, 0x00, 0x00, 0x00, 0x40, 0x00, 0x00, 0x00, 0x04, 0x00, 0x00, 0x00,
  0x0c, 0x00, 0x00, 0x00, 0x02, 0x00, 0x00, 0x00, 0x01, 0x00, 0x00, 0x00,
  0x10, 0x00, 0x00, 0x00, 0x23, 0x00, 0x00, 0x00, 0x73, 0x65, 0x71, 0x75,
  0x65, 0x6e, 0x74, 0x69, 0x61, 0x6c, 0x5f, 0x33, 0x2f, 0x71, 0x75, 0x61,
  0x6e, 0x74, 0x5f, 0x63, 0x6f, 0x6e, 0x76, 0x32, 0x64, 0x5f, 0x31, 0x34,
  0x2f, 0x43, 0x6f, 0x6e, 0x76, 0x32, 0x44, 0x00, 0x68, 0xe7, 0xff, 0xff,
  0x08, 0x00, 0x00, 0x00, 0x38, 0x00, 0x00, 0x00, 0x0c, 0x00, 0x00, 0x00,
  0x67, 0x07, 0x28, 0x3c, 0xac, 0xf8, 0x12, 0x3c, 0x7a, 0xf0, 0x97, 0x3c,
  0xdc, 0x55, 0x22, 0x3c, 0x9e, 0x6f, 0x46, 0x3c, 0x39, 0x65, 0xe2, 0x3b,
  0xda, 0x80, 0x49, 0x3c, 0xfb, 0x1e, 0x41, 0x3c, 0x41, 0x44, 0xe7, 0x3b,
  0x2d, 0xae, 0x3f, 0x3c, 0x31, 0x55, 0x6a, 0x3c, 0xbd, 0x80, 0xca, 0x3b,
  0x0c, 0x00, 0x00, 0x00, 0x00, 0x00, 0x00, 0x00, 0x00, 0x00, 0x00, 0x00,
  0x00, 0x00, 0x00, 0x00, 0x00, 0x00, 0x00, 0x00, 0x00, 0x00, 0x00, 0x00,
  0x00, 0x00, 0x00, 0x00, 0x00, 0x00, 0x00, 0x00, 0x00, 0x00, 0x00, 0x00,
  0x00, 0x00, 0x00, 0x00, 0x00, 0x00, 0x00, 0x00, 0x00, 0x00, 0x00, 0x00,
  0x00, 0x00, 0x00, 0x00, 0x00, 0x00, 0x00, 0x00, 0x00, 0x00, 0x00, 0x00,
  0x00, 0x00, 0x00, 0x00, 0x00, 0x00, 0x00, 0x00, 0x00, 0x00, 0x00, 0x00,
  0x00, 0x00, 0x00, 0x00, 0x00, 0x00, 0x00, 0x00, 0x00, 0x00, 0x00, 0x00,
  0x00, 0x00, 0x00, 0x00, 0x00, 0x00, 0x00, 0x00, 0x00, 0x00, 0x00, 0x00,
  0x00, 0x00, 0x00, 0x00, 0xea, 0xef, 0xff, 0xff, 0x00, 0x00, 0x00, 0x01,
  0x01, 0x00, 0x00, 0x00, 0x24, 0x00, 0x00, 0x00, 0x18, 0x00, 0x00, 0x00,
  0x04, 0x00, 0x00, 0x00, 0xdc, 0xef, 0xff, 0xff, 0x01, 0x00, 0x00, 0x00,
  0x01, 0x00, 0x00, 0x00, 0x00, 0x00, 0x01, 0x01, 0x01, 0x00, 0x00, 0x00,
  0x09, 0x00, 0x00, 0x00, 0x03, 0x00, 0x00, 0x00, 0x06, 0x00, 0x00, 0x00,
  0x07, 0x00, 0x00, 0x00, 0x08, 0x00, 0x00, 0x00, 0xac, 0xe9, 0xff, 0xff,
  0x00, 0x00, 0x00, 0x09, 0x14, 0x00, 0x00, 0x00, 0x0a, 0x00, 0x00, 0x00,
  0x34, 0x00, 0x00, 0x00, 0xdc, 0x00, 0x00, 0x00, 0x18, 0x00, 0x00, 0x00,
  0x04, 0x00, 0x00, 0x00, 0x01, 0x00, 0x00, 0x00, 0x38, 0x00, 0x00, 0x00,
  0x01, 0x00, 0x00, 0x00, 0x10, 0x00, 0x00, 0x00, 0x04, 0x00, 0x00, 0x00,
  0xff, 0xff, 0xff, 0xff, 0x38, 0x00, 0x00, 0x00, 0x01, 0x00, 0x00, 0x00,
  0x10, 0x00, 0x00, 0x00, 0xa6, 0x00, 0x00, 0x00, 0x73, 0x65, 0x71, 0x75,
  0x65, 0x6e, 0x74, 0x69, 0x61, 0x6c, 0x5f, 0x33, 0x2f, 0x71, 0x75, 0x61,
  0x6e, 0x74, 0x5f, 0x72, 0x65, 0x5f, 0x6c, 0x75, 0x5f, 0x31, 0x33, 0x2f,
  0x52, 0x65, 0x6c, 0x75, 0x3b, 0x73, 0x65, 0x71, 0x75, 0x65, 0x6e, 0x74,
  0x69, 0x61, 0x6c, 0x5f, 0x33, 0x2f, 0x71, 0x75, 0x61, 0x6e, 0x74, 0x5f,
  0x63, 0x6f, 0x6e, 0x76, 0x32, 0x64, 0x5f, 0x31, 0x33, 0x2f, 0x42, 0x69,
  0x61, 0x73, 0x41, 0x64, 0x64, 0x3b, 0x73, 0x65, 0x71, 0x75, 0x65, 0x6e,
  0x74, 0x69, 0x61, 0x6c, 0x5f, 0x33, 0x2f, 0x71, 0x75, 0x61, 0x6e, 0x74,
  0x5f, 0x63, 0x6f, 0x6e, 0x76, 0x32, 0x64, 0x5f, 0x31, 0x33, 0x2f, 0x43,
  0x6f, 0x6e, 0x76, 0x32, 0x44, 0x3b, 0x73, 0x65, 0x71, 0x75, 0x65, 0x6e,
  0x74, 0x69, 0x61, 0x6c, 0x5f, 0x33, 0x2f, 0x71, 0x75, 0x61, 0x6e, 0x74,
  0x5f, 0x63, 0x6f, 0x6e, 0x76, 0x32, 0x64, 0x5f, 0x31, 0x33, 0x2f, 0x42,
  0x69, 0x61, 0x73, 0x41, 0x64, 0x64, 0x2f, 0x52, 0x65, 0x61, 0x64, 0x56,
  0x61, 0x72, 0x69, 0x61, 0x62, 0x6c, 0x65, 0x4f, 0x70, 0x2f, 0x72, 0x65,
  0x73, 0x6f, 0x75, 0x72, 0x63, 0x65, 0x00, 0x00, 0x3c, 0xe9, 0xff, 0xff,
  0x08, 0x00, 0x00, 0x00, 0x0c, 0x00, 0x00, 0x00, 0x01, 0x00, 0x00, 0x00,
  0x15, 0x14, 0x65, 0x3c, 0x01, 0x00, 0x00, 0x00, 0x80, 0xff, 0xff, 0xff,
  0xff, 0xff, 0xff, 0xff, 0x00, 0x00, 0x00, 0x00, 0xca, 0xe8, 0xff, 0xff,
  0x04, 0x00, 0x00, 0x00, 0x40, 0x00, 0x00, 0x00, 0x87, 0x03, 0x00, 0x00,
  0x24, 0xfa, 0xff, 0xff, 0xca, 0xd4, 0xff, 0xff, 0xb2, 0xfd, 0xff, 0xff,
  0x07, 0x13, 0x00, 0x00, 0x74, 0xc2, 0xff, 0xff, 0xaf, 0x07, 0x00, 0x00,
  0xd9, 0x08, 0x00, 0x00, 0xc9, 0x03, 0x00, 0x00, 0xad, 0xfd, 0xff, 0xff,
  0xb3, 0x01, 0x00, 0x00, 0x0f, 0xfd, 0xff, 0xff, 0xb9, 0xfc, 0xff, 0xff,
  0xab, 0xcf, 0xff, 0xff, 0x09, 0x02, 0x00, 0x00, 0x61, 0x04, 0x00, 0x00,
  0xfa, 0xe8, 0xff, 0xff, 0x00, 0x00, 0x00, 0x02, 0x10, 0x00, 0x00, 0x00,
  0x09, 0x00, 0x00, 0x00, 0x10, 0x00, 0x00, 0x00, 0x50, 0x00, 0x00, 0x00,
  0x01, 0x00, 0x00, 0x00, 0x10, 0x00, 0x00, 0x00, 0x3c, 0x00, 0x00, 0x00,
  0x73, 0x65, 0x71, 0x75, 0x65, 0x6e, 0x74, 0x69, 0x61, 0x6c, 0x5f, 0x33,
  0x2f, 0x71, 0x75, 0x61, 0x6e, 0x74, 0x5f, 0x63, 0x6f, 0x6e, 0x76, 0x32,
  0x64, 0x5f, 0x31, 0x33, 0x2f, 0x42, 0x69, 0x61, 0x73, 0x41, 0x64, 0x64,
  0x2f, 0x52, 0x65, 0x61, 0x64, 0x56, 0x61, 0x72, 0x69, 0x61, 0x62, 0x6c,
  0x65, 0x4f, 0x70, 0x2f, 0x72, 0x65, 0x73, 0x6f, 0x75, 0x72, 0x63, 0x65,
  0x00, 0x00, 0x00, 0x00, 0x10, 0xea, 0xff, 0xff, 0x08, 0x00, 0x00, 0x00,
  0x48, 0x00, 0x00, 0x00, 0x10, 0x00, 0x00, 0x00, 0x14, 0xec, 0x5c, 0x38,
  0x3a, 0xcf, 0x75, 0x38, 0x09, 0x6d, 0x38, 0x38, 0x92, 0x69, 0x3f, 0x38,
  0x2f, 0xee, 0x3e, 0x38, 0xd3, 0x11, 0x26, 0x38, 0x28, 0xbb, 0x62, 0x38,
  0xf8, 0x92, 0x67, 0x38, 0xa4, 0x96, 0x67, 0x38, 0xb6, 0x33, 0x48, 0x38,
  0x77, 0x50, 0x41, 0x38, 0x16, 0xda, 0x77, 0x38, 0x56, 0xac, 0x38, 0x38,
  0x40, 0x44, 0x54, 0x38, 0xc8, 0xdf, 0x38, 0x38, 0x17, 0x5f, 0x6d, 0x38,
  0x10, 0x00, 0x00, 0x00, 0x00, 0x00, 0x00, 0x00, 0x00, 0x00, 0x00, 0x00,
  0x00, 0x00, 0x00, 0x00, 0x00, 0x00, 0x00, 0x00, 0x00, 0x00, 0x00, 0x00,
  0x00, 0x00, 0x00, 0x00, 0x00, 0x00, 0x00, 0x00, 0x00, 0x00, 0x00, 0x00,
  0x00, 0x00, 0x00, 0x00, 0x00, 0x00, 0x00, 0x00, 0x00, 0x00, 0x00, 0x00,
  0x00, 0x00, 0x00, 0x00, 0x00, 0x00, 0x00, 0x00, 0x00, 0x00, 0x00, 0x00,
  0x00, 0x00, 0x00, 0x00, 0x00, 0x00, 0x00, 0x00, 0x00, 0x00, 0x00, 0x00,
  0x00, 0x00, 0x00, 0x00, 0x00, 0x00, 0x00, 0x00, 0x00, 0x00, 0x00, 0x00,
  0x00, 0x00, 0x00, 0x00, 0x00, 0x00, 0x00, 0x00, 0x00, 0x00, 0x00, 0x00,
  0x00, 0x00, 0x00, 0x00, 0x00, 0x00, 0x00, 0x00, 0x00, 0x00, 0x00, 0x00,
  0x00, 0x00, 0x00, 0x00, 0x00, 0x00, 0x00, 0x00, 0x00, 0x00, 0x00, 0x00,
  0x00, 0x00, 0x00, 0x00, 0x00, 0x00, 0x00, 0x00, 0x00, 0x00, 0x00, 0x00,
  0x00, 0x00, 0x00, 0x00, 0x52, 0xea, 0xff, 0xff, 0x04, 0x00, 0x00, 0x00,
  0x00, 0x0c, 0x00, 0x00, 0x2a, 0xf7, 0x12, 0xef, 0x0c, 0x1f, 0x2a, 0x16,
  0x2d, 0xee, 0x0c, 0xf7, 0x42, 0xe0, 0x32, 0xfc, 0x03, 0x04, 0xa0, 0xeb,
  0x30, 0x09, 0xfe, 0xff, 0xe7, 0xa3, 0xef, 0x81, 0xf6, 0xf4, 0xfa, 0x15,
  0x40, 0x15, 0xb0, 0x21, 0x26, 0xe8, 0xb2, 0xe4, 0xd0, 0xa2, 0xd1, 0xe6,
  0x8e, 0xd6, 0xf3, 0xda, 0x02, 0xee, 0x18, 0x1d, 0x0c, 0xe6, 0x10, 0xf1,
  0xde, 0xf6, 0x2a, 0xf9, 0xe4, 0xfc, 0x09, 0xff, 0xff, 0xd2, 0xdd, 0x35,
  0x07, 0xe0, 0x33, 0x34, 0x07, 0xef, 0x14, 0x01, 0x13, 0xf6, 0x16, 0x2d,
  0xa2, 0x1e, 0x10, 0x02, 0xf3, 0xee, 0x07, 0x13, 0xdf, 0xf2, 0xf8, 0xee,
  0x0d, 0xdd, 0xfe, 0x15, 0x17, 0x0d, 0x32, 0x20, 0xf0, 0x0c, 0x18, 0x05,
  0xbb, 0xca, 0xe2, 0xdd, 0x17, 0x32, 0xe2, 0xec, 0x21, 0x02, 0xd5, 0x4d,
  0x2d, 0xfa, 0xf1, 0xff, 0x12, 0xda, 0xd2, 0x92, 0x0c, 0x1d, 0xff, 0xda,
  0x1e, 0x17, 0x1c, 0x1a, 0xcd, 0x04, 0x00, 0xdb, 0x64, 0x1b, 0xf9, 0xf1,
  0xa2, 0x26, 0x8d, 0x0f, 0xf0, 0xf2, 0xb4, 0x12, 0xb8, 0xfb, 0x18, 0xc6,
  0x9c, 0xf9, 0xfb, 0xdc, 0xe0, 0x17, 0xe4, 0x18, 0x2e, 0xf8, 0x0b, 0x0c,
  0x3a, 0x08, 0xf4, 0xd7, 0xfd, 0xff, 0x03, 0xd8, 0xf8, 0x3c, 0x14, 0x13,
  0x12, 0x0b, 0xc1, 0x00, 0xd5, 0x0e, 0xf2, 0x03, 0x0f, 0xc2, 0xe9, 0xf5,
  0x33, 0xe7, 0xf9, 0xd5, 0xab, 0x13, 0x10, 0xf9, 0xc9, 0xd5, 0xd2, 0xe6,
  0xdd, 0x2a, 0x19, 0x0e, 0x47, 0xdd, 0xe5, 0xf1, 0xd2, 0xfb, 0x03, 0xfa,
  0x29, 0xea, 0x11, 0xe0, 0xfd, 0xff, 0xfb, 0xf5, 0xdf, 0xfa, 0x09, 0x25,
  0x2c, 0x17, 0x3a, 0xed, 0x05, 0x10, 0x27, 0x19, 0x2e, 0xfb, 0x01, 0x20,
  0x31, 0x0c, 0xf4, 0xdb, 0x22, 0x09, 0xe5, 0x23, 0xf9, 0xf3, 0xed, 0xf2,
  0x05, 0x02, 0x26, 0xf6, 0xd8, 0x0c, 0xd6, 0xb1, 0xf0, 0x10, 0x30, 0xc8,
  0x03, 0xdb, 0x32, 0x1e, 0x0c, 0x07, 0xb6, 0xf0, 0x0f, 0x22, 0x11, 0xf6,
  0x27, 0x1f, 0x05, 0x0a, 0x1c, 0x05, 0x05, 0x21, 0x35, 0xdf, 0x0e, 0xe7,
  0x49, 0x10, 0x2c, 0x1c, 0x05, 0xe5, 0xd2, 0x21, 0x16, 0x09, 0xb6, 0xb3,
  0xfc, 0x09, 0xb8, 0xf5, 0x01, 0x0a, 0xf1, 0xc6, 0xdd, 0x05, 0xfc, 0xf0,
  0x0c, 0x3e, 0xfa, 0x22, 0xf1, 0xdd, 0xf5, 0x29, 0xfc, 0x02, 0x0c, 0x2f,
  0xce, 0x15, 0x05, 0x12, 0x44, 0xc8, 0xf8, 0xdc, 0xe3, 0xbc, 0xf1, 0x8f,
  0xd0, 0x01, 0x32, 0x10, 0x03, 0xc7, 0xee, 0x14, 0x1a, 0xd8, 0xd0, 0x00,
  0xec, 0xfe, 0x16, 0xe8, 0x0d, 0x18, 0xb3, 0xf2, 0x01, 0xe0, 0x25, 0xbf,
  0xdc, 0xe2, 0xc8, 0xbc, 0x12, 0x01, 0xec, 0xcb, 0x0f, 0xeb, 0xe2, 0x23,
  0x0f, 0x1d, 0xce, 0x1d, 0x81, 0x03, 0x39, 0xe6, 0xb9, 0xcc, 0xf4, 0xc1,
  0x57, 0xfb, 0xe5, 0x15, 0xfe, 0x1b, 0x31, 0xd6, 0xe4, 0xf7, 0xd9, 0x1a,
  0x12, 0x2a, 0x2f, 0xed, 0x32, 0x07, 0x5f, 0xee, 0x37, 0x54, 0x09, 0x12,
  0x28, 0x20, 0x30, 0x21, 0x2c, 0x10, 0x39, 0x01, 0x05, 0x0c, 0x11, 0xe5,
  0x32, 0xbb, 0x3e, 0xfa, 0x0e, 0xea, 0x03, 0xd6, 0x1f, 0x14, 0x17, 0xf9,
  0x7f, 0xf2, 0x4d, 0xe4, 0xf6, 0xe9, 0x15, 0xf1, 0x29, 0xe8, 0x28, 0xf1,
  0x1e, 0x12, 0x20, 0xf5, 0x1c, 0x10, 0x3d, 0x27, 0x09, 0x19, 0x20, 0xf8,
  0xde, 0xf1, 0x1a, 0x40, 0x24, 0xf0, 0x1f, 0x12, 0x0f, 0x27, 0x30, 0xed,
  0xde, 0x14, 0x26, 0xec, 0xfd, 0xf4, 0x00, 0x06, 0x17, 0x07, 0xf0, 0x0f,
  0x12, 0xed, 0x32, 0x25, 0xf5, 0xfc, 0xfd, 0xfe, 0x16, 0xff, 0x07, 0x10,
  0x3b, 0x26, 0x28, 0xff, 0x12, 0x1b, 0x0a, 0x10, 0x14, 0x17, 0xf3, 0x0f,
  0x29, 0x11, 0x1d, 0xf9, 0xef, 0xda, 0x03, 0x0e, 0x0d, 0x17, 0x13, 0x09,
  0x2b, 0x00, 0x17, 0x02, 0xf1, 0xfa, 0xf2, 0x01, 0x06, 0x0f, 0x08, 0x1b,
  0x42, 0xff, 0x3b, 0x3c, 0x09, 0x19, 0x00, 0xf1, 0x05, 0x10, 0xfb, 0xf8,
  0x34, 0x42, 0x0d, 0x28, 0x07, 0x37, 0x56, 0xec, 0x2b, 0x03, 0x13, 0x07,
  0x01, 0x10, 0x30, 0x05, 0x0d, 0xf6, 0x05, 0x11, 0x14, 0x41, 0x0f, 0x46,
  0x35, 0xff, 0xfc, 0xfb, 0x17, 0xf7, 0x32, 0x1a, 0xff, 0xdc, 0x06, 0x09,
  0x15, 0xf1, 0x45, 0x29, 0xf1, 0x0f, 0xfb, 0x02, 0xff, 0x11, 0x02, 0xf1,
  0x09, 0xcb, 0xdd, 0x0a, 0x20, 0x08, 0xc8, 0x06, 0x2d, 0x19, 0x2b, 0xef,
  0x45, 0xe6, 0xcd, 0xd3, 0xf2, 0x03, 0xf1, 0xea, 0xc4, 0x0b, 0x08, 0xdc,
  0xef, 0xf3, 0xe3, 0xe9, 0xfa, 0xd5, 0xde, 0xdf, 0x10, 0x5c, 0x4d, 0xf2,
  0x81, 0x14, 0xdb, 0xec, 0x21, 0x0b, 0xcf, 0x0b, 0xf6, 0xf5, 0xf1, 0x23,
  0xf3, 0xce, 0x23, 0xe0, 0x05, 0x05, 0xfe, 0x05, 0xfb, 0x2a, 0xeb, 0x10,
  0x19, 0x39, 0xfb, 0xf1, 0xf0, 0xfd, 0xd6, 0x1c, 0xfb, 0xd8, 0x0f, 0x57,
  0x1c, 0x26, 0x11, 0x29, 0x17, 0xe9, 0x13, 0xdb, 0xfa, 0xed, 0x2e, 0xea,
  0xd3, 0x0f, 0xd7, 0xd6, 0x09, 0xf8, 0x31, 0x24, 0x16, 0xf8, 0x2a, 0xd4,
  0xe4, 0xca, 0x26, 0x16, 0x95, 0xff, 0x28, 0x43, 0xe6, 0x30, 0x0d, 0x1d,
  0xd7, 0xfd, 0x27, 0xf6, 0xd7, 0xef, 0x69, 0x0d, 0x0a, 0xe7, 0x12, 0x33,
  0xfc, 0xe0, 0x40, 0x12, 0x52, 0xee, 0x0e, 0x13, 0x0a, 0x09, 0x0c, 0xfc,
  0x09, 0xe7, 0xdc, 0xb8, 0xf9, 0x0c, 0xfa, 0x20, 0xf2, 0xed, 0x0b, 0xca,
  0xf6, 0xce, 0x1e, 0x0a, 0xa0, 0x1a, 0xd6, 0x27, 0x30, 0x15, 0xeb, 0x16,
  0x0f, 0xcd, 0x3b, 0xfc, 0xfe, 0x09, 0x16, 0x13, 0xb3, 0x0e, 0xfe, 0x9c,
  0xf0, 0xef, 0x07, 0xde, 0xdb, 0xfc, 0xe3, 0x21, 0x23, 0xfd, 0x10, 0x24,
  0xb5, 0x12, 0x22, 0xc0, 0xe6, 0x05, 0xdc, 0xc7, 0xff, 0x03, 0x10, 0xe3,
  0xe0, 0xca, 0xd3, 0xfc, 0x07, 0xca, 0xd9, 0x0f, 0xf8, 0x99, 0x0b, 0xf7,
  0x0c, 0x2a, 0xe8, 0x41, 0x0e, 0xab, 0xed, 0x97, 0xb5, 0xe7, 0x05, 0x15,
  0x03, 0x09, 0x18, 0xfa, 0x11, 0x30, 0x2f, 0xd2, 0xea, 0xd2, 0xed, 0x16,
  0x9d, 0x34, 0xd9, 0xf8, 0x0f, 0xf6, 0x0d, 0xda, 0xef, 0x0d, 0xe6, 0xf8,
  0x0d, 0x2c, 0xfc, 0x0f, 0x83, 0x04, 0xfb, 0xef, 0xcc, 0xe4, 0x09, 0x00,
  0x9c, 0xe4, 0xfc, 0x29, 0x10, 0xf6, 0xbf, 0xb5, 0xe4, 0xf9, 0xea, 0xda,
  0x19, 0xcb, 0x9f, 0xd7, 0x02, 0x01, 0xcd, 0xfb, 0xd9, 0xf8, 0x0d, 0x07,
  0x38, 0x0f, 0x06, 0xd6, 0xfb, 0x0e, 0x0d, 0xc3, 0x0e, 0x1d, 0xdf, 0xec,
  0x00, 0x31, 0x00, 0xd9, 0x97, 0x11, 0x05, 0x01, 0xfa, 0xea, 0xfe, 0x0b,
  0xe1, 0x08, 0xff, 0xd7, 0x0b, 0xeb, 0x0b, 0x09, 0x2b, 0xe1, 0xd1, 0x15,
  0x36, 0x34, 0x25, 0x1d, 0x00, 0xf6, 0x19, 0x06, 0xbc, 0x1c, 0x2c, 0x06,
  0xee, 0x38, 0x23, 0x17, 0xf4, 0xec, 0x2c, 0xda, 0x08, 0xe1, 0x24, 0x03,
  0x06, 0x21, 0x08, 0xf0, 0x22, 0x16, 0x11, 0x25, 0xf1, 0xf8, 0x1e, 0x10,
  0x1c, 0xe7, 0x19, 0x0d, 0x2c, 0xee, 0xde, 0x0f, 0x12, 0xee, 0xf7, 0xf9,
  0x05, 0x81, 0x16, 0x00, 0xf0, 0x16, 0x60, 0xdc, 0xfa, 0xf8, 0x0e, 0xe8,
  0xea, 0x12, 0x34, 0x28, 0xbe, 0x14, 0x08, 0xed, 0xc8, 0xfb, 0x0b, 0x51,
  0x20, 0x45, 0x18, 0x02, 0x58, 0xfb, 0x40, 0x05, 0x14, 0x2c, 0x04, 0xf0,
  0xf3, 0x32, 0xe3, 0xfa, 0xf0, 0x04, 0xf5, 0xfc, 0x1e, 0x03, 0x0f, 0x50,
  0x3b, 0xec, 0x1c, 0xf6, 0x66, 0xee, 0x08, 0xcc, 0x1a, 0x3e, 0xe8, 0x18,
  0x15, 0xcb, 0x0e, 0x26, 0xf1, 0xff, 0x04, 0x14, 0x1b, 0x05, 0x05, 0xd0,
  0x0f, 0x17, 0x34, 0xe7, 0x32, 0xf7, 0x25, 0x15, 0x58, 0xdd, 0x2a, 0x1c,
  0x40, 0xca, 0x3d, 0x5b, 0x0e, 0xc3, 0x27, 0x25, 0xf8, 0x21, 0x2a, 0x1f,
  0xe5, 0x15, 0xf9, 0xcc, 0x0b, 0xf0, 0x04, 0xdb, 0xf9, 0x2c, 0xe0, 0xf1,
  0x73, 0x08, 0x47, 0x20, 0x05, 0xed, 0x55, 0x0c, 0x19, 0x04, 0x25, 0x03,
  0x13, 0x42, 0xe6, 0x05, 0x29, 0xdb, 0x12, 0x00, 0x3b, 0x10, 0xf6, 0xf0,
  0x19, 0x0d, 0x15, 0x05, 0xea, 0xfe, 0x07, 0xcd, 0xec, 0x46, 0x0d, 0x1b,
  0x01, 0x42, 0x28, 0x02, 0x6c, 0xfc, 0x1b, 0xae, 0x19, 0xe7, 0xd2, 0xf2,
  0x81, 0xd5, 0xa9, 0x53, 0x11, 0xf5, 0x26, 0xfd, 0xdf, 0x32, 0x2c, 0x3f,
  0x36, 0x3b, 0x1a, 0x00, 0xe3, 0xf5, 0x20, 0x1c, 0x1e, 0xba, 0x39, 0xfc,
  0x01, 0x22, 0x38, 0xe7, 0xe3, 0xfd, 0x19, 0xc4, 0xe7, 0x21, 0x2f, 0x2e,
  0x0e, 0xfc, 0xb0, 0xe3, 0x07, 0x0a, 0x02, 0x30, 0xd8, 0x06, 0x03, 0x17,
  0x41, 0xcf, 0x82, 0x97, 0xd3, 0x15, 0x0b, 0x02, 0xcf, 0xd2, 0x03, 0x28,
  0xe3, 0x3f, 0x18, 0xea, 0x4f, 0x0e, 0x08, 0x06, 0xf1, 0xfb, 0x07, 0x11,
  0x0b, 0x09, 0x09, 0x0f, 0xf8, 0xbc, 0xf4, 0x07, 0x21, 0x20, 0xec, 0x10,
  0x05, 0xd5, 0xfd, 0xfb, 0x0f, 0x13, 0x33, 0xec, 0x1e, 0xda, 0xc2, 0x02,
  0x07, 0xfd, 0x06, 0xc1, 0xe2, 0x01, 0x01, 0x16, 0xea, 0x21, 0xbd, 0x20,
  0xfc, 0x00, 0x1c, 0xcb, 0x4d, 0x12, 0xfa, 0xea, 0x33, 0xef, 0x16, 0x01,
  0x25, 0xf9, 0x2a, 0xf7, 0xcd, 0x14, 0xbe, 0x0b, 0xfa, 0x02, 0xde, 0xf4,
  0x00, 0xf2, 0x06, 0xf5, 0x04, 0x0a, 0x2b, 0x03, 0x04, 0xeb, 0xcf, 0xfa,
  0x0f, 0xef, 0x14, 0xf6, 0x0b, 0xe5, 0xb9, 0xfc, 0xd1, 0xfe, 0xf2, 0x13,
  0x07, 0x36, 0x11, 0x23, 0x41, 0x0c, 0xf2, 0xe4, 0x1b, 0x0c, 0x41, 0xd9,
  0x23, 0x03, 0xd6, 0x06, 0x18, 0xe6, 0xca, 0x06, 0x05, 0xf3, 0xfc, 0x32,
  0xe9, 0xff, 0xe2, 0xf2, 0x02, 0xf2, 0xcc, 0xe3, 0xff, 0xbb, 0x0a, 0xce,
  0x2b, 0x0d, 0xb8, 0xd4, 0x11, 0xcb, 0xd2, 0x23, 0x21, 0x1b, 0x0b, 0x0e,
  0xe4, 0x48, 0xe9, 0x11, 0x20, 0xdb, 0xc2, 0xb7, 0x06, 0xf1, 0xd6, 0x81,
  0x25, 0x13, 0xe0, 0x19, 0xf0, 0xe8, 0xf2, 0x03, 0x2b, 0xde, 0xf8, 0xf2,
  0xef, 0xff, 0xe3, 0x0f, 0x1e, 0xd9, 0xdf, 0xb1, 0xed, 0xeb, 0xa6, 0xee,
  0x03, 0x06, 0xdb, 0xef, 0xe3, 0x08, 0xeb, 0xdb, 0x02, 0x1b, 0xfd, 0x26,
  0x55, 0xfd, 0x2b, 0x27, 0xf9, 0xe7, 0x3b, 0xf1, 0x02, 0x17, 0x1b, 0xf8,
  0x2d, 0x28, 0xcf, 0xdc, 0x27, 0xbb, 0x08, 0xf0, 0xfb, 0xdb, 0x04, 0x1f,
  0x14, 0x09, 0xf5, 0xe7, 0xf5, 0xf1, 0xe5, 0xcb, 0x05, 0xe5, 0xeb, 0xfe,
  0x3e, 0xf7, 0x4c, 0x24, 0xee, 0x23, 0x1d, 0x05, 0x02, 0xc7, 0xe1, 0x0f,
  0x26, 0xc8, 0x13, 0x1e, 0xdd, 0xf8, 0xf6, 0x1a, 0xf3, 0xff, 0xe0, 0xfd,
  0x26, 0x0c, 0xf5, 0x13, 0xff, 0xea, 0x13, 0xe2, 0xcc, 0x08, 0xfd, 0x32,
  0x34, 0xf9, 0x1c, 0x18, 0xdc, 0x00, 0x09, 0xf6, 0x0a, 0x0d, 0xf2, 0xea,
  0x46, 0xe8, 0x1d, 0x36, 0x0d, 0xfc, 0xf6, 0x02, 0x17, 0xfd, 0x31, 0x0b,
  0x10, 0x0d, 0x37, 0x02, 0x10, 0xfc, 0x12, 0xf0, 0xe0, 0x07, 0xe7, 0x12,
  0xd5, 0x13, 0x4c, 0x05, 0x0b, 0xde, 0x14, 0xce, 0x0a, 0xda, 0x01, 0x4d,
  0x14, 0xb4, 0x15, 0x16, 0x0b, 0xfb, 0x30, 0xcb, 0x0a, 0xe8, 0x02, 0xc1,
  0x16, 0xfc, 0x25, 0x00, 0x18, 0x1c, 0x2b, 0xd4, 0xe3, 0xb5, 0x0d, 0xdf,
  0xf2, 0xb6, 0x08, 0xf6, 0xf2, 0x2b, 0x32, 0xfe, 0xf4, 0x09, 0x20, 0x0e,
  0x09, 0x0f, 0x31, 0xfa, 0xff, 0xf8, 0x08, 0xba, 0xda, 0x81, 0xf6, 0x10,
  0x24, 0x9b, 0x13, 0x0a, 0xb4, 0xff, 0x1f, 0xe2, 0xfd, 0xda, 0xfa, 0xf5,
  0xe4, 0x18, 0x20, 0xd9, 0x10, 0x1b, 0x25, 0xf5, 0xc8, 0xe9, 0xfb, 0xf6,
  0xe5, 0x1e, 0x19, 0x02, 0x15, 0x21, 0xeb, 0xfa, 0xa3, 0xc1, 0xe3, 0xfd,
  0x03, 0xf5, 0x1b, 0x19, 0x0a, 0xef, 0xf9, 0xf5, 0xf7, 0xce, 0xd3, 0xe4,
  0x1d, 0xb1, 0xdd, 0x07, 0xc5, 0xfb, 0xad, 0x08, 0xef, 0xdb, 0xc5, 0x1d,
  0x0f, 0xf7, 0xf1, 0xc5, 0xfb, 0x1a, 0x04, 0xf5, 0xf5, 0x1b, 0xd2, 0xf4,
  0xf5, 0xfe, 0x0f, 0xcb, 0x20, 0x08, 0xbe, 0xd4, 0x20, 0x25, 0xef, 0xfe,
  0x14, 0x0f, 0xe4, 0x02, 0x01, 0xff, 0xf3, 0x07, 0xed, 0xd4, 0xf9, 0x1d,
  0x4b, 0x13, 0x11, 0x27, 0xf6, 0xf1, 0x0f, 0xed, 0x0f, 0x24, 0x05, 0xf5,
  0xec, 0xf3, 0x12, 0xeb, 0x06, 0xf4, 0x0e, 0x16, 0xd8, 0x0d, 0x0b, 0x1d,
  0x31, 0xda, 0x3e, 0xfc, 0x2b, 0xe7, 0xcc, 0xac, 0x28, 0x09, 0xe0, 0xff,
  0x05, 0x06, 0x07, 0x11, 0x11, 0x0f, 0xda, 0x11, 0x1d, 0x3e, 0x03, 0x81,
  0x06, 0x1d, 0x0e, 0x0b, 0xd9, 0xd0, 0xf4, 0x03, 0x24, 0x04, 0xf2, 0xe5,
  0x7a, 0x29, 0x3c, 0xee, 0xfc, 0xf0, 0xec, 0x19, 0xe6, 0xe2, 0xd7, 0x25,
  0x0b, 0x02, 0x12, 0x17, 0x09, 0x09, 0xfe, 0xd5, 0x03, 0x07, 0xc2, 0xd7,
  0xf6, 0x23, 0xc7, 0x13, 0xef, 0xfe, 0x29, 0x37, 0x0c, 0x06, 0x0b, 0xa9,
  0xdc, 0x11, 0x20, 0xea, 0x40, 0xd2, 0x88, 0xe8, 0x95, 0x22, 0xaf, 0xee,
  0xd2, 0xd4, 0x32, 0x08, 0x81, 0xfe, 0x17, 0xe4, 0x01, 0x03, 0xe3, 0x20,
  0x23, 0x28, 0x31, 0x12, 0x20, 0x0f, 0xf1, 0xf5, 0x1a, 0x07, 0xe9, 0xff,
  0xdb, 0xc7, 0x09, 0x23, 0x07, 0x03, 0x9d, 0xde, 0xec, 0xbe, 0xf7, 0x10,
  0x3a, 0xc4, 0x07, 0xfb, 0x00, 0x16, 0x2d, 0x1f, 0x06, 0xf1, 0xed, 0x03,
  0xef, 0xd4, 0xf6, 0xe9, 0x27, 0x09, 0xdf, 0x14, 0x02, 0xf6, 0xf1, 0x15,
  0x1f, 0x31, 0xf1, 0xf3, 0xfe, 0x0d, 0x3e, 0x17, 0x02, 0x00, 0xe5, 0x11,
  0x45, 0x2e, 0x40, 0x31, 0x08, 0x0b, 0xaa, 0x27, 0x37, 0xfc, 0x1d, 0xf4,
  0xf6, 0xfb, 0x19, 0xff, 0x20, 0x24, 0xf6, 0xe6, 0x0c, 0x04, 0xf1, 0xdb,
  0x16, 0x1c, 0x1d, 0xd3, 0x19, 0xde, 0x14, 0x16, 0x19, 0xf2, 0x0f, 0xc7,
  0xfc, 0x0c, 0xee, 0x0e, 0x99, 0xff, 0x13, 0xce, 0xf8, 0x0c, 0x1d, 0xd0,
  0xfa, 0x07, 0xa5, 0x29, 0x20, 0xfa, 0x1e, 0x13, 0x25, 0x07, 0x0a, 0x20,
  0x0c, 0xd1, 0x13, 0x0b, 0x06, 0xc5, 0xd1, 0x1f, 0x04, 0x08, 0xd0, 0xaa,
  0xad, 0xf4, 0xea, 0x2b, 0x01, 0xfb, 0x30, 0x02, 0x27, 0x52, 0xe7, 0x11,
  0x25, 0x34, 0x0f, 0xfd, 0x28, 0x33, 0xfd, 0x0a, 0x06, 0xf8, 0x29, 0xc2,
  0x95, 0xe7, 0x16, 0xe6, 0xe8, 0xf6, 0x1f, 0xf7, 0x0c, 0xfc, 0x06, 0x2c,
  0xeb, 0x01, 0xe7, 0x19, 0xcc, 0x0c, 0xf3, 0xf5, 0xad, 0xf1, 0x56, 0x2a,
  0x3c, 0xf7, 0x14, 0x20, 0x0d, 0x2c, 0x0e, 0xf9, 0x81, 0x9c, 0x0d, 0xed,
  0xb7, 0x16, 0x3a, 0xf0, 0x1a, 0x04, 0x35, 0x18, 0xdf, 0xd1, 0xfa, 0x27,
  0xf7, 0x2e, 0xe4, 0xe3, 0xea, 0xc2, 0x08, 0xd2, 0x08, 0x1e, 0x2a, 0x34,
  0x53, 0x9d, 0xf2, 0x0e, 0xa6, 0xee, 0xd7, 0xdd, 0xf2, 0xeb, 0x12, 0xfa,
  0xae, 0x1c, 0xad, 0x96, 0xb3, 0x29, 0xee, 0x21, 0xfa, 0xf3, 0xc1, 0xca,
  0xe4, 0x12, 0xf3, 0xeb, 0xdc, 0xe8, 0xef, 0xed, 0xfb, 0xfd, 0xba, 0x1a,
  0x09, 0xd0, 0x26, 0xd3, 0x14, 0xf9, 0xea, 0xb3, 0xac, 0x1b, 0xf9, 0x28,
  0x02, 0xdc, 0x49, 0x1e, 0xf8, 0xe5, 0x04, 0xf1, 0x0f, 0xf7, 0xe3, 0xfb,
  0xfc, 0x0b, 0xea, 0x9b, 0x06, 0x06, 0x27, 0x0c, 0xeb, 0xbf, 0xf4, 0xe4,
  0x0e, 0x28, 0x37, 0xff, 0x63, 0x16, 0xd8, 0x1d, 0xff, 0x24, 0x13, 0x0b,
  0x0f, 0x08, 0x29, 0x10, 0xf5, 0xeb, 0x20, 0xa3, 0x09, 0xd7, 0x03, 0x25,
  0x34, 0xb7, 0xe0, 0x2b, 0xd1, 0x0a, 0x49, 0xfd, 0x37, 0xce, 0xf3, 0xbc,
  0x3c, 0x04, 0x2d, 0xe5, 0x28, 0xfb, 0xd7, 0x14, 0xfd, 0xf6, 0x02, 0xae,
  0xd1, 0x21, 0xdc, 0xf6, 0xd9, 0x08, 0xa0, 0xdb, 0xd1, 0xec, 0x22, 0xf9,
  0x4b, 0x0d, 0x1e, 0xe2, 0xc1, 0xd3, 0xcd, 0xcc, 0xda, 0xf6, 0x13, 0x14,
  0x39, 0x08, 0x03, 0x00, 0xd3, 0x11, 0x0f, 0xc2, 0xc5, 0xe9, 0xf0, 0xf1,
  0xfe, 0x06, 0x58, 0x40, 0x00, 0xf1, 0x17, 0x81, 0xee, 0x2b, 0xf2, 0x04,
  0x3c, 0x07, 0x39, 0x06, 0xd8, 0x07, 0x45, 0x04, 0x03, 0x0c, 0xd4, 0xd6,
  0xf4, 0xfa, 0x11, 0xaf, 0x29, 0xaf, 0x0d, 0xc4, 0x46, 0xcc, 0x44, 0x2a,
  0x2e, 0xc5, 0xfa, 0x11, 0x08, 0x03, 0xf6, 0xd7, 0xf1, 0x09, 0x94, 0x08,
  0xf9, 0xe1, 0xf8, 0xc6, 0x04, 0xff, 0x23, 0xe2, 0xf7, 0x17, 0xee, 0xfc,
  0x0d, 0x1c, 0x25, 0x9d, 0xf6, 0xfd, 0xfd, 0xf6, 0x0a, 0xfc, 0x09, 0x10,
  0xf2, 0xd7, 0x1a, 0xe9, 0x28, 0xe3, 0xe7, 0xe2, 0xf9, 0xa9, 0xe7, 0x0a,
  0xf9, 0xe9, 0x11, 0xf8, 0xee, 0xfa, 0xcd, 0xd2, 0x21, 0x24, 0xe2, 0xea,
  0x15, 0xff, 0x17, 0x19, 0xe8, 0x1b, 0x3c, 0xfa, 0xdf, 0x08, 0xeb, 0xf4,
  0x02, 0xe7, 0x2b, 0xf0, 0x14, 0x10, 0xe2, 0x07, 0x42, 0x0f, 0xf1, 0x18,
  0x0d, 0xf5, 0x14, 0x0f, 0x4a, 0xc1, 0xc2, 0x94, 0xf4, 0x22, 0x19, 0xb6,
  0x32, 0x32, 0x07, 0x0a, 0xf4, 0x21, 0x0e, 0xd5, 0x15, 0x0b, 0x14, 0xe6,
  0x1c, 0x41, 0xd1, 0xfd, 0xf3, 0x12, 0xff, 0x06, 0xef, 0x09, 0x05, 0xf9,
  0x0e, 0x26, 0x30, 0xfe, 0x09, 0xdf, 0xf3, 0xed, 0x13, 0xeb, 0x04, 0xd0,
  0x00, 0x28, 0x04, 0x00, 0x16, 0xfe, 0xdc, 0xa3, 0xfa, 0x33, 0x11, 0x48,
  0x07, 0x09, 0x0f, 0x0f, 0x1a, 0xfd, 0x17, 0xd7, 0xfd, 0xe4, 0xdd, 0xc7,
  0xe3, 0x08, 0xbd, 0x2b, 0xf3, 0x1a, 0x26, 0x03, 0xf8, 0xe0, 0x05, 0xec,
  0xb9, 0xf5, 0x13, 0x2d, 0xe2, 0x0b, 0xbc, 0x25, 0x27, 0x25, 0xec, 0x2e,
  0x1f, 0x13, 0x2b, 0xfd, 0x1d, 0x2a, 0x36, 0x20, 0x0a, 0x1f, 0x81, 0x09,
  0xcf, 0x1c, 0xef, 0x2e, 0xd9, 0x0b, 0x0e, 0xe7, 0x14, 0x34, 0xfb, 0xea,
  0x5a, 0xf6, 0x3d, 0x11, 0xd4, 0x28, 0x1f, 0x22, 0x28, 0xe7, 0x1f, 0x0a,
  0xf9, 0x0f, 0x0d, 0x2f, 0x13, 0xef, 0xcc, 0xf1, 0x52, 0x0d, 0xe2, 0x13,
  0xed, 0x34, 0xcd, 0xdc, 0x14, 0xe8, 0xdd, 0xe5, 0x0f, 0x0d, 0x1d, 0xf9,
  0x46, 0x32, 0x06, 0x0c, 0x2c, 0xfa, 0xea, 0x04, 0x1c, 0x15, 0xf4, 0x13,
  0xf3, 0x35, 0xf7, 0x05, 0x19, 0xef, 0xc1, 0xf9, 0xd7, 0xef, 0x2b, 0x2f,
  0xf3, 0xed, 0x21, 0x20, 0xc9, 0xce, 0xfe, 0x0a, 0x0c, 0x12, 0xdf, 0xf3,
  0xf9, 0x24, 0xf7, 0xe7, 0x12, 0x12, 0x08, 0x00, 0x2d, 0xd1, 0x11, 0x49,
  0xf5, 0x06, 0x1b, 0x04, 0xdc, 0xf2, 0xfb, 0xf3, 0xc6, 0xce, 0x8c, 0xe4,
  0x34, 0xcc, 0x03, 0x2b, 0xec, 0x00, 0x06, 0x1e, 0x1b, 0x10, 0xd9, 0xeb,
  0xef, 0xca, 0xc9, 0xf9, 0xf5, 0xfe, 0xd0, 0x36, 0xe0, 0x2f, 0x88, 0x26,
  0xe5, 0xe2, 0xe8, 0x1c, 0x05, 0x30, 0x41, 0xfb, 0xe5, 0xf1, 0xc5, 0x83,
  0xed, 0xe0, 0x19, 0xf0, 0xd5, 0x20, 0xe1, 0xd8, 0xd7, 0x07, 0xc8, 0xf0,
  0xac, 0xb1, 0xe6, 0xfa, 0x03, 0x01, 0x2b, 0xf3, 0x05, 0x17, 0x9e, 0xde,
  0x23, 0x18, 0x26, 0xf1, 0xea, 0xf1, 0x0b, 0xca, 0xfb, 0xc4, 0x22, 0xe7,
  0x02, 0xc9, 0x35, 0x3c, 0x30, 0xd8, 0x06, 0xe8, 0x51, 0x14, 0x2e, 0x3f,
  0xfe, 0x17, 0x30, 0x01, 0xe1, 0xe8, 0xa5, 0x07, 0x01, 0x28, 0xf5, 0xc3,
  0x19, 0x39, 0x14, 0x1c, 0xfb, 0xe2, 0x04, 0xfe, 0x0b, 0xac, 0xfa, 0x57,
  0x10, 0x19, 0x46, 0xdd, 0x1a, 0xc6, 0x2f, 0x10, 0xf9, 0x0e, 0xf0, 0xfd,
  0x56, 0xf4, 0x4b, 0xf7, 0x01, 0xf5, 0x1a, 0xfc, 0x5c, 0x1b, 0xf3, 0x29,
  0x1c, 0xf5, 0x15, 0x07, 0xd9, 0xeb, 0x0c, 0x16, 0x04, 0xf4, 0xfe, 0xfc,
  0xee, 0xcf, 0x26, 0x3d, 0x11, 0xfa, 0xfd, 0xa0, 0xfc, 0x33, 0xcc, 0x11,
  0xf4, 0x1a, 0x04, 0x09, 0xd3, 0xe6, 0x1a, 0xf3, 0xf2, 0x1c, 0xee, 0xf7,
  0x45, 0xde, 0xd0, 0xf7, 0x1e, 0xf0, 0x1a, 0xe7, 0x0e, 0x11, 0xd4, 0x3e,
  0x0b, 0x2a, 0x19, 0x08, 0x13, 0x09, 0x03, 0xe7, 0xe6, 0x1d, 0x81, 0x08,
  0x3a, 0x02, 0x98, 0x09, 0x1e, 0xde, 0x48, 0xd0, 0x36, 0x00, 0xb6, 0xb9,
  0x24, 0x02, 0x16, 0xa5, 0x1d, 0xf1, 0x20, 0xe3, 0xb1, 0xea, 0xe5, 0x15,
  0xb7, 0x0a, 0x2b, 0x12, 0x1c, 0xd6, 0x16, 0xf9, 0x13, 0xf6, 0x25, 0x23,
  0xdf, 0x42, 0x21, 0xf5, 0x3b, 0xee, 0x3b, 0xf0, 0x24, 0x1a, 0xae, 0xfc,
  0x21, 0x27, 0x14, 0x37, 0x05, 0x4c, 0x0b, 0xf7, 0xbc, 0x9a, 0x14, 0x19,
  0xd7, 0xc9, 0xcc, 0x27, 0x9d, 0x17, 0x02, 0x09, 0xef, 0xf7, 0x03, 0xf3,
  0xfd, 0x28, 0x47, 0xec, 0x26, 0x9c, 0xed, 0xe0, 0x4e, 0x00, 0xec, 0xfa,
  0x15, 0xe8, 0x0f, 0x13, 0xbd, 0x07, 0xfc, 0xbb, 0xec, 0x0d, 0x35, 0x11,
  0xc7, 0xf9, 0xc3, 0xc0, 0x05, 0x0d, 0xcb, 0x0c, 0x25, 0x44, 0xd6, 0xff,
  0x14, 0xf5, 0xfb, 0x11, 0x37, 0xff, 0xed, 0x19, 0xf0, 0x30, 0x21, 0xf6,
  0xe0, 0x08, 0xec, 0x13, 0xe0, 0x22, 0x17, 0x0f, 0xb0, 0x19, 0xb7, 0xf5,
  0x1c, 0xb8, 0x5c, 0x01, 0x30, 0x07, 0xfe, 0xbe, 0x08, 0x53, 0x42, 0xf3,
  0xdf, 0xec, 0xeb, 0x08, 0x07, 0x07, 0x20, 0xf0, 0xb3, 0x47, 0x29, 0xf7,
  0x06, 0x94, 0x14, 0xe7, 0x4b, 0xdf, 0xe9, 0xf6, 0x1d, 0x16, 0x37, 0xe3,
  0xfd, 0xf7, 0x11, 0xe7, 0x1d, 0x19, 0xea, 0xfa, 0x07, 0x1d, 0x01, 0x11,
  0x23, 0xed, 0xdc, 0x24, 0xf4, 0x00, 0xee, 0x1a, 0xfe, 0xf5, 0x2f, 0xed,
  0x22, 0x2a, 0xfd, 0xb4, 0x06, 0x04, 0x37, 0x0a, 0xfc, 0xbd, 0xf5, 0xfe,
  0x12, 0x9d, 0x02, 0x14, 0xf6, 0x54, 0x1d, 0xee, 0xd9, 0x32, 0x1d, 0xf0,
  0x38, 0x34, 0x4f, 0x81, 0x2a, 0xc7, 0x31, 0x02, 0x17, 0x26, 0x22, 0xd1,
  0x0b, 0xec, 0x04, 0xfb, 0xcc, 0xdf, 0xe3, 0xc9, 0x00, 0x01, 0x32, 0x36,
  0xdc, 0x1a, 0x2c, 0x0b, 0x09, 0x05, 0xf3, 0x11, 0xff, 0xf3, 0xd4, 0xfe,
  0xe5, 0x01, 0xf8, 0x35, 0x0e, 0x12, 0xe3, 0x0e, 0x08, 0x03, 0x29, 0x17,
  0x08, 0x13, 0xe5, 0xe1, 0x24, 0x03, 0x30, 0xe7, 0x46, 0x1a, 0x22, 0x00,
  0x01, 0xc5, 0x15, 0x0e, 0x06, 0xf2, 0x02, 0x14, 0xf3, 0xf0, 0x11, 0x10,
  0xe6, 0x1b, 0xeb, 0x94, 0x0b, 0xfb, 0x1b, 0x0d, 0x2c, 0xce, 0xcf, 0x24,
  0xef, 0x11, 0xf7, 0xef, 0x2e, 0xef, 0xfe, 0xfd, 0xdd, 0xf9, 0x09, 0xfc,
  0xb5, 0x00, 0xcb, 0xff, 0x18, 0x2b, 0x19, 0x21, 0xdf, 0x12, 0xf6, 0xf1,
  0xe1, 0x05, 0x1a, 0x13, 0x18, 0x01, 0xf6, 0x07, 0xe7, 0xef, 0x12, 0xfe,
  0xe4, 0x18, 0x16, 0x05, 0x15, 0xef, 0x21, 0x02, 0xea, 0xcd, 0xe4, 0xe1,
  0x0f, 0x2c, 0x03, 0x1e, 0x27, 0x0d, 0xed, 0x05, 0x09, 0x12, 0x02, 0xf5,
  0xf3, 0x02, 0x06, 0xdc, 0x08, 0x1a, 0x03, 0xee, 0x02, 0xd6, 0x0b, 0xec,
  0x0c, 0xe5, 0xf5, 0x0b, 0xee, 0x2a, 0x10, 0x12, 0x02, 0xdb, 0xfe, 0x13,
  0x1d, 0x00, 0x26, 0xd2, 0x12, 0xf0, 0xee, 0x0c, 0x18, 0x81, 0xe6, 0xfb,
  0xd6, 0x0f, 0xf4, 0x00, 0x2d, 0x14, 0x01, 0xf1, 0xfb, 0xfb, 0xf7, 0x03,
  0xf6, 0xff, 0xdf, 0xd7, 0x04, 0xf1, 0xed, 0x1d, 0xf2, 0xdb, 0x01, 0xf5,
  0xf6, 0x0b, 0x21, 0xdf, 0xdf, 0x09, 0x1d, 0xcc, 0xdd, 0x06, 0xfe, 0xfa,
  0xbd, 0x01, 0x14, 0x06, 0x42, 0xf6, 0xff, 0xff, 0x00, 0x00, 0x00, 0x09,
  0x10, 0x00, 0x00, 0x00, 0x08, 0x00, 0x00, 0x00, 0x1c, 0x00, 0x00, 0x00,
  0x40, 0x00, 0x00, 0x00, 0x04, 0x00, 0x00, 0x00, 0x10, 0x00, 0x00, 0x00,
  0x04, 0x00, 0x00, 0x00, 0x02, 0x00, 0x00, 0x00, 0x18, 0x00, 0x00, 0x00,
  0x23, 0x00, 0x00, 0x00, 0x73, 0x65, 0x71, 0x75, 0x65, 0x6e, 0x74, 0x69,
  0x61, 0x6c, 0x5f, 0x33, 0x2f, 0x71, 0x75, 0x61, 0x6e, 0x74, 0x5f, 0x63,
  0x6f, 0x6e, 0x76, 0x32, 0x64, 0x5f, 0x31, 0x33, 0x2f, 0x43, 0x6f, 0x6e,
  0x76, 0x32, 0x44, 0x00, 0x48, 0xf7, 0xff, 0xff, 0x08, 0x00, 0x00, 0x00,
  0x48, 0x00, 0x00, 0x00, 0x10, 0x00, 0x00, 0x00, 0xcb, 0x0d, 0x5f, 0x3c,
  0x6b, 0x2e, 0x78, 0x3c, 0x99, 0x34, 0x3a, 0x3c, 0x64, 0x42, 0x41, 0x3c,
  0xd0, 0xc5, 0x40, 0x3c, 0x0b, 0xac, 0x27, 0x3c, 0x37, 0xeb, 0x64, 0x3c,
  0xfe, 0xce, 0x69, 0x3c, 0xb3, 0xd2, 0x69, 0x3c, 0x3d, 0x22, 0x4a, 0x3c,
  0xfb, 0x2d, 0x43, 0x3c, 0x52, 0x3e, 0x7a, 0x3c, 0x82, 0x74, 0x3a, 0x3c,
  0x95, 0x50, 0x56, 0x3c, 0x73, 0xa8, 0x3a, 0x3c, 0x70, 0xa9, 0x6f, 0x3c,
  0x10, 0x00, 0x00, 0x00, 0x00, 0x00, 0x00, 0x00, 0x00, 0x00, 0x00, 0x00,
  0x00, 0x00, 0x00, 0x00, 0x00, 0x00, 0x00, 0x00, 0x00, 0x00, 0x00, 0x00,
  0x00, 0x00, 0x00, 0x00, 0x00, 0x00, 0x00, 0x00, 0x00, 0x00, 0x00, 0x00,
  0x00, 0x00, 0x00, 0x00, 0x00, 0x00, 0x00, 0x00, 0x00, 0x00, 0x00, 0x00,
  0x00, 0x00, 0x00, 0x00, 0x00, 0x00, 0x00, 0x00, 0x00, 0x00, 0x00, 0x00,
  0x00, 0x00, 0x00, 0x00, 0x00, 0x00, 0x00, 0x00, 0x00, 0x00, 0x00, 0x00,
  0x00, 0x00, 0x00, 0x00, 0x00, 0x00, 0x00, 0x00, 0x00, 0x00, 0x00, 0x00,
  0x00, 0x00, 0x00, 0x00, 0x00, 0x00, 0x00, 0x00, 0x00, 0x00, 0x00, 0x00,
  0x00, 0x00, 0x00, 0x00, 0x00, 0x00, 0x00, 0x00, 0x00, 0x00, 0x00, 0x00,
  0x00, 0x00, 0x00, 0x00, 0x00, 0x00, 0x00, 0x00, 0x00, 0x00, 0x00, 0x00,
  0x00, 0x00, 0x00, 0x00, 0x00, 0x00, 0x00, 0x00, 0x00, 0x00, 0x00, 0x00,
  0x00, 0x00, 0x00, 0x00, 0x00, 0x00, 0x0e, 0x00, 0x18, 0x00, 0x08, 0x00,
  0x0c, 0x00, 0x10, 0x00, 0x07, 0x00, 0x14, 0x00, 0x0e, 0x00, 0x00, 0x00,
  0x00, 0x00, 0x00, 0x01, 0x01, 0x00, 0x00, 0x00, 0x30, 0x00, 0x00, 0x00,
  0x24, 0x00, 0x00, 0x00, 0x10, 0x00, 0x00, 0x00, 0x0c, 0x00, 0x10, 0x00,
  0x0e, 0x00, 0x04, 0x00, 0x08, 0x00, 0x0f, 0x00, 0x0c, 0x00, 0x00, 0x00,
  0x01, 0x00, 0x00, 0x00, 0x01, 0x00, 0x00, 0x00, 0x00, 0x00, 0x01, 0x01,
  0x01, 0x00, 0x00, 0x00, 0x06, 0x00, 0x00, 0x00, 0x03, 0x00, 0x00, 0x00,
  0x03, 0x00, 0x00, 0x00, 0x04, 0x00, 0x00, 0x00, 0x05, 0x00, 0x00, 0x00,
  0xf8, 0xf9, 0xff, 0xff, 0x03, 0x00, 0x00, 0x00, 0x00, 0x00, 0x00, 0x03,
  0x03, 0x00, 0x00, 0x00, 0xec, 0xf9, 0xff, 0xff, 0x00, 0x00, 0x00, 0x09,
  0x14, 0x00, 0x00, 0x00, 0x07, 0x00, 0x00, 0x00, 0x34, 0x00, 0x00, 0x00,
  0xdc, 0x00, 0x00, 0x00, 0x18, 0x00, 0x00, 0x00, 0x04, 0x00, 0x00, 0x00,
  0x01, 0x00, 0x00, 0x00, 0x3b, 0x00, 0x00, 0x00, 0x02, 0x00, 0x00, 0x00,
  0x18, 0x00, 0x00, 0x00, 0x04, 0x00, 0x00, 0x00, 0xff, 0xff, 0xff, 0xff,
  0x3b, 0x00, 0x00, 0x00, 0x02, 0x00, 0x00, 0x00, 0x18, 0x00, 0x00, 0x00,
  0xa6, 0x00, 0x00, 0x00, 0x73, 0x65, 0x71, 0x75, 0x65, 0x6e, 0x74, 0x69,
  0x61, 0x6c, 0x5f, 0x33, 0x2f, 0x71, 0x75, 0x61, 0x6e, 0x74, 0x5f, 0x72,
  0x65, 0x5f, 0x6c, 0x75, 0x5f, 0x31, 0x32, 0x2f, 0x52, 0x65, 0x6c, 0x75,
  0x3b, 0x73, 0x65, 0x71, 0x75, 0x65, 0x6e, 0x74, 0x69, 0x61, 0x6c, 0x5f,
  0x33, 0x2f, 0x71, 0x75, 0x61, 0x6e, 0x74, 0x5f, 0x63, 0x6f, 0x6e, 0x76,
  0x32, 0x64, 0x5f, 0x31, 0x32, 0x2f, 0x42, 0x69, 0x61, 0x73, 0x41, 0x64,
  0x64, 0x3b, 0x73, 0x65, 0x71, 0x75, 0x65, 0x6e, 0x74, 0x69, 0x61, 0x6c,
  0x5f, 0x33, 0x2f, 0x71, 0x75, 0x61, 0x6e, 0x74, 0x5f, 0x63, 0x6f, 0x6e,
  0x76, 0x32, 0x64, 0x5f, 0x31, 0x32, 0x2f, 0x43, 0x6f, 0x6e, 0x76, 0x32,
  0x44, 0x3b, 0x73, 0x65, 0x71, 0x75, 0x65, 0x6e, 0x74, 0x69, 0x61, 0x6c,
  0x5f, 0x33, 0x2f, 0x71, 0x75, 0x61, 0x6e, 0x74, 0x5f, 0x63, 0x6f, 0x6e,
  0x76, 0x32, 0x64, 0x5f, 0x31, 0x32, 0x2f, 0x42, 0x69, 0x61, 0x73, 0x41,
  0x64, 0x64, 0x2f, 0x52, 0x65, 0x61, 0x64, 0x56, 0x61, 0x72, 0x69, 0x61,
  0x62, 0x6c, 0x65, 0x4f, 0x70, 0x2f, 0x72, 0x65, 0x73, 0x6f, 0x75, 0x72,
  0x63, 0x65, 0x00, 0x00, 0x7c, 0xf9, 0xff, 0xff, 0x08, 0x00, 0x00, 0x00,
  0x0c, 0x00, 0x00, 0x00, 0x01, 0x00, 0x00, 0x00, 0xaf, 0x8d, 0x7d, 0x3b,
  0x01, 0x00, 0x00, 0x00, 0x80, 0xff, 0xff, 0xff, 0xff, 0xff, 0xff, 0xff,
  0x00, 0x00, 0x00, 0x00, 0x0a, 0xf9, 0xff, 0xff, 0x04, 0x00, 0x00, 0x00,
  0x60, 0x00, 0x00, 0x00, 0x97, 0xfd, 0xff, 0xff, 0x11, 0xfe, 0xff, 0xff,
  0xb8, 0xe7, 0xff, 0xff, 0x06, 0xf7, 0xff, 0xff, 0x8d, 0xec, 0xff, 0xff,
  0x5f, 0xd3, 0xff, 0xff, 0xa3, 0xf0, 0xff, 0xff, 0xfe, 0xe1, 0xff, 0xff,
  0x1f, 0xde, 0xff, 0xff, 0x10, 0xd0, 0xff, 0xff, 0xdb, 0xec, 0xff, 0xff,
  0xb2, 0x03, 0x00, 0x00, 0x6a, 0xd7, 0xff, 0xff, 0xde, 0x02, 0x00, 0x00,
  0xbd, 0xea, 0xff, 0xff, 0xcc, 0xfd, 0xff, 0xff, 0x57, 0xe6, 0xff, 0xff,
  0x27, 0xfc, 0xff, 0xff, 0xe9, 0xf1, 0xff, 0xff, 0x3c, 0x02, 0x00, 0x00,
  0xc3, 0xbd, 0xff, 0xff, 0x26, 0xfd, 0xff, 0xff, 0x14, 0xd1, 0xff, 0xff,
  0x7d, 0xd3, 0xff, 0xff, 0x5a, 0xf9, 0xff, 0xff, 0x00, 0x00, 0x00, 0x02,
  0x10, 0x00, 0x00, 0x00, 0x06, 0x00, 0x00, 0x00, 0x10, 0x00, 0x00, 0x00,
  0x50, 0x00, 0x00, 0x00, 0x01, 0x00, 0x00, 0x00, 0x18, 0x00, 0x00, 0x00,
  0x3c, 0x00, 0x00, 0x00, 0x73, 0x65, 0x71, 0x75, 0x65, 0x6e, 0x74, 0x69,
  0x61, 0x6c, 0x5f, 0x33, 0x2f, 0x71, 0x75, 0x61, 0x6e, 0x74, 0x5f, 0x63,
  0x6f, 0x6e, 0x76, 0x32, 0x64, 0x5f, 0x31, 0x32, 0x2f, 0x42, 0x69, 0x61,
  0x73, 0x41, 0x64, 0x64, 0x2f, 0x52, 0x65, 0x61, 0x64, 0x56, 0x61, 0x72,
  0x69, 0x61, 0x62, 0x6c, 0x65, 0x4f, 0x70, 0x2f, 0x72, 0x65, 0x73, 0x6f,
  0x75, 0x72, 0x63, 0x65, 0x00, 0x00, 0x00, 0x00, 0x70, 0xfa, 0xff, 0xff,
  0x08, 0x00, 0x00, 0x00, 0x68, 0x00, 0x00, 0x00, 0x18, 0x00, 0x00, 0x00,
  0xbb, 0xa3, 0x52, 0x37, 0x45, 0x6c, 0xa1, 0x37, 0x54, 0x2f, 0xa8, 0x37,
  0xf3, 0x45, 0xab, 0x37, 0xe1, 0x5e, 0x8e, 0x37, 0x38, 0x85, 0x93, 0x37,
  0x0a, 0x8f, 0x89, 0x37, 0x86, 0x54, 0xb0, 0x37, 0xa5, 0xa0, 0x6b, 0x37,
  0xa4, 0x1e, 0x8c, 0x37, 0x65, 0xe8, 0x91, 0x37, 0x12, 0x2a, 0x5a, 0x37,
  0xa8, 0xd3, 0xa0, 0x37, 0xc8, 0xd0, 0x84, 0x37, 0xb6, 0xab, 0xc1, 0x37,
  0x1d, 0x0b, 0xba, 0x37, 0x96, 0x88, 0x9a, 0x37, 0x67, 0x76, 0xa3, 0x37,
  0x6c, 0xa3, 0x92, 0x37, 0xba, 0x51, 0xa5, 0x37, 0x8a, 0x09, 0xae, 0x37,
  0xa8, 0xdc, 0x7d, 0x37, 0xc2, 0x30, 0x8d, 0x37, 0x6a, 0x8e, 0x85, 0x37,
  0x18, 0x00, 0x00, 0x00, 0x00, 0x00, 0x00, 0x00, 0x00, 0x00, 0x00, 0x00,
  0x00, 0x00, 0x00, 0x00, 0x00, 0x00, 0x00, 0x00, 0x00, 0x00, 0x00, 0x00,
  0x00, 0x00, 0x00, 0x00, 0x00, 0x00, 0x00, 0x00, 0x00, 0x00, 0x00, 0x00,
  0x00, 0x00, 0x00, 0x00, 0x00, 0x00, 0x00, 0x00, 0x00, 0x00, 0x00, 0x00,
  0x00, 0x00, 0x00, 0x00, 0x00, 0x00, 0x00, 0x00, 0x00, 0x00, 0x00, 0x00,
  0x00, 0x00, 0x00, 0x00, 0x00, 0x00, 0x00, 0x00, 0x00, 0x00, 0x00, 0x00,
  0x00, 0x00, 0x00, 0x00, 0x00, 0x00, 0x00, 0x00, 0x00, 0x00, 0x00, 0x00,
  0x00, 0x00, 0x00, 0x00, 0x00, 0x00, 0x00, 0x00, 0x00, 0x00, 0x00, 0x00,
  0x00, 0x00, 0x00, 0x00, 0x00, 0x00, 0x00, 0x00, 0x00, 0x00, 0x00, 0x00,
  0x00, 0x00, 0x00, 0x00, 0x00, 0x00, 0x00, 0x00, 0x00, 0x00, 0x00, 0x00,
  0x00, 0x00, 0x00, 0x00, 0x00, 0x00, 0x00, 0x00, 0x00, 0x00, 0x00, 0x00,
  0x00, 0x00, 0x00, 0x00, 0x00, 0x00, 0x00, 0x00, 0x00, 0x00, 0x00, 0x00,
  0x00, 0x00, 0x00, 0x00, 0x00, 0x00, 0x00, 0x00, 0x00, 0x00, 0x00, 0x00,
  0x00, 0x00, 0x00, 0x00, 0x00, 0x00, 0x00, 0x00, 0x00, 0x00, 0x00, 0x00,
  0x00, 0x00, 0x00, 0x00, 0x00, 0x00, 0x00, 0x00, 0x00, 0x00, 0x00, 0x00,
  0x00, 0x00, 0x00, 0x00, 0x00, 0x00, 0x00, 0x00, 0x00, 0x00, 0x00, 0x00,
  0x00, 0x00, 0x00, 0x00, 0x00, 0x00, 0x00, 0x00, 0x12, 0xfb, 0xff, 0xff,
  0x04, 0x00, 0x00, 0x00, 0x20, 0x01, 0x00, 0x00, 0x1f, 0x5e, 0x16, 0x49,
  0xf6, 0x91, 0xd4, 0xb7, 0x0d, 0xf2, 0xc6, 0x81, 0xf4, 0x81, 0x1b, 0xb4,
  0xf9, 0xfe, 0x2e, 0x33, 0xe0, 0xf4, 0x25, 0xc6, 0x7f, 0xa7, 0x35, 0x22,
  0xf1, 0x25, 0xc9, 0xe5, 0x41, 0x04, 0x1b, 0x04, 0x08, 0x6a, 0xe4, 0x4b,
  0xeb, 0xef, 0x1d, 0xa6, 0x1d, 0x81, 0x22, 0xc8, 0xfd, 0x76, 0xe8, 0x27,
  0x07, 0xc9, 0x1f, 0xf7, 0x11, 0xc7, 0x27, 0x81, 0xec, 0x12, 0x48, 0x07,
  0x3f, 0x1a, 0xb3, 0x39, 0x81, 0xb2, 0xdb, 0xba, 0xd0, 0xf5, 0xe1, 0x1a,
  0x4b, 0x33, 0x95, 0x27, 0xf5, 0x29, 0x96, 0x7f, 0xd3, 0x20, 0xf0, 0x2f,
  0xa9, 0xdf, 0x1a, 0x27, 0xce, 0xd8, 0x7f, 0xea, 0xfb, 0x59, 0x4e, 0xb4,
  0x81, 0xed, 0xf3, 0x54, 0x42, 0xc2, 0x4a, 0x97, 0x32, 0x1c, 0x7f, 0xcf,
  0xe3, 0xc0, 0xcf, 0x38, 0xd5, 0xdc, 0x8c, 0x65, 0xb9, 0x33, 0xc3, 0x81,
  0x3e, 0xcb, 0xe2, 0x3b, 0xf8, 0xb0, 0x1a, 0xe9, 0xef, 0x35, 0x37, 0x16,
  0x1c, 0x49, 0x24, 0xce, 0x81, 0xe9, 0xb4, 0x0c, 0xaa, 0x24, 0xa8, 0xe2,
  0xf6, 0xc5, 0x3f, 0xeb, 0x7f, 0xd6, 0x3a, 0xcc, 0xfb, 0x1c, 0xf0, 0xf8,
  0x1e, 0xdd, 0xff, 0x0b, 0x1d, 0xcd, 0x7f, 0xca, 0xc4, 0x09, 0x0e, 0xee,
  0x08, 0x13, 0x00, 0x01, 0x25, 0xf7, 0x7f, 0x29, 0x29, 0x66, 0xff, 0x2e,
  0x2a, 0xde, 0x24, 0x1f, 0x1c, 0x4e, 0x12, 0x7f, 0x81, 0x01, 0x0e, 0x41,
  0x10, 0xc4, 0x00, 0x95, 0x5f, 0xf1, 0xda, 0xf9, 0xb4, 0x81, 0xd8, 0x2a,
  0xf1, 0xf0, 0xd8, 0x1c, 0xf3, 0x28, 0x07, 0xb0, 0xb2, 0x03, 0xb0, 0xf6,
  0x9f, 0x14, 0x9d, 0xf5, 0x8a, 0xf6, 0x81, 0xbf, 0xbc, 0x04, 0x81, 0xb3,
  0xcd, 0xfe, 0xdd, 0x30, 0xfa, 0x15, 0x0b, 0x3d, 0x56, 0xfc, 0x91, 0xf2,
  0xda, 0xdd, 0x2b, 0x10, 0x7f, 0x21, 0x0e, 0x16, 0x01, 0x8d, 0xf5, 0xe7,
  0x12, 0x81, 0x19, 0x0e, 0xee, 0x89, 0x0f, 0x4b, 0x7b, 0x39, 0xce, 0xe9,
  0xc3, 0xe2, 0x61, 0xef, 0x07, 0x15, 0x81, 0xd5, 0x77, 0x22, 0x64, 0xff,
  0x81, 0x11, 0x3a, 0x44, 0x8c, 0xe1, 0xe3, 0xfc, 0x22, 0xfc, 0xff, 0xff,
  0x00, 0x00, 0x00, 0x09, 0x10, 0x00, 0x00, 0x00, 0x05, 0x00, 0x00, 0x00,
  0x1c, 0x00, 0x00, 0x00, 0x40, 0x00, 0x00, 0x00, 0x04, 0x00, 0x00, 0x00,
  0x18, 0x00, 0x00, 0x00, 0x06, 0x00, 0x00, 0x00, 0x02, 0x00, 0x00, 0x00,
  0x01, 0x00, 0x00, 0x00, 0x23, 0x00, 0x00, 0x00, 0x73, 0x65, 0x71, 0x75,
  0x65, 0x6e, 0x74, 0x69, 0x61, 0x6c, 0x5f, 0x33, 0x2f, 0x71, 0x75, 0x61,
  0x6e, 0x74, 0x5f, 0x63, 0x6f, 0x6e, 0x76, 0x32, 0x64, 0x5f, 0x31, 0x32,
  0x2f, 0x43, 0x6f, 0x6e, 0x76, 0x32, 0x44, 0x00, 0x28, 0xfd, 0xff, 0xff,
  0x08, 0x00, 0x00, 0x00, 0x68, 0x00, 0x00, 0x00, 0x18, 0x00, 0x00, 0x00,
  0x17, 0xd1, 0xd1, 0x3b, 0xd9, 0xca, 0x20, 0x3c, 0x24, 0x87, 0x27, 0x3c,
  0xad, 0x9a, 0x2a, 0x3c, 0x82, 0xd0, 0x0d, 0x3c, 0xb2, 0xf1, 0x12, 0x3c,
  0x7b, 0x05, 0x09, 0x3c, 0x31, 0xa4, 0x2f, 0x3c, 0x04, 0xb5, 0xea, 0x3b,
  0x85, 0x92, 0x0b, 0x3c, 0x7d, 0x56, 0x11, 0x3c, 0xe8, 0x4f, 0xd9, 0x3b,
  0xd5, 0x32, 0x20, 0x3c, 0xf7, 0x4b, 0x04, 0x3c, 0x0a, 0xea, 0x40, 0x3c,
  0x12, 0x51, 0x39, 0x3c, 0x0d, 0xee, 0x19, 0x3c, 0xf1, 0xd2, 0x22, 0x3c,
  0xc9, 0x10, 0x12, 0x3c, 0x68, 0xac, 0x24, 0x3c, 0x80, 0x5b, 0x2d, 0x3c,
  0xcc, 0xde, 0xfc, 0x3b, 0x91, 0xa3, 0x0c, 0x3c, 0xdc, 0x08, 0x05, 0x3c,
  0x18, 0x00, 0x00, 0x00, 0x00, 0x00, 0x00, 0x00, 0x00, 0x00, 0x00, 0x00,
  0x00, 0x00, 0x00, 0x00, 0x00, 0x00, 0x00, 0x00, 0x00, 0x00, 0x00, 0x00,
  0x00, 0x00, 0x00, 0x00, 0x00, 0x00, 0x00, 0x00, 0x00, 0x00, 0x00, 0x00,
  0x00, 0x00, 0x00, 0x00, 0x00, 0x00, 0x00, 0x00, 0x00, 0x00, 0x00, 0x00,
  0x00, 0x00, 0x00, 0x00, 0x00, 0x00, 0x00, 0x00, 0x00, 0x00, 0x00, 0x00,
  0x00, 0x00, 0x00, 0x00, 0x00, 0x00, 0x00, 0x00, 0x00, 0x00, 0x00, 0x00,
  0x00, 0x00, 0x00, 0x00, 0x00, 0x00, 0x00, 0x00, 0x00, 0x00, 0x00, 0x00,
  0x00, 0x00, 0x00, 0x00, 0x00, 0x00, 0x00, 0x00, 0x00, 0x00, 0x00, 0x00,
  0x00, 0x00, 0x00, 0x00, 0x00, 0x00, 0x00, 0x00, 0x00, 0x00, 0x00, 0x00,
  0x00, 0x00, 0x00, 0x00, 0x00, 0x00, 0x00, 0x00, 0x00, 0x00, 0x00, 0x00,
  0x00, 0x00, 0x00, 0x00, 0x00, 0x00, 0x00, 0x00, 0x00, 0x00, 0x00, 0x00,
  0x00, 0x00, 0x00, 0x00, 0x00, 0x00, 0x00, 0x00, 0x00, 0x00, 0x00, 0x00,
  0x00, 0x00, 0x00, 0x00, 0x00, 0x00, 0x00, 0x00, 0x00, 0x00, 0x00, 0x00,
  0x00, 0x00, 0x00, 0x00, 0x00, 0x00, 0x00, 0x00, 0x00, 0x00, 0x00, 0x00,
  0x00, 0x00, 0x00, 0x00, 0x00, 0x00, 0x00, 0x00, 0x00, 0x00, 0x00, 0x00,
  0x00, 0x00, 0x00, 0x00, 0x00, 0x00, 0x00, 0x00, 0x00, 0x00, 0x00, 0x00,
  0x00, 0x00, 0x00, 0x00, 0x00, 0x00, 0x0a, 0x00, 0x0c, 0x00, 0x00, 0x00,
  0x04, 0x00, 0x08, 0x00, 0x0a, 0x00, 0x00, 0x00, 0x10, 0x00, 0x00, 0x00,
  0x04, 0x00, 0x00, 0x00, 0x01, 0x00, 0x00, 0x00, 0x03, 0x00, 0x00, 0x00,
  0x01, 0x00, 0x00, 0x00, 0x00, 0x00, 0x00, 0x00, 0x0c, 0x00, 0x10, 0x00,
  0x0b, 0x00, 0x00, 0x00, 0x0c, 0x00, 0x04, 0x00, 0x0c, 0x00, 0x00, 0x00,
  0x72, 0x00, 0x00, 0x00, 0x00, 0x00, 0x00, 0x72, 0x01, 0x00, 0x00, 0x00,
  0x14, 0x00, 0x1c, 0x00, 0x08, 0x00, 0x07, 0x00, 0x0c, 0x00, 0x10, 0x00,
  0x14, 0x00, 0x00, 0x00, 0x00, 0x00, 0x18, 0x00, 0x14, 0x00, 0x00, 0x00,
  0x00, 0x00, 0x00, 0x09, 0x14, 0x00, 0x00, 0x00, 0x04, 0x00, 0x00, 0x00,
  0x34, 0x00, 0x00, 0x00, 0x44, 0x01, 0x00, 0x00, 0x18, 0x00, 0x00, 0x00,
  0x04, 0x00, 0x00, 0x00, 0x01, 0x00, 0x00, 0x00, 0x40, 0x00, 0x00, 0x00,
  0x03, 0x00, 0x00, 0x00, 0x01, 0x00, 0x00, 0x00, 0x04, 0x00, 0x00, 0x00,
  0xff, 0xff, 0xff, 0xff, 0x40, 0x00, 0x00, 0x00, 0x03, 0x00, 0x00, 0x00,
  0x01, 0x00, 0x00, 0x00, 0x03, 0x01, 0x00, 0x00, 0x73, 0x65, 0x71, 0x75,
  0x65, 0x6e, 0x74, 0x69, 0x61, 0x6c, 0x5f, 0x33, 0x2f, 0x71, 0x75, 0x61,
  0x6e, 0x74, 0x69, 0x7a, 0x65, 0x5f, 0x6c, 0x61, 0x79, 0x65, 0x72, 0x2f,
  0x41, 0x6c, 0x6c, 0x56, 0x61, 0x6c, 0x75, 0x65, 0x73, 0x51, 0x75, 0x61,
  0x6e, 0x74, 0x69, 0x7a, 0x65, 0x2f, 0x46, 0x61, 0x6b, 0x65, 0x51, 0x75,
  0x61, 0x6e, 0x74, 0x57, 0x69, 0x74, 0x68, 0x4d, 0x69, 0x6e, 0x4d, 0x61,
  0x78, 0x56, 0x61, 0x72, 0x73, 0x3b, 0x73, 0x65, 0x71, 0x75, 0x65, 0x6e,
  0x74, 0x69, 0x61, 0x6c, 0x5f, 0x33, 0x2f, 0x71, 0x75, 0x61, 0x6e, 0x74,
  0x69, 0x7a, 0x65, 0x5f, 0x6c, 0x61, 0x79, 0x65, 0x72, 0x2f, 0x41, 0x6c,
  0x6c, 0x56, 0x61, 0x6c, 0x75, 0x65, 0x73, 0x51, 0x75, 0x61, 0x6e, 0x74,
  0x69, 0x7a, 0x65, 0x2f, 0x46, 0x61, 0x6b, 0x65, 0x51, 0x75, 0x61, 0x6e,
  0x74, 0x57, 0x69, 0x74, 0x68, 0x4d, 0x69, 0x6e, 0x4d, 0x61, 0x78, 0x56,
  0x61, 0x72, 0x73, 0x2f, 0x52, 0x65, 0x61, 0x64, 0x56, 0x61, 0x72, 0x69,
  0x61, 0x62, 0x6c, 0x65, 0x4f, 0x70, 0x2f, 0x72, 0x65, 0x73, 0x6f, 0x75,
  0x72, 0x63, 0x65, 0x3b, 0x73, 0x65, 0x71, 0x75, 0x65, 0x6e, 0x74, 0x69,
  0x61, 0x6c, 0x5f, 0x33, 0x2f, 0x71, 0x75, 0x61, 0x6e, 0x74, 0x69, 0x7a,
  0x65, 0x5f, 0x6c, 0x61, 0x79, 0x65, 0x72, 0x2f, 0x41, 0x6c, 0x6c, 0x56,
  0x61, 0x6c, 0x75, 0x65, 0x73, 0x51, 0x75, 0x61, 0x6e, 0x74, 0x69, 0x7a,
  0x65, 0x2f, 0x46, 0x61, 0x6b, 0x65, 0x51, 0x75, 0x61, 0x6e, 0x74, 0x57,
  0x69, 0x74, 0x68, 0x4d, 0x69, 0x6e, 0x4d, 0x61, 0x78, 0x56, 0x61, 0x72,
  0x73, 0x2f, 0x52, 0x65, 0x61, 0x64, 0x56, 0x61, 0x72, 0x69, 0x61, 0x62,
  0x6c, 0x65, 0x4f, 0x70, 0x5f, 0x31, 0x2f, 0x72, 0x65, 0x73, 0x6f, 0x75,
  0x72, 0x63, 0x65, 0x00, 0x0c, 0x00, 0x0c, 0x00, 0x00, 0x00, 0x00, 0x00,
  0x04, 0x00, 0x08, 0x00, 0x0c, 0x00, 0x00, 0x00, 0x08, 0x00, 0x00, 0x00,
  0x0c, 0x00, 0x00, 0x00, 0x01, 0x00, 0x00, 0x00, 0x81, 0x80, 0x00, 0x3b,
  0x01, 0x00, 0x00, 0x00, 0x00, 0x00, 0x00, 0x00, 0x00, 0x00, 0x00, 0x00,
  0x00, 0x00, 0x00, 0x00, 0x9a, 0xff, 0xff, 0xff, 0x04, 0x00, 0x00, 0x00,
  0x08, 0x00, 0x00, 0x00, 0xff, 0xff, 0xff, 0xff, 0x08, 0x00, 0x00, 0x00,
  0x92, 0xff, 0xff, 0xff, 0x00, 0x00, 0x00, 0x02, 0x10, 0x00, 0x00, 0x00,
  0x03, 0x00, 0x00, 0x00, 0x10, 0x00, 0x00, 0x00, 0x38, 0x00, 0x00, 0x00,
  0x01, 0x00, 0x00, 0x00, 0x02, 0x00, 0x00, 0x00, 0x22, 0x00, 0x00, 0x00,
  0x73, 0x65, 0x71, 0x75, 0x65, 0x6e, 0x74, 0x69, 0x61, 0x6c, 0x5f, 0x33,
  0x2f, 0x71, 0x75, 0x61, 0x6e, 0x74, 0x5f, 0x66, 0x6c, 0x61, 0x74, 0x74,
  0x65, 0x6e, 0x5f, 0x33, 0x2f, 0x43, 0x6f, 0x6e, 0x73, 0x74, 0x00, 0x00,
  0x04, 0x00, 0x06, 0x00, 0x04, 0x00, 0x00, 0x00, 0x00, 0x00, 0x06, 0x00,
  0x08, 0x00, 0x04, 0x00, 0x06, 0x00, 0x00, 0x00, 0x04, 0x00, 0x00, 0x00,
  0x08, 0x00, 0x00, 0x00, 0x01, 0x00, 0x00, 0x00, 0x02, 0x00, 0x00, 0x00,
  0x00, 0x00, 0x0e, 0x00, 0x18, 0x00, 0x08, 0x00, 0x07, 0x00, 0x0c, 0x00,
  0x10, 0x00, 0x14, 0x00, 0x0e, 0x00, 0x00, 0x00, 0x00, 0x00, 0x00, 0x02,
  0x10, 0x00, 0x00, 0x00, 0x02, 0x00, 0x00, 0x00, 0x10, 0x00, 0x00, 0x00,
  0x50, 0x00, 0x00, 0x00, 0x01, 0x00, 0x00, 0x00, 0x02, 0x00, 0x00, 0x00,
  0x3f, 0x00, 0x00, 0x00, 0x73, 0x65, 0x71, 0x75, 0x65, 0x6e, 0x74, 0x69,
  0x61, 0x6c, 0x5f, 0x33, 0x2f, 0x71, 0x75, 0x61, 0x6e, 0x74, 0x5f, 0x67,
  0x6c, 0x6f, 0x62, 0x61, 0x6c, 0x5f, 0x6d, 0x61, 0x78, 0x5f, 0x70, 0x6f,
  0x6f, 0x6c, 0x69, 0x6e, 0x67, 0x32, 0x64, 0x5f, 0x33, 0x2f, 0x4d, 0x61,
  0x78, 0x2f, 0x72, 0x65, 0x64, 0x75, 0x63, 0x74, 0x69, 0x6f, 0x6e, 0x5f,
  0x69, 0x6e, 0x64, 0x69, 0x63, 0x65, 0x73, 0x00, 0x90, 0xff, 0xff, 0xff,
  0x14, 0x00, 0x18, 0x00, 0x04, 0x00, 0x00, 0x00, 0x08, 0x00, 0x0c, 0x00,
  0x10, 0x00, 0x00, 0x00, 0x00, 0x00, 0x14, 0x00, 0x14, 0x00, 0x00, 0x00,
  0x14, 0x00, 0x00, 0x00, 0x01, 0x00, 0x00, 0x00, 0x34, 0x00, 0x00, 0x00,
  0x44, 0x00, 0x00, 0x00, 0x18, 0x00, 0x00, 0x00, 0x04, 0x00, 0x00, 0x00,
  0x01, 0x00, 0x00, 0x00, 0x40, 0x00, 0x00, 0x00, 0x03, 0x00, 0x00, 0x00,
  0x01, 0x00, 0x00, 0x00, 0x04, 0x00, 0x00, 0x00, 0xff, 0xff, 0xff, 0xff,
  0x40, 0x00, 0x00, 0x00, 0x03, 0x00, 0x00, 0x00, 0x01, 0x00, 0x00, 0x00,
  0x0f, 0x00, 0x00, 0x00, 0x63, 0x6f, 0x6e, 0x76, 0x32, 0x64, 0x5f, 0x31,
  0x32, 0x5f, 0x69, 0x6e, 0x70, 0x75, 0x74, 0x00, 0xfc, 0xff, 0xff, 0xff,
  0x04, 0x00, 0x04, 0x00, 0x04, 0x00, 0x00, 0x00
};

#endif // INCLUDE_MODEL

#endif //MODEL_22_TENSORFLOW_H