#ifndef MODEL_28_TENSORFLOW_H
#define MODEL_28_TENSORFLOW_H

#define APP_ACTIVITY_MODEL_NAME model_28_tensorflow
#define APP_ACTIVITY_RECOGNITION_PRECISION_FLOAT (0)
#define APP_ACTIVITY_RECOGNITION_SENSOR_SCALE (2)
#define APP_ACTIVITY_RECOGNITION_SENSOR_RESOLUTION (8)
#define APP_ACTIVITY_RECOGNITION_SAMPLING_FREQUENCY (10)
#define APP_ACTIVITY_RECOGNITION_FREQUENCY_DIVIDER (0)
#define APP_ACTIVITY_RECOGNITION_HIGHPASS_STAGES (2)
#define APP_ACTIVITY_RECOGNITION_INPUT_SIZE (192)
#define APP_ACTIVITY_RECOGNITION_STEP_SIZE (32)
#define APP_ACTIVITY_RECOGNITION_CLASS_COUNT (6)

#ifdef INCLUDE_MODEL
static const float highpass_coefficients[] = {0.2069928239055942f, -0.2069928239055942f, 0.0f, 0.2068179864931189f, -0.0f, 0.25f, -0.5f, 0.25f, 0.4490699651581907f, -0.2071676613180694f};
static const char* APP_ACTIVITY_RECOGNITION_CLASSES[] = {"jog","skip","stDown","stUp","stay","walk"};
static const size_t model_28_tensorflow_len = 11024;
static const uint8_t model_28_tensorflow[] = {
 0x1c, 0x00, 0x00, 0x00, 0x54, 0x46, 0x4c, 0x33, 0x14, 0x00, 0x20, 0x00,
  0x04, 0x00, 0x08, 0x00, 0x0c, 0x00, 0x10, 0x00, 0x14, 0x00, 0x00, 0x00,
  0x18, 0x00, 0x1c, 0x00, 0x14, 0x00, 0x00, 0x00, 0x03, 0x00, 0x00, 0x00,
  0x18, 0x00, 0x00, 0x00, 0x34, 0x00, 0x00, 0x00, 0xf4, 0x00, 0x00, 0x00,
  0x34, 0x00, 0x00, 0x00, 0x9c, 0x00, 0x00, 0x00, 0x94, 0x00, 0x00, 0x00,
  0x07, 0x00, 0x00, 0x00, 0xb8, 0x27, 0x00, 0x00, 0x98, 0x21, 0x00, 0x00,
  0x78, 0x06, 0x00, 0x00, 0xb4, 0x05, 0x00, 0x00, 0x1c, 0x03, 0x00, 0x00,
  0x54, 0x02, 0x00, 0x00, 0xcc, 0x01, 0x00, 0x00, 0x01, 0x00, 0x00, 0x00,
  0xe4, 0x00, 0x00, 0x00, 0x19, 0x00, 0x00, 0x00, 0xa4, 0x2a, 0x00, 0x00,
  0xa0, 0x2a, 0x00, 0x00, 0x9c, 0x29, 0x00, 0x00, 0x28, 0x29, 0x00, 0x00,
  0x94, 0x2a, 0x00, 0x00, 0x8c, 0x24, 0x00, 0x00, 0x84, 0x22, 0x00, 0x00,
  0x88, 0x2a, 0x00, 0x00, 0xc0, 0x13, 0x00, 0x00, 0x38, 0x12, 0x00, 0x00,
  0x7c, 0x2a, 0x00, 0x00, 0x4c, 0x0e, 0x00, 0x00, 0x04, 0x0d, 0x00, 0x00,
  0x70, 0x2a, 0x00, 0x00, 0x58, 0x09, 0x00, 0x00, 0x10, 0x08, 0x00, 0x00,
  0x64, 0x2a, 0x00, 0x00, 0x60, 0x2a, 0x00, 0x00, 0x5c, 0x2a, 0x00, 0x00,
  0x18, 0x04, 0x00, 0x00, 0x68, 0x03, 0x00, 0x00, 0x50, 0x2a, 0x00, 0x00,
  0x4c, 0x2a, 0x00, 0x00, 0x48, 0x2a, 0x00, 0x00, 0x3c, 0x00, 0x00, 0x00,
  0x00, 0x00, 0x00, 0x00, 0x01, 0x00, 0x00, 0x00, 0x0c, 0x00, 0x00, 0x00,
  0x08, 0x00, 0x0c, 0x00, 0x04, 0x00, 0x08, 0x00, 0x08, 0x00, 0x00, 0x00,
  0x08, 0x00, 0x00, 0x00, 0x18, 0x00, 0x00, 0x00, 0x13, 0x00, 0x00, 0x00,
  0x6d, 0x69, 0x6e, 0x5f, 0x72, 0x75, 0x6e, 0x74, 0x69, 0x6d, 0x65, 0x5f,
  0x76, 0x65, 0x72, 0x73, 0x69, 0x6f, 0x6e, 0x00, 0xfe, 0xd6, 0xff, 0xff,
  0x04, 0x00, 0x00, 0x00, 0x10, 0x00, 0x00, 0x00, 0x31, 0x2e, 0x31, 0x34,
  0x2e, 0x30, 0x00, 0x00, 0x00, 0x00, 0x00, 0x00, 0x00, 0x00, 0x00, 0x00,
  0x0f, 0x00, 0x00, 0x00, 0x4d, 0x4c, 0x49, 0x52, 0x20, 0x43, 0x6f, 0x6e,
  0x76, 0x65, 0x72, 0x74, 0x65, 0x64, 0x2e, 0x00, 0x00, 0x00, 0x0e, 0x00,
  0x18, 0x00, 0x04, 0x00, 0x08, 0x00, 0x0c, 0x00, 0x10, 0x00, 0x14, 0x00,
  0x0e, 0x00, 0x00, 0x00, 0x14, 0x00, 0x00, 0x00, 0x70, 0x00, 0x00, 0x00,
  0x74, 0x00, 0x00, 0x00, 0x78, 0x00, 0x00, 0x00, 0xa0, 0x00, 0x00, 0x00,
  0x17, 0x00, 0x00, 0x00, 0x50, 0x29, 0x00, 0x00, 0xcc, 0x28, 0x00, 0x00,
  0x48, 0x28, 0x00, 0x00, 0xb0, 0x26, 0x00, 0x00, 0xc4, 0x24, 0x00, 0x00,
  0xfc, 0x21, 0x00, 0x00, 0x74, 0x20, 0x00, 0x00, 0xd8, 0x1e, 0x00, 0x00,
  0x90, 0x11, 0x00, 0x00, 0x28, 0x10, 0x00, 0x00, 0xe4, 0x0e, 0x00, 0x00,
  0x4c, 0x0c, 0x00, 0x00, 0xd0, 0x0a, 0x00, 0x00, 0x90, 0x09, 0x00, 0x00,
  0x58, 0x07, 0x00, 0x00, 0x00, 0x06, 0x00, 0x00, 0x30, 0x05, 0x00, 0x00,
  0x6c, 0x04, 0x00, 0x00, 0x78, 0x03, 0x00, 0x00, 0x98, 0x02, 0x00, 0x00,
  0xcc, 0x01, 0x00, 0x00, 0x04, 0x01, 0x00, 0x00, 0x7c, 0x00, 0x00, 0x00,
  0x01, 0x00, 0x00, 0x00, 0x00, 0x00, 0x00, 0x00, 0x01, 0x00, 0x00, 0x00,
  0x16, 0x00, 0x00, 0x00, 0x0a, 0x00, 0x00, 0x00, 0x00, 0x26, 0x00, 0x00,
  0xbc, 0x1f, 0x00, 0x00, 0x94, 0x0f, 0x00, 0x00, 0x44, 0x0a, 0x00, 0x00,
  0x7c, 0x05, 0x00, 0x00, 0xac, 0x04, 0x00, 0x00, 0xf4, 0x03, 0x00, 0x00,
  0x4c, 0x01, 0x00, 0x00, 0x88, 0x00, 0x00, 0x00, 0x10, 0x00, 0x00, 0x00,
  0x04, 0x00, 0x00, 0x00, 0x6d, 0x61, 0x69, 0x6e, 0x00, 0x00, 0x00, 0x00,
  0x32, 0xfc, 0xff, 0xff, 0x06, 0x00, 0x00, 0x00, 0x10, 0x00, 0x00, 0x00,
  0x04, 0x00, 0x00, 0x00, 0x01, 0x00, 0x00, 0x00, 0x16, 0x00, 0x00, 0x00,
  0x01, 0x00, 0x00, 0x00, 0x15, 0x00, 0x00, 0x00, 0x38, 0xda, 0xff, 0xff,
  0x06, 0x00, 0x00, 0x00, 0x00, 0x00, 0x00, 0x06, 0x02, 0x00, 0x00, 0x00,
  0x98, 0xd7, 0xff, 0xff, 0x14, 0x00, 0x00, 0x00, 0x17, 0x00, 0x00, 0x00,
  0x24, 0x00, 0x00, 0x00, 0x30, 0x00, 0x00, 0x00, 0x10, 0x00, 0x00, 0x00,
  0x02, 0x00, 0x00, 0x00, 0x01, 0x00, 0x00, 0x00, 0x06, 0x00, 0x00, 0x00,
  0x02, 0x00, 0x00, 0x00, 0xff, 0xff, 0xff, 0xff, 0x06, 0x00, 0x00, 0x00,
  0x08, 0x00, 0x00, 0x00, 0x49, 0x64, 0x65, 0x6e, 0x74, 0x69, 0x74, 0x79,
  0x00, 0x00, 0x00, 0x00, 0x6c, 0xd7, 0xff, 0xff, 0xf6, 0xe0, 0xff, 0xff,
  0x00, 0x00, 0x00, 0x09, 0x05, 0x00, 0x00, 0x00, 0x1c, 0x00, 0x00, 0x00,
  0x10, 0x00, 0x00, 0x00, 0x04, 0x00, 0x00, 0x00, 0x8a, 0xd8, 0xff, 0xff,
  0x00, 0x00, 0x80, 0x3f, 0x01, 0x00, 0x00, 0x00, 0x15, 0x00, 0x00, 0x00,
  0x01, 0x00, 0x00, 0x00, 0x14, 0x00, 0x00, 0x00, 0xbc, 0xda, 0xff, 0xff,
  0x19, 0x00, 0x00, 0x00, 0x00, 0x00, 0x00, 0x19, 0x02, 0x00, 0x00, 0x00,
  0xb0, 0xda, 0xff, 0xff, 0x00, 0x00, 0x00, 0x09, 0x14, 0x00, 0x00, 0x00,
  0x16, 0x00, 0x00, 0x00, 0x24, 0x00, 0x00, 0x00, 0x4c, 0x00, 0x00, 0x00,
  0x10, 0x00, 0x00, 0x00, 0x02, 0x00, 0x00, 0x00, 0x01, 0x00, 0x00, 0x00,
  0x06, 0x00, 0x00, 0x00, 0x02, 0x00, 0x00, 0x00, 0xff, 0xff, 0xff, 0xff,
  0x06, 0x00, 0x00, 0x00, 0x26, 0x00, 0x00, 0x00, 0x73, 0x65, 0x71, 0x75,
  0x65, 0x6e, 0x74, 0x69, 0x61, 0x6c, 0x5f, 0x31, 0x32, 0x2f, 0x71, 0x75,
  0x61, 0x6e, 0x74, 0x5f, 0x73, 0x6f, 0x66, 0x74, 0x6d, 0x61, 0x78, 0x5f,
  0x31, 0x32, 0x2f, 0x53, 0x6f, 0x66, 0x74, 0x6d, 0x61, 0x78, 0x00, 0x00,
  0xac, 0xd9, 0xff, 0xff, 0x08, 0x00, 0x00, 0x00, 0x0c, 0x00, 0x00, 0x00,
  0x01, 0x00, 0x00, 0x00, 0x00, 0x00, 0x80, 0x3b, 0x01, 0x00, 0x00, 0x00,
  0x80, 0xff, 0xff, 0xff, 0xff, 0xff, 0xff, 0xff, 0xb6, 0xe1, 0xff, 0xff,
  0x00, 0x00, 0x00, 0x08, 0x04, 0x00, 0x00, 0x00, 0x18, 0x00, 0x00, 0x00,
  0x0c, 0x00, 0x00, 0x00, 0x04, 0x00, 0x00, 0x00, 0x48, 0xd8, 0xff, 0xff,
  0x01, 0x00, 0x00, 0x00, 0x14, 0x00, 0x00, 0x00, 0x03, 0x00, 0x00, 0x00,
  0x11, 0x00, 0x00, 0x00, 0x12, 0x00, 0x00, 0x00, 0x13, 0x00, 0x00, 0x00,
  0x80, 0xdb, 0xff, 0xff, 0x09, 0x00, 0x00, 0x00, 0x00, 0x00, 0x00, 0x09,
  0x04, 0x00, 0x00, 0x00, 0x74, 0xdb, 0xff, 0xff, 0x00, 0x00, 0x00, 0x09,
  0x14, 0x00, 0x00, 0x00, 0x15, 0x00, 0x00, 0x00, 0x24, 0x00, 0x00, 0x00,
  0x70, 0x00, 0x00, 0x00, 0x10, 0x00, 0x00, 0x00, 0x02, 0x00, 0x00, 0x00,
  0x01, 0x00, 0x00, 0x00, 0x06, 0x00, 0x00, 0x00, 0x02, 0x00, 0x00, 0x00,
  0xff, 0xff, 0xff, 0xff, 0x06, 0x00, 0x00, 0x00, 0x48, 0x00, 0x00, 0x00,
  0x73, 0x65, 0x71, 0x75, 0x65, 0x6e, 0x74, 0x69, 0x61, 0x6c, 0x5f, 0x31,
  0x32, 0x2f, 0x71, 0x75, 0x61, 0x6e, 0x74, 0x5f, 0x64, 0x65, 0x6e, 0x73,
  0x65, 0x5f, 0x31, 0x32, 0x2f, 0x4d, 0x61, 0x74, 0x4d, 0x75, 0x6c, 0x3b,
  0x73, 0x65, 0x71, 0x75, 0x65, 0x6e, 0x74, 0x69, 0x61, 0x6c, 0x5f, 0x31,
  0x32, 0x2f, 0x71, 0x75, 0x61, 0x6e, 0x74, 0x5f, 0x64, 0x65, 0x6e, 0x73,
  0x65, 0x5f, 0x31, 0x32, 0x2f, 0x42, 0x69, 0x61, 0x73, 0x41, 0x64, 0x64,
  0x00, 0x00, 0x00, 0x00, 0x94, 0xda, 0xff, 0xff, 0x08, 0x00, 0x00, 0x00,
  0x0c, 0x00, 0x00, 0x00, 0x01, 0x00, 0x00, 0x00, 0xf1, 0xc8, 0x81, 0x3e,
  0x01, 0x00, 0x00, 0x00, 0x56, 0x00, 0x00, 0x00, 0x00, 0x00, 0x00, 0x00,
  0x1a, 0xda, 0xff, 0xff, 0x04, 0x00, 0x00, 0x00, 0x18, 0x00, 0x00, 0x00,
  0x54, 0xfc, 0xff, 0xff, 0x9a, 0x01, 0x00, 0x00, 0xda, 0xf7, 0xff, 0xff,
  0xf4, 0xfb, 0xff, 0xff, 0xc7, 0x0f, 0x00, 0x00, 0xce, 0x00, 0x00, 0x00,
  0x22, 0xda, 0xff, 0xff, 0x00, 0x00, 0x00, 0x02, 0x10, 0x00, 0x00, 0x00,
  0x14, 0x00, 0x00, 0x00, 0x10, 0x00, 0x00, 0x00, 0x50, 0x00, 0x00, 0x00,
  0x01, 0x00, 0x00, 0x00, 0x06, 0x00, 0x00, 0x00, 0x3c, 0x00, 0x00, 0x00,
  0x73, 0x65, 0x71, 0x75, 0x65, 0x6e, 0x74, 0x69, 0x61, 0x6c, 0x5f, 0x31,
  0x32, 0x2f, 0x71, 0x75, 0x61, 0x6e, 0x74, 0x5f, 0x64, 0x65, 0x6e, 0x73,
  0x65, 0x5f, 0x31, 0x32, 0x2f, 0x42, 0x69, 0x61, 0x73, 0x41, 0x64, 0x64,
  0x2f, 0x52, 0x65, 0x61, 0x64, 0x56, 0x61, 0x72, 0x69, 0x61, 0x62, 0x6c,
  0x65, 0x4f, 0x70, 0x2f, 0x72, 0x65, 0x73, 0x6f, 0x75, 0x72, 0x63, 0x65,
  0x00, 0x00, 0x00, 0x00, 0x3c, 0xdb, 0xff, 0xff, 0x08, 0x00, 0x00, 0x00,
  0x0c, 0x00, 0x00, 0x00, 0x01, 0x00, 0x00, 0x00, 0xf1, 0xa7, 0x2c, 0x3a,
  0x01, 0x00, 0x00, 0x00, 0x00, 0x00, 0x00, 0x00, 0x00, 0x00, 0x00, 0x00,
  0x00, 0x00, 0x00, 0x00, 0xc6, 0xda, 0xff, 0xff, 0x04, 0x00, 0x00, 0x00,
  0x48, 0x00, 0x00, 0x00, 0xd2, 0xf1, 0x11, 0xda, 0xce, 0x0a, 0x0e, 0xd7,
  0xe7, 0x0d, 0xd7, 0x12, 0xd0, 0x15, 0x0a, 0xd3, 0xf7, 0x00, 0x05, 0x01,
  0x15, 0x05, 0xd5, 0xde, 0x06, 0x11, 0xe4, 0x0a, 0x16, 0x01, 0x05, 0x0c,
  0x05, 0xf1, 0x0c, 0x0f, 0x07, 0xf9, 0xbb, 0x07, 0x18, 0xdc, 0xdf, 0x0c,
  0x13, 0x05, 0x0c, 0xf4, 0xaa, 0xa4, 0xcc, 0x9b, 0x8f, 0xc8, 0xd0, 0xc0,
  0xb6, 0xc2, 0xab, 0x81, 0x0c, 0xda, 0xdf, 0x0d, 0xec, 0xc8, 0xcc, 0x10,
  0xdb, 0xcf, 0x11, 0xd9, 0xfe, 0xda, 0xff, 0xff, 0x00, 0x00, 0x00, 0x09,
  0x10, 0x00, 0x00, 0x00, 0x13, 0x00, 0x00, 0x00, 0x14, 0x00, 0x00, 0x00,
  0x7c, 0x00, 0x00, 0x00, 0x02, 0x00, 0x00, 0x00, 0x06, 0x00, 0x00, 0x00,
  0x0c, 0x00, 0x00, 0x00, 0x67, 0x00, 0x00, 0x00, 0x73, 0x65, 0x71, 0x75,
  0x65, 0x6e, 0x74, 0x69, 0x61, 0x6c, 0x5f, 0x31, 0x32, 0x2f, 0x71, 0x75,
  0x61, 0x6e, 0x74, 0x5f, 0x64, 0x65, 0x6e, 0x73, 0x65, 0x5f, 0x31, 0x32,
  0x2f, 0x4d, 0x61, 0x74, 0x4d, 0x75, 0x6c, 0x3b, 0x73, 0x65, 0x71, 0x75,
  0x65, 0x6e, 0x74, 0x69, 0x61, 0x6c, 0x5f, 0x31, 0x32, 0x2f, 0x71, 0x75,
  0x61, 0x6e, 0x74, 0x5f, 0x64, 0x65, 0x6e, 0x73, 0x65, 0x5f, 0x31, 0x32,
  0x2f, 0x4c, 0x61, 0x73, 0x74, 0x56, 0x61, 0x6c, 0x75, 0x65, 0x51, 0x75,
  0x61, 0x6e, 0x74, 0x2f, 0x46, 0x61, 0x6b, 0x65, 0x51, 0x75, 0x61, 0x6e,
  0x74, 0x57, 0x69, 0x74, 0x68, 0x4d, 0x69, 0x6e, 0x4d, 0x61, 0x78, 0x56,
  0x61, 0x72, 0x73, 0x00, 0x44, 0xdc, 0xff, 0xff, 0x08, 0x00, 0x00, 0x00,
  0x0c, 0x00, 0x00, 0x00, 0x01, 0x00, 0x00, 0x00, 0x73, 0x64, 0xee, 0x3c,
  0x01, 0x00, 0x00, 0x00, 0x00, 0x00, 0x00, 0x00, 0x00, 0x00, 0x00, 0x00,
  0x00, 0x00, 0x0a, 0x00, 0x10, 0x00, 0x04, 0x00, 0x08, 0x00, 0x0c, 0x00,
  0x0a, 0x00, 0x00, 0x00, 0x03, 0x00, 0x00, 0x00, 0x10, 0x00, 0x00, 0x00,
  0x04, 0x00, 0x00, 0x00, 0x01, 0x00, 0x00, 0x00, 0x11, 0x00, 0x00, 0x00,
  0x02, 0x00, 0x00, 0x00, 0x10, 0x00, 0x00, 0x00, 0x02, 0x00, 0x00, 0x00,
  0x14, 0xde, 0xff, 0xff, 0x16, 0x00, 0x00, 0x00, 0x00, 0x00, 0x00, 0x16,
  0x01, 0x00, 0x00, 0x00, 0x08, 0xde, 0xff, 0xff, 0x00, 0x00, 0x00, 0x09,
  0x14, 0x00, 0x00, 0x00, 0x12, 0x00, 0x00, 0x00, 0x24, 0x00, 0x00, 0x00,
  0x4c, 0x00, 0x00, 0x00, 0x10, 0x00, 0x00, 0x00, 0x02, 0x00, 0x00, 0x00,
  0x01, 0x00, 0x00, 0x00, 0x0c, 0x00, 0x00, 0x00, 0x02, 0x00, 0x00, 0x00,
  0xff, 0xff, 0xff, 0xff, 0x0c, 0x00, 0x00, 0x00, 0x26, 0x00, 0x00, 0x00,
  0x73, 0x65, 0x71, 0x75, 0x65, 0x6e, 0x74, 0x69, 0x61, 0x6c, 0x5f, 0x31,
  0x32, 0x2f, 0x71, 0x75, 0x61, 0x6e, 0x74, 0x5f, 0x66, 0x6c, 0x61, 0x74,
  0x74, 0x65, 0x6e, 0x5f, 0x31, 0x32, 0x2f, 0x52, 0x65, 0x73, 0x68, 0x61,
  0x70, 0x65, 0x00, 0x00, 0x04, 0xdd, 0xff, 0xff, 0x08, 0x00, 0x00, 0x00,
  0x0c, 0x00, 0x00, 0x00, 0x01, 0x00, 0x00, 0x00, 0x8b, 0x68, 0xb9, 0x3c,
  0x01, 0x00, 0x00, 0x00, 0x80, 0xff, 0xff, 0xff, 0xff, 0xff, 0xff, 0xff,
  0x0e, 0xe5, 0xff, 0xff, 0x00, 0x00, 0x00, 0x1b, 0x02, 0x00, 0x00, 0x00,
  0x18, 0x00, 0x00, 0x00, 0x0c, 0x00, 0x00, 0x00, 0x04, 0x00, 0x00, 0x00,
  0xa0, 0xdb, 0xff, 0xff, 0x01, 0x00, 0x00, 0x00, 0x10, 0x00, 0x00, 0x00,
  0x02, 0x00, 0x00, 0x00, 0x0f, 0x00, 0x00, 0x00, 0x01, 0x00, 0x00, 0x00,
  0xd4, 0xde, 0xff, 0xff, 0x52, 0x00, 0x00, 0x00, 0x00, 0x00, 0x00, 0x52,
  0x02, 0x00, 0x00, 0x00, 0xc8, 0xde, 0xff, 0xff, 0x00, 0x00, 0x00, 0x09,
  0x14, 0x00, 0x00, 0x00, 0x11, 0x00, 0x00, 0x00, 0x24, 0x00, 0x00, 0x00,
  0x54, 0x00, 0x00, 0x00, 0x10, 0x00, 0x00, 0x00, 0x02, 0x00, 0x00, 0x00,
  0x01, 0x00, 0x00, 0x00, 0x0c, 0x00, 0x00, 0x00, 0x02, 0x00, 0x00, 0x00,
  0xff, 0xff, 0xff, 0xff, 0x0c, 0x00, 0x00, 0x00, 0x2f, 0x00, 0x00, 0x00,
  0x73, 0x65, 0x71, 0x75, 0x65, 0x6e, 0x74, 0x69, 0x61, 0x6c, 0x5f, 0x31,
  0x32, 0x2f, 0x71, 0x75, 0x61, 0x6e, 0x74, 0x5f, 0x67, 0x6c, 0x6f, 0x62,
  0x61, 0x6c, 0x5f, 0x6d, 0x61, 0x78, 0x5f, 0x70, 0x6f, 0x6f, 0x6c, 0x69,
  0x6e, 0x67, 0x32, 0x64, 0x5f, 0x31, 0x32, 0x2f, 0x4d, 0x61, 0x78, 0x00,
  0xcc, 0xdd, 0xff, 0xff, 0x08, 0x00, 0x00, 0x00, 0x0c, 0x00, 0x00, 0x00,
  0x01, 0x00, 0x00, 0x00, 0x8b, 0x68, 0xb9, 0x3c, 0x01, 0x00, 0x00, 0x00,
  0x80, 0xff, 0xff, 0xff, 0xff, 0xff, 0xff, 0xff, 0x00, 0x00, 0x00, 0x00,
  0xda, 0xe5, 0xff, 0xff, 0x00, 0x00, 0x00, 0x01, 0x01, 0x00, 0x00, 0x00,
  0x24, 0x00, 0x00, 0x00, 0x18, 0x00, 0x00, 0x00, 0x04, 0x00, 0x00, 0x00,
  0xcc, 0xe5, 0xff, 0xff, 0x01, 0x00, 0x00, 0x00, 0x01, 0x00, 0x00, 0x00,
  0x00, 0x00, 0x01, 0x01, 0x01, 0x00, 0x00, 0x00, 0x0f, 0x00, 0x00, 0x00,
  0x03, 0x00, 0x00, 0x00, 0x0c, 0x00, 0x00, 0x00, 0x0d, 0x00, 0x00, 0x00,
  0x0e, 0x00, 0x00, 0x00, 0x94, 0xdf, 0xff, 0xff, 0x00, 0x00, 0x00, 0x09,
  0x14, 0x00, 0x00, 0x00, 0x10, 0x00, 0x00, 0x00, 0x34, 0x00, 0x00, 0x00,
  0xe0, 0x00, 0x00, 0x00, 0x18, 0x00, 0x00, 0x00, 0x04, 0x00, 0x00, 0x00,
  0x01, 0x00, 0x00, 0x00, 0x36, 0x00, 0x00, 0x00, 0x01, 0x00, 0x00, 0x00,
  0x0c, 0x00, 0x00, 0x00, 0x04, 0x00, 0x00, 0x00, 0xff, 0xff, 0xff, 0xff,
  0x36, 0x00, 0x00, 0x00, 0x01, 0x00, 0x00, 0x00, 0x0c, 0x00, 0x00, 0x00,
  0xaa, 0x00, 0x00, 0x00, 0x73, 0x65, 0x71, 0x75, 0x65, 0x6e, 0x74, 0x69,
  0x61, 0x6c, 0x5f, 0x31, 0x32, 0x2f, 0x71, 0x75, 0x61, 0x6e, 0x74, 0x5f,
  0x72, 0x65, 0x5f, 0x6c, 0x75, 0x5f, 0x35, 0x31, 0x2f, 0x52, 0x65, 0x6c,
  0x75, 0x3b, 0x73, 0x65, 0x71, 0x75, 0x65, 0x6e, 0x74, 0x69, 0x61, 0x6c,
  0x5f, 0x31, 0x32, 0x2f, 0x71, 0x75, 0x61, 0x6e, 0x74, 0x5f, 0x63, 0x6f,
  0x6e, 0x76, 0x32, 0x64, 0x5f, 0x35, 0x31, 0x2f, 0x42, 0x69, 0x61, 0x73,
  0x41, 0x64, 0x64, 0x3b, 0x73, 0x65, 0x71, 0x75, 0x65, 0x6e, 0x74, 0x69,
  0x61, 0x6c, 0x5f, 0x31, 0x32, 0x2f, 0x71, 0x75, 0x61, 0x6e, 0x74, 0x5f,
  0x63, 0x6f, 0x6e, 0x76, 0x32, 0x64, 0x5f, 0x35, 0x31, 0x2f, 0x43, 0x6f,
  0x6e, 0x76, 0x32, 0x44, 0x3b, 0x73, 0x65, 0x71, 0x75, 0x65, 0x6e, 0x74,
  0x69, 0x61, 0x6c, 0x5f, 0x31, 0x32, 0x2f, 0x71, 0x75, 0x61, 0x6e, 0x74,
  0x5f, 0x63, 0x6f, 0x6e, 0x76, 0x32, 0x64, 0x5f, 0x35, 0x31, 0x2f, 0x42,
  0x69, 0x61, 0x73, 0x41, 0x64, 0x64, 0x2f, 0x52, 0x65, 0x61, 0x64, 0x56,
  0x61, 0x72, 0x69, 0x61, 0x62, 0x6c, 0x65, 0x4f, 0x70, 0x2f, 0x72, 0x65,
  0x73, 0x6f, 0x75, 0x72, 0x63, 0x65, 0x00, 0x00, 0x24, 0xdf, 0xff, 0xff,
  0x08, 0x00, 0x00, 0x00, 0x0c, 0x00, 0x00, 0x00, 0x01, 0x00, 0x00, 0x00,
  0x8b, 0x68, 0xb9, 0x3c, 0x01, 0x00, 0x00, 0x00, 0x80, 0xff, 0xff, 0xff,
  0xff, 0xff, 0xff, 0xff, 0x00, 0x00, 0x00, 0x00, 0xae, 0xde, 0xff, 0xff,
  0x04, 0x00, 0x00, 0x00, 0x30, 0x00, 0x00, 0x00, 0x31, 0xff, 0xff, 0xff,
  0xf2, 0x02, 0x00, 0x00, 0x8a, 0xfa, 0xff, 0xff, 0xa0, 0xfd, 0xff, 0xff,
  0x24, 0x00, 0x00, 0x00, 0xc5, 0xff, 0xff, 0xff, 0x42, 0x00, 0x00, 0x00,
  0xcd, 0xfe, 0xff, 0xff, 0x80, 0xfd, 0xff, 0xff, 0x1e, 0xfb, 0xff, 0xff,
  0xd8, 0xff, 0xff, 0xff, 0x30, 0x05, 0x00, 0x00, 0xce, 0xde, 0xff, 0xff,
  0x00, 0x00, 0x00, 0x02, 0x10, 0x00, 0x00, 0x00, 0x0f, 0x00, 0x00, 0x00,
  0x10, 0x00, 0x00, 0x00, 0x50, 0x00, 0x00, 0x00, 0x01, 0x00, 0x00, 0x00,
  0x0c, 0x00, 0x00, 0x00, 0x3d, 0x00, 0x00, 0x00, 0x73, 0x65, 0x71, 0x75,
  0x65, 0x6e, 0x74, 0x69, 0x61, 0x6c, 0x5f, 0x31, 0x32, 0x2f, 0x71, 0x75,
  0x61, 0x6e, 0x74, 0x5f, 0x63, 0x6f, 0x6e, 0x76, 0x32, 0x64, 0x5f, 0x35,
  0x31, 0x2f, 0x42, 0x69, 0x61, 0x73, 0x41, 0x64, 0x64, 0x2f, 0x52, 0x65,
  0x61, 0x64, 0x56, 0x61, 0x72, 0x69, 0x61, 0x62, 0x6c, 0x65, 0x4f, 0x70,
  0x2f, 0x72, 0x65, 0x73, 0x6f, 0x75, 0x72, 0x63, 0x65, 0x00, 0x00, 0x00,
  0xe8, 0xdf, 0xff, 0xff, 0x08, 0x00, 0x00, 0x00, 0x38, 0x00, 0x00, 0x00,
  0x0c, 0x00, 0x00, 0x00, 0x2e, 0x8b, 0xc7, 0x39, 0x1b, 0xf7, 0x8e, 0x39,
  0xaa, 0xcd, 0xb2, 0x39, 0x99, 0x35, 0xbc, 0x39, 0xb9, 0x48, 0xce, 0x39,
  0x88, 0x49, 0xca, 0x39, 0x16, 0x84, 0xcf, 0x39, 0x01, 0xad, 0xa7, 0x39,
  0x36, 0x9a, 0x92, 0x39, 0x0f, 0x43, 0xa4, 0x39, 0xf5, 0x82, 0x99, 0x39,
  0x2f, 0x45, 0xaf, 0x39, 0x0c, 0x00, 0x00, 0x00, 0x00, 0x00, 0x00, 0x00,
  0x00, 0x00, 0x00, 0x00, 0x00, 0x00, 0x00, 0x00, 0x00, 0x00, 0x00, 0x00,
  0x00, 0x00, 0x00, 0x00, 0x00, 0x00, 0x00, 0x00, 0x00, 0x00, 0x00, 0x00,
  0x00, 0x00, 0x00, 0x00, 0x00, 0x00, 0x00, 0x00, 0x00, 0x00, 0x00, 0x00,
  0x00, 0x00, 0x00, 0x00, 0x00, 0x00, 0x00, 0x00, 0x00, 0x00, 0x00, 0x00,
  0x00, 0x00, 0x00, 0x00, 0x00, 0x00, 0x00, 0x00, 0x00, 0x00, 0x00, 0x00,
  0x00, 0x00, 0x00, 0x00, 0x00, 0x00, 0x00, 0x00, 0x00, 0x00, 0x00, 0x00,
  0x00, 0x00, 0x00, 0x00, 0x00, 0x00, 0x00, 0x00, 0x00, 0x00, 0x00, 0x00,
  0x00, 0x00, 0x00, 0x00, 0x00, 0x00, 0x00, 0x00, 0xf2, 0xdf, 0xff, 0xff,
  0x04, 0x00, 0x00, 0x00, 0x20, 0x01, 0x00, 0x00, 0xd9, 0x0f, 0x05, 0x1a,
  0x0b, 0x04, 0xec, 0x3d, 0x9b, 0x07, 0x1c, 0x87, 0x03, 0x09, 0xe9, 0x99,
  0x13, 0xef, 0x1f, 0x2e, 0xf3, 0xc5, 0xe7, 0x81, 0xa4, 0x8e, 0x2b, 0x2c,
  0x74, 0x81, 0xcb, 0x38, 0x95, 0xc5, 0x06, 0x0e, 0xac, 0xc9, 0x26, 0x00,
  0x34, 0x21, 0x1d, 0xa4, 0xae, 0x01, 0xcd, 0x04, 0xdf, 0xd8, 0x02, 0xc0,
  0x0c, 0xb2, 0x0a, 0xe6, 0x1d, 0xeb, 0x00, 0x0b, 0x08, 0xf0, 0x0e, 0x81,
  0x00, 0x0c, 0xee, 0x07, 0xf5, 0x0a, 0xf9, 0x27, 0x34, 0x22, 0x1e, 0xcb,
  0xd5, 0xf7, 0xc8, 0x27, 0xfc, 0xdc, 0x0f, 0xbc, 0xe1, 0xda, 0x1c, 0x2e,
  0xdf, 0x11, 0x0e, 0x4f, 0x81, 0x8e, 0xac, 0x15, 0x0d, 0xd0, 0x09, 0x30,
  0xff, 0x81, 0xd6, 0x39, 0x9e, 0xd0, 0x27, 0x45, 0xfa, 0xd8, 0x0f, 0x25,
  0x01, 0xcb, 0x0a, 0x04, 0xdb, 0xc3, 0x12, 0xe6, 0x8c, 0xdd, 0xc5, 0x19,
  0xb0, 0xf3, 0xfb, 0x3d, 0x24, 0x0f, 0x08, 0x13, 0x16, 0xf8, 0x09, 0x0f,
  0xd5, 0x0a, 0x0c, 0xa4, 0xf0, 0xeb, 0x81, 0x02, 0x83, 0xea, 0xc8, 0x1c,
  0xed, 0xea, 0x05, 0x2d, 0x2b, 0x12, 0x06, 0x11, 0x12, 0xed, 0x11, 0x0a,
  0xd1, 0x07, 0x11, 0x96, 0xea, 0xe4, 0x81, 0x05, 0xdb, 0xf7, 0xd7, 0x30,
  0x89, 0xf4, 0xf1, 0xd9, 0x81, 0x08, 0xe8, 0xf8, 0x18, 0x13, 0xf3, 0xe8,
  0x3b, 0xef, 0x11, 0x75, 0xdc, 0xfd, 0xf9, 0xe0, 0x2b, 0xe0, 0xad, 0x38,
  0x25, 0x0c, 0xd7, 0xc7, 0x0f, 0xf9, 0x01, 0xfd, 0xf6, 0x93, 0x8e, 0x11,
  0x47, 0x81, 0xa3, 0x51, 0xb6, 0xb5, 0x29, 0x22, 0x26, 0x98, 0xb0, 0x2a,
  0x10, 0xf1, 0xd9, 0xf6, 0x21, 0x12, 0x1a, 0x40, 0x24, 0xba, 0x81, 0xff,
  0x00, 0xc6, 0xef, 0x5e, 0xd7, 0xd2, 0xf1, 0x05, 0xba, 0xff, 0x0c, 0x1e,
  0x00, 0x07, 0xe7, 0x35, 0x8f, 0x06, 0x2c, 0x81, 0x14, 0x21, 0xdc, 0x88,
  0x0b, 0xea, 0x0d, 0x48, 0x02, 0xba, 0xdf, 0xba, 0x02, 0xeb, 0x25, 0xd4,
  0xd4, 0x0a, 0xee, 0x1d, 0x0d, 0x13, 0xfe, 0xed, 0xbf, 0xb5, 0xf2, 0x33,
  0xf2, 0x81, 0xf0, 0x3f, 0x22, 0xc1, 0xc6, 0xfc, 0x02, 0xe1, 0xff, 0xff,
  0x00, 0x00, 0x00, 0x09, 0x10, 0x00, 0x00, 0x00, 0x0e, 0x00, 0x00, 0x00,
  0x1c, 0x00, 0x00, 0x00, 0x44, 0x00, 0x00, 0x00, 0x04, 0x00, 0x00, 0x00,
  0x0c, 0x00, 0x00, 0x00, 0x02, 0x00, 0x00, 0x00, 0x01, 0x00, 0x00, 0x00,
  0x0c, 0x00, 0x00, 0x00, 0x24, 0x00, 0x00, 0x00, 0x73, 0x65, 0x71, 0x75,
  0x65, 0x6e, 0x74, 0x69, 0x61, 0x6c, 0x5f, 0x31, 0x32, 0x2f, 0x71, 0x75,
  0x61, 0x6e, 0x74, 0x5f, 0x63, 0x6f, 0x6e, 0x76, 0x32, 0x64, 0x5f, 0x35,
  0x31, 0x2f, 0x43, 0x6f, 0x6e, 0x76, 0x32, 0x44, 0x00, 0x00, 0x00, 0x00,
  0x10, 0xe2, 0xff, 0xff, 0x08, 0x00, 0x00, 0x00, 0x38, 0x00, 0x00, 0x00,
  0x0c, 0x00, 0x00, 0x00, 0x32, 0xd2, 0x61, 0x3c, 0xbf, 0xca, 0x21, 0x3c,
  0x7c, 0x59, 0x4a, 0x3c, 0x83, 0xfe, 0x54, 0x3c, 0xf8, 0x72, 0x69, 0x3c,
  0x09, 0xed, 0x64, 0x3c, 0xdd, 0xd7, 0x6a, 0x3c, 0xb0, 0xc1, 0x3d, 0x3c,
  0x78, 0xe8, 0x25, 0x3c, 0xa8, 0xe4, 0x39, 0x3c, 0x23, 0xba, 0x2d, 0x3c,
  0xe5, 0x59, 0x46, 0x3c, 0x0c, 0x00, 0x00, 0x00, 0x00, 0x00, 0x00, 0x00,
  0x00, 0x00, 0x00, 0x00, 0x00, 0x00, 0x00, 0x00, 0x00, 0x00, 0x00, 0x00,
  0x00, 0x00, 0x00, 0x00, 0x00, 0x00, 0x00, 0x00, 0x00, 0x00, 0x00, 0x00,
  0x00, 0x00, 0x00, 0x00, 0x00, 0x00, 0x00, 0x00, 0x00, 0x00, 0x00, 0x00,
  0x00, 0x00, 0x00, 0x00, 0x00, 0x00, 0x00, 0x00, 0x00, 0x00, 0x00, 0x00,
  0x00, 0x00, 0x00, 0x00, 0x00, 0x00, 0x00, 0x00, 0x00, 0x00, 0x00, 0x00,
  0x00, 0x00, 0x00, 0x00, 0x00, 0x00, 0x00, 0x00, 0x00, 0x00, 0x00, 0x00,
  0x00, 0x00, 0x00, 0x00, 0x00, 0x00, 0x00, 0x00, 0x00, 0x00, 0x00, 0x00,
  0x00, 0x00, 0x00, 0x00, 0x00, 0x00, 0x00, 0x00, 0x9e, 0xea, 0xff, 0xff,
  0x00, 0x00, 0x00, 0x01, 0x01, 0x00, 0x00, 0x00, 0x24, 0x00, 0x00, 0x00,
  0x18, 0x00, 0x00, 0x00, 0x04, 0x00, 0x00, 0x00, 0x90, 0xea, 0xff, 0xff,
  0x01, 0x00, 0x00, 0x00, 0x01, 0x00, 0x00, 0x00, 0x00, 0x00, 0x01, 0x01,
  0x01, 0x00, 0x00, 0x00, 0x0c, 0x00, 0x00, 0x00, 0x03, 0x00, 0x00, 0x00,
  0x09, 0x00, 0x00, 0x00, 0x0a, 0x00, 0x00, 0x00, 0x0b, 0x00, 0x00, 0x00,
  0x58, 0xe4, 0xff, 0xff, 0x00, 0x00, 0x00, 0x09, 0x14, 0x00, 0x00, 0x00,
  0x0d, 0x00, 0x00, 0x00, 0x34, 0x00, 0x00, 0x00, 0x04, 0x01, 0x00, 0x00,
  0x18, 0x00, 0x00, 0x00, 0x04, 0x00, 0x00, 0x00, 0x01, 0x00, 0x00, 0x00,
  0x37, 0x00, 0x00, 0x00, 0x01, 0x00, 0x00, 0x00, 0x0c, 0x00, 0x00, 0x00,
  0x04, 0x00, 0x00, 0x00, 0xff, 0xff, 0xff, 0xff, 0x37, 0x00, 0x00, 0x00,
  0x01, 0x00, 0x00, 0x00, 0x0c, 0x00, 0x00, 0x00, 0xcf, 0x00, 0x00, 0x00,
  0x73, 0x65, 0x71, 0x75, 0x65, 0x6e, 0x74, 0x69, 0x61, 0x6c, 0x5f, 0x31,
  0x32, 0x2f, 0x71, 0x75, 0x61, 0x6e, 0x74, 0x5f, 0x72, 0x65, 0x5f, 0x6c,
  0x75, 0x5f, 0x35, 0x30, 0x2f, 0x52, 0x65, 0x6c, 0x75, 0x3b, 0x73, 0x65,
  0x71, 0x75, 0x65, 0x6e, 0x74, 0x69, 0x61, 0x6c, 0x5f, 0x31, 0x32, 0x2f,
  0x71, 0x75, 0x61, 0x6e, 0x74, 0x5f, 0x63, 0x6f, 0x6e, 0x76, 0x32, 0x64,
  0x5f, 0x35, 0x30, 0x2f, 0x42, 0x69, 0x61, 0x73, 0x41, 0x64, 0x64, 0x3b,
  0x73, 0x65, 0x71, 0x75, 0x65, 0x6e, 0x74, 0x69, 0x61, 0x6c, 0x5f, 0x31,
  0x32, 0x2f, 0x71, 0x75, 0x61, 0x6e, 0x74, 0x5f, 0x63, 0x6f, 0x6e, 0x76,
  0x32, 0x64, 0x5f, 0x35, 0x31, 0x2f, 0x43, 0x6f, 0x6e, 0x76, 0x32, 0x44,
  0x3b, 0x73, 0x65, 0x71, 0x75, 0x65, 0x6e, 0x74, 0x69, 0x61, 0x6c, 0x5f,
  0x31, 0x32, 0x2f, 0x71, 0x75, 0x61, 0x6e, 0x74, 0x5f, 0x63, 0x6f, 0x6e,
  0x76, 0x32, 0x64, 0x5f, 0x35, 0x30, 0x2f, 0x43, 0x6f, 0x6e, 0x76, 0x32,
  0x44, 0x3b, 0x73, 0x65, 0x71, 0x75, 0x65, 0x6e, 0x74, 0x69, 0x61, 0x6c,
  0x5f, 0x31, 0x32, 0x2f, 0x71, 0x75, 0x61, 0x6e, 0x74, 0x5f, 0x63, 0x6f,
  0x6e, 0x76, 0x32, 0x64, 0x5f, 0x35, 0x30, 0x2f, 0x42, 0x69, 0x61, 0x73,
  0x41, 0x64, 0x64, 0x2f, 0x52, 0x65, 0x61, 0x64, 0x56, 0x61, 0x72, 0x69,
  0x61, 0x62, 0x6c, 0x65, 0x4f, 0x70, 0x2f, 0x72, 0x65, 0x73, 0x6f, 0x75,
  0x72, 0x63, 0x65, 0x00, 0x0c, 0xe4, 0xff, 0xff, 0x08, 0x00, 0x00, 0x00,
  0x0c, 0x00, 0x00, 0x00, 0x01, 0x00, 0x00, 0x00, 0xfb, 0x35, 0xe2, 0x3c,
  0x01, 0x00, 0x00, 0x00, 0x80, 0xff, 0xff, 0xff, 0xff, 0xff, 0xff, 0xff,
  0x00, 0x00, 0x00, 0x00, 0x96, 0xe3, 0xff, 0xff, 0x04, 0x00, 0x00, 0x00,
  0x30, 0x00, 0x00, 0x00, 0xa5, 0x05, 0x00, 0x00, 0xbf, 0x03, 0x00, 0x00,
  0x5d, 0xff, 0xff, 0xff, 0x58, 0x07, 0x00, 0x00, 0x9d, 0x02, 0x00, 0x00,
  0x0a, 0x05, 0x00, 0x00, 0x03, 0x01, 0x00, 0x00, 0x0e, 0x04, 0x00, 0x00,
  0x61, 0x02, 0x00, 0x00, 0x38, 0xfd, 0xff, 0xff, 0x84, 0x02, 0x00, 0x00,
  0x92, 0xf1, 0xff, 0xff, 0xb6, 0xe3, 0xff, 0xff, 0x00, 0x00, 0x00, 0x02,
  0x10, 0x00, 0x00, 0x00, 0x0c, 0x00, 0x00, 0x00, 0x10, 0x00, 0x00, 0x00,
  0x50, 0x00, 0x00, 0x00, 0x01, 0x00, 0x00, 0x00, 0x0c, 0x00, 0x00, 0x00,
  0x3d, 0x00, 0x00, 0x00, 0x73, 0x65, 0x71, 0x75, 0x65, 0x6e, 0x74, 0x69,
  0x61, 0x6c, 0x5f, 0x31, 0x32, 0x2f, 0x71, 0x75, 0x61, 0x6e, 0x74, 0x5f,
  0x63, 0x6f, 0x6e, 0x76, 0x32, 0x64, 0x5f, 0x35, 0x30, 0x2f, 0x42, 0x69,
  0x61, 0x73, 0x41, 0x64, 0x64, 0x2f, 0x52, 0x65, 0x61, 0x64, 0x56, 0x61,
  0x72, 0x69, 0x61, 0x62, 0x6c, 0x65, 0x4f, 0x70, 0x2f, 0x72, 0x65, 0x73,
  0x6f, 0x75, 0x72, 0x63, 0x65, 0x00, 0x00, 0x00, 0xd0, 0xe4, 0xff, 0xff,
  0x08, 0x00, 0x00, 0x00, 0x38, 0x00, 0x00, 0x00, 0x0c, 0x00, 0x00, 0x00,
  0x67, 0x59, 0x23, 0x39, 0x35, 0x93, 0x2c, 0x39, 0x85, 0xaf, 0x29, 0x39,
  0x5a, 0x8e, 0x11, 0x39, 0x9c, 0xfb, 0x33, 0x39, 0x47, 0x52, 0x43, 0x39,
  0xbe, 0x7a, 0x21, 0x39, 0xd9, 0xfa, 0x95, 0x39, 0x6f, 0x70, 0x2b, 0x39,
  0xe0, 0x3d, 0xe3, 0x38, 0xa9, 0xe7, 0x26, 0x39, 0x32, 0x65, 0x04, 0x39,
  0x0c, 0x00, 0x00, 0x00, 0x00, 0x00, 0x00, 0x00, 0x00, 0x00, 0x00, 0x00,
  0x00, 0x00, 0x00, 0x00, 0x00, 0x00, 0x00, 0x00, 0x00, 0x00, 0x00, 0x00,
  0x00, 0x00, 0x00, 0x00, 0x00, 0x00, 0x00, 0x00, 0x00, 0x00, 0x00, 0x00,
  0x00, 0x00, 0x00, 0x00, 0x00, 0x00, 0x00, 0x00, 0x00, 0x00, 0x00, 0x00,
  0x00, 0x00, 0x00, 0x00, 0x00, 0x00, 0x00, 0x00, 0x00, 0x00, 0x00, 0x00,
  0x00, 0x00, 0x00, 0x00, 0x00, 0x00, 0x00, 0x00, 0x00, 0x00, 0x00, 0x00,
  0x00, 0x00, 0x00, 0x00, 0x00, 0x00, 0x00, 0x00, 0x00, 0x00, 0x00, 0x00,
  0x00, 0x00, 0x00, 0x00, 0x00, 0x00, 0x00, 0x00, 0x00, 0x00, 0x00, 0x00,
  0x00, 0x00, 0x00, 0x00, 0xda, 0xe4, 0xff, 0xff, 0x04, 0x00, 0x00, 0x00,
  0x80, 0x01, 0x00, 0x00, 0xfd, 0x36, 0x18, 0x32, 0xd3, 0x19, 0x3a, 0xcf,
  0x0e, 0xb3, 0xfd, 0x7f, 0xf3, 0x06, 0xd0, 0xdc, 0x1c, 0xfe, 0xab, 0x1f,
  0x25, 0xf4, 0x13, 0xdf, 0x48, 0x85, 0x17, 0x47, 0x84, 0xcf, 0xe0, 0xff,
  0x2c, 0x2a, 0x81, 0x37, 0xe3, 0xe6, 0xe5, 0x42, 0xff, 0x07, 0xc0, 0xd9,
  0xce, 0xe3, 0x66, 0xdc, 0xff, 0x1e, 0x9a, 0x27, 0xf9, 0x46, 0x21, 0x0c,
  0x1b, 0xca, 0xeb, 0xe3, 0xc2, 0xf5, 0x0f, 0xea, 0x42, 0x06, 0xee, 0x39,
  0xf9, 0x35, 0xe8, 0x29, 0x03, 0x8c, 0x20, 0x0a, 0xe4, 0x92, 0x40, 0x81,
  0x05, 0x13, 0x91, 0xf6, 0xf3, 0x24, 0x24, 0x3b, 0x32, 0x55, 0xf7, 0xc2,
  0xa0, 0xf7, 0x0a, 0x1d, 0xa4, 0x85, 0x27, 0xdb, 0x0c, 0xbd, 0x63, 0x55,
  0x2b, 0x42, 0x34, 0x5d, 0x0b, 0x93, 0xfc, 0xd6, 0xc4, 0xca, 0x2f, 0x63,
  0x81, 0xec, 0x02, 0x53, 0xfd, 0x23, 0x49, 0xe8, 0x22, 0xab, 0x0a, 0xee,
  0x0a, 0x16, 0x1d, 0x2d, 0x0f, 0x1d, 0x18, 0x10, 0x07, 0x9e, 0xff, 0x1b,
  0xfe, 0x0d, 0x01, 0xa0, 0x08, 0xf4, 0x03, 0x08, 0xea, 0x23, 0xad, 0xab,
  0x2e, 0x81, 0xc5, 0x41, 0x6a, 0xf8, 0xca, 0xe5, 0x40, 0x13, 0xff, 0x30,
  0xa7, 0x34, 0x04, 0xc7, 0xe9, 0x10, 0xfb, 0x13, 0xdb, 0x0b, 0x38, 0xf1,
  0x3c, 0x15, 0x81, 0xde, 0xf0, 0xc1, 0x09, 0x12, 0x4f, 0x11, 0x22, 0xe1,
  0xc6, 0xcd, 0xf6, 0x0e, 0x19, 0x26, 0x4a, 0x01, 0xf4, 0xc9, 0xfd, 0xfb,
  0x04, 0x29, 0x0f, 0xf9, 0x2e, 0xfd, 0x2f, 0xbd, 0x26, 0x0b, 0x81, 0xb8,
  0x12, 0x36, 0xe5, 0xfc, 0x2a, 0x09, 0x1e, 0x08, 0xbc, 0xf6, 0x0e, 0x55,
  0xfc, 0x08, 0xdf, 0x27, 0xe2, 0xd3, 0xde, 0x1c, 0x1a, 0x08, 0xfd, 0x06,
  0xc2, 0xe3, 0xf6, 0x00, 0xf0, 0x0f, 0x23, 0x07, 0xe0, 0x1a, 0x81, 0xfc,
  0x12, 0xc3, 0xd8, 0x2e, 0x0c, 0xa4, 0xa6, 0x96, 0xfc, 0x58, 0xe6, 0xf5,
  0xf2, 0x32, 0xd2, 0xa6, 0xf2, 0x7f, 0x31, 0xf7, 0xbb, 0xfb, 0xea, 0x20,
  0xed, 0x16, 0x14, 0x1c, 0xc9, 0x18, 0xff, 0xf0, 0x31, 0x68, 0x01, 0xf0,
  0x9c, 0x05, 0xef, 0x3c, 0x37, 0xdf, 0x16, 0xff, 0x10, 0x27, 0x14, 0x18,
  0xc2, 0x6d, 0x12, 0xd0, 0x38, 0x2c, 0x53, 0x7f, 0xd5, 0x45, 0x2b, 0x7b,
  0x4e, 0xfd, 0x0e, 0xe8, 0xee, 0xbc, 0x06, 0x32, 0xe4, 0x37, 0xe1, 0x43,
  0x08, 0xed, 0xcf, 0x16, 0x13, 0x29, 0x1c, 0xea, 0x2e, 0x7f, 0xce, 0x3d,
  0x0c, 0x41, 0x09, 0xc1, 0xe0, 0x9e, 0x0e, 0x28, 0xd6, 0x23, 0xf6, 0xef,
  0x0a, 0x01, 0xdd, 0x27, 0x3a, 0x1c, 0xf2, 0xc5, 0x11, 0x0a, 0x34, 0x06,
  0xfe, 0x27, 0x04, 0x28, 0x04, 0x7e, 0xb3, 0xd3, 0x27, 0xfd, 0xe5, 0x34,
  0x25, 0x16, 0x39, 0xe3, 0x1a, 0xea, 0xf7, 0x24, 0x19, 0x9d, 0x65, 0x81,
  0x12, 0x24, 0x22, 0x38, 0x4a, 0xe6, 0xff, 0xff, 0x00, 0x00, 0x00, 0x09,
  0x10, 0x00, 0x00, 0x00, 0x0b, 0x00, 0x00, 0x00, 0x1c, 0x00, 0x00, 0x00,
  0x44, 0x00, 0x00, 0x00, 0x04, 0x00, 0x00, 0x00, 0x0c, 0x00, 0x00, 0x00,
  0x02, 0x00, 0x00, 0x00, 0x01, 0x00, 0x00, 0x00, 0x10, 0x00, 0x00, 0x00,
  0x24, 0x00, 0x00, 0x00, 0x73, 0x65, 0x71, 0x75, 0x65, 0x6e, 0x74, 0x69,
  0x61, 0x6c, 0x5f, 0x31, 0x32, 0x2f, 0x71, 0x75, 0x61, 0x6e, 0x74, 0x5f,
  0x63, 0x6f, 0x6e, 0x76, 0x32, 0x64, 0x5f, 0x35, 0x30, 0x2f, 0x43, 0x6f,
  0x6e, 0x76, 0x32, 0x44, 0x00, 0x00, 0x00, 0x00, 0x58, 0xe7, 0xff, 0xff,
  0x08, 0x00, 0x00, 0x00, 0x38, 0x00, 0x00, 0x00, 0x0c, 0x00, 0x00, 0x00,
  0x4c, 0x03, 0x2c, 0x3c, 0x5e, 0xba, 0x35, 0x3c, 0x72, 0xaf, 0x32, 0x3c,
  0xa8, 0x46, 0x19, 0x3c, 0x59, 0x87, 0x3d, 0x3c, 0x47, 0xae, 0x4d, 0x3c,
  0x3f, 0x0b, 0x2a, 0x3c, 0x37, 0xef, 0x9d, 0x3c, 0x2b, 0x88, 0x34, 0x3c,
  0x47, 0x4b, 0xef, 0x3b, 0xd5, 0xc1, 0x2f, 0x3c, 0xcf, 0x6a, 0x0b, 0x3c,
  0x0c, 0x00, 0x00, 0x00, 0x00, 0x00, 0x00, 0x00, 0x00, 0x00, 0x00, 0x00,
  0x00, 0x00, 0x00, 0x00, 0x00, 0x00, 0x00, 0x00, 0x00, 0x00, 0x00, 0x00,
  0x00, 0x00, 0x00, 0x00, 0x00, 0x00, 0x00, 0x00, 0x00, 0x00, 0x00, 0x00,
  0x00, 0x00, 0x00, 0x00, 0x00, 0x00, 0x00, 0x00, 0x00, 0x00, 0x00, 0x00,
  0x00, 0x00, 0x00, 0x00, 0x00, 0x00, 0x00, 0x00, 0x00, 0x00, 0x00, 0x00,
  0x00, 0x00, 0x00, 0x00, 0x00, 0x00, 0x00, 0x00, 0x00, 0x00, 0x00, 0x00,
  0x00, 0x00, 0x00, 0x00, 0x00, 0x00, 0x00, 0x00, 0x00, 0x00, 0x00, 0x00,
  0x00, 0x00, 0x00, 0x00, 0x00, 0x00, 0x00, 0x00, 0x00, 0x00, 0x00, 0x00,
  0x00, 0x00, 0x00, 0x00, 0x00, 0x00, 0x00, 0x00, 0xea, 0xef, 0xff, 0xff,
  0x00, 0x00, 0x00, 0x01, 0x01, 0x00, 0x00, 0x00, 0x24, 0x00, 0x00, 0x00,
  0x18, 0x00, 0x00, 0x00, 0x04, 0x00, 0x00, 0x00, 0xdc, 0xef, 0xff, 0xff,
  0x01, 0x00, 0x00, 0x00, 0x01, 0x00, 0x00, 0x00, 0x00, 0x00, 0x01, 0x01,
  0x01, 0x00, 0x00, 0x00, 0x09, 0x00, 0x00, 0x00, 0x03, 0x00, 0x00, 0x00,
  0x06, 0x00, 0x00, 0x00, 0x07, 0x00, 0x00, 0x00, 0x08, 0x00, 0x00, 0x00,
  0xa4, 0xe9, 0xff, 0xff, 0x00, 0x00, 0x00, 0x09, 0x14, 0x00, 0x00, 0x00,
  0x0a, 0x00, 0x00, 0x00, 0x34, 0x00, 0x00, 0x00, 0xe0, 0x00, 0x00, 0x00,
  0x18, 0x00, 0x00, 0x00, 0x04, 0x00, 0x00, 0x00, 0x01, 0x00, 0x00, 0x00,
  0x38, 0x00, 0x00, 0x00, 0x01, 0x00, 0x00, 0x00, 0x10, 0x00, 0x00, 0x00,
  0x04, 0x00, 0x00, 0x00, 0xff, 0xff, 0xff, 0xff, 0x38, 0x00, 0x00, 0x00,
  0x01, 0x00, 0x00, 0x00, 0x10, 0x00, 0x00, 0x00, 0xaa, 0x00, 0x00, 0x00,
  0x73, 0x65, 0x71, 0x75, 0x65, 0x6e, 0x74, 0x69, 0x61, 0x6c, 0x5f, 0x31,
  0x32, 0x2f, 0x71, 0x75, 0x61, 0x6e, 0x74, 0x5f, 0x72, 0x65, 0x5f, 0x6c,
  0x75, 0x5f, 0x34, 0x39, 0x2f, 0x52, 0x65, 0x6c, 0x75, 0x3b, 0x73, 0x65,
  0x71, 0x75, 0x65, 0x6e, 0x74, 0x69, 0x61, 0x6c, 0x5f, 0x31, 0x32, 0x2f,
  0x71, 0x75, 0x61, 0x6e, 0x74, 0x5f, 0x63, 0x6f, 0x6e, 0x76, 0x32, 0x64,
  0x5f, 0x34, 0x39, 0x2f, 0x42, 0x69, 0x61, 0x73, 0x41, 0x64, 0x64, 0x3b,
  0x73, 0x65, 0x71, 0x75, 0x65, 0x6e, 0x74, 0x69, 0x61, 0x6c, 0x5f, 0x31,
  0x32, 0x2f, 0x71, 0x75, 0x61, 0x6e, 0x74, 0x5f, 0x63, 0x6f, 0x6e, 0x76,
  0x32, 0x64, 0x5f, 0x34, 0x39, 0x2f, 0x43, 0x6f, 0x6e, 0x76, 0x32, 0x44,
  0x3b, 0x73, 0x65, 0x71, 0x75, 0x65, 0x6e, 0x74, 0x69, 0x61, 0x6c, 0x5f,
  0x31, 0x32, 0x2f, 0x71, 0x75, 0x61, 0x6e, 0x74, 0x5f, 0x63, 0x6f, 0x6e,
  0x76, 0x32, 0x64, 0x5f, 0x34, 0x39, 0x2f, 0x42, 0x69, 0x61, 0x73, 0x41,
  0x64, 0x64, 0x2f, 0x52, 0x65, 0x61, 0x64, 0x56, 0x61, 0x72, 0x69, 0x61,
  0x62, 0x6c, 0x65, 0x4f, 0x70, 0x2f, 0x72, 0x65, 0x73, 0x6f, 0x75, 0x72,
  0x63, 0x65, 0x00, 0x00, 0x34, 0xe9, 0xff, 0xff, 0x08, 0x00, 0x00, 0x00,
  0x0c, 0x00, 0x00, 0x00, 0x01, 0x00, 0x00, 0x00, 0x32, 0x1b, 0x73, 0x3c,
  0x01, 0x00, 0x00, 0x00, 0x80, 0xff, 0xff, 0xff, 0xff, 0xff, 0xff, 0xff,
  0x00, 0x00, 0x00, 0x00, 0xbe, 0xe8, 0xff, 0xff, 0x04, 0x00, 0x00, 0x00,
  0x40, 0x00, 0x00, 0x00, 0x5b, 0xf3, 0xff, 0xff, 0x52, 0x00, 0x00, 0x00,
  0x61, 0xed, 0xff, 0xff, 0xfa, 0x00, 0x00, 0x00, 0x81, 0xea, 0xff, 0xff,
  0x41, 0x00, 0x00, 0x00, 0x02, 0x02, 0x00, 0x00, 0x9c, 0x01, 0x00, 0x00,
  0xa3, 0xfd, 0xff, 0xff, 0xf1, 0x01, 0x00, 0x00, 0x08, 0x06, 0x00, 0x00,
  0xf1, 0x03, 0x00, 0x00, 0xf7, 0xf1, 0xff, 0xff, 0x8e, 0xc7, 0xff, 0xff,
  0xed, 0x04, 0x00, 0x00, 0x4e, 0xbf, 0xff, 0xff, 0xee, 0xe8, 0xff, 0xff,
  0x00, 0x00, 0x00, 0x02, 0x10, 0x00, 0x00, 0x00, 0x09, 0x00, 0x00, 0x00,
  0x10, 0x00, 0x00, 0x00, 0x50, 0x00, 0x00, 0x00, 0x01, 0x00, 0x00, 0x00,
  0x10, 0x00, 0x00, 0x00, 0x3d, 0x00, 0x00, 0x00, 0x73, 0x65, 0x71, 0x75,
  0x65, 0x6e, 0x74, 0x69, 0x61, 0x6c, 0x5f, 0x31, 0x32, 0x2f, 0x71, 0x75,
  0x61, 0x6e, 0x74, 0x5f, 0x63, 0x6f, 0x6e, 0x76, 0x32, 0x64, 0x5f, 0x34,
  0x39, 0x2f, 0x42, 0x69, 0x61, 0x73, 0x41, 0x64, 0x64, 0x2f, 0x52, 0x65,
  0x61, 0x64, 0x56, 0x61, 0x72, 0x69, 0x61, 0x62, 0x6c, 0x65, 0x4f, 0x70,
  0x2f, 0x72, 0x65, 0x73, 0x6f, 0x75, 0x72, 0x63, 0x65, 0x00, 0x00, 0x00,
  0x08, 0xea, 0xff, 0xff, 0x08, 0x00, 0x00, 0x00, 0x48, 0x00, 0x00, 0x00,
  0x10, 0x00, 0x00, 0x00, 0x94, 0x0b, 0x28, 0x38, 0xca, 0xa9, 0x57, 0x38,
  0x5f, 0xb5, 0x5e, 0x38, 0x1c, 0xdd, 0x9d, 0x38, 0xa2, 0x7c, 0x51, 0x38,
  0x1e, 0x2e, 0xf6, 0x38, 0xee, 0xbd, 0x04, 0x39, 0x40, 0x40, 0x98, 0x38,
  0xbf, 0x5e, 0xac, 0x38, 0xeb, 0x1d, 0xc2, 0x38, 0xed, 0xce, 0xb0, 0x38,
  0x25, 0x2a, 0xd0, 0x38, 0x2c, 0x1d, 0xac, 0x38, 0x77, 0xfe, 0x3b, 0x38,
  0xb2, 0x13, 0x5d, 0x38, 0xdd, 0x5a, 0x4d, 0x38, 0x10, 0x00, 0x00, 0x00,
  0x00, 0x00, 0x00, 0x00, 0x00, 0x00, 0x00, 0x00, 0x00, 0x00, 0x00, 0x00,
  0x00, 0x00, 0x00, 0x00, 0x00, 0x00, 0x00, 0x00, 0x00, 0x00, 0x00, 0x00,
  0x00, 0x00, 0x00, 0x00, 0x00, 0x00, 0x00, 0x00, 0x00, 0x00, 0x00, 0x00,
  0x00, 0x00, 0x00, 0x00, 0x00, 0x00, 0x00, 0x00, 0x00, 0x00, 0x00, 0x00,
  0x00, 0x00, 0x00, 0x00, 0x00, 0x00, 0x00, 0x00, 0x00, 0x00, 0x00, 0x00,
  0x00, 0x00, 0x00, 0x00, 0x00, 0x00, 0x00, 0x00, 0x00, 0x00, 0x00, 0x00,
  0x00, 0x00, 0x00, 0x00, 0x00, 0x00, 0x00, 0x00, 0x00, 0x00, 0x00, 0x00,
  0x00, 0x00, 0x00, 0x00, 0x00, 0x00, 0x00, 0x00, 0x00, 0x00, 0x00, 0x00,
  0x00, 0x00, 0x00, 0x00, 0x00, 0x00, 0x00, 0x00, 0x00, 0x00, 0x00, 0x00,
  0x00, 0x00, 0x00, 0x00, 0x00, 0x00, 0x00, 0x00, 0x00, 0x00, 0x00, 0x00,
  0x00, 0x00, 0x00, 0x00, 0x00, 0x00, 0x00, 0x00, 0x42, 0xea, 0xff, 0xff,
  0x04, 0x00, 0x00, 0x00, 0x00, 0x0c, 0x00, 0x00, 0x03, 0x19, 0xfd, 0x1a,
  0x10, 0xf5, 0x32, 0x36, 0xe9, 0xfd, 0xec, 0x22, 0xc5, 0x10, 0x3b, 0xee,
  0xe8, 0xf8, 0x0c, 0xfb, 0x0d, 0x42, 0x93, 0xee, 0x59, 0xff, 0xed, 0xf9,
  0x28, 0xe3, 0x24, 0xec, 0x22, 0x43, 0xe7, 0xfa, 0x5d, 0xf9, 0x21, 0x5e,
  0x13, 0x36, 0x93, 0x08, 0xc8, 0xcc, 0x34, 0xdd, 0xe8, 0xbb, 0x0b, 0x00,
  0xa3, 0x81, 0xef, 0xec, 0x18, 0x0f, 0x17, 0x1c, 0xb8, 0xf9, 0xd7, 0xd5,
  0x7a, 0xda, 0xfc, 0x28, 0xde, 0x2f, 0x3d, 0x1c, 0xe5, 0x19, 0xfd, 0xf8,
  0x0c, 0xe9, 0xfa, 0x10, 0xcf, 0x04, 0xfd, 0x0e, 0x13, 0xf7, 0xed, 0x55,
  0xbf, 0x26, 0xb8, 0x23, 0xff, 0xe1, 0x1c, 0x63, 0xcb, 0x34, 0x37, 0xd8,
  0x32, 0xe6, 0x14, 0x2a, 0x1a, 0xa4, 0x71, 0xf8, 0xd7, 0x04, 0xdb, 0xd1,
  0x1b, 0x13, 0x29, 0x29, 0x1e, 0x1b, 0x20, 0xda, 0xdb, 0x12, 0x15, 0xd0,
  0x14, 0x37, 0xe4, 0xef, 0xf9, 0x29, 0xf5, 0xb1, 0x11, 0xf2, 0x9e, 0xe3,
  0x08, 0xc0, 0x24, 0xd6, 0x0e, 0xde, 0x43, 0xd2, 0x46, 0xf6, 0x47, 0xfc,
  0x0d, 0xb5, 0x12, 0x67, 0x1b, 0xe7, 0x7f, 0x17, 0x24, 0x10, 0x11, 0xf8,
  0x2e, 0x08, 0x08, 0x2d, 0x0e, 0x1d, 0x6d, 0x3a, 0xf2, 0x16, 0xc5, 0x0b,
  0xd9, 0x0d, 0xbb, 0x0c, 0x2e, 0x50, 0x3f, 0xee, 0xe9, 0xf4, 0x39, 0xf0,
  0x30, 0x0b, 0x1b, 0xb4, 0x18, 0xad, 0x07, 0x2b, 0xfd, 0xcf, 0x22, 0x00,
  0x2b, 0x1f, 0xf6, 0x05, 0x3f, 0x00, 0xc9, 0xec, 0xe7, 0x1f, 0x7a, 0xb0,
  0x43, 0x81, 0xfd, 0xfd, 0xa2, 0xf6, 0x0a, 0x28, 0x5e, 0xfe, 0x0f, 0xab,
  0xc1, 0xd0, 0x21, 0xfb, 0xe8, 0x25, 0x03, 0xbb, 0x07, 0xf2, 0xf4, 0x10,
  0xeb, 0x51, 0xa2, 0x51, 0xfb, 0xbf, 0x27, 0x0a, 0x1f, 0xb7, 0x23, 0xfd,
  0x34, 0x1e, 0xde, 0x12, 0x12, 0xdc, 0xda, 0xfc, 0x01, 0xfc, 0x1a, 0xd4,
  0xbd, 0xed, 0x14, 0xf8, 0x0f, 0x04, 0xf1, 0x05, 0x20, 0x29, 0x00, 0xff,
  0x30, 0x32, 0x2a, 0x11, 0xf2, 0x4d, 0xeb, 0xc5, 0x1b, 0xe1, 0x65, 0x2d,
  0xed, 0x09, 0xec, 0x42, 0xd7, 0x02, 0x5a, 0x1d, 0x2f, 0xf1, 0xf9, 0x0c,
  0xe3, 0xfd, 0xde, 0xb4, 0x2c, 0x0f, 0xec, 0x9d, 0x10, 0xb5, 0x3c, 0xe6,
  0x2c, 0xe3, 0xf4, 0x39, 0xd3, 0x12, 0x1b, 0x29, 0x4f, 0xcb, 0x15, 0x11,
  0xe5, 0x26, 0xff, 0x22, 0xc6, 0x1c, 0xc5, 0xe4, 0x1e, 0x20, 0x01, 0xf9,
  0xdb, 0x3a, 0xee, 0x1c, 0x19, 0x2a, 0x31, 0x31, 0x16, 0xe4, 0x37, 0x15,
  0xa6, 0x3f, 0xf5, 0xe3, 0xf2, 0x21, 0x12, 0xd8, 0x10, 0xf2, 0x29, 0x08,
  0xe8, 0xde, 0xf7, 0x0f, 0xf6, 0x06, 0xf1, 0x0c, 0x12, 0x48, 0xff, 0xdf,
  0xa3, 0x6a, 0x07, 0x0e, 0xe6, 0xf9, 0xeb, 0xcd, 0x30, 0x22, 0x57, 0x10,
  0xfd, 0x4a, 0x0d, 0x60, 0x1a, 0x0c, 0xee, 0x3c, 0x15, 0x7f, 0x18, 0xf2,
  0x3a, 0x00, 0xfd, 0xe1, 0xc6, 0xd3, 0xec, 0x12, 0x04, 0xf5, 0x42, 0x12,
  0xd6, 0x19, 0x09, 0xde, 0x27, 0xe4, 0xfc, 0xf3, 0x4c, 0xfd, 0xf6, 0x0a,
  0x50, 0x3e, 0xb4, 0xcb, 0xe4, 0x47, 0xa8, 0xab, 0x93, 0xb4, 0x54, 0x2c,
  0x37, 0x0d, 0x02, 0x14, 0xbf, 0xfc, 0xfc, 0x01, 0x41, 0x34, 0x27, 0x16,
  0x29, 0x17, 0xdc, 0x35, 0xed, 0xf3, 0xb8, 0x36, 0x2b, 0x1b, 0x1e, 0xde,
  0xf2, 0x26, 0xdc, 0xfc, 0xfe, 0xd0, 0x3d, 0x79, 0xc1, 0xf3, 0xc4, 0x0d,
  0x0d, 0x0d, 0x01, 0xc7, 0xf2, 0x0f, 0xd4, 0xfb, 0xd1, 0xea, 0x51, 0x2f,
  0x0f, 0x34, 0xc4, 0xe8, 0xc7, 0xe4, 0x05, 0x04, 0x2a, 0x0c, 0xe5, 0x26,
  0x2e, 0xee, 0xf4, 0xee, 0x0e, 0x59, 0x49, 0xdb, 0xdb, 0xf3, 0x05, 0xf8,
  0x0d, 0xc5, 0x39, 0xd8, 0x1e, 0xeb, 0x0f, 0x39, 0x37, 0xfa, 0xd7, 0xc2,
  0x18, 0x33, 0x0d, 0xfe, 0xed, 0x99, 0x04, 0xfe, 0xf8, 0xba, 0x16, 0xf1,
  0x1d, 0xe1, 0x21, 0x33, 0x10, 0xdb, 0x03, 0x1d, 0x24, 0x05, 0x17, 0x13,
  0xef, 0x22, 0x09, 0x23, 0x08, 0x5e, 0x3c, 0x27, 0xf5, 0xef, 0x03, 0x0c,
  0x22, 0xcc, 0x66, 0xb9, 0xb5, 0xe0, 0xf3, 0x15, 0x67, 0xfc, 0xe7, 0xe1,
  0xe5, 0x03, 0x00, 0x03, 0xd6, 0x03, 0x1e, 0x19, 0xf4, 0xec, 0xd4, 0xfd,
  0x11, 0xfc, 0x34, 0xae, 0x08, 0xc6, 0xb9, 0x22, 0xed, 0xdf, 0x32, 0x11,
  0xdb, 0x19, 0xf9, 0xfc, 0x04, 0x20, 0xa9, 0x06, 0xf0, 0xe1, 0x03, 0x05,
  0x0a, 0x0c, 0x01, 0xf0, 0xe6, 0x2d, 0xd5, 0xdb, 0x0d, 0xf7, 0x06, 0x1a,
  0xf5, 0xee, 0x22, 0xfa, 0xf5, 0x1c, 0x03, 0x00, 0x2b, 0x00, 0x13, 0x53,
  0xde, 0x7f, 0x1e, 0x33, 0x12, 0x02, 0xda, 0xff, 0xba, 0xe8, 0xfb, 0x10,
  0xde, 0x15, 0xec, 0xd6, 0x0c, 0xc4, 0xe5, 0x10, 0xeb, 0xee, 0xf4, 0x14,
  0x0f, 0x0b, 0xef, 0x04, 0x14, 0x26, 0xeb, 0x06, 0x15, 0x10, 0x1e, 0x08,
  0x0a, 0x12, 0x13, 0xf9, 0xf2, 0xd2, 0xd8, 0xfa, 0x05, 0xe7, 0x45, 0x12,
  0x17, 0xef, 0x12, 0x2f, 0xec, 0xec, 0xe7, 0x3e, 0x8e, 0x02, 0xda, 0x19,
  0x12, 0x34, 0x05, 0xef, 0xeb, 0xd3, 0xdc, 0xf9, 0xd2, 0xe0, 0xf8, 0x02,
  0x11, 0x0b, 0xde, 0xf5, 0xff, 0x03, 0xc9, 0xd5, 0x01, 0xff, 0xec, 0x0e,
  0xe1, 0xf4, 0xf7, 0xe1, 0xd9, 0xe0, 0xe3, 0xf9, 0x0b, 0xdb, 0xfd, 0x23,
  0x0b, 0x13, 0xc6, 0x02, 0x0d, 0x01, 0xeb, 0xff, 0xac, 0xe5, 0x11, 0xfd,
  0xf9, 0x10, 0xeb, 0x26, 0xf2, 0xbb, 0xea, 0x04, 0xf9, 0xd9, 0xc5, 0xe1,
  0x0e, 0xe5, 0xce, 0xf6, 0xf6, 0x03, 0xd5, 0x1e, 0xb8, 0xf8, 0x0f, 0x3f,
  0xe5, 0xf6, 0x0e, 0x05, 0x14, 0xdd, 0xb2, 0xe4, 0xf4, 0xe9, 0x0b, 0xf7,
  0xf1, 0x2f, 0xfb, 0x17, 0x00, 0xfb, 0xd5, 0xfc, 0xcf, 0x24, 0xb8, 0xf8,
  0xff, 0xd9, 0xee, 0xff, 0xd4, 0x0f, 0xec, 0xf9, 0x21, 0xec, 0x00, 0x1c,
  0x03, 0x01, 0x02, 0x3c, 0x16, 0xf7, 0x0f, 0x3b, 0xd9, 0xc6, 0x05, 0x0c,
  0x32, 0xa1, 0xe9, 0xfd, 0xda, 0xfa, 0xc6, 0x50, 0xb5, 0x15, 0xad, 0x9b,
  0xe3, 0x18, 0x24, 0xc9, 0x03, 0x50, 0x05, 0x40, 0xad, 0x09, 0xda, 0xf3,
  0xf2, 0xde, 0x14, 0xe5, 0x05, 0x16, 0x26, 0xf5, 0x10, 0xeb, 0xc4, 0x44,
  0xfe, 0xf6, 0x26, 0x0c, 0x04, 0xe9, 0xa6, 0x01, 0x20, 0xf2, 0x07, 0x2b,
  0x4c, 0xf7, 0xd3, 0x16, 0x25, 0x29, 0xf2, 0x42, 0xe6, 0xfd, 0xc7, 0xd6,
  0x14, 0x2a, 0x16, 0x2f, 0x01, 0x2a, 0x07, 0x34, 0x31, 0xf4, 0xde, 0xf0,
  0x1e, 0xfd, 0xd3, 0x1e, 0x2f, 0xe3, 0x1f, 0xfc, 0x02, 0x15, 0x2e, 0xcb,
  0xe2, 0x03, 0x17, 0xfa, 0xda, 0x01, 0xf3, 0x1d, 0x14, 0xeb, 0xe6, 0x27,
  0x14, 0x1a, 0xe0, 0x16, 0x38, 0xf8, 0x1c, 0xf1, 0x14, 0x23, 0xf5, 0x07,
  0x0c, 0xaa, 0xe8, 0x41, 0xed, 0x34, 0x23, 0x01, 0xfe, 0x15, 0x05, 0x15,
  0x4b, 0x15, 0x05, 0xf8, 0x39, 0x00, 0x1f, 0x08, 0x24, 0xf7, 0x51, 0x38,
  0xe6, 0x06, 0xef, 0xfa, 0x08, 0x00, 0xd5, 0x17, 0x0f, 0xe3, 0xfd, 0x3f,
  0x6c, 0xd7, 0x08, 0x0c, 0xf2, 0xde, 0x60, 0x81, 0x5e, 0x0c, 0xf6, 0x10,
  0x1d, 0xd1, 0xe5, 0xca, 0xf3, 0x47, 0x26, 0xf5, 0xed, 0x1a, 0x09, 0x0f,
  0xe6, 0x08, 0x07, 0xff, 0x06, 0xca, 0xf4, 0x1e, 0x00, 0x18, 0x09, 0x07,
  0xfe, 0x15, 0x1a, 0x03, 0x12, 0xfd, 0xf2, 0x04, 0x14, 0xfd, 0x0a, 0xf6,
  0xea, 0x05, 0x06, 0xf6, 0x05, 0xf5, 0xfd, 0xfb, 0x0e, 0x17, 0x0b, 0x12,
  0x05, 0xf4, 0xf7, 0x12, 0xf9, 0xfc, 0x10, 0xed, 0x47, 0xfa, 0x0f, 0x0d,
  0xfe, 0xfa, 0x11, 0x0d, 0xfb, 0xff, 0xf5, 0xfb, 0xfd, 0x0e, 0x1e, 0x11,
  0xdf, 0xfe, 0xe9, 0x00, 0xeb, 0x10, 0x17, 0x29, 0x17, 0x17, 0xff, 0xf6,
  0xfc, 0x0b, 0x0b, 0x03, 0xfd, 0x00, 0xfa, 0xd5, 0x02, 0xf2, 0x0c, 0x18,
  0xef, 0x0e, 0xe7, 0x00, 0x04, 0xfb, 0xfd, 0x04, 0xdc, 0x17, 0x0c, 0x06,
  0xf0, 0xdd, 0xf1, 0xea, 0xf5, 0xf0, 0xfb, 0x18, 0x02, 0xe4, 0xea, 0x0a,
  0x09, 0xfb, 0x09, 0x15, 0xf1, 0x20, 0xe2, 0xe6, 0x81, 0xfe, 0x01, 0x1b,
  0xed, 0x11, 0xec, 0x05, 0xfd, 0xd1, 0xee, 0xfd, 0x08, 0x02, 0x19, 0xf7,
  0xff, 0xfa, 0x0d, 0xfa, 0x05, 0xfb, 0xde, 0x05, 0x0c, 0x06, 0xec, 0xee,
  0xe7, 0xf4, 0x23, 0x01, 0xe8, 0x0d, 0xd4, 0xd6, 0xe2, 0x12, 0x00, 0x02,
  0x12, 0x0e, 0xfd, 0xda, 0xed, 0x08, 0xfb, 0xf0, 0x18, 0xf7, 0xff, 0xf4,
  0xd5, 0x04, 0x04, 0xd8, 0xee, 0x0c, 0xdb, 0x08, 0xca, 0xf9, 0xef, 0x15,
  0x00, 0x06, 0x07, 0x12, 0x0c, 0xe6, 0xf8, 0xc7, 0xe5, 0xeb, 0xfb, 0xdd,
  0x23, 0x0c, 0xe0, 0xff, 0xfa, 0xe4, 0x11, 0x0f, 0xf4, 0xf1, 0xf5, 0x05,
  0xe7, 0x13, 0x1d, 0x12, 0x10, 0xfb, 0xf8, 0x12, 0xde, 0xff, 0xe2, 0x0c,
  0xe9, 0x07, 0xff, 0xff, 0x04, 0xd9, 0xe3, 0xed, 0xde, 0xf5, 0xf1, 0x17,
  0x06, 0xe4, 0xfe, 0x1d, 0x02, 0xe7, 0xfb, 0xf5, 0xcf, 0x11, 0xee, 0x00,
  0x1e, 0xee, 0xed, 0x15, 0x23, 0x05, 0x05, 0xed, 0xe8, 0xf3, 0xed, 0xd7,
  0x13, 0x04, 0x08, 0xf0, 0x11, 0x0a, 0x03, 0xe3, 0xb3, 0x01, 0xec, 0x10,
  0xf3, 0x0b, 0xf9, 0xf1, 0xfc, 0xc9, 0x07, 0xfe, 0x03, 0xf3, 0xfb, 0x03,
  0x17, 0xfc, 0x0c, 0x05, 0xfe, 0x13, 0xdd, 0xef, 0x22, 0x06, 0x0a, 0x0e,
  0xe9, 0xe4, 0x02, 0x01, 0xfc, 0xec, 0xf8, 0x0d, 0xfc, 0xf2, 0x05, 0xd9,
  0x06, 0x08, 0xfe, 0xf4, 0xd1, 0x13, 0x11, 0xec, 0x81, 0x04, 0xe1, 0x08,
  0xeb, 0xf5, 0x0f, 0x02, 0xec, 0xed, 0x1b, 0xe4, 0x14, 0x0b, 0x0b, 0x20,
  0x09, 0x0a, 0x19, 0x15, 0x01, 0xeb, 0x0a, 0xf4, 0xf7, 0x09, 0xf6, 0x0b,
  0xf5, 0xff, 0xf6, 0xf5, 0xfb, 0x26, 0xed, 0xe8, 0x1d, 0xee, 0x10, 0x03,
  0xdd, 0x13, 0xf3, 0x06, 0xcb, 0x0f, 0xe4, 0xfb, 0xef, 0xed, 0x0d, 0xf1,
  0x0e, 0xf8, 0x1b, 0x0d, 0xfc, 0xe3, 0x23, 0x03, 0x06, 0x13, 0xfb, 0x08,
  0xf4, 0xf6, 0x09, 0x09, 0x00, 0x0c, 0xfc, 0xd0, 0xd5, 0x20, 0x48, 0xbc,
  0xbe, 0xd9, 0x16, 0x0c, 0xfe, 0x33, 0xdf, 0x26, 0xbe, 0xef, 0xde, 0x07,
  0xde, 0xed, 0x26, 0xf9, 0xea, 0x04, 0x09, 0x0b, 0x9f, 0x1f, 0x0e, 0x01,
  0xa3, 0x47, 0xe4, 0xe8, 0xf1, 0xf5, 0xf1, 0xcd, 0xdf, 0xf3, 0x29, 0x5e,
  0xf8, 0x35, 0xe2, 0xee, 0x11, 0xe8, 0xb5, 0x40, 0x84, 0x15, 0x1e, 0x04,
  0xe1, 0x0c, 0x1c, 0x01, 0x12, 0xcd, 0x08, 0x0c, 0xf4, 0x15, 0x2e, 0xff,
  0x05, 0xf2, 0xf4, 0xe9, 0x18, 0xbe, 0xeb, 0xc7, 0xbe, 0x11, 0x12, 0xd0,
  0xc1, 0xe2, 0xe8, 0xf9, 0xdf, 0x22, 0xcc, 0x1c, 0xef, 0xbd, 0x31, 0x07,
  0xf5, 0x18, 0xdf, 0x1e, 0x0d, 0xcf, 0xe9, 0xf2, 0xab, 0x32, 0x2d, 0x1e,
  0xd3, 0x11, 0x0a, 0x0f, 0xe7, 0x81, 0x2f, 0xed, 0xe0, 0xed, 0xc4, 0x11,
  0xe8, 0xb6, 0x36, 0x06, 0xe6, 0x27, 0xfa, 0xfc, 0x3a, 0xe0, 0x0d, 0x07,
  0x07, 0x30, 0xfe, 0x09, 0x01, 0x03, 0xfd, 0xea, 0x08, 0xee, 0xe5, 0x02,
  0xec, 0x26, 0xc9, 0x13, 0x02, 0xe2, 0xfa, 0x02, 0xab, 0x17, 0x2b, 0x1f,
  0x09, 0x35, 0xeb, 0x01, 0xf2, 0xc8, 0xf3, 0x52, 0x9c, 0x04, 0xdf, 0x1a,
  0x09, 0x12, 0x08, 0x00, 0xf6, 0xfc, 0xc4, 0x4d, 0xfd, 0xc7, 0x0e, 0x12,
  0xf2, 0x11, 0x11, 0xfe, 0xcd, 0x02, 0xe5, 0x0f, 0x10, 0x10, 0xf3, 0x10,
  0x9d, 0x19, 0xe3, 0x15, 0xf3, 0xde, 0x40, 0x34, 0xf8, 0xff, 0x0e, 0xf8,
  0xd2, 0xf5, 0xe7, 0xf3, 0x03, 0x0b, 0xf2, 0x01, 0xfb, 0xb0, 0xf6, 0x05,
  0x1e, 0xe4, 0xf1, 0x07, 0x06, 0x0d, 0x12, 0xe3, 0x29, 0xee, 0x18, 0x0c,
  0xf2, 0xdc, 0x08, 0xea, 0xcb, 0x12, 0xed, 0xef, 0xe8, 0xfe, 0x1b, 0xf7,
  0x04, 0x1a, 0xfd, 0x24, 0xf4, 0xda, 0xd0, 0xf1, 0xcb, 0xe6, 0x02, 0x05,
  0xf5, 0xe8, 0xf2, 0xeb, 0xf5, 0x09, 0xe6, 0xfe, 0x03, 0xff, 0x1f, 0xfa,
  0xf8, 0x08, 0x0f, 0xfd, 0x08, 0x01, 0xe6, 0x01, 0x15, 0xfe, 0x1b, 0x10,
  0xeb, 0xe5, 0xf5, 0x15, 0xfd, 0xf5, 0xe0, 0x1f, 0x1d, 0xe6, 0xf3, 0x05,
  0x02, 0x13, 0xff, 0x04, 0xfe, 0xe8, 0x32, 0x10, 0x16, 0xfb, 0x1f, 0x1a,
  0xee, 0x07, 0x09, 0xeb, 0x0f, 0xfe, 0xf6, 0x33, 0xe4, 0x0a, 0x10, 0xde,
  0x2f, 0x0b, 0xed, 0x15, 0xf1, 0xfd, 0x0b, 0x16, 0xf3, 0xf5, 0x33, 0x16,
  0xcf, 0xed, 0xfd, 0x1a, 0x0b, 0x81, 0xee, 0x17, 0x2e, 0x19, 0x29, 0xf8,
  0xfc, 0x1a, 0x06, 0x1e, 0xf6, 0xf0, 0xfd, 0x22, 0xc8, 0xfc, 0x06, 0xe8,
  0x04, 0xf0, 0x0d, 0x09, 0xe1, 0x1f, 0xfe, 0xf5, 0x0b, 0xff, 0xce, 0xde,
  0x0d, 0x1b, 0xd3, 0x0a, 0x15, 0x13, 0xf2, 0x3e, 0xc0, 0xff, 0x18, 0xed,
  0xa7, 0xfc, 0x0d, 0xfe, 0x24, 0x12, 0xce, 0xf1, 0x13, 0x1f, 0x0e, 0xf0,
  0x10, 0x2b, 0x06, 0x40, 0xf8, 0x06, 0xdf, 0x02, 0x17, 0x00, 0x0b, 0xe4,
  0x81, 0x20, 0xfd, 0xf5, 0x12, 0xd5, 0xe3, 0x0b, 0xe7, 0x04, 0x23, 0xee,
  0x1f, 0x0f, 0xd2, 0xff, 0xf6, 0x08, 0xe9, 0xfc, 0x43, 0xfa, 0x03, 0x04,
  0xda, 0x10, 0x22, 0x01, 0xed, 0x0a, 0xec, 0xea, 0xd0, 0x12, 0x0a, 0xf9,
  0x18, 0xca, 0xd3, 0xf9, 0xc6, 0xf6, 0x10, 0x0a, 0x62, 0x17, 0xf8, 0x13,
  0x0f, 0x0e, 0xd9, 0xea, 0xfb, 0x13, 0xef, 0x22, 0xd3, 0x14, 0x4c, 0x06,
  0xee, 0xfb, 0xda, 0x06, 0xcb, 0xf0, 0x22, 0x57, 0xf8, 0x1a, 0x0a, 0xe8,
  0xfc, 0x17, 0xf8, 0xee, 0x04, 0x0d, 0xd4, 0xe1, 0xfb, 0x14, 0xff, 0x29,
  0x03, 0xe6, 0xea, 0xf1, 0x0a, 0xfa, 0xd3, 0x1a, 0x05, 0x0b, 0xea, 0x0a,
  0xc7, 0xf9, 0x07, 0xe9, 0x04, 0xf3, 0xe5, 0x00, 0xfc, 0x1a, 0x1a, 0x1c,
  0x01, 0xed, 0x01, 0x03, 0xe9, 0x10, 0xb2, 0x03, 0x11, 0xea, 0x22, 0xf5,
  0xa2, 0x27, 0x17, 0x09, 0x07, 0xdc, 0x0c, 0x05, 0x03, 0x05, 0x27, 0x03,
  0xf2, 0x09, 0xd5, 0xc8, 0xd7, 0xed, 0x07, 0x0c, 0x2b, 0xe5, 0x0c, 0x05,
  0xf7, 0x10, 0x12, 0x22, 0xe8, 0x10, 0x0a, 0xdd, 0x06, 0x22, 0x1b, 0x07,
  0xfa, 0x11, 0xf2, 0xda, 0xec, 0x0f, 0x00, 0x03, 0x1e, 0xdf, 0xf6, 0xee,
  0xdf, 0x06, 0xe1, 0xd7, 0x18, 0xa3, 0x01, 0xe7, 0xdb, 0xff, 0xf3, 0x0c,
  0xec, 0xd2, 0xeb, 0x1d, 0xc9, 0xc5, 0x1b, 0xf4, 0xfb, 0x11, 0xbb, 0x1e,
  0x25, 0xfe, 0xfd, 0xe9, 0xf1, 0xcd, 0xce, 0xfe, 0xde, 0x09, 0x04, 0x29,
  0x09, 0x08, 0x00, 0x10, 0xe0, 0xed, 0xe3, 0xd2, 0x06, 0xdf, 0x04, 0xf5,
  0xaa, 0x08, 0xfd, 0xfc, 0x11, 0x07, 0xa3, 0x22, 0xf3, 0x2c, 0xdb, 0x15,
  0x01, 0x07, 0x02, 0xd3, 0xe8, 0x1c, 0xde, 0x00, 0x1b, 0x10, 0x01, 0xf9,
  0xd9, 0x02, 0x13, 0x0e, 0xf0, 0xe5, 0xe7, 0xf4, 0xf1, 0x1a, 0xf5, 0xfe,
  0xf1, 0x15, 0xdd, 0xee, 0xfc, 0xf7, 0xf3, 0x0b, 0x06, 0x20, 0x02, 0xf7,
  0xf6, 0xf3, 0x1a, 0xe7, 0x27, 0x00, 0xda, 0x0c, 0xbb, 0x02, 0xf8, 0x24,
  0x18, 0xfa, 0xeb, 0xff, 0xfe, 0xff, 0x1f, 0xf1, 0x49, 0x11, 0xfe, 0x10,
  0xee, 0xd5, 0xf3, 0x08, 0x14, 0xf7, 0x0e, 0xe1, 0xe8, 0xf5, 0x14, 0xf7,
  0xe6, 0x17, 0xff, 0xf7, 0xfd, 0x06, 0xe7, 0xf2, 0x19, 0x05, 0x07, 0xe6,
  0xfa, 0xf3, 0x2f, 0xfb, 0x00, 0xcc, 0x08, 0xdf, 0xfc, 0xd9, 0xfe, 0x10,
  0x10, 0xf7, 0x0a, 0xf5, 0x15, 0x1b, 0x02, 0x09, 0x5d, 0xf9, 0xe1, 0x18,
  0xbf, 0x0c, 0x12, 0xdb, 0x1a, 0xe2, 0x17, 0x06, 0xf7, 0xc4, 0xf2, 0x10,
  0xde, 0xdf, 0xe5, 0x26, 0xe4, 0x03, 0x81, 0xed, 0x13, 0x01, 0x1e, 0x1e,
  0xde, 0xbb, 0x1f, 0x1d, 0xd3, 0xf9, 0x15, 0xf8, 0x34, 0xfc, 0xdc, 0xf5,
  0x16, 0xe0, 0x13, 0xe0, 0xff, 0x15, 0x02, 0x0b, 0x46, 0xe8, 0x00, 0x1c,
  0xee, 0xe3, 0xc4, 0x22, 0xff, 0x06, 0xfa, 0xf9, 0x0e, 0xf5, 0x0b, 0x01,
  0xd1, 0xf9, 0x23, 0x0b, 0x00, 0xe7, 0xf9, 0xf5, 0x0c, 0xa1, 0x15, 0x05,
  0xf4, 0x0e, 0xfe, 0x03, 0xee, 0xb7, 0xdb, 0xfc, 0x0c, 0x09, 0xf2, 0xda,
  0x07, 0xee, 0xf5, 0xfa, 0xf7, 0xf4, 0x1d, 0x1b, 0xe9, 0xf5, 0xe8, 0x09,
  0x3f, 0xd9, 0xf9, 0x04, 0xea, 0xfb, 0x1d, 0x0c, 0x01, 0x16, 0xd9, 0xf8,
  0xd3, 0xfa, 0x09, 0x0b, 0x07, 0xd1, 0x0d, 0xee, 0xde, 0xc4, 0x05, 0x01,
  0x0a, 0xa7, 0xfd, 0x03, 0x1f, 0x23, 0x05, 0xb9, 0x1d, 0x1d, 0xe8, 0xf1,
  0x12, 0x00, 0x05, 0x31, 0x15, 0x0e, 0xff, 0x23, 0x06, 0x19, 0xfa, 0xef,
  0x0c, 0xee, 0x07, 0xe5, 0xf2, 0xff, 0x06, 0x1c, 0xea, 0x0f, 0x0a, 0xbd,
  0xe8, 0x09, 0x0a, 0xfa, 0xf4, 0xc1, 0xf6, 0x15, 0x22, 0xe8, 0xbf, 0xee,
  0xe2, 0xf1, 0x09, 0xfb, 0xff, 0xf3, 0x07, 0xcb, 0x00, 0x08, 0xde, 0xf4,
  0x07, 0x18, 0x05, 0x2a, 0xfb, 0xfc, 0x2d, 0x04, 0x26, 0x16, 0x0e, 0xd7,
  0x07, 0xc7, 0x03, 0xce, 0xc9, 0xe7, 0x18, 0x17, 0xd0, 0xfd, 0xd5, 0x10,
  0x00, 0x02, 0x07, 0x01, 0x04, 0xe8, 0x01, 0x1c, 0x4f, 0x09, 0xb7, 0x0f,
  0x20, 0x02, 0x07, 0xf4, 0x01, 0x81, 0x1c, 0x2f, 0xc5, 0xaa, 0x00, 0xf5,
  0xf2, 0x1f, 0xf5, 0x09, 0x07, 0x0a, 0xe1, 0x11, 0xf0, 0xf0, 0xfa, 0xec,
  0xf2, 0x0e, 0x0b, 0x07, 0xfa, 0x05, 0x0f, 0x0a, 0x0a, 0x1a, 0x17, 0xe6,
  0x02, 0x15, 0x11, 0xec, 0xb5, 0x00, 0xf3, 0xe6, 0x0a, 0xfb, 0x0b, 0x0a,
  0x1c, 0x2b, 0xda, 0x07, 0x18, 0xf6, 0x0c, 0xe8, 0xfa, 0xd5, 0x36, 0x56,
  0x2e, 0x38, 0x03, 0x0e, 0x2c, 0x03, 0xe5, 0x0d, 0x1c, 0x3b, 0xf3, 0xb7,
  0x47, 0x16, 0xf6, 0xfd, 0xe4, 0xfe, 0xd3, 0xde, 0xf3, 0xfd, 0x19, 0xca,
  0x16, 0x01, 0xf7, 0x04, 0xe2, 0x1b, 0xe1, 0x14, 0x22, 0x2b, 0xa0, 0xe5,
  0x27, 0x0e, 0x20, 0xb5, 0x00, 0xe0, 0xb8, 0xd7, 0x1a, 0xd5, 0x1d, 0x04,
  0x05, 0xd6, 0x05, 0x00, 0x0b, 0x13, 0x1d, 0xeb, 0x10, 0xf3, 0xde, 0xf1,
  0x17, 0x21, 0xf1, 0xdf, 0xc7, 0x14, 0xda, 0x34, 0xf4, 0xe8, 0xf0, 0x23,
  0xc2, 0xf9, 0x01, 0xcf, 0xd6, 0xf6, 0x0f, 0x1a, 0x35, 0x28, 0x09, 0xd8,
  0x14, 0xfa, 0xdf, 0xe2, 0x04, 0xb9, 0xc2, 0x01, 0xea, 0xb8, 0x2b, 0x10,
  0x21, 0xfa, 0x06, 0xee, 0x1a, 0x04, 0x23, 0x24, 0xd3, 0x09, 0x32, 0xf4,
  0x10, 0xe9, 0x0c, 0xf0, 0x17, 0x21, 0xe2, 0x4e, 0xf4, 0x04, 0x21, 0x07,
  0xb8, 0x2a, 0xe3, 0x04, 0xe3, 0xee, 0x14, 0xf0, 0x1a, 0xff, 0x12, 0x99,
  0xf6, 0x07, 0x05, 0x01, 0x1f, 0x27, 0x23, 0x15, 0x0f, 0x04, 0xe3, 0xf5,
  0x02, 0xf8, 0x81, 0x17, 0x19, 0xf6, 0x08, 0x1c, 0x10, 0x2b, 0x20, 0x13,
  0x38, 0x3a, 0x0f, 0x08, 0x16, 0x46, 0x26, 0x43, 0x30, 0x03, 0x12, 0x05,
  0xff, 0x25, 0x01, 0xe3, 0x38, 0xef, 0x45, 0x2c, 0x32, 0x03, 0x15, 0xf8,
  0x2e, 0x0d, 0x27, 0xc1, 0xe1, 0xfe, 0x4b, 0x38, 0xd5, 0x14, 0xf7, 0xbe,
  0x23, 0xff, 0x08, 0x47, 0x0f, 0x1f, 0x33, 0xd8, 0x51, 0x37, 0x0c, 0x26,
  0x45, 0x3a, 0xed, 0xe8, 0xfb, 0x24, 0x0b, 0x1f, 0x02, 0x0c, 0x30, 0x5d,
  0x44, 0x07, 0xdb, 0xd6, 0x1a, 0xfe, 0x26, 0x44, 0x0e, 0x0f, 0xcf, 0xed,
  0x7f, 0x0e, 0x0e, 0xe4, 0xfe, 0xf7, 0xfe, 0x1a, 0x08, 0xf7, 0xee, 0xe8,
  0x0a, 0xc5, 0xf2, 0x3a, 0x10, 0xe5, 0x02, 0x3f, 0x11, 0x45, 0x18, 0x19,
  0x31, 0x27, 0xf2, 0x0d, 0xef, 0x27, 0xfd, 0x03, 0x1c, 0xea, 0x3f, 0x17,
  0x54, 0xf5, 0x04, 0xdb, 0x18, 0xf7, 0xed, 0x2a, 0x46, 0x08, 0x06, 0x23,
  0x2d, 0xf9, 0x0d, 0xf1, 0xe2, 0x33, 0x13, 0x09, 0x13, 0x01, 0x2c, 0xff,
  0x05, 0xce, 0xd5, 0x40, 0xe8, 0x1e, 0x2a, 0x03, 0x36, 0x2f, 0xe8, 0x29,
  0x66, 0x1e, 0x1d, 0x3a, 0x03, 0x67, 0xf6, 0x24, 0xe6, 0xf6, 0x61, 0x34,
  0x33, 0x00, 0x0a, 0xff, 0x14, 0xdb, 0x3e, 0x2b, 0x39, 0x1c, 0x12, 0xfc,
  0x77, 0x01, 0x20, 0x20, 0xe8, 0x34, 0x17, 0xf7, 0xfd, 0x15, 0x28, 0x14,
  0x11, 0x13, 0x09, 0xfb, 0xe0, 0xfa, 0x14, 0x05, 0xe3, 0xc9, 0x01, 0xaf,
  0x11, 0x1b, 0x1a, 0xd8, 0xf2, 0xf2, 0xdc, 0x09, 0x45, 0x04, 0xd0, 0xd4,
  0x20, 0xe2, 0x39, 0xa7, 0xe3, 0x03, 0xc7, 0xe4, 0xe0, 0x40, 0xab, 0x0d,
  0xf6, 0x07, 0xc3, 0xb9, 0xf0, 0xc6, 0x07, 0x2a, 0xfd, 0x00, 0xbe, 0x16,
  0xf6, 0x48, 0xfe, 0x0d, 0x2a, 0x17, 0x1f, 0xe5, 0xfd, 0x10, 0x9b, 0xca,
  0x9a, 0xa5, 0x29, 0x0e, 0xd4, 0x06, 0xf2, 0x95, 0x21, 0x30, 0x0c, 0xc1,
  0x52, 0xf4, 0xc5, 0xe0, 0x13, 0x26, 0xdd, 0x23, 0x8c, 0x2f, 0xea, 0xf4,
  0xeb, 0x0f, 0xdd, 0xde, 0x27, 0x2d, 0xe4, 0xd9, 0xfc, 0xca, 0xf4, 0x30,
  0x00, 0xce, 0xff, 0xf8, 0x20, 0xea, 0xf4, 0x71, 0xdb, 0x04, 0xe7, 0x3b,
  0x97, 0xc8, 0x12, 0x1d, 0x0d, 0x02, 0x00, 0x81, 0x14, 0x29, 0x05, 0x01,
  0x2c, 0xcd, 0xf4, 0x24, 0x0a, 0x05, 0x11, 0x16, 0xee, 0x1f, 0x08, 0xf1,
  0x30, 0xfd, 0xd9, 0x05, 0xf8, 0x54, 0x24, 0xc8, 0xfc, 0xeb, 0x1c, 0x11,
  0xea, 0x6b, 0xed, 0x60, 0x2f, 0x96, 0x3c, 0xd3, 0xd3, 0x1c, 0x05, 0x40,
  0xbb, 0x2d, 0x0d, 0x36, 0x27, 0xed, 0xd0, 0x2d, 0x1f, 0x1c, 0xe0, 0xfe,
  0x2d, 0x1d, 0xf0, 0x22, 0xc4, 0xf2, 0x42, 0xec, 0xf1, 0x15, 0xf6, 0xec,
  0xfe, 0xd3, 0xe4, 0x01, 0xae, 0xc5, 0x38, 0x10, 0x0f, 0x0d, 0xe8, 0xff,
  0xc5, 0x0a, 0x24, 0x3b, 0x23, 0x15, 0x14, 0xba, 0x49, 0x25, 0xfd, 0xdc,
  0xfc, 0x24, 0xd3, 0xbe, 0xcf, 0xd6, 0x31, 0x15, 0x19, 0x2f, 0x1f, 0x0a,
  0x24, 0x31, 0xe5, 0x15, 0xdc, 0x04, 0xe5, 0x38, 0xcd, 0x0f, 0xfc, 0x21,
  0x53, 0x2a, 0x11, 0xfb, 0xa0, 0x25, 0x19, 0x2d, 0xee, 0x13, 0x2d, 0xda,
  0x49, 0xcf, 0x06, 0xe5, 0xd9, 0xf3, 0xb1, 0xe6, 0x59, 0x28, 0xb5, 0x0c,
  0x0c, 0xfc, 0xcc, 0xc3, 0xca, 0x0c, 0x01, 0xf2, 0xc4, 0x0e, 0xe7, 0x53,
  0x0d, 0x03, 0xfa, 0x1a, 0xf3, 0xbb, 0x5b, 0xfb, 0xcc, 0x34, 0x0a, 0xf4,
  0x41, 0x2a, 0xf7, 0xef, 0xdd, 0x28, 0x0f, 0x1b, 0x07, 0x0d, 0x23, 0x25,
  0x34, 0x26, 0xe8, 0xe6, 0x2d, 0xcf, 0xc3, 0x0e, 0x1a, 0x06, 0xe4, 0xfd,
  0x05, 0xe2, 0xd4, 0x07, 0x02, 0x51, 0x2a, 0xfc, 0x20, 0xdb, 0xf3, 0xe5,
  0x26, 0xfd, 0x11, 0x19, 0xfc, 0xed, 0x30, 0x00, 0xcd, 0xe7, 0x27, 0x27,
  0x59, 0x06, 0x00, 0x29, 0xc8, 0x1a, 0x38, 0x11, 0xe4, 0xf9, 0x2a, 0xa2,
  0x0f, 0xd3, 0x02, 0x2e, 0x2a, 0xe2, 0xe4, 0xff, 0x3b, 0xf2, 0xdf, 0xff,
  0x3b, 0xfb, 0xf8, 0x08, 0xd1, 0x51, 0x24, 0xda, 0x13, 0x09, 0x06, 0xdc,
  0xfd, 0x22, 0x03, 0x1b, 0x06, 0xd7, 0x2d, 0x37, 0x1f, 0x00, 0xf7, 0xf6,
  0x55, 0x29, 0xcd, 0x0d, 0xd9, 0x7f, 0x59, 0x09, 0xa9, 0xb2, 0xe8, 0x2b,
  0xf9, 0x23, 0x1d, 0x04, 0x01, 0xc6, 0x0f, 0xcc, 0x32, 0xf6, 0xff, 0xff,
  0x00, 0x00, 0x00, 0x09, 0x10, 0x00, 0x00, 0x00, 0x08, 0x00, 0x00, 0x00,
  0x1c, 0x00, 0x00, 0x00, 0x44, 0x00, 0x00, 0x00, 0x04, 0x00, 0x00, 0x00,
  0x10, 0x00, 0x00, 0x00, 0x04, 0x00, 0x00, 0x00, 0x02, 0x00, 0x00, 0x00,
  0x18, 0x00, 0x00, 0x00, 0x24, 0x00, 0x00, 0x00, 0x73, 0x65, 0x71, 0x75,
  0x65, 0x6e, 0x74, 0x69, 0x61, 0x6c, 0x5f, 0x31, 0x32, 0x2f, 0x71, 0x75,
  0x61, 0x6e, 0x74, 0x5f, 0x63, 0x6f, 0x6e, 0x76, 0x32, 0x64, 0x5f, 0x34,
  0x39, 0x2f, 0x43, 0x6f, 0x6e, 0x76, 0x32, 0x44, 0x00, 0x00, 0x00, 0x00,
  0x40, 0xf7, 0xff, 0xff, 0x08, 0x00, 0x00, 0x00, 0x48, 0x00, 0x00, 0x00,
  0x10, 0x00, 0x00, 0x00, 0x34, 0x3f, 0x07, 0x3c, 0x2e, 0x92, 0x2d, 0x3c,
  0xbf, 0x3d, 0x33, 0x3c, 0xe8, 0x1a, 0x7e, 0x3c, 0xa1, 0x99, 0x28, 0x3c,
  0xbb, 0x21, 0xc6, 0x3c, 0xf8, 0xaa, 0xd5, 0x3c, 0x11, 0x12, 0x75, 0x3c,
  0x48, 0xba, 0x8a, 0x3c, 0xe0, 0x3a, 0x9c, 0x3c, 0xb4, 0x4c, 0x8e, 0x3c,
  0x34, 0x89, 0xa7, 0x3c, 0x81, 0x85, 0x8a, 0x3c, 0x5a, 0x4d, 0x17, 0x3c,
  0x98, 0xed, 0x31, 0x3c, 0x50, 0x46, 0x25, 0x3c, 0x10, 0x00, 0x00, 0x00,
  0x00, 0x00, 0x00, 0x00, 0x00, 0x00, 0x00, 0x00, 0x00, 0x00, 0x00, 0x00,
  0x00, 0x00, 0x00, 0x00, 0x00, 0x00, 0x00, 0x00, 0x00, 0x00, 0x00, 0x00,
  0x00, 0x00, 0x00, 0x00, 0x00, 0x00, 0x00, 0x00, 0x00, 0x00, 0x00, 0x00,
  0x00, 0x00, 0x00, 0x00, 0x00, 0x00, 0x00, 0x00, 0x00, 0x00, 0x00, 0x00,
  0x00, 0x00, 0x00, 0x00, 0x00, 0x00, 0x00, 0x00, 0x00, 0x00, 0x00, 0x00,
  0x00, 0x00, 0x00, 0x00, 0x00, 0x00, 0x00, 0x00, 0x00, 0x00, 0x00, 0x00,
  0x00, 0x00, 0x00, 0x00, 0x00, 0x00, 0x00, 0x00, 0x00, 0x00, 0x00, 0x00,
  0x00, 0x00, 0x00, 0x00, 0x00, 0x00, 0x00, 0x00, 0x00, 0x00, 0x00, 0x00,
  0x00, 0x00, 0x00, 0x00, 0x00, 0x00, 0x00, 0x00, 0x00, 0x00, 0x00, 0x00,
  0x00, 0x00, 0x00, 0x00, 0x00, 0x00, 0x00, 0x00, 0x00, 0x00, 0x00, 0x00,
  0x00, 0x00, 0x00, 0x00, 0x00, 0x00, 0x00, 0x00, 0x00, 0x00, 0x0e, 0x00,
  0x18, 0x00, 0x08, 0x00, 0x0c, 0x00, 0x10, 0x00, 0x07, 0x00, 0x14, 0x00,
  0x0e, 0x00, 0x00, 0x00, 0x00, 0x00, 0x00, 0x01, 0x01, 0x00, 0x00, 0x00,
  0x30, 0x00, 0x00, 0x00, 0x24, 0x00, 0x00, 0x00, 0x10, 0x00, 0x00, 0x00,
  0x0c, 0x00, 0x10, 0x00, 0x0e, 0x00, 0x04, 0x00, 0x08, 0x00, 0x0f, 0x00,
  0x0c, 0x00, 0x00, 0x00, 0x01, 0x00, 0x00, 0x00, 0x01, 0x00, 0x00, 0x00,
  0x00, 0x00, 0x01, 0x01, 0x01, 0x00, 0x00, 0x00, 0x06, 0x00, 0x00, 0x00,
  0x03, 0x00, 0x00, 0x00, 0x03, 0x00, 0x00, 0x00, 0x04, 0x00, 0x00, 0x00,
  0x05, 0x00, 0x00, 0x00, 0xf0, 0xf9, 0xff, 0xff, 0x03, 0x00, 0x00, 0x00,
  0x00, 0x00, 0x00, 0x03, 0x03, 0x00, 0x00, 0x00, 0xe4, 0xf9, 0xff, 0xff,
  0x00, 0x00, 0x00, 0x09, 0x14, 0x00, 0x00, 0x00, 0x07, 0x00, 0x00, 0x00,
  0x34, 0x00, 0x00, 0x00, 0xe0, 0x00, 0x00, 0x00, 0x18, 0x00, 0x00, 0x00,
  0x04, 0x00, 0x00, 0x00, 0x01, 0x00, 0x00, 0x00, 0x3b, 0x00, 0x00, 0x00,
  0x02, 0x00, 0x00, 0x00, 0x18, 0x00, 0x00, 0x00, 0x04, 0x00, 0x00, 0x00,
  0xff, 0xff, 0xff, 0xff, 0x3b, 0x00, 0x00, 0x00, 0x02, 0x00, 0x00, 0x00,
  0x18, 0x00, 0x00, 0x00, 0xaa, 0x00, 0x00, 0x00, 0x73, 0x65, 0x71, 0x75,
  0x65, 0x6e, 0x74, 0x69, 0x61, 0x6c, 0x5f, 0x31, 0x32, 0x2f, 0x71, 0x75,
  0x61, 0x6e, 0x74, 0x5f, 0x72, 0x65, 0x5f, 0x6c, 0x75, 0x5f, 0x34, 0x38,
  0x2f, 0x52, 0x65, 0x6c, 0x75, 0x3b, 0x73, 0x65, 0x71, 0x75, 0x65, 0x6e,
  0x74, 0x69, 0x61, 0x6c, 0x5f, 0x31, 0x32, 0x2f, 0x71, 0x75, 0x61, 0x6e,
  0x74, 0x5f, 0x63, 0x6f, 0x6e, 0x76, 0x32, 0x64, 0x5f, 0x34, 0x38, 0x2f,
  0x42, 0x69, 0x61, 0x73, 0x41, 0x64, 0x64, 0x3b, 0x73, 0x65, 0x71, 0x75,
  0x65, 0x6e, 0x74, 0x69, 0x61, 0x6c, 0x5f, 0x31, 0x32, 0x2f, 0x71, 0x75,
  0x61, 0x6e, 0x74, 0x5f, 0x63, 0x6f, 0x6e, 0x76, 0x32, 0x64, 0x5f, 0x34,
  0x38, 0x2f, 0x43, 0x6f, 0x6e, 0x76, 0x32, 0x44, 0x3b, 0x73, 0x65, 0x71,
  0x75, 0x65, 0x6e, 0x74, 0x69, 0x61, 0x6c, 0x5f, 0x31, 0x32, 0x2f, 0x71,
  0x75, 0x61, 0x6e, 0x74, 0x5f, 0x63, 0x6f, 0x6e, 0x76, 0x32, 0x64, 0x5f,
  0x34, 0x38, 0x2f, 0x42, 0x69, 0x61, 0x73, 0x41, 0x64, 0x64, 0x2f, 0x52,
  0x65, 0x61, 0x64, 0x56, 0x61, 0x72, 0x69, 0x61, 0x62, 0x6c, 0x65, 0x4f,
  0x70, 0x2f, 0x72, 0x65, 0x73, 0x6f, 0x75, 0x72, 0x63, 0x65, 0x00, 0x00,
  0x74, 0xf9, 0xff, 0xff, 0x08, 0x00, 0x00, 0x00, 0x0c, 0x00, 0x00, 0x00,
  0x01, 0x00, 0x00, 0x00, 0x79, 0x0a, 0x9f, 0x3b, 0x01, 0x00, 0x00, 0x00,
  0x80, 0xff, 0xff, 0xff, 0xff, 0xff, 0xff, 0xff, 0x00, 0x00, 0x00, 0x00,
  0xfe, 0xf8, 0xff, 0xff, 0x04, 0x00, 0x00, 0x00, 0x60, 0x00, 0x00, 0x00,
  0xef, 0xba, 0xff, 0xff, 0x38, 0xe9, 0xff, 0xff, 0x6d, 0xf7, 0xff, 0xff,
  0xb0, 0x01, 0x00, 0x00, 0xe8, 0xd8, 0xff, 0xff, 0xfc, 0xe0, 0xff, 0xff,
  0xfe, 0x00, 0x00, 0x00, 0x09, 0x04, 0x00, 0x00, 0x79, 0xf9, 0xff, 0xff,
  0x22, 0xd5, 0xff, 0xff, 0x9c, 0xec, 0xff, 0xff, 0xc2, 0xdc, 0xff, 0xff,
  0x85, 0xf6, 0xff, 0xff, 0x7e, 0xf6, 0xff, 0xff, 0x9a, 0xe4, 0xff, 0xff,
  0x88, 0xf2, 0xff, 0xff, 0x6b, 0xdf, 0xff, 0xff, 0xca, 0xf8, 0xff, 0xff,
  0xd3, 0xf1, 0xff, 0xff, 0x42, 0xfb, 0xff, 0xff, 0xf8, 0xfd, 0xff, 0xff,
  0xee, 0xfb, 0xff, 0xff, 0xca, 0xe7, 0xff, 0xff, 0x18, 0xe5, 0xff, 0xff,
  0x4e, 0xf9, 0xff, 0xff, 0x00, 0x00, 0x00, 0x02, 0x10, 0x00, 0x00, 0x00,
  0x06, 0x00, 0x00, 0x00, 0x10, 0x00, 0x00, 0x00, 0x50, 0x00, 0x00, 0x00,
  0x01, 0x00, 0x00, 0x00, 0x18, 0x00, 0x00, 0x00, 0x3d, 0x00, 0x00, 0x00,
  0x73, 0x65, 0x71, 0x75, 0x65, 0x6e, 0x74, 0x69, 0x61, 0x6c, 0x5f, 0x31,
  0x32, 0x2f, 0x71, 0x75, 0x61, 0x6e, 0x74, 0x5f, 0x63, 0x6f, 0x6e, 0x76,
  0x32, 0x64, 0x5f, 0x34, 0x38, 0x2f, 0x42, 0x69, 0x61, 0x73, 0x41, 0x64,
  0x64, 0x2f, 0x52, 0x65, 0x61, 0x64, 0x56, 0x61, 0x72, 0x69, 0x61, 0x62,
  0x6c, 0x65, 0x4f, 0x70, 0x2f, 0x72, 0x65, 0x73, 0x6f, 0x75, 0x72, 0x63,
  0x65, 0x00, 0x00, 0x00, 0x68, 0xfa, 0xff, 0xff, 0x08, 0x00, 0x00, 0x00,
  0x68, 0x00, 0x00, 0x00, 0x18, 0x00, 0x00, 0x00, 0x40, 0xaa, 0x82, 0x37,
  0x33, 0xa3, 0x76, 0x37, 0xe1, 0xab, 0xba, 0x37, 0x45, 0xb7, 0x8c, 0x37,
  0xa1, 0x08, 0xb7, 0x37, 0x57, 0x2a, 0x92, 0x37, 0x64, 0x49, 0x9b, 0x37,
  0xf0, 0x6e, 0x72, 0x37, 0x2a, 0x97, 0xb9, 0x37, 0x86, 0xbe, 0x9f, 0x37,
  0xbf, 0x40, 0xc1, 0x37, 0xa4, 0xad, 0xa5, 0x37, 0xfa, 0x5e, 0xb3, 0x37,
  0xde, 0x56, 0x9e, 0x37, 0x62, 0xf5, 0xad, 0x37, 0x62, 0xcd, 0x81, 0x37,
  0x21, 0x11, 0x83, 0x37, 0xe1, 0x6a, 0xa3, 0x37, 0xd3, 0x4d, 0x81, 0x37,
  0x2a, 0x60, 0xdc, 0x37, 0xd9, 0x13, 0xa0, 0x37, 0x1f, 0x1f, 0x9e, 0x37,
  0x0f, 0xdc, 0xc0, 0x37, 0x23, 0xf8, 0x87, 0x37, 0x18, 0x00, 0x00, 0x00,
  0x00, 0x00, 0x00, 0x00, 0x00, 0x00, 0x00, 0x00, 0x00, 0x00, 0x00, 0x00,
  0x00, 0x00, 0x00, 0x00, 0x00, 0x00, 0x00, 0x00, 0x00, 0x00, 0x00, 0x00,
  0x00, 0x00, 0x00, 0x00, 0x00, 0x00, 0x00, 0x00, 0x00, 0x00, 0x00, 0x00,
  0x00, 0x00, 0x00, 0x00, 0x00, 0x00, 0x00, 0x00, 0x00, 0x00, 0x00, 0x00,
  0x00, 0x00, 0x00, 0x00, 0x00, 0x00, 0x00, 0x00, 0x00, 0x00, 0x00, 0x00,
  0x00, 0x00, 0x00, 0x00, 0x00, 0x00, 0x00, 0x00, 0x00, 0x00, 0x00, 0x00,
  0x00, 0x00, 0x00, 0x00, 0x00, 0x00, 0x00, 0x00, 0x00, 0x00, 0x00, 0x00,
  0x00, 0x00, 0x00, 0x00, 0x00, 0x00, 0x00, 0x00, 0x00, 0x00, 0x00, 0x00,
  0x00, 0x00, 0x00, 0x00, 0x00, 0x00, 0x00, 0x00, 0x00, 0x00, 0x00, 0x00,
  0x00, 0x00, 0x00, 0x00, 0x00, 0x00, 0x00, 0x00, 0x00, 0x00, 0x00, 0x00,
  0x00, 0x00, 0x00, 0x00, 0x00, 0x00, 0x00, 0x00, 0x00, 0x00, 0x00, 0x00,
  0x00, 0x00, 0x00, 0x00, 0x00, 0x00, 0x00, 0x00, 0x00, 0x00, 0x00, 0x00,
  0x00, 0x00, 0x00, 0x00, 0x00, 0x00, 0x00, 0x00, 0x00, 0x00, 0x00, 0x00,
  0x00, 0x00, 0x00, 0x00, 0x00, 0x00, 0x00, 0x00, 0x00, 0x00, 0x00, 0x00,
  0x00, 0x00, 0x00, 0x00, 0x00, 0x00, 0x00, 0x00, 0x00, 0x00, 0x00, 0x00,
  0x00, 0x00, 0x00, 0x00, 0x00, 0x00, 0x00, 0x00, 0x00, 0x00, 0x00, 0x00,
  0x02, 0xfb, 0xff, 0xff, 0x04, 0x00, 0x00, 0x00, 0x20, 0x01, 0x00, 0x00,
  0x81, 0x0d, 0x59, 0xfe, 0x31, 0x17, 0xcc, 0xe2, 0x98, 0xd7, 0x7f, 0x51,
  0xb3, 0xb2, 0xd6, 0x84, 0xd2, 0x5e, 0x10, 0xf4, 0x7f, 0xb1, 0xfb, 0xc3,
  0x81, 0xfa, 0x4a, 0x16, 0x01, 0x12, 0xff, 0xff, 0x1c, 0x03, 0xa3, 0xfd,
  0x6b, 0x81, 0x2d, 0xda, 0xde, 0x2c, 0xbe, 0x24, 0x28, 0x16, 0xe3, 0x2c,
  0x4a, 0x8c, 0x7f, 0xdc, 0x49, 0xee, 0x2b, 0x19, 0x02, 0x36, 0xc8, 0x16,
  0x15, 0xb1, 0x2d, 0x6d, 0xda, 0x0c, 0xb7, 0xa3, 0x13, 0x11, 0x7f, 0x22,
  0xca, 0x81, 0xf8, 0x20, 0x1f, 0xe8, 0xe5, 0xe2, 0x1e, 0x09, 0xec, 0x4d,
  0x2a, 0xa9, 0x25, 0x43, 0xfa, 0x04, 0x18, 0x38, 0xc9, 0x7f, 0x93, 0x40,
  0x22, 0xe0, 0xbf, 0x1a, 0x5a, 0x09, 0x13, 0x0e, 0x0e, 0x13, 0x7f, 0xee,
  0x14, 0x15, 0xda, 0xd7, 0xc5, 0xd4, 0x59, 0xe3, 0x30, 0x1a, 0x81, 0x68,
  0x4d, 0x24, 0x06, 0x2b, 0x09, 0xc0, 0xf8, 0xe1, 0xbf, 0xd3, 0x8b, 0x81,
  0x81, 0x0a, 0x04, 0x2d, 0x52, 0x49, 0x4f, 0xfe, 0xf6, 0xf1, 0x00, 0xee,
  0xb2, 0xda, 0xa8, 0x07, 0xad, 0xe5, 0xdd, 0xff, 0xab, 0x18, 0x81, 0xd8,
  0xb1, 0x06, 0xb2, 0xfc, 0xe0, 0x0a, 0xd7, 0xf5, 0xbd, 0xc1, 0xba, 0x7f,
  0xf8, 0xbb, 0x06, 0x5a, 0xbe, 0x81, 0x0e, 0xed, 0x1e, 0xf8, 0xf2, 0x09,
  0x0f, 0x97, 0xf3, 0xb0, 0x31, 0x61, 0x25, 0x77, 0x23, 0x81, 0x0a, 0x42,
  0x5a, 0xe4, 0x09, 0xab, 0x81, 0x4f, 0x0c, 0xbe, 0x3c, 0xbf, 0xdf, 0xed,
  0xf7, 0x6e, 0x02, 0x2d, 0x09, 0xa1, 0x1c, 0xc6, 0x25, 0xf6, 0xf5, 0x7f,
  0x6b, 0x0d, 0x71, 0xc4, 0x2d, 0xb6, 0xc2, 0x81, 0xf5, 0xbf, 0xed, 0x05,
  0xed, 0xe3, 0x0d, 0x63, 0x06, 0x44, 0xde, 0x26, 0xff, 0xa3, 0x04, 0x81,
  0xa4, 0x0d, 0x81, 0x26, 0xd2, 0x19, 0x1a, 0x05, 0x75, 0x20, 0x4f, 0x22,
  0x7f, 0x50, 0xc5, 0x69, 0x03, 0x2d, 0x0b, 0x40, 0x12, 0x30, 0xc5, 0x26,
  0xe0, 0x15, 0x04, 0xc0, 0x19, 0xe4, 0xf5, 0x11, 0xe8, 0x44, 0x60, 0x7f,
  0x05, 0x42, 0x54, 0x05, 0xd7, 0xfe, 0xbb, 0x35, 0x39, 0x83, 0x93, 0x7f,
  0x12, 0xfc, 0xff, 0xff, 0x00, 0x00, 0x00, 0x09, 0x10, 0x00, 0x00, 0x00,
  0x05, 0x00, 0x00, 0x00, 0x1c, 0x00, 0x00, 0x00, 0x44, 0x00, 0x00, 0x00,
  0x04, 0x00, 0x00, 0x00, 0x18, 0x00, 0x00, 0x00, 0x06, 0x00, 0x00, 0x00,
  0x02, 0x00, 0x00, 0x00, 0x01, 0x00, 0x00, 0x00, 0x24, 0x00, 0x00, 0x00,
  0x73, 0x65, 0x71, 0x75, 0x65, 0x6e, 0x74, 0x69, 0x61, 0x6c, 0x5f, 0x31,
  0x32, 0x2f, 0x71, 0x75, 0x61, 0x6e, 0x74, 0x5f, 0x63, 0x6f, 0x6e, 0x76,
  0x32, 0x64, 0x5f, 0x34, 0x38, 0x2f, 0x43, 0x6f, 0x6e, 0x76, 0x32, 0x44,
  0x00, 0x00, 0x00, 0x00, 0x20, 0xfd, 0xff, 0xff, 0x08, 0x00, 0x00, 0x00,
  0x68, 0x00, 0x00, 0x00, 0x18, 0x00, 0x00, 0x00, 0x96, 0x27, 0x02, 0x3c,
  0x90, 0xac, 0xf5, 0x3b, 0x35, 0xf1, 0x39, 0x3c, 0x8e, 0x2a, 0x0c, 0x3c,
  0x98, 0x51, 0x36, 0x3c, 0x2c, 0x98, 0x11, 0x3c, 0x1a, 0xae, 0x1a, 0x3c,
  0x81, 0x7c, 0xf1, 0x3b, 0x93, 0xdd, 0x38, 0x3c, 0xc8, 0x1e, 0x1f, 0x3c,
  0x7e, 0x7f, 0x40, 0x3c, 0xf6, 0x07, 0x25, 0x3c, 0x9b, 0xab, 0x32, 0x3c,
  0x87, 0xb8, 0x1d, 0x3c, 0x6d, 0x47, 0x2d, 0x3c, 0x94, 0x4b, 0x01, 0x3c,
  0x10, 0x8e, 0x02, 0x3c, 0x76, 0xc7, 0x22, 0x3c, 0x86, 0xcc, 0x00, 0x3c,
  0xca, 0x83, 0x5b, 0x3c, 0xc6, 0x73, 0x1f, 0x3c, 0x00, 0x81, 0x1d, 0x3c,
  0x33, 0x1b, 0x40, 0x3c, 0x2b, 0x70, 0x07, 0x3c, 0x18, 0x00, 0x00, 0x00,
  0x00, 0x00, 0x00, 0x00, 0x00, 0x00, 0x00, 0x00, 0x00, 0x00, 0x00, 0x00,
  0x00, 0x00, 0x00, 0x00, 0x00, 0x00, 0x00, 0x00, 0x00, 0x00, 0x00, 0x00,
  0x00, 0x00, 0x00, 0x00, 0x00, 0x00, 0x00, 0x00, 0x00, 0x00, 0x00, 0x00,
  0x00, 0x00, 0x00, 0x00, 0x00, 0x00, 0x00, 0x00, 0x00, 0x00, 0x00, 0x00,
  0x00, 0x00, 0x00, 0x00, 0x00, 0x00, 0x00, 0x00, 0x00, 0x00, 0x00, 0x00,
  0x00, 0x00, 0x00, 0x00, 0x00, 0x00, 0x00, 0x00, 0x00, 0x00, 0x00, 0x00,
  0x00, 0x00, 0x00, 0x00, 0x00, 0x00, 0x00, 0x00, 0x00, 0x00, 0x00, 0x00,
  0x00, 0x00, 0x00, 0x00, 0x00, 0x00, 0x00, 0x00, 0x00, 0x00, 0x00, 0x00,
  0x00, 0x00, 0x00, 0x00, 0x00, 0x00, 0x00, 0x00, 0x00, 0x00, 0x00, 0x00,
  0x00, 0x00, 0x00, 0x00, 0x00, 0x00, 0x00, 0x00, 0x00, 0x00, 0x00, 0x00,
  0x00, 0x00, 0x00, 0x00, 0x00, 0x00, 0x00, 0x00, 0x00, 0x00, 0x00, 0x00,
  0x00, 0x00, 0x00, 0x00, 0x00, 0x00, 0x00, 0x00, 0x00, 0x00, 0x00, 0x00,
  0x00, 0x00, 0x00, 0x00, 0x00, 0x00, 0x00, 0x00, 0x00, 0x00, 0x00, 0x00,
  0x00, 0x00, 0x00, 0x00, 0x00, 0x00, 0x00, 0x00, 0x00, 0x00, 0x00, 0x00,
  0x00, 0x00, 0x00, 0x00, 0x00, 0x00, 0x00, 0x00, 0x00, 0x00, 0x00, 0x00,
  0x00, 0x00, 0x00, 0x00, 0x00, 0x00, 0x00, 0x00, 0x00, 0x00, 0x00, 0x00,
  0x00, 0x00, 0x00, 0x00, 0x00, 0x00, 0x0a, 0x00, 0x0c, 0x00, 0x00, 0x00,
  0x04, 0x00, 0x08, 0x00, 0x0a, 0x00, 0x00, 0x00, 0x10, 0x00, 0x00, 0x00,
  0x04, 0x00, 0x00, 0x00, 0x01, 0x00, 0x00, 0x00, 0x03, 0x00, 0x00, 0x00,
  0x01, 0x00, 0x00, 0x00, 0x00, 0x00, 0x00, 0x00, 0x0c, 0x00, 0x10, 0x00,
  0x0b, 0x00, 0x00, 0x00, 0x0c, 0x00, 0x04, 0x00, 0x0c, 0x00, 0x00, 0x00,
  0x72, 0x00, 0x00, 0x00, 0x00, 0x00, 0x00, 0x72, 0x01, 0x00, 0x00, 0x00,
  0x14, 0x00, 0x1c, 0x00, 0x08, 0x00, 0x07, 0x00, 0x0c, 0x00, 0x10, 0x00,
  0x14, 0x00, 0x00, 0x00, 0x00, 0x00, 0x18, 0x00, 0x14, 0x00, 0x00, 0x00,
  0x00, 0x00, 0x00, 0x09, 0x14, 0x00, 0x00, 0x00, 0x04, 0x00, 0x00, 0x00,
  0x34, 0x00, 0x00, 0x00, 0x48, 0x01, 0x00, 0x00, 0x18, 0x00, 0x00, 0x00,
  0x04, 0x00, 0x00, 0x00, 0x01, 0x00, 0x00, 0x00, 0x40, 0x00, 0x00, 0x00,
  0x03, 0x00, 0x00, 0x00, 0x01, 0x00, 0x00, 0x00, 0x04, 0x00, 0x00, 0x00,
  0xff, 0xff, 0xff, 0xff, 0x40, 0x00, 0x00, 0x00, 0x03, 0x00, 0x00, 0x00,
  0x01, 0x00, 0x00, 0x00, 0x06, 0x01, 0x00, 0x00, 0x73, 0x65, 0x71, 0x75,
  0x65, 0x6e, 0x74, 0x69, 0x61, 0x6c, 0x5f, 0x31, 0x32, 0x2f, 0x71, 0x75,
  0x61, 0x6e, 0x74, 0x69, 0x7a, 0x65, 0x5f, 0x6c, 0x61, 0x79, 0x65, 0x72,
  0x2f, 0x41, 0x6c, 0x6c, 0x56, 0x61, 0x6c, 0x75, 0x65, 0x73, 0x51, 0x75,
  0x61, 0x6e, 0x74, 0x69, 0x7a, 0x65, 0x2f, 0x46, 0x61, 0x6b, 0x65, 0x51,
  0x75, 0x61, 0x6e, 0x74, 0x57, 0x69, 0x74, 0x68, 0x4d, 0x69, 0x6e, 0x4d,
  0x61, 0x78, 0x56, 0x61, 0x72, 0x73, 0x3b, 0x73, 0x65, 0x71, 0x75, 0x65,
  0x6e, 0x74, 0x69, 0x61, 0x6c, 0x5f, 0x31, 0x32, 0x2f, 0x71, 0x75, 0x61,
  0x6e, 0x74, 0x69, 0x7a, 0x65, 0x5f, 0x6c, 0x61, 0x79, 0x65, 0x72, 0x2f,
  0x41, 0x6c, 0x6c, 0x56, 0x61, 0x6c, 0x75, 0x65, 0x73, 0x51, 0x75, 0x61,
  0x6e, 0x74, 0x69, 0x7a, 0x65, 0x2f, 0x46, 0x61, 0x6b, 0x65, 0x51, 0x75,
  0x61, 0x6e, 0x74, 0x57, 0x69, 0x74, 0x68, 0x4d, 0x69, 0x6e, 0x4d, 0x61,
  0x78, 0x56, 0x61, 0x72, 0x73, 0x2f, 0x52, 0x65, 0x61, 0x64, 0x56, 0x61,
  0x72, 0x69, 0x61, 0x62, 0x6c, 0x65, 0x4f, 0x70, 0x2f, 0x72, 0x65, 0x73,
  0x6f, 0x75, 0x72, 0x63, 0x65, 0x3b, 0x73, 0x65, 0x71, 0x75, 0x65, 0x6e,
  0x74, 0x69, 0x61, 0x6c, 0x5f, 0x31, 0x32, 0x2f, 0x71, 0x75, 0x61, 0x6e,
  0x74, 0x69, 0x7a, 0x65, 0x5f, 0x6c, 0x61, 0x79, 0x65, 0x72, 0x2f, 0x41,
  0x6c, 0x6c, 0x56, 0x61, 0x6c, 0x75, 0x65, 0x73, 0x51, 0x75, 0x61, 0x6e,
  0x74, 0x69, 0x7a, 0x65, 0x2f, 0x46, 0x61, 0x6b, 0x65, 0x51, 0x75, 0x61,
  0x6e, 0x74, 0x57, 0x69, 0x74, 0x68, 0x4d, 0x69, 0x6e, 0x4d, 0x61, 0x78,
  0x56, 0x61, 0x72, 0x73, 0x2f, 0x52, 0x65, 0x61, 0x64, 0x56, 0x61, 0x72,
  0x69, 0x61, 0x62, 0x6c, 0x65, 0x4f, 0x70, 0x5f, 0x31, 0x2f, 0x72, 0x65,
  0x73, 0x6f, 0x75, 0x72, 0x63, 0x65, 0x00, 0x00, 0x0c, 0x00, 0x0c, 0x00,
  0x00, 0x00, 0x00, 0x00, 0x04, 0x00, 0x08, 0x00, 0x0c, 0x00, 0x00, 0x00,
  0x08, 0x00, 0x00, 0x00, 0x0c, 0x00, 0x00, 0x00, 0x01, 0x00, 0x00, 0x00,
  0x81, 0x80, 0x00, 0x3b, 0x01, 0x00, 0x00, 0x00, 0x00, 0x00, 0x00, 0x00,
  0x00, 0x00, 0x00, 0x00, 0x00, 0x00, 0x00, 0x00, 0x96, 0xff, 0xff, 0xff,
  0x04, 0x00, 0x00, 0x00, 0x08, 0x00, 0x00, 0x00, 0xff, 0xff, 0xff, 0xff,
  0x0c, 0x00, 0x00, 0x00, 0x8e, 0xff, 0xff, 0xff, 0x00, 0x00, 0x00, 0x02,
  0x10, 0x00, 0x00, 0x00, 0x03, 0x00, 0x00, 0x00, 0x10, 0x00, 0x00, 0x00,
  0x3c, 0x00, 0x00, 0x00, 0x01, 0x00, 0x00, 0x00, 0x02, 0x00, 0x00, 0x00,
  0x24, 0x00, 0x00, 0x00, 0x73, 0x65, 0x71, 0x75, 0x65, 0x6e, 0x74, 0x69,
  0x61, 0x6c, 0x5f, 0x31, 0x32, 0x2f, 0x71, 0x75, 0x61, 0x6e, 0x74, 0x5f,
  0x66, 0x6c, 0x61, 0x74, 0x74, 0x65, 0x6e, 0x5f, 0x31, 0x32, 0x2f, 0x43,
  0x6f, 0x6e, 0x73, 0x74, 0x00, 0x00, 0x00, 0x00, 0x04, 0x00, 0x06, 0x00,
  0x04, 0x00, 0x00, 0x00, 0x00, 0x00, 0x06, 0x00, 0x08, 0x00, 0x04, 0x00,
  0x06, 0x00, 0x00, 0x00, 0x04, 0x00, 0x00, 0x00, 0x08, 0x00, 0x00, 0x00,
  0x01, 0x00, 0x00, 0x00, 0x02, 0x00, 0x00, 0x00, 0x00, 0x00, 0x0e, 0x00,
  0x18, 0x00, 0x08, 0x00, 0x07, 0x00, 0x0c, 0x00, 0x10, 0x00, 0x14, 0x00,
  0x0e, 0x00, 0x00, 0x00, 0x00, 0x00, 0x00, 0x02, 0x10, 0x00, 0x00, 0x00,
  0x02, 0x00, 0x00, 0x00, 0x10, 0x00, 0x00, 0x00, 0x54, 0x00, 0x00, 0x00,
  0x01, 0x00, 0x00, 0x00, 0x02, 0x00, 0x00, 0x00, 0x41, 0x00, 0x00, 0x00,
  0x73, 0x65, 0x71, 0x75, 0x65, 0x6e, 0x74, 0x69, 0x61, 0x6c, 0x5f, 0x31,
  0x32, 0x2f, 0x71, 0x75, 0x61, 0x6e, 0x74, 0x5f, 0x67, 0x6c, 0x6f, 0x62,
  0x61, 0x6c, 0x5f, 0x6d, 0x61, 0x78, 0x5f, 0x70, 0x6f, 0x6f, 0x6c, 0x69,
  0x6e, 0x67, 0x32, 0x64, 0x5f, 0x31, 0x32, 0x2f, 0x4d, 0x61, 0x78, 0x2f,
  0x72, 0x65, 0x64, 0x75, 0x63, 0x74, 0x69, 0x6f, 0x6e, 0x5f, 0x69, 0x6e,
  0x64, 0x69, 0x63, 0x65, 0x73, 0x00, 0x00, 0x00, 0x90, 0xff, 0xff, 0xff,
  0x14, 0x00, 0x18, 0x00, 0x04, 0x00, 0x00, 0x00, 0x08, 0x00, 0x0c, 0x00,
  0x10, 0x00, 0x00, 0x00, 0x00, 0x00, 0x14, 0x00, 0x14, 0x00, 0x00, 0x00,
  0x14, 0x00, 0x00, 0x00, 0x01, 0x00, 0x00, 0x00, 0x34, 0x00, 0x00, 0x00,
  0x44, 0x00, 0x00, 0x00, 0x18, 0x00, 0x00, 0x00, 0x04, 0x00, 0x00, 0x00,
  0x01, 0x00, 0x00, 0x00, 0x40, 0x00, 0x00, 0x00, 0x03, 0x00, 0x00, 0x00,
  0x01, 0x00, 0x00, 0x00, 0x04, 0x00, 0x00, 0x00, 0xff, 0xff, 0xff, 0xff,
  0x40, 0x00, 0x00, 0x00, 0x03, 0x00, 0x00, 0x00, 0x01, 0x00, 0x00, 0x00,
  0x0f, 0x00, 0x00, 0x00, 0x63, 0x6f, 0x6e, 0x76, 0x32, 0x64, 0x5f, 0x34,
  0x38, 0x5f, 0x69, 0x6e, 0x70, 0x75, 0x74, 0x00, 0xfc, 0xff, 0xff, 0xff,
  0x04, 0x00, 0x04, 0x00, 0x04, 0x00, 0x00, 0x00
};

#endif // INCLUDE_MODEL

#endif //MODEL_28_TENSORFLOW_H