#ifndef MODEL_14_TENSORFLOW_H
#define MODEL_14_TENSORFLOW_H

#define APP_ACTIVITY_MODEL_NAME model_14_tensorflow
#define APP_ACTIVITY_RECOGNITION_PRECISION_FLOAT (0)
#define APP_ACTIVITY_RECOGNITION_SENSOR_SCALE (2)
#define APP_ACTIVITY_RECOGNITION_SENSOR_RESOLUTION (8)
#define APP_ACTIVITY_RECOGNITION_SAMPLING_FREQUENCY (10)
#define APP_ACTIVITY_RECOGNITION_FREQUENCY_DIVIDER (0)
#define APP_ACTIVITY_RECOGNITION_HIGHPASS_STAGES (2)
#define APP_ACTIVITY_RECOGNITION_INPUT_SIZE (192)
#define APP_ACTIVITY_RECOGNITION_STEP_SIZE (32)
#define APP_ACTIVITY_RECOGNITION_CLASS_COUNT (6)

#ifdef INCLUDE_MODEL
static const float highpass_coefficients[] = {0.2069928239055942f, -0.2069928239055942f, 0.0f, 0.2068179864931189f, -0.0f, 0.25f, -0.5f, 0.25f, 0.4490699651581907f, -0.2071676613180694f};
static const char* APP_ACTIVITY_RECOGNITION_CLASSES[] = {"jog","skip","stDown","stUp","stay","walk"};
static const size_t model_14_tensorflow_len = 15168;
static const uint8_t model_14_tensorflow[] = {
 0x1c, 0x00, 0x00, 0x00, 0x54, 0x46, 0x4c, 0x33, 0x14, 0x00, 0x20, 0x00,
  0x04, 0x00, 0x08, 0x00, 0x0c, 0x00, 0x10, 0x00, 0x14, 0x00, 0x00, 0x00,
  0x18, 0x00, 0x1c, 0x00, 0x14, 0x00, 0x00, 0x00, 0x03, 0x00, 0x00, 0x00,
  0x18, 0x00, 0x00, 0x00, 0x34, 0x00, 0x00, 0x00, 0xf4, 0x00, 0x00, 0x00,
  0x34, 0x00, 0x00, 0x00, 0x9c, 0x00, 0x00, 0x00, 0x94, 0x00, 0x00, 0x00,
  0x07, 0x00, 0x00, 0x00, 0xe8, 0x37, 0x00, 0x00, 0x8c, 0x30, 0x00, 0x00,
  0x70, 0x06, 0x00, 0x00, 0xac, 0x05, 0x00, 0x00, 0x20, 0x03, 0x00, 0x00,
  0x54, 0x02, 0x00, 0x00, 0xcc, 0x01, 0x00, 0x00, 0x01, 0x00, 0x00, 0x00,
  0xe4, 0x00, 0x00, 0x00, 0x19, 0x00, 0x00, 0x00, 0xd4, 0x3a, 0x00, 0x00,
  0xd0, 0x3a, 0x00, 0x00, 0xd0, 0x39, 0x00, 0x00, 0x60, 0x39, 0x00, 0x00,
  0xc4, 0x3a, 0x00, 0x00, 0x00, 0x34, 0x00, 0x00, 0x74, 0x31, 0x00, 0x00,
  0xb8, 0x3a, 0x00, 0x00, 0x54, 0x16, 0x00, 0x00, 0x48, 0x14, 0x00, 0x00,
  0xac, 0x3a, 0x00, 0x00, 0xb8, 0x0e, 0x00, 0x00, 0x2c, 0x0d, 0x00, 0x00,
  0xa0, 0x3a, 0x00, 0x00, 0x4c, 0x09, 0x00, 0x00, 0x00, 0x08, 0x00, 0x00,
  0x94, 0x3a, 0x00, 0x00, 0x90, 0x3a, 0x00, 0x00, 0x8c, 0x3a, 0x00, 0x00,
  0x14, 0x04, 0x00, 0x00, 0x6c, 0x03, 0x00, 0x00, 0x80, 0x3a, 0x00, 0x00,
  0x7c, 0x3a, 0x00, 0x00, 0x78, 0x3a, 0x00, 0x00, 0x3c, 0x00, 0x00, 0x00,
  0x00, 0x00, 0x00, 0x00, 0x01, 0x00, 0x00, 0x00, 0x0c, 0x00, 0x00, 0x00,
  0x08, 0x00, 0x0c, 0x00, 0x04, 0x00, 0x08, 0x00, 0x08, 0x00, 0x00, 0x00,
  0x08, 0x00, 0x00, 0x00, 0x18, 0x00, 0x00, 0x00, 0x13, 0x00, 0x00, 0x00,
  0x6d, 0x69, 0x6e, 0x5f, 0x72, 0x75, 0x6e, 0x74, 0x69, 0x6d, 0x65, 0x5f,
  0x76, 0x65, 0x72, 0x73, 0x69, 0x6f, 0x6e, 0x00, 0xca, 0xc6, 0xff, 0xff,
  0x04, 0x00, 0x00, 0x00, 0x10, 0x00, 0x00, 0x00, 0x31, 0x2e, 0x31, 0x34,
  0x2e, 0x30, 0x00, 0x00, 0x00, 0x00, 0x00, 0x00, 0x00, 0x00, 0x00, 0x00,
  0x0f, 0x00, 0x00, 0x00, 0x4d, 0x4c, 0x49, 0x52, 0x20, 0x43, 0x6f, 0x6e,
  0x76, 0x65, 0x72, 0x74, 0x65, 0x64, 0x2e, 0x00, 0x00, 0x00, 0x0e, 0x00,
  0x18, 0x00, 0x04, 0x00, 0x08, 0x00, 0x0c, 0x00, 0x10, 0x00, 0x14, 0x00,
  0x0e, 0x00, 0x00, 0x00, 0x14, 0x00, 0x00, 0x00, 0x70, 0x00, 0x00, 0x00,
  0x74, 0x00, 0x00, 0x00, 0x78, 0x00, 0x00, 0x00, 0xa0, 0x00, 0x00, 0x00,
  0x17, 0x00, 0x00, 0x00, 0x80, 0x39, 0x00, 0x00, 0x00, 0x39, 0x00, 0x00,
  0x80, 0x38, 0x00, 0x00, 0xe0, 0x36, 0x00, 0x00, 0x98, 0x34, 0x00, 0x00,
  0x0c, 0x31, 0x00, 0x00, 0x68, 0x2f, 0x00, 0x00, 0x6c, 0x2d, 0x00, 0x00,
  0xc0, 0x13, 0x00, 0x00, 0x3c, 0x12, 0x00, 0x00, 0xd0, 0x10, 0x00, 0x00,
  0x84, 0x0c, 0x00, 0x00, 0x20, 0x0b, 0x00, 0x00, 0xe4, 0x09, 0x00, 0x00,
  0x48, 0x07, 0x00, 0x00, 0xf4, 0x05, 0x00, 0x00, 0x28, 0x05, 0x00, 0x00,
  0x64, 0x04, 0x00, 0x00, 0x74, 0x03, 0x00, 0x00, 0x9c, 0x02, 0x00, 0x00,
  0xd0, 0x01, 0x00, 0x00, 0x04, 0x01, 0x00, 0x00, 0x7c, 0x00, 0x00, 0x00,
  0x01, 0x00, 0x00, 0x00, 0x00, 0x00, 0x00, 0x00, 0x01, 0x00, 0x00, 0x00,
  0x16, 0x00, 0x00, 0x00, 0x0a, 0x00, 0x00, 0x00, 0x30, 0x36, 0x00, 0x00,
  0xb0, 0x2e, 0x00, 0x00, 0xa8, 0x11, 0x00, 0x00, 0x94, 0x0a, 0x00, 0x00,
  0x70, 0x05, 0x00, 0x00, 0xa4, 0x04, 0x00, 0x00, 0xec, 0x03, 0x00, 0x00,
  0x50, 0x01, 0x00, 0x00, 0x88, 0x00, 0x00, 0x00, 0x10, 0x00, 0x00, 0x00,
  0x04, 0x00, 0x00, 0x00, 0x6d, 0x61, 0x69, 0x6e, 0x00, 0x00, 0x00, 0x00,
  0x3a, 0xfc, 0xff, 0xff, 0x06, 0x00, 0x00, 0x00, 0x10, 0x00, 0x00, 0x00,
  0x04, 0x00, 0x00, 0x00, 0x01, 0x00, 0x00, 0x00, 0x16, 0x00, 0x00, 0x00,
  0x01, 0x00, 0x00, 0x00, 0x15, 0x00, 0x00, 0x00, 0x08, 0xca, 0xff, 0xff,
  0x06, 0x00, 0x00, 0x00, 0x00, 0x00, 0x00, 0x06, 0x02, 0x00, 0x00, 0x00,
  0x68, 0xc7, 0xff, 0xff, 0x14, 0x00, 0x00, 0x00, 0x17, 0x00, 0x00, 0x00,
  0x24, 0x00, 0x00, 0x00, 0x30, 0x00, 0x00, 0x00, 0x10, 0x00, 0x00, 0x00,
  0x02, 0x00, 0x00, 0x00, 0x01, 0x00, 0x00, 0x00, 0x06, 0x00, 0x00, 0x00,
  0x02, 0x00, 0x00, 0x00, 0xff, 0xff, 0xff, 0xff, 0x06, 0x00, 0x00, 0x00,
  0x08, 0x00, 0x00, 0x00, 0x49, 0x64, 0x65, 0x6e, 0x74, 0x69, 0x74, 0x79,
  0x00, 0x00, 0x00, 0x00, 0x3c, 0xc7, 0xff, 0xff, 0x02, 0xd2, 0xff, 0xff,
  0x00, 0x00, 0x00, 0x09, 0x05, 0x00, 0x00, 0x00, 0x1c, 0x00, 0x00, 0x00,
  0x10, 0x00, 0x00, 0x00, 0x04, 0x00, 0x00, 0x00, 0x56, 0xc8, 0xff, 0xff,
  0x00, 0x00, 0x80, 0x3f, 0x01, 0x00, 0x00, 0x00, 0x15, 0x00, 0x00, 0x00,
  0x01, 0x00, 0x00, 0x00, 0x14, 0x00, 0x00, 0x00, 0x8c, 0xca, 0xff, 0xff,
  0x19, 0x00, 0x00, 0x00, 0x00, 0x00, 0x00, 0x19, 0x02, 0x00, 0x00, 0x00,
  0x80, 0xca, 0xff, 0xff, 0x00, 0x00, 0x00, 0x09, 0x14, 0x00, 0x00, 0x00,
  0x16, 0x00, 0x00, 0x00, 0x24, 0x00, 0x00, 0x00, 0x4c, 0x00, 0x00, 0x00,
  0x10, 0x00, 0x00, 0x00, 0x02, 0x00, 0x00, 0x00, 0x01, 0x00, 0x00, 0x00,
  0x06, 0x00, 0x00, 0x00, 0x02, 0x00, 0x00, 0x00, 0xff, 0xff, 0xff, 0xff,
  0x06, 0x00, 0x00, 0x00, 0x24, 0x00, 0x00, 0x00, 0x73, 0x65, 0x71, 0x75,
  0x65, 0x6e, 0x74, 0x69, 0x61, 0x6c, 0x5f, 0x36, 0x2f, 0x71, 0x75, 0x61,
  0x6e, 0x74, 0x5f, 0x73, 0x6f, 0x66, 0x74, 0x6d, 0x61, 0x78, 0x5f, 0x36,
  0x2f, 0x53, 0x6f, 0x66, 0x74, 0x6d, 0x61, 0x78, 0x00, 0x00, 0x00, 0x00,
  0x74, 0xc9, 0xff, 0xff, 0x08, 0x00, 0x00, 0x00, 0x0c, 0x00, 0x00, 0x00,
  0x01, 0x00, 0x00, 0x00, 0x00, 0x00, 0x80, 0x3b, 0x01, 0x00, 0x00, 0x00,
  0x80, 0xff, 0xff, 0xff, 0xff, 0xff, 0xff, 0xff, 0x00, 0x00, 0x00, 0x00,
  0xc6, 0xd2, 0xff, 0xff, 0x00, 0x00, 0x00, 0x08, 0x04, 0x00, 0x00, 0x00,
  0x18, 0x00, 0x00, 0x00, 0x0c, 0x00, 0x00, 0x00, 0x04, 0x00, 0x00, 0x00,
  0x1c, 0xc8, 0xff, 0xff, 0x01, 0x00, 0x00, 0x00, 0x14, 0x00, 0x00, 0x00,
  0x03, 0x00, 0x00, 0x00, 0x11, 0x00, 0x00, 0x00, 0x12, 0x00, 0x00, 0x00,
  0x13, 0x00, 0x00, 0x00, 0x54, 0xcb, 0xff, 0xff, 0x09, 0x00, 0x00, 0x00,
  0x00, 0x00, 0x00, 0x09, 0x04, 0x00, 0x00, 0x00, 0x48, 0xcb, 0xff, 0xff,
  0x00, 0x00, 0x00, 0x09, 0x14, 0x00, 0x00, 0x00, 0x15, 0x00, 0x00, 0x00,
  0x24, 0x00, 0x00, 0x00, 0x6c, 0x00, 0x00, 0x00, 0x10, 0x00, 0x00, 0x00,
  0x02, 0x00, 0x00, 0x00, 0x01, 0x00, 0x00, 0x00, 0x06, 0x00, 0x00, 0x00,
  0x02, 0x00, 0x00, 0x00, 0xff, 0xff, 0xff, 0xff, 0x06, 0x00, 0x00, 0x00,
  0x44, 0x00, 0x00, 0x00, 0x73, 0x65, 0x71, 0x75, 0x65, 0x6e, 0x74, 0x69,
  0x61, 0x6c, 0x5f, 0x36, 0x2f, 0x71, 0x75, 0x61, 0x6e, 0x74, 0x5f, 0x64,
  0x65, 0x6e, 0x73, 0x65, 0x5f, 0x36, 0x2f, 0x4d, 0x61, 0x74, 0x4d, 0x75,
  0x6c, 0x3b, 0x73, 0x65, 0x71, 0x75, 0x65, 0x6e, 0x74, 0x69, 0x61, 0x6c,
  0x5f, 0x36, 0x2f, 0x71, 0x75, 0x61, 0x6e, 0x74, 0x5f, 0x64, 0x65, 0x6e,
  0x73, 0x65, 0x5f, 0x36, 0x2f, 0x42, 0x69, 0x61, 0x73, 0x41, 0x64, 0x64,
  0x00, 0x00, 0x00, 0x00, 0x5c, 0xca, 0xff, 0xff, 0x08, 0x00, 0x00, 0x00,
  0x0c, 0x00, 0x00, 0x00, 0x01, 0x00, 0x00, 0x00, 0x01, 0xf4, 0x09, 0x3f,
  0x01, 0x00, 0x00, 0x00, 0x65, 0x00, 0x00, 0x00, 0x00, 0x00, 0x00, 0x00,
  0x00, 0x00, 0x00, 0x00, 0xea, 0xc9, 0xff, 0xff, 0x04, 0x00, 0x00, 0x00,
  0x18, 0x00, 0x00, 0x00, 0xf4, 0xfb, 0xff, 0xff, 0xe0, 0x00, 0x00, 0x00,
  0x73, 0xf9, 0xff, 0xff, 0xc2, 0xff, 0xff, 0xff, 0x8a, 0x08, 0x00, 0x00,
  0x1a, 0x01, 0x00, 0x00, 0xf2, 0xc9, 0xff, 0xff, 0x00, 0x00, 0x00, 0x02,
  0x10, 0x00, 0x00, 0x00, 0x14, 0x00, 0x00, 0x00, 0x10, 0x00, 0x00, 0x00,
  0x4c, 0x00, 0x00, 0x00, 0x01, 0x00, 0x00, 0x00, 0x06, 0x00, 0x00, 0x00,
  0x3a, 0x00, 0x00, 0x00, 0x73, 0x65, 0x71, 0x75, 0x65, 0x6e, 0x74, 0x69,
  0x61, 0x6c, 0x5f, 0x36, 0x2f, 0x71, 0x75, 0x61, 0x6e, 0x74, 0x5f, 0x64,
  0x65, 0x6e, 0x73, 0x65, 0x5f, 0x36, 0x2f, 0x42, 0x69, 0x61, 0x73, 0x41,
  0x64, 0x64, 0x2f, 0x52, 0x65, 0x61, 0x64, 0x56, 0x61, 0x72, 0x69, 0x61,
  0x62, 0x6c, 0x65, 0x4f, 0x70, 0x2f, 0x72, 0x65, 0x73, 0x6f, 0x75, 0x72,
  0x63, 0x65, 0x00, 0x00, 0x04, 0xcb, 0xff, 0xff, 0x08, 0x00, 0x00, 0x00,
  0x0c, 0x00, 0x00, 0x00, 0x01, 0x00, 0x00, 0x00, 0xa3, 0x15, 0x9f, 0x3a,
  0x01, 0x00, 0x00, 0x00, 0x00, 0x00, 0x00, 0x00, 0x00, 0x00, 0x00, 0x00,
  0x8e, 0xca, 0xff, 0xff, 0x04, 0x00, 0x00, 0x00, 0x48, 0x00, 0x00, 0x00,
  0x07, 0xd2, 0xc3, 0x08, 0xea, 0x06, 0x0c, 0x05, 0xc8, 0x0c, 0xc9, 0x0d,
  0x0d, 0xd2, 0xfd, 0x01, 0x21, 0xf5, 0x04, 0xe8, 0xdd, 0xf1, 0xe4, 0x02,
  0xdf, 0x0e, 0x08, 0x01, 0x16, 0xf5, 0xfb, 0x03, 0x08, 0x0a, 0x10, 0x0a,
  0xaa, 0x05, 0x07, 0xdd, 0xd1, 0x02, 0xb3, 0xfc, 0x06, 0x04, 0x0d, 0x04,
  0xb3, 0x81, 0x9f, 0xc1, 0x0b, 0xfb, 0xc1, 0x89, 0xa3, 0x97, 0xa4, 0xa0,
  0xd6, 0x0c, 0x0d, 0xbe, 0xb6, 0x02, 0xc8, 0xba, 0x0c, 0xd1, 0x14, 0xc6,
  0xc6, 0xca, 0xff, 0xff, 0x00, 0x00, 0x00, 0x09, 0x10, 0x00, 0x00, 0x00,
  0x13, 0x00, 0x00, 0x00, 0x14, 0x00, 0x00, 0x00, 0x78, 0x00, 0x00, 0x00,
  0x02, 0x00, 0x00, 0x00, 0x06, 0x00, 0x00, 0x00, 0x0c, 0x00, 0x00, 0x00,
  0x63, 0x00, 0x00, 0x00, 0x73, 0x65, 0x71, 0x75, 0x65, 0x6e, 0x74, 0x69,
  0x61, 0x6c, 0x5f, 0x36, 0x2f, 0x71, 0x75, 0x61, 0x6e, 0x74, 0x5f, 0x64,
  0x65, 0x6e, 0x73, 0x65, 0x5f, 0x36, 0x2f, 0x4d, 0x61, 0x74, 0x4d, 0x75,
  0x6c, 0x3b, 0x73, 0x65, 0x71, 0x75, 0x65, 0x6e, 0x74, 0x69, 0x61, 0x6c,
  0x5f, 0x36, 0x2f, 0x71, 0x75, 0x61, 0x6e, 0x74, 0x5f, 0x64, 0x65, 0x6e,
  0x73, 0x65, 0x5f, 0x36, 0x2f, 0x4c, 0x61, 0x73, 0x74, 0x56, 0x61, 0x6c,
  0x75, 0x65, 0x51, 0x75, 0x61, 0x6e, 0x74, 0x2f, 0x46, 0x61, 0x6b, 0x65,
  0x51, 0x75, 0x61, 0x6e, 0x74, 0x57, 0x69, 0x74, 0x68, 0x4d, 0x69, 0x6e,
  0x4d, 0x61, 0x78, 0x56, 0x61, 0x72, 0x73, 0x00, 0x04, 0xcc, 0xff, 0xff,
  0x08, 0x00, 0x00, 0x00, 0x0c, 0x00, 0x00, 0x00, 0x01, 0x00, 0x00, 0x00,
  0x8a, 0xa6, 0xdb, 0x3c, 0x01, 0x00, 0x00, 0x00, 0x00, 0x00, 0x00, 0x00,
  0x00, 0x00, 0x00, 0x00, 0x00, 0x00, 0x0a, 0x00, 0x10, 0x00, 0x04, 0x00,
  0x08, 0x00, 0x0c, 0x00, 0x0a, 0x00, 0x00, 0x00, 0x03, 0x00, 0x00, 0x00,
  0x10, 0x00, 0x00, 0x00, 0x04, 0x00, 0x00, 0x00, 0x01, 0x00, 0x00, 0x00,
  0x11, 0x00, 0x00, 0x00, 0x02, 0x00, 0x00, 0x00, 0x10, 0x00, 0x00, 0x00,
  0x02, 0x00, 0x00, 0x00, 0xdc, 0xcd, 0xff, 0xff, 0x16, 0x00, 0x00, 0x00,
  0x00, 0x00, 0x00, 0x16, 0x01, 0x00, 0x00, 0x00, 0xd0, 0xcd, 0xff, 0xff,
  0x00, 0x00, 0x00, 0x09, 0x14, 0x00, 0x00, 0x00, 0x12, 0x00, 0x00, 0x00,
  0x24, 0x00, 0x00, 0x00, 0x4c, 0x00, 0x00, 0x00, 0x10, 0x00, 0x00, 0x00,
  0x02, 0x00, 0x00, 0x00, 0x01, 0x00, 0x00, 0x00, 0x0c, 0x00, 0x00, 0x00,
  0x02, 0x00, 0x00, 0x00, 0xff, 0xff, 0xff, 0xff, 0x0c, 0x00, 0x00, 0x00,
  0x24, 0x00, 0x00, 0x00, 0x73, 0x65, 0x71, 0x75, 0x65, 0x6e, 0x74, 0x69,
  0x61, 0x6c, 0x5f, 0x36, 0x2f, 0x71, 0x75, 0x61, 0x6e, 0x74, 0x5f, 0x66,
  0x6c, 0x61, 0x74, 0x74, 0x65, 0x6e, 0x5f, 0x36, 0x2f, 0x52, 0x65, 0x73,
  0x68, 0x61, 0x70, 0x65, 0x00, 0x00, 0x00, 0x00, 0xc4, 0xcc, 0xff, 0xff,
  0x08, 0x00, 0x00, 0x00, 0x0c, 0x00, 0x00, 0x00, 0x01, 0x00, 0x00, 0x00,
  0x3a, 0x69, 0x39, 0x3d, 0x01, 0x00, 0x00, 0x00, 0x80, 0xff, 0xff, 0xff,
  0xff, 0xff, 0xff, 0xff, 0x12, 0xd6, 0xff, 0xff, 0x00, 0x00, 0x00, 0x1b,
  0x02, 0x00, 0x00, 0x00, 0x18, 0x00, 0x00, 0x00, 0x0c, 0x00, 0x00, 0x00,
  0x04, 0x00, 0x00, 0x00, 0x68, 0xcb, 0xff, 0xff, 0x01, 0x00, 0x00, 0x00,
  0x10, 0x00, 0x00, 0x00, 0x02, 0x00, 0x00, 0x00, 0x0f, 0x00, 0x00, 0x00,
  0x01, 0x00, 0x00, 0x00, 0x9c, 0xce, 0xff, 0xff, 0x52, 0x00, 0x00, 0x00,
  0x00, 0x00, 0x00, 0x52, 0x02, 0x00, 0x00, 0x00, 0x90, 0xce, 0xff, 0xff,
  0x00, 0x00, 0x00, 0x09, 0x14, 0x00, 0x00, 0x00, 0x11, 0x00, 0x00, 0x00,
  0x24, 0x00, 0x00, 0x00, 0x54, 0x00, 0x00, 0x00, 0x10, 0x00, 0x00, 0x00,
  0x02, 0x00, 0x00, 0x00, 0x01, 0x00, 0x00, 0x00, 0x0c, 0x00, 0x00, 0x00,
  0x02, 0x00, 0x00, 0x00, 0xff, 0xff, 0xff, 0xff, 0x0c, 0x00, 0x00, 0x00,
  0x2d, 0x00, 0x00, 0x00, 0x73, 0x65, 0x71, 0x75, 0x65, 0x6e, 0x74, 0x69,
  0x61, 0x6c, 0x5f, 0x36, 0x2f, 0x71, 0x75, 0x61, 0x6e, 0x74, 0x5f, 0x67,
  0x6c, 0x6f, 0x62, 0x61, 0x6c, 0x5f, 0x6d, 0x61, 0x78, 0x5f, 0x70, 0x6f,
  0x6f, 0x6c, 0x69, 0x6e, 0x67, 0x32, 0x64, 0x5f, 0x36, 0x2f, 0x4d, 0x61,
  0x78, 0x00, 0x00, 0x00, 0x8c, 0xcd, 0xff, 0xff, 0x08, 0x00, 0x00, 0x00,
  0x0c, 0x00, 0x00, 0x00, 0x01, 0x00, 0x00, 0x00, 0x3a, 0x69, 0x39, 0x3d,
  0x01, 0x00, 0x00, 0x00, 0x80, 0xff, 0xff, 0xff, 0xff, 0xff, 0xff, 0xff,
  0xda, 0xd6, 0xff, 0xff, 0x00, 0x00, 0x00, 0x01, 0x01, 0x00, 0x00, 0x00,
  0x24, 0x00, 0x00, 0x00, 0x18, 0x00, 0x00, 0x00, 0x04, 0x00, 0x00, 0x00,
  0xcc, 0xd6, 0xff, 0xff, 0x01, 0x00, 0x00, 0x00, 0x01, 0x00, 0x00, 0x00,
  0x00, 0x00, 0x01, 0x01, 0x01, 0x00, 0x00, 0x00, 0x0f, 0x00, 0x00, 0x00,
  0x03, 0x00, 0x00, 0x00, 0x0c, 0x00, 0x00, 0x00, 0x0d, 0x00, 0x00, 0x00,
  0x0e, 0x00, 0x00, 0x00, 0x58, 0xcf, 0xff, 0xff, 0x00, 0x00, 0x00, 0x09,
  0x14, 0x00, 0x00, 0x00, 0x10, 0x00, 0x00, 0x00, 0x34, 0x00, 0x00, 0x00,
  0xdc, 0x00, 0x00, 0x00, 0x18, 0x00, 0x00, 0x00, 0x04, 0x00, 0x00, 0x00,
  0x01, 0x00, 0x00, 0x00, 0x36, 0x00, 0x00, 0x00, 0x01, 0x00, 0x00, 0x00,
  0x0c, 0x00, 0x00, 0x00, 0x04, 0x00, 0x00, 0x00, 0xff, 0xff, 0xff, 0xff,
  0x36, 0x00, 0x00, 0x00, 0x01, 0x00, 0x00, 0x00, 0x0c, 0x00, 0x00, 0x00,
  0xa6, 0x00, 0x00, 0x00, 0x73, 0x65, 0x71, 0x75, 0x65, 0x6e, 0x74, 0x69,
  0x61, 0x6c, 0x5f, 0x36, 0x2f, 0x71, 0x75, 0x61, 0x6e, 0x74, 0x5f, 0x72,
  0x65, 0x5f, 0x6c, 0x75, 0x5f, 0x32, 0x37, 0x2f, 0x52, 0x65, 0x6c, 0x75,
  0x3b, 0x73, 0x65, 0x71, 0x75, 0x65, 0x6e, 0x74, 0x69, 0x61, 0x6c, 0x5f,
  0x36, 0x2f, 0x71, 0x75, 0x61, 0x6e, 0x74, 0x5f, 0x63, 0x6f, 0x6e, 0x76,
  0x32, 0x64, 0x5f, 0x32, 0x37, 0x2f, 0x42, 0x69, 0x61, 0x73, 0x41, 0x64,
  0x64, 0x3b, 0x73, 0x65, 0x71, 0x75, 0x65, 0x6e, 0x74, 0x69, 0x61, 0x6c,
  0x5f, 0x36, 0x2f, 0x71, 0x75, 0x61, 0x6e, 0x74, 0x5f, 0x63, 0x6f, 0x6e,
  0x76, 0x32, 0x64, 0x5f, 0x32, 0x37, 0x2f, 0x43, 0x6f, 0x6e, 0x76, 0x32,
  0x44, 0x3b, 0x73, 0x65, 0x71, 0x75, 0x65, 0x6e, 0x74, 0x69, 0x61, 0x6c,
  0x5f, 0x36, 0x2f, 0x71, 0x75, 0x61, 0x6e, 0x74, 0x5f, 0x63, 0x6f, 0x6e,
  0x76, 0x32, 0x64, 0x5f, 0x32, 0x37, 0x2f, 0x42, 0x69, 0x61, 0x73, 0x41,
  0x64, 0x64, 0x2f, 0x52, 0x65, 0x61, 0x64, 0x56, 0x61, 0x72, 0x69, 0x61,
  0x62, 0x6c, 0x65, 0x4f, 0x70, 0x2f, 0x72, 0x65, 0x73, 0x6f, 0x75, 0x72,
  0x63, 0x65, 0x00, 0x00, 0xdc, 0xce, 0xff, 0xff, 0x08, 0x00, 0x00, 0x00,
  0x0c, 0x00, 0x00, 0x00, 0x01, 0x00, 0x00, 0x00, 0x3a, 0x69, 0x39, 0x3d,
  0x01, 0x00, 0x00, 0x00, 0x80, 0xff, 0xff, 0xff, 0xff, 0xff, 0xff, 0xff,
  0x00, 0x00, 0x00, 0x00, 0x6a, 0xce, 0xff, 0xff, 0x04, 0x00, 0x00, 0x00,
  0x30, 0x00, 0x00, 0x00, 0x45, 0xfb, 0xff, 0xff, 0x01, 0xff, 0xff, 0xff,
  0x92, 0x02, 0x00, 0x00, 0x47, 0xf9, 0xff, 0xff, 0x9d, 0x00, 0x00, 0x00,
  0x70, 0xfa, 0xff, 0xff, 0x6f, 0xfc, 0xff, 0xff, 0xdc, 0x00, 0x00, 0x00,
  0x0e, 0xff, 0xff, 0xff, 0x13, 0x01, 0x00, 0x00, 0x3a, 0x01, 0x00, 0x00,
  0xbe, 0x01, 0x00, 0x00, 0x8a, 0xce, 0xff, 0xff, 0x00, 0x00, 0x00, 0x02,
  0x10, 0x00, 0x00, 0x00, 0x0f, 0x00, 0x00, 0x00, 0x10, 0x00, 0x00, 0x00,
  0x50, 0x00, 0x00, 0x00, 0x01, 0x00, 0x00, 0x00, 0x0c, 0x00, 0x00, 0x00,
  0x3c, 0x00, 0x00, 0x00, 0x73, 0x65, 0x71, 0x75, 0x65, 0x6e, 0x74, 0x69,
  0x61, 0x6c, 0x5f, 0x36, 0x2f, 0x71, 0x75, 0x61, 0x6e, 0x74, 0x5f, 0x63,
  0x6f, 0x6e, 0x76, 0x32, 0x64, 0x5f, 0x32, 0x37, 0x2f, 0x42, 0x69, 0x61,
  0x73, 0x41, 0x64, 0x64, 0x2f, 0x52, 0x65, 0x61, 0x64, 0x56, 0x61, 0x72,
  0x69, 0x61, 0x62, 0x6c, 0x65, 0x4f, 0x70, 0x2f, 0x72, 0x65, 0x73, 0x6f,
  0x75, 0x72, 0x63, 0x65, 0x00, 0x00, 0x00, 0x00, 0xa0, 0xcf, 0xff, 0xff,
  0x08, 0x00, 0x00, 0x00, 0x38, 0x00, 0x00, 0x00, 0x0c, 0x00, 0x00, 0x00,
  0x3f, 0x0a, 0xb2, 0x39, 0x0e, 0x87, 0x19, 0x3a, 0xc0, 0x37, 0xe1, 0x39,
  0x34, 0x2b, 0x75, 0x39, 0x50, 0xc2, 0xf3, 0x39, 0xc6, 0xd4, 0xf0, 0x38,
  0xbc, 0x75, 0x83, 0x39, 0x87, 0x3b, 0x08, 0x3a, 0x44, 0x2d, 0xdf, 0x39,
  0x94, 0xc9, 0xe4, 0x39, 0xf9, 0xb3, 0xe7, 0x39, 0x87, 0x61, 0xe8, 0x39,
  0x0c, 0x00, 0x00, 0x00, 0x00, 0x00, 0x00, 0x00, 0x00, 0x00, 0x00, 0x00,
  0x00, 0x00, 0x00, 0x00, 0x00, 0x00, 0x00, 0x00, 0x00, 0x00, 0x00, 0x00,
  0x00, 0x00, 0x00, 0x00, 0x00, 0x00, 0x00, 0x00, 0x00, 0x00, 0x00, 0x00,
  0x00, 0x00, 0x00, 0x00, 0x00, 0x00, 0x00, 0x00, 0x00, 0x00, 0x00, 0x00,
  0x00, 0x00, 0x00, 0x00, 0x00, 0x00, 0x00, 0x00, 0x00, 0x00, 0x00, 0x00,
  0x00, 0x00, 0x00, 0x00, 0x00, 0x00, 0x00, 0x00, 0x00, 0x00, 0x00, 0x00,
  0x00, 0x00, 0x00, 0x00, 0x00, 0x00, 0x00, 0x00, 0x00, 0x00, 0x00, 0x00,
  0x00, 0x00, 0x00, 0x00, 0x00, 0x00, 0x00, 0x00, 0x00, 0x00, 0x00, 0x00,
  0x00, 0x00, 0x00, 0x00, 0x00, 0x00, 0x00, 0x00, 0xb2, 0xcf, 0xff, 0xff,
  0x04, 0x00, 0x00, 0x00, 0x80, 0x01, 0x00, 0x00, 0x01, 0x30, 0xdd, 0xc4,
  0x95, 0xe4, 0x0b, 0xee, 0xbf, 0x20, 0x77, 0xd0, 0x14, 0xb2, 0x27, 0x07,
  0x0d, 0xf6, 0x09, 0xf7, 0x81, 0xea, 0xd4, 0xe9, 0x33, 0x33, 0xd9, 0xdd,
  0xe3, 0x09, 0x0d, 0xd7, 0x14, 0x0e, 0x01, 0x95, 0x25, 0xce, 0xd7, 0xe5,
  0xec, 0x12, 0x09, 0xc9, 0xef, 0xf3, 0xb6, 0xd3, 0xe9, 0xfb, 0xef, 0x0b,
  0xe8, 0x0f, 0x12, 0x22, 0xc0, 0x5b, 0xe5, 0xd5, 0x32, 0x1b, 0xcf, 0x81,
  0xc8, 0xf1, 0xdc, 0xf3, 0x11, 0x1e, 0x10, 0x23, 0xe6, 0xec, 0x21, 0x82,
  0x7f, 0x10, 0xf0, 0x06, 0xfa, 0xf5, 0xa8, 0xf5, 0x1e, 0x1d, 0x08, 0x0d,
  0xe9, 0x05, 0x0e, 0xc8, 0x23, 0xda, 0xff, 0x06, 0xf0, 0x41, 0x28, 0x1e,
  0xd6, 0x78, 0xff, 0x10, 0x5c, 0x39, 0x01, 0x25, 0xe9, 0xdf, 0xd9, 0x19,
  0x1c, 0x53, 0xe6, 0xd3, 0xb5, 0xe2, 0x23, 0x81, 0x3b, 0x51, 0x51, 0x2f,
  0x43, 0x91, 0x14, 0x09, 0x9d, 0x44, 0xdb, 0x05, 0xdf, 0x1a, 0x20, 0xcd,
  0x88, 0x45, 0x28, 0x82, 0x14, 0x04, 0xa8, 0x06, 0xbb, 0x2e, 0x1a, 0x0c,
  0xed, 0x23, 0x07, 0x0e, 0xa6, 0x1c, 0x5a, 0x81, 0x0f, 0xda, 0x1d, 0x18,
  0x8a, 0xce, 0x21, 0x81, 0x94, 0x2a, 0xd2, 0xe4, 0xbd, 0xd9, 0x41, 0x3d,
  0x03, 0xf0, 0xb9, 0xa4, 0xa6, 0xc4, 0xcb, 0xe0, 0x03, 0xce, 0xe4, 0x03,
  0x19, 0x9f, 0x20, 0x91, 0xa8, 0xa7, 0x9b, 0xcd, 0x00, 0x23, 0xe9, 0xd0,
  0xcf, 0x15, 0x0a, 0xd2, 0x4c, 0x7f, 0x30, 0x3c, 0x65, 0x99, 0x1f, 0x16,
  0x02, 0x2e, 0x08, 0x03, 0xbc, 0xe5, 0x1d, 0x13, 0xae, 0x12, 0x48, 0xd7,
  0x13, 0x00, 0x02, 0xe6, 0x02, 0xfc, 0xff, 0xf8, 0xc2, 0x19, 0x81, 0x31,
  0x06, 0x3e, 0xc2, 0x26, 0xc0, 0x04, 0xd4, 0xe7, 0xfd, 0x31, 0xec, 0xe0,
  0x09, 0x08, 0xea, 0xa7, 0x22, 0xfb, 0xca, 0x24, 0x1f, 0xdc, 0x02, 0x03,
  0xcb, 0xff, 0xaf, 0xf0, 0x0c, 0x0f, 0x28, 0x33, 0xfc, 0x4a, 0xea, 0x81,
  0x5c, 0xe7, 0x9b, 0xb8, 0x12, 0xe7, 0xf0, 0xdf, 0x24, 0x27, 0xe2, 0xd7,
  0xef, 0xfc, 0x09, 0xae, 0xff, 0x08, 0xc3, 0xc3, 0x10, 0x0e, 0xf3, 0xf0,
  0xb5, 0x34, 0x9c, 0x42, 0x06, 0x4a, 0x9b, 0x25, 0xb5, 0x0c, 0xc4, 0xe4,
  0xfe, 0x1b, 0xee, 0xc1, 0xf3, 0xf5, 0xea, 0xa3, 0x3a, 0x00, 0x81, 0x43,
  0x18, 0xe3, 0x00, 0xfa, 0xf5, 0x27, 0xc3, 0x16, 0x07, 0xb6, 0x1b, 0x13,
  0xda, 0x33, 0x15, 0xf1, 0x56, 0xdc, 0x81, 0xe8, 0x0b, 0xf6, 0x94, 0x1b,
  0xfb, 0xa6, 0x1a, 0x1b, 0xda, 0x34, 0xf2, 0xba, 0x51, 0xed, 0x9a, 0xa0,
  0x01, 0xf6, 0xfc, 0xf7, 0x97, 0x40, 0x81, 0x2a, 0x09, 0x4c, 0xf9, 0x2d,
  0xc5, 0x0b, 0xe1, 0xfd, 0x00, 0x2b, 0xde, 0xda, 0x08, 0x08, 0xff, 0x82,
  0x0d, 0x26, 0xf5, 0x28, 0x35, 0xbc, 0xfd, 0x16, 0x22, 0xd1, 0xff, 0xff,
  0x00, 0x00, 0x00, 0x09, 0x10, 0x00, 0x00, 0x00, 0x0e, 0x00, 0x00, 0x00,
  0x1c, 0x00, 0x00, 0x00, 0x40, 0x00, 0x00, 0x00, 0x04, 0x00, 0x00, 0x00,
  0x0c, 0x00, 0x00, 0x00, 0x02, 0x00, 0x00, 0x00, 0x01, 0x00, 0x00, 0x00,
  0x10, 0x00, 0x00, 0x00, 0x23, 0x00, 0x00, 0x00, 0x73, 0x65, 0x71, 0x75,
  0x65, 0x6e, 0x74, 0x69, 0x61, 0x6c, 0x5f, 0x36, 0x2f, 0x71, 0x75, 0x61,
  0x6e, 0x74, 0x5f, 0x63, 0x6f, 0x6e, 0x76, 0x32, 0x64, 0x5f, 0x32, 0x37,
  0x2f, 0x43, 0x6f, 0x6e, 0x76, 0x32, 0x44, 0x00, 0x28, 0xd2, 0xff, 0xff,
  0x08, 0x00, 0x00, 0x00, 0x38, 0x00, 0x00, 0x00, 0x0c, 0x00, 0x00, 0x00,
  0xfd, 0x07, 0x1e, 0x3c, 0x07, 0x46, 0x88, 0x3c, 0x2c, 0xe8, 0x47, 0x3c,
  0xa2, 0x9d, 0xd9, 0x3b, 0x4d, 0x5d, 0x58, 0x3c, 0xff, 0xc3, 0x55, 0x3b,
  0x31, 0x5f, 0xe9, 0x3b, 0x2a, 0xd8, 0x71, 0x3c, 0x69, 0x18, 0x46, 0x3c,
  0x4e, 0x13, 0x4b, 0x3c, 0xd1, 0xa9, 0x4d, 0x3c, 0xde, 0x43, 0x4e, 0x3c,
  0x0c, 0x00, 0x00, 0x00, 0x00, 0x00, 0x00, 0x00, 0x00, 0x00, 0x00, 0x00,
  0x00, 0x00, 0x00, 0x00, 0x00, 0x00, 0x00, 0x00, 0x00, 0x00, 0x00, 0x00,
  0x00, 0x00, 0x00, 0x00, 0x00, 0x00, 0x00, 0x00, 0x00, 0x00, 0x00, 0x00,
  0x00, 0x00, 0x00, 0x00, 0x00, 0x00, 0x00, 0x00, 0x00, 0x00, 0x00, 0x00,
  0x00, 0x00, 0x00, 0x00, 0x00, 0x00, 0x00, 0x00, 0x00, 0x00, 0x00, 0x00,
  0x00, 0x00, 0x00, 0x00, 0x00, 0x00, 0x00, 0x00, 0x00, 0x00, 0x00, 0x00,
  0x00, 0x00, 0x00, 0x00, 0x00, 0x00, 0x00, 0x00, 0x00, 0x00, 0x00, 0x00,
  0x00, 0x00, 0x00, 0x00, 0x00, 0x00, 0x00, 0x00, 0x00, 0x00, 0x00, 0x00,
  0x00, 0x00, 0x00, 0x00, 0xfa, 0xdb, 0xff, 0xff, 0x00, 0x00, 0x00, 0x01,
  0x01, 0x00, 0x00, 0x00, 0x24, 0x00, 0x00, 0x00, 0x18, 0x00, 0x00, 0x00,
  0x04, 0x00, 0x00, 0x00, 0xec, 0xdb, 0xff, 0xff, 0x01, 0x00, 0x00, 0x00,
  0x01, 0x00, 0x00, 0x00, 0x00, 0x00, 0x01, 0x01, 0x01, 0x00, 0x00, 0x00,
  0x0c, 0x00, 0x00, 0x00, 0x03, 0x00, 0x00, 0x00, 0x09, 0x00, 0x00, 0x00,
  0x0a, 0x00, 0x00, 0x00, 0x0b, 0x00, 0x00, 0x00, 0x78, 0xd4, 0xff, 0xff,
  0x00, 0x00, 0x00, 0x09, 0x14, 0x00, 0x00, 0x00, 0x0d, 0x00, 0x00, 0x00,
  0x34, 0x00, 0x00, 0x00, 0xdc, 0x00, 0x00, 0x00, 0x18, 0x00, 0x00, 0x00,
  0x04, 0x00, 0x00, 0x00, 0x01, 0x00, 0x00, 0x00, 0x37, 0x00, 0x00, 0x00,
  0x01, 0x00, 0x00, 0x00, 0x10, 0x00, 0x00, 0x00, 0x04, 0x00, 0x00, 0x00,
  0xff, 0xff, 0xff, 0xff, 0x37, 0x00, 0x00, 0x00, 0x01, 0x00, 0x00, 0x00,
  0x10, 0x00, 0x00, 0x00, 0xa6, 0x00, 0x00, 0x00, 0x73, 0x65, 0x71, 0x75,
  0x65, 0x6e, 0x74, 0x69, 0x61, 0x6c, 0x5f, 0x36, 0x2f, 0x71, 0x75, 0x61,
  0x6e, 0x74, 0x5f, 0x72, 0x65, 0x5f, 0x6c, 0x75, 0x5f, 0x32, 0x36, 0x2f,
  0x52, 0x65, 0x6c, 0x75, 0x3b, 0x73, 0x65, 0x71, 0x75, 0x65, 0x6e, 0x74,
  0x69, 0x61, 0x6c, 0x5f, 0x36, 0x2f, 0x71, 0x75, 0x61, 0x6e, 0x74, 0x5f,
  0x63, 0x6f, 0x6e, 0x76, 0x32, 0x64, 0x5f, 0x32, 0x36, 0x2f, 0x42, 0x69,
  0x61, 0x73, 0x41, 0x64, 0x64, 0x3b, 0x73, 0x65, 0x71, 0x75, 0x65, 0x6e,
  0x74, 0x69, 0x61, 0x6c, 0x5f, 0x36, 0x2f, 0x71, 0x75, 0x61, 0x6e, 0x74,
  0x5f, 0x63, 0x6f, 0x6e, 0x76, 0x32, 0x64, 0x5f, 0x32, 0x36, 0x2f, 0x43,
  0x6f, 0x6e, 0x76, 0x32, 0x44, 0x3b, 0x73, 0x65, 0x71, 0x75, 0x65, 0x6e,
  0x74, 0x69, 0x61, 0x6c, 0x5f, 0x36, 0x2f, 0x71, 0x75, 0x61, 0x6e, 0x74,
  0x5f, 0x63, 0x6f, 0x6e, 0x76, 0x32, 0x64, 0x5f, 0x32, 0x36, 0x2f, 0x42,
  0x69, 0x61, 0x73, 0x41, 0x64, 0x64, 0x2f, 0x52, 0x65, 0x61, 0x64, 0x56,
  0x61, 0x72, 0x69, 0x61, 0x62, 0x6c, 0x65, 0x4f, 0x70, 0x2f, 0x72, 0x65,
  0x73, 0x6f, 0x75, 0x72, 0x63, 0x65, 0x00, 0x00, 0xfc, 0xd3, 0xff, 0xff,
  0x08, 0x00, 0x00, 0x00, 0x0c, 0x00, 0x00, 0x00, 0x01, 0x00, 0x00, 0x00,
  0xdc, 0x34, 0x10, 0x3d, 0x01, 0x00, 0x00, 0x00, 0x80, 0xff, 0xff, 0xff,
  0xff, 0xff, 0xff, 0xff, 0x00, 0x00, 0x00, 0x00, 0x8a, 0xd3, 0xff, 0xff,
  0x04, 0x00, 0x00, 0x00, 0x40, 0x00, 0x00, 0x00, 0xc9, 0xff, 0xff, 0xff,
  0xcd, 0x00, 0x00, 0x00, 0x72, 0x00, 0x00, 0x00, 0x3b, 0xfe, 0xff, 0xff,
  0xeb, 0x01, 0x00, 0x00, 0x93, 0x03, 0x00, 0x00, 0x06, 0x02, 0x00, 0x00,
  0xf5, 0x04, 0x00, 0x00, 0x7d, 0xf3, 0xff, 0xff, 0x81, 0x01, 0x00, 0x00,
  0x70, 0xfe, 0xff, 0xff, 0xc5, 0xfc, 0xff, 0xff, 0x8f, 0x02, 0x00, 0x00,
  0x1b, 0x01, 0x00, 0x00, 0x71, 0xf5, 0xff, 0xff, 0x77, 0xf3, 0xff, 0xff,
  0xba, 0xd3, 0xff, 0xff, 0x00, 0x00, 0x00, 0x02, 0x10, 0x00, 0x00, 0x00,
  0x0c, 0x00, 0x00, 0x00, 0x10, 0x00, 0x00, 0x00, 0x50, 0x00, 0x00, 0x00,
  0x01, 0x00, 0x00, 0x00, 0x10, 0x00, 0x00, 0x00, 0x3c, 0x00, 0x00, 0x00,
  0x73, 0x65, 0x71, 0x75, 0x65, 0x6e, 0x74, 0x69, 0x61, 0x6c, 0x5f, 0x36,
  0x2f, 0x71, 0x75, 0x61, 0x6e, 0x74, 0x5f, 0x63, 0x6f, 0x6e, 0x76, 0x32,
  0x64, 0x5f, 0x32, 0x36, 0x2f, 0x42, 0x69, 0x61, 0x73, 0x41, 0x64, 0x64,
  0x2f, 0x52, 0x65, 0x61, 0x64, 0x56, 0x61, 0x72, 0x69, 0x61, 0x62, 0x6c,
  0x65, 0x4f, 0x70, 0x2f, 0x72, 0x65, 0x73, 0x6f, 0x75, 0x72, 0x63, 0x65,
  0x00, 0x00, 0x00, 0x00, 0xd0, 0xd4, 0xff, 0xff, 0x08, 0x00, 0x00, 0x00,
  0x48, 0x00, 0x00, 0x00, 0x10, 0x00, 0x00, 0x00, 0x82, 0x39, 0xdb, 0x38,
  0x8a, 0xf7, 0xdc, 0x38, 0x84, 0x0e, 0x2b, 0x39, 0x08, 0x64, 0x15, 0x39,
  0x98, 0xa2, 0x1f, 0x39, 0x2a, 0x1a, 0x1e, 0x39, 0xd3, 0xba, 0x25, 0x39,
  0x14, 0xbc, 0x94, 0x39, 0x8f, 0xc4, 0x53, 0x39, 0x58, 0x70, 0x44, 0x39,
  0x8f, 0x4f, 0x25, 0x39, 0xd3, 0x3d, 0x49, 0x39, 0xf6, 0x79, 0x2c, 0x39,
  0xc8, 0xf4, 0xbe, 0x38, 0xcd, 0xdd, 0x2c, 0x39, 0x71, 0xae, 0xa6, 0x38,
  0x10, 0x00, 0x00, 0x00, 0x00, 0x00, 0x00, 0x00, 0x00, 0x00, 0x00, 0x00,
  0x00, 0x00, 0x00, 0x00, 0x00, 0x00, 0x00, 0x00, 0x00, 0x00, 0x00, 0x00,
  0x00, 0x00, 0x00, 0x00, 0x00, 0x00, 0x00, 0x00, 0x00, 0x00, 0x00, 0x00,
  0x00, 0x00, 0x00, 0x00, 0x00, 0x00, 0x00, 0x00, 0x00, 0x00, 0x00, 0x00,
  0x00, 0x00, 0x00, 0x00, 0x00, 0x00, 0x00, 0x00, 0x00, 0x00, 0x00, 0x00,
  0x00, 0x00, 0x00, 0x00, 0x00, 0x00, 0x00, 0x00, 0x00, 0x00, 0x00, 0x00,
  0x00, 0x00, 0x00, 0x00, 0x00, 0x00, 0x00, 0x00, 0x00, 0x00, 0x00, 0x00,
  0x00, 0x00, 0x00, 0x00, 0x00, 0x00, 0x00, 0x00, 0x00, 0x00, 0x00, 0x00,
  0x00, 0x00, 0x00, 0x00, 0x00, 0x00, 0x00, 0x00, 0x00, 0x00, 0x00, 0x00,
  0x00, 0x00, 0x00, 0x00, 0x00, 0x00, 0x00, 0x00, 0x00, 0x00, 0x00, 0x00,
  0x00, 0x00, 0x00, 0x00, 0x00, 0x00, 0x00, 0x00, 0x00, 0x00, 0x00, 0x00,
  0x00, 0x00, 0x00, 0x00, 0x12, 0xd5, 0xff, 0xff, 0x04, 0x00, 0x00, 0x00,
  0x00, 0x03, 0x00, 0x00, 0xee, 0x30, 0xb6, 0x7f, 0x08, 0xdd, 0x0e, 0x75,
  0xd7, 0x00, 0x0b, 0x13, 0x45, 0x9b, 0xbf, 0x6b, 0xe9, 0x2d, 0xcc, 0x18,
  0x02, 0x19, 0x17, 0x38, 0x44, 0x30, 0x38, 0x1b, 0xe7, 0xcc, 0xd8, 0xda,
  0x45, 0x0f, 0xf2, 0x02, 0xf6, 0x40, 0x16, 0x28, 0x0c, 0x8d, 0x22, 0x0e,
  0x28, 0x47, 0xe8, 0xef, 0xf7, 0xc3, 0xb5, 0xd4, 0x86, 0xe0, 0x42, 0xe7,
  0x03, 0xf9, 0xe5, 0x34, 0x12, 0xfd, 0x20, 0x18, 0xd9, 0xee, 0x3f, 0xdd,
  0xbc, 0x28, 0xe0, 0x2c, 0xe4, 0x05, 0xec, 0x81, 0xd8, 0xb6, 0x44, 0xe3,
  0xee, 0x1d, 0x2e, 0x0a, 0xe8, 0xed, 0x05, 0xdb, 0xca, 0x2d, 0xfc, 0xe6,
  0xe3, 0x1f, 0xd5, 0x23, 0xf2, 0x1e, 0xd8, 0xfb, 0xf1, 0x35, 0x57, 0xf2,
  0xf5, 0x18, 0x15, 0x23, 0xf2, 0x19, 0x39, 0x64, 0xe2, 0x01, 0xd8, 0xf2,
  0x13, 0x07, 0x13, 0xf6, 0x30, 0x1c, 0x0c, 0x04, 0x04, 0x34, 0x2d, 0xdc,
  0x41, 0x11, 0x21, 0xcd, 0x7f, 0xf5, 0xef, 0xeb, 0xfb, 0xe0, 0x1d, 0xdb,
  0x2a, 0x79, 0x0a, 0xd0, 0x02, 0xe2, 0x0d, 0xf3, 0x02, 0x7f, 0x31, 0x12,
  0xdb, 0xf8, 0x05, 0xb1, 0xc3, 0x2d, 0x11, 0x2d, 0xd7, 0xde, 0xf3, 0xcd,
  0x13, 0x3f, 0x21, 0xfb, 0x48, 0xf6, 0xf3, 0x5f, 0x05, 0x1b, 0xf5, 0xff,
  0xec, 0x34, 0xf2, 0x01, 0x11, 0x4e, 0xfe, 0xe1, 0x22, 0xf6, 0xf3, 0x1e,
  0x12, 0x2b, 0xe4, 0xdd, 0x0d, 0xda, 0xa5, 0x16, 0x92, 0x21, 0x94, 0x45,
  0x0b, 0x40, 0xf2, 0x1a, 0x17, 0x06, 0x0a, 0xf8, 0xf9, 0x8e, 0x81, 0xf8,
  0x4a, 0xef, 0xe2, 0x0e, 0x0e, 0x37, 0xdd, 0x2c, 0xc3, 0xdb, 0xc9, 0xf4,
  0x0f, 0x34, 0xed, 0xe9, 0xd6, 0x2e, 0x13, 0x1f, 0xd4, 0xa3, 0xbe, 0xf1,
  0xfd, 0xdf, 0xd2, 0x9f, 0xaf, 0x23, 0x9f, 0xdf, 0x3c, 0x42, 0x60, 0x90,
  0xf4, 0x0e, 0x22, 0x95, 0xc4, 0x5c, 0x3f, 0x0a, 0xfd, 0x81, 0x01, 0xb9,
  0xea, 0xe8, 0x88, 0x0c, 0xfc, 0xf1, 0x1f, 0xe4, 0xc6, 0xd8, 0xef, 0x8e,
  0x2a, 0x21, 0xfe, 0xd4, 0x5b, 0x07, 0xe2, 0xc9, 0x91, 0x48, 0x29, 0xf4,
  0x9d, 0x2a, 0xc5, 0x04, 0x06, 0xa3, 0x0c, 0xfb, 0xba, 0xa1, 0x26, 0x14,
  0x12, 0x3f, 0x15, 0xbf, 0xf4, 0x49, 0xe1, 0xf8, 0x11, 0xcc, 0x81, 0xd0,
  0x1a, 0xd8, 0xec, 0x9e, 0xc6, 0xe3, 0xd6, 0x29, 0xe3, 0x01, 0x0f, 0x11,
  0x21, 0x0c, 0x0f, 0x44, 0xe2, 0x29, 0xee, 0xd9, 0xfe, 0xe9, 0xdb, 0x14,
  0xb7, 0x01, 0x0e, 0x01, 0x03, 0x07, 0xb8, 0x17, 0x0a, 0x0c, 0x25, 0xcb,
  0x15, 0x10, 0x2f, 0xd8, 0x02, 0x1a, 0x0b, 0x0c, 0xeb, 0xba, 0xd2, 0xeb,
  0x0a, 0xd5, 0xbb, 0xf3, 0x13, 0xe3, 0x1a, 0x24, 0x00, 0x81, 0xff, 0x01,
  0x29, 0x12, 0xf5, 0x07, 0x0d, 0x4e, 0xc5, 0x18, 0xbd, 0x10, 0x19, 0x0c,
  0xc6, 0xed, 0xf6, 0xef, 0x1b, 0x07, 0xd8, 0x00, 0x3f, 0xfc, 0xfb, 0xf9,
  0x96, 0xc7, 0x07, 0xee, 0x50, 0xd7, 0xf8, 0xfc, 0x0f, 0x45, 0xef, 0xf4,
  0xcb, 0xc4, 0x10, 0x02, 0x0d, 0xef, 0x17, 0xf9, 0x2c, 0xdb, 0xf7, 0xfb,
  0xca, 0xd3, 0x08, 0xc7, 0x7f, 0x0a, 0xfc, 0xf1, 0x19, 0x16, 0xdc, 0xf9,
  0xd0, 0xed, 0x23, 0x11, 0x0c, 0xec, 0xbb, 0xed, 0x23, 0x02, 0x26, 0xed,
  0xf0, 0x0f, 0x14, 0xfc, 0x7c, 0x40, 0x05, 0x18, 0xc3, 0xdc, 0x42, 0xea,
  0xb0, 0xcf, 0x9e, 0xb1, 0x1b, 0xc2, 0x19, 0xe8, 0xec, 0x0b, 0x17, 0xfe,
  0x21, 0xa9, 0x81, 0x2b, 0x5b, 0x29, 0x06, 0xdb, 0xd6, 0x2a, 0x25, 0xf4,
  0xeb, 0xff, 0x06, 0x12, 0x12, 0xdd, 0xd2, 0xe5, 0xbc, 0xc0, 0xe6, 0x00,
  0xb5, 0xe6, 0x81, 0x01, 0xdd, 0xe4, 0x02, 0xd6, 0xea, 0xb1, 0xe6, 0x2a,
  0x04, 0x4c, 0xc5, 0x0c, 0x08, 0xc2, 0x12, 0x01, 0xee, 0xbe, 0x51, 0x1f,
  0x91, 0xa4, 0x9f, 0xb9, 0xb7, 0x0e, 0x1e, 0xef, 0xfd, 0x2e, 0xff, 0xf7,
  0x1c, 0xa6, 0xed, 0x38, 0xee, 0x0b, 0x81, 0x0a, 0x28, 0x1e, 0x17, 0xb7,
  0xf5, 0x11, 0x0c, 0xa6, 0x59, 0x44, 0x0d, 0x0a, 0x1b, 0x1f, 0x07, 0x86,
  0x01, 0xfa, 0xb6, 0xfb, 0xd2, 0xd8, 0x01, 0xff, 0xff, 0xf7, 0x24, 0xfe,
  0x25, 0xe5, 0xdb, 0xd2, 0x46, 0x15, 0x0a, 0xe5, 0x0a, 0x2d, 0xf4, 0xc1,
  0xdd, 0x15, 0x0a, 0xfc, 0x1a, 0xd8, 0xf2, 0x05, 0xa5, 0xa2, 0x05, 0xa9,
  0x38, 0x01, 0x2a, 0xd3, 0x77, 0x5d, 0x89, 0x82, 0xb6, 0x71, 0x2c, 0xda,
  0xb2, 0x00, 0xb0, 0xeb, 0x81, 0xdb, 0xee, 0x21, 0xf5, 0xf5, 0x29, 0x08,
  0xde, 0x1e, 0x13, 0x32, 0x15, 0x17, 0x1f, 0xef, 0xb1, 0xf7, 0xee, 0xec,
  0xcc, 0xbc, 0x0c, 0x1c, 0xa9, 0x25, 0x15, 0x46, 0xc8, 0xf6, 0x1d, 0x18,
  0xb0, 0xe5, 0x37, 0x9e, 0xbd, 0xec, 0x43, 0x09, 0x3b, 0x19, 0xce, 0xab,
  0x04, 0x41, 0x7f, 0xf7, 0x70, 0x0c, 0xfb, 0x22, 0x48, 0xf0, 0xb4, 0xdd,
  0x07, 0x33, 0xcb, 0xd5, 0xb7, 0xe0, 0xdd, 0xd9, 0x20, 0xa2, 0x0f, 0xe3,
  0x31, 0x7d, 0x1f, 0xf8, 0xf2, 0xf2, 0x1a, 0x2c, 0xf1, 0x00, 0x21, 0xf0,
  0xff, 0xd3, 0xec, 0x1c, 0x71, 0xf6, 0xee, 0xfc, 0x20, 0x1b, 0x24, 0x1e,
  0xc2, 0xfa, 0xec, 0x32, 0xfc, 0x26, 0x23, 0x30, 0x31, 0x31, 0x57, 0x1b,
  0xce, 0xed, 0xdc, 0x20, 0xcc, 0x34, 0x0d, 0xe4, 0x35, 0x29, 0x2c, 0x81,
  0xe8, 0xee, 0x3c, 0x39, 0x55, 0x32, 0x66, 0xf6, 0x77, 0xaa, 0x23, 0x16,
  0x27, 0x1b, 0xcc, 0x38, 0x7f, 0xa8, 0xde, 0x0a, 0x2f, 0x9b, 0x3a, 0x3b,
  0x2b, 0xdf, 0xdc, 0xe2, 0xfe, 0xb9, 0x1b, 0x44, 0x33, 0x55, 0x35, 0x11,
  0x90, 0xe1, 0x98, 0x1d, 0x02, 0xca, 0xa1, 0x1c, 0x67, 0x5b, 0x61, 0x12,
  0xf3, 0x0c, 0x1c, 0x56, 0x02, 0xd8, 0xff, 0xff, 0x00, 0x00, 0x00, 0x09,
  0x10, 0x00, 0x00, 0x00, 0x0b, 0x00, 0x00, 0x00, 0x1c, 0x00, 0x00, 0x00,
  0x40, 0x00, 0x00, 0x00, 0x04, 0x00, 0x00, 0x00, 0x10, 0x00, 0x00, 0x00,
  0x02, 0x00, 0x00, 0x00, 0x01, 0x00, 0x00, 0x00, 0x18, 0x00, 0x00, 0x00,
  0x23, 0x00, 0x00, 0x00, 0x73, 0x65, 0x71, 0x75, 0x65, 0x6e, 0x74, 0x69,
  0x61, 0x6c, 0x5f, 0x36, 0x2f, 0x71, 0x75, 0x61, 0x6e, 0x74, 0x5f, 0x63,
  0x6f, 0x6e, 0x76, 0x32, 0x64, 0x5f, 0x32, 0x36, 0x2f, 0x43, 0x6f, 0x6e,
  0x76, 0x32, 0x44, 0x00, 0x08, 0xd9, 0xff, 0xff, 0x08, 0x00, 0x00, 0x00,
  0x48, 0x00, 0x00, 0x00, 0x10, 0x00, 0x00, 0x00, 0x60, 0x24, 0xeb, 0x3b,
  0xcb, 0x02, 0xed, 0x3b, 0x0e, 0x7a, 0x37, 0x3c, 0xda, 0x3c, 0x20, 0x3c,
  0xd6, 0x39, 0x2b, 0x3c, 0xe9, 0x94, 0x29, 0x3c, 0x5a, 0xc3, 0x31, 0x3c,
  0xb4, 0x88, 0x9f, 0x3c, 0xd2, 0x24, 0x63, 0x3c, 0xad, 0xb3, 0x52, 0x3c,
  0x4c, 0x50, 0x31, 0x3c, 0x6d, 0xda, 0x57, 0x3c, 0xe4, 0xff, 0x38, 0x3c,
  0x34, 0xd2, 0xcc, 0x3b, 0xfa, 0x6a, 0x39, 0x3c, 0xa7, 0xc8, 0xb2, 0x3b,
  0x10, 0x00, 0x00, 0x00, 0x00, 0x00, 0x00, 0x00, 0x00, 0x00, 0x00, 0x00,
  0x00, 0x00, 0x00, 0x00, 0x00, 0x00, 0x00, 0x00, 0x00, 0x00, 0x00, 0x00,
  0x00, 0x00, 0x00, 0x00, 0x00, 0x00, 0x00, 0x00, 0x00, 0x00, 0x00, 0x00,
  0x00, 0x00, 0x00, 0x00, 0x00, 0x00, 0x00, 0x00, 0x00, 0x00, 0x00, 0x00,
  0x00, 0x00, 0x00, 0x00, 0x00, 0x00, 0x00, 0x00, 0x00, 0x00, 0x00, 0x00,
  0x00, 0x00, 0x00, 0x00, 0x00, 0x00, 0x00, 0x00, 0x00, 0x00, 0x00, 0x00,
  0x00, 0x00, 0x00, 0x00, 0x00, 0x00, 0x00, 0x00, 0x00, 0x00, 0x00, 0x00,
  0x00, 0x00, 0x00, 0x00, 0x00, 0x00, 0x00, 0x00, 0x00, 0x00, 0x00, 0x00,
  0x00, 0x00, 0x00, 0x00, 0x00, 0x00, 0x00, 0x00, 0x00, 0x00, 0x00, 0x00,
  0x00, 0x00, 0x00, 0x00, 0x00, 0x00, 0x00, 0x00, 0x00, 0x00, 0x00, 0x00,
  0x00, 0x00, 0x00, 0x00, 0x00, 0x00, 0x00, 0x00, 0x00, 0x00, 0x00, 0x00,
  0x0a, 0xe3, 0xff, 0xff, 0x00, 0x00, 0x00, 0x01, 0x01, 0x00, 0x00, 0x00,
  0x24, 0x00, 0x00, 0x00, 0x18, 0x00, 0x00, 0x00, 0x04, 0x00, 0x00, 0x00,
  0xfc, 0xe2, 0xff, 0xff, 0x01, 0x00, 0x00, 0x00, 0x01, 0x00, 0x00, 0x00,
  0x00, 0x00, 0x01, 0x01, 0x01, 0x00, 0x00, 0x00, 0x09, 0x00, 0x00, 0x00,
  0x03, 0x00, 0x00, 0x00, 0x06, 0x00, 0x00, 0x00, 0x07, 0x00, 0x00, 0x00,
  0x08, 0x00, 0x00, 0x00, 0x88, 0xdb, 0xff, 0xff, 0x00, 0x00, 0x00, 0x09,
  0x14, 0x00, 0x00, 0x00, 0x0a, 0x00, 0x00, 0x00, 0x34, 0x00, 0x00, 0x00,
  0xdc, 0x00, 0x00, 0x00, 0x18, 0x00, 0x00, 0x00, 0x04, 0x00, 0x00, 0x00,
  0x01, 0x00, 0x00, 0x00, 0x38, 0x00, 0x00, 0x00, 0x01, 0x00, 0x00, 0x00,
  0x18, 0x00, 0x00, 0x00, 0x04, 0x00, 0x00, 0x00, 0xff, 0xff, 0xff, 0xff,
  0x38, 0x00, 0x00, 0x00, 0x01, 0x00, 0x00, 0x00, 0x18, 0x00, 0x00, 0x00,
  0xa6, 0x00, 0x00, 0x00, 0x73, 0x65, 0x71, 0x75, 0x65, 0x6e, 0x74, 0x69,
  0x61, 0x6c, 0x5f, 0x36, 0x2f, 0x71, 0x75, 0x61, 0x6e, 0x74, 0x5f, 0x72,
  0x65, 0x5f, 0x6c, 0x75, 0x5f, 0x32, 0x35, 0x2f, 0x52, 0x65, 0x6c, 0x75,
  0x3b, 0x73, 0x65, 0x71, 0x75, 0x65, 0x6e, 0x74, 0x69, 0x61, 0x6c, 0x5f,
  0x36, 0x2f, 0x71, 0x75, 0x61, 0x6e, 0x74, 0x5f, 0x63, 0x6f, 0x6e, 0x76,
  0x32, 0x64, 0x5f, 0x32, 0x35, 0x2f, 0x42, 0x69, 0x61, 0x73, 0x41, 0x64,
  0x64, 0x3b, 0x73, 0x65, 0x71, 0x75, 0x65, 0x6e, 0x74, 0x69, 0x61, 0x6c,
  0x5f, 0x36, 0x2f, 0x71, 0x75, 0x61, 0x6e, 0x74, 0x5f, 0x63, 0x6f, 0x6e,
  0x76, 0x32, 0x64, 0x5f, 0x32, 0x35, 0x2f, 0x43, 0x6f, 0x6e, 0x76, 0x32,
  0x44, 0x3b, 0x73, 0x65, 0x71, 0x75, 0x65, 0x6e, 0x74, 0x69, 0x61, 0x6c,
  0x5f, 0x36, 0x2f, 0x71, 0x75, 0x61, 0x6e, 0x74, 0x5f, 0x63, 0x6f, 0x6e,
  0x76, 0x32, 0x64, 0x5f, 0x32, 0x35, 0x2f, 0x42, 0x69, 0x61, 0x73, 0x41,
  0x64, 0x64, 0x2f, 0x52, 0x65, 0x61, 0x64, 0x56, 0x61, 0x72, 0x69, 0x61,
  0x62, 0x6c, 0x65, 0x4f, 0x70, 0x2f, 0x72, 0x65, 0x73, 0x6f, 0x75, 0x72,
  0x63, 0x65, 0x00, 0x00, 0x0c, 0xdb, 0xff, 0xff, 0x08, 0x00, 0x00, 0x00,
  0x0c, 0x00, 0x00, 0x00, 0x01, 0x00, 0x00, 0x00, 0xae, 0xab, 0x6e, 0x3c,
  0x01, 0x00, 0x00, 0x00, 0x80, 0xff, 0xff, 0xff, 0xff, 0xff, 0xff, 0xff,
  0x00, 0x00, 0x00, 0x00, 0x9a, 0xda, 0xff, 0xff, 0x04, 0x00, 0x00, 0x00,
  0x60, 0x00, 0x00, 0x00, 0x89, 0xf5, 0xff, 0xff, 0x5a, 0x08, 0x00, 0x00,
  0x1f, 0xea, 0xff, 0xff, 0x2c, 0xfe, 0xff, 0xff, 0x13, 0x01, 0x00, 0x00,
  0xd1, 0x05, 0x00, 0x00, 0xf5, 0xff, 0xff, 0xff, 0xc1, 0xff, 0xff, 0xff,
  0x7c, 0x05, 0x00, 0x00, 0xa2, 0x06, 0x00, 0x00, 0x85, 0x0e, 0x00, 0x00,
  0x29, 0x02, 0x00, 0x00, 0x7a, 0xeb, 0xff, 0xff, 0x2c, 0x03, 0x00, 0x00,
  0x34, 0x10, 0x00, 0x00, 0x4d, 0xff, 0xff, 0xff, 0xb8, 0xa9, 0xff, 0xff,
  0xcd, 0xc4, 0xff, 0xff, 0x7d, 0xf8, 0xff, 0xff, 0xad, 0x00, 0x00, 0x00,
  0x62, 0xfe, 0xff, 0xff, 0x0a, 0xff, 0xff, 0xff, 0x3f, 0xf1, 0xff, 0xff,
  0xe4, 0xd3, 0xff, 0xff, 0xea, 0xda, 0xff, 0xff, 0x00, 0x00, 0x00, 0x02,
  0x10, 0x00, 0x00, 0x00, 0x09, 0x00, 0x00, 0x00, 0x10, 0x00, 0x00, 0x00,
  0x50, 0x00, 0x00, 0x00, 0x01, 0x00, 0x00, 0x00, 0x18, 0x00, 0x00, 0x00,
  0x3c, 0x00, 0x00, 0x00, 0x73, 0x65, 0x71, 0x75, 0x65, 0x6e, 0x74, 0x69,
  0x61, 0x6c, 0x5f, 0x36, 0x2f, 0x71, 0x75, 0x61, 0x6e, 0x74, 0x5f, 0x63,
  0x6f, 0x6e, 0x76, 0x32, 0x64, 0x5f, 0x32, 0x35, 0x2f, 0x42, 0x69, 0x61,
  0x73, 0x41, 0x64, 0x64, 0x2f, 0x52, 0x65, 0x61, 0x64, 0x56, 0x61, 0x72,
  0x69, 0x61, 0x62, 0x6c, 0x65, 0x4f, 0x70, 0x2f, 0x72, 0x65, 0x73, 0x6f,
  0x75, 0x72, 0x63, 0x65, 0x00, 0x00, 0x00, 0x00, 0x00, 0xdc, 0xff, 0xff,
  0x08, 0x00, 0x00, 0x00, 0x68, 0x00, 0x00, 0x00, 0x18, 0x00, 0x00, 0x00,
  0x6c, 0x37, 0x64, 0x38, 0xa9, 0x26, 0x48, 0x38, 0x51, 0x8a, 0x85, 0x38,
  0x70, 0x12, 0x28, 0x38, 0x35, 0x10, 0x92, 0x38, 0x03, 0x92, 0xf4, 0x38,
  0xc8, 0x2e, 0x6f, 0x38, 0x39, 0xed, 0x48, 0x38, 0xb2, 0x3e, 0x81, 0x38,
  0xaa, 0xd8, 0x33, 0x38, 0x44, 0x38, 0x7f, 0x38, 0x25, 0xae, 0x7a, 0x38,
  0x90, 0x2e, 0x8b, 0x38, 0x1b, 0xae, 0x83, 0x38, 0xc5, 0x8d, 0x82, 0x38,
  0x41, 0x2e, 0x81, 0x38, 0x8f, 0xbd, 0x16, 0x38, 0x21, 0xee, 0x90, 0x38,
  0x7b, 0x36, 0x9b, 0x38, 0x45, 0xa9, 0x34, 0x38, 0xa5, 0xd2, 0x58, 0x38,
  0x7d, 0x29, 0x81, 0x38, 0x98, 0x60, 0x9c, 0x38, 0x8e, 0x90, 0x38, 0x38,
  0x18, 0x00, 0x00, 0x00, 0x00, 0x00, 0x00, 0x00, 0x00, 0x00, 0x00, 0x00,
  0x00, 0x00, 0x00, 0x00, 0x00, 0x00, 0x00, 0x00, 0x00, 0x00, 0x00, 0x00,
  0x00, 0x00, 0x00, 0x00, 0x00, 0x00, 0x00, 0x00, 0x00, 0x00, 0x00, 0x00,
  0x00, 0x00, 0x00, 0x00, 0x00, 0x00, 0x00, 0x00, 0x00, 0x00, 0x00, 0x00,
  0x00, 0x00, 0x00, 0x00, 0x00, 0x00, 0x00, 0x00, 0x00, 0x00, 0x00, 0x00,
  0x00, 0x00, 0x00, 0x00, 0x00, 0x00, 0x00, 0x00, 0x00, 0x00, 0x00, 0x00,
  0x00, 0x00, 0x00, 0x00, 0x00, 0x00, 0x00, 0x00, 0x00, 0x00, 0x00, 0x00,
  0x00, 0x00, 0x00, 0x00, 0x00, 0x00, 0x00, 0x00, 0x00, 0x00, 0x00, 0x00,
  0x00, 0x00, 0x00, 0x00, 0x00, 0x00, 0x00, 0x00, 0x00, 0x00, 0x00, 0x00,
  0x00, 0x00, 0x00, 0x00, 0x00, 0x00, 0x00, 0x00, 0x00, 0x00, 0x00, 0x00,
  0x00, 0x00, 0x00, 0x00, 0x00, 0x00, 0x00, 0x00, 0x00, 0x00, 0x00, 0x00,
  0x00, 0x00, 0x00, 0x00, 0x00, 0x00, 0x00, 0x00, 0x00, 0x00, 0x00, 0x00,
  0x00, 0x00, 0x00, 0x00, 0x00, 0x00, 0x00, 0x00, 0x00, 0x00, 0x00, 0x00,
  0x00, 0x00, 0x00, 0x00, 0x00, 0x00, 0x00, 0x00, 0x00, 0x00, 0x00, 0x00,
  0x00, 0x00, 0x00, 0x00, 0x00, 0x00, 0x00, 0x00, 0x00, 0x00, 0x00, 0x00,
  0x00, 0x00, 0x00, 0x00, 0x00, 0x00, 0x00, 0x00, 0x00, 0x00, 0x00, 0x00,
  0x00, 0x00, 0x00, 0x00, 0x00, 0x00, 0x00, 0x00, 0xa2, 0xdc, 0xff, 0xff,
  0x04, 0x00, 0x00, 0x00, 0x00, 0x18, 0x00, 0x00, 0x20, 0x1e, 0x03, 0x0f,
  0x24, 0xcb, 0x1a, 0x1c, 0x3c, 0x31, 0x23, 0xfd, 0xf4, 0xe5, 0xed, 0x13,
  0xeb, 0x09, 0x07, 0xd3, 0xc7, 0x14, 0x11, 0xb4, 0xf2, 0xf5, 0x0b, 0xc8,
  0x23, 0x18, 0x00, 0x2d, 0x01, 0x09, 0x20, 0x12, 0x20, 0x9b, 0xd7, 0x20,
  0xbf, 0x13, 0xfc, 0x12, 0xef, 0x34, 0xb2, 0xc8, 0xdc, 0xe9, 0x14, 0x07,
  0x1a, 0xd7, 0x05, 0xe2, 0xea, 0xfc, 0xf6, 0xff, 0x10, 0x08, 0xca, 0x14,
  0xc0, 0x20, 0xfe, 0x0d, 0x12, 0xf9, 0x25, 0xef, 0xf2, 0xf2, 0xdb, 0xf6,
  0xf1, 0xfd, 0xce, 0xfc, 0xea, 0x25, 0x0c, 0xe1, 0xfe, 0xe0, 0x13, 0x81,
  0x41, 0x3c, 0x08, 0x00, 0x03, 0x1c, 0xeb, 0xff, 0xda, 0x07, 0x0a, 0xe7,
  0xf3, 0x07, 0xea, 0x22, 0xb2, 0xf1, 0x11, 0x04, 0xf7, 0x03, 0xd3, 0xd7,
  0xc8, 0x01, 0xe3, 0xe3, 0x06, 0x0e, 0xc3, 0xca, 0x44, 0x35, 0xf4, 0x00,
  0x25, 0xea, 0xdd, 0xf5, 0x2e, 0x2a, 0xf8, 0xf2, 0x12, 0x35, 0xb4, 0xec,
  0x1d, 0xee, 0xfa, 0xe1, 0xb7, 0xfd, 0x1c, 0xf3, 0x22, 0xcf, 0x1b, 0x0f,
  0xfc, 0x11, 0x60, 0xf1, 0x01, 0xf0, 0x08, 0xd3, 0x13, 0x03, 0xe5, 0x21,
  0x01, 0xfc, 0x0c, 0xee, 0x19, 0x0d, 0xee, 0x16, 0x02, 0x1e, 0x0e, 0x18,
  0xff, 0x20, 0x00, 0xc1, 0xda, 0xfb, 0x13, 0xf5, 0x13, 0x04, 0x05, 0x01,
  0xe7, 0xe3, 0x0d, 0xe9, 0x1c, 0x22, 0xce, 0x15, 0x11, 0xfc, 0x14, 0x1b,
  0xc9, 0x07, 0xd3, 0xe0, 0xd2, 0xc7, 0xcd, 0x28, 0xd2, 0x1f, 0x07, 0xe9,
  0x35, 0xd8, 0x07, 0xee, 0x25, 0xbc, 0xdf, 0x21, 0xee, 0xdf, 0x18, 0x04,
  0x2b, 0x19, 0x27, 0xd5, 0xce, 0x34, 0x0b, 0xfb, 0xe2, 0x16, 0x44, 0xfd,
  0x27, 0x08, 0x16, 0x0d, 0x20, 0x11, 0xf4, 0xb8, 0xf1, 0x26, 0x3b, 0x04,
  0x3c, 0xe4, 0xeb, 0xdb, 0x8f, 0x20, 0xf0, 0xff, 0x0d, 0x06, 0xb3, 0xbb,
  0x23, 0xc5, 0x2c, 0xcd, 0x2f, 0xfe, 0x18, 0xd2, 0x20, 0x0a, 0xd8, 0xe1,
  0x30, 0x08, 0x25, 0xf9, 0x01, 0xd3, 0xfe, 0x14, 0xfa, 0xd1, 0x38, 0x0d,
  0xe4, 0xcb, 0xe9, 0x2d, 0xf9, 0x3a, 0xd3, 0xf3, 0xf2, 0xde, 0x17, 0x93,
  0xec, 0xed, 0x63, 0xf0, 0x32, 0xf9, 0xe7, 0x43, 0xe9, 0xee, 0xf7, 0x4a,
  0xed, 0x39, 0x09, 0x26, 0x0c, 0xde, 0xf6, 0xbd, 0xc9, 0x40, 0x0a, 0x12,
  0x1b, 0x21, 0xdd, 0xd5, 0x20, 0x40, 0x0a, 0xc6, 0x00, 0x24, 0x03, 0x0c,
  0xe1, 0x42, 0x0f, 0x2c, 0x33, 0xee, 0xff, 0x3b, 0xff, 0xc8, 0xff, 0x59,
  0xc7, 0x15, 0x11, 0x30, 0xa9, 0xac, 0xfe, 0x0a, 0xff, 0xf5, 0x18, 0xf8,
  0x0b, 0xcc, 0xfa, 0xdb, 0xe9, 0x0f, 0x24, 0x81, 0x1d, 0x27, 0xd8, 0x00,
  0x04, 0x15, 0x15, 0x2e, 0x08, 0xf4, 0xbe, 0x0f, 0xda, 0xde, 0x24, 0x0b,
  0xf9, 0x11, 0x0b, 0xf8, 0xb4, 0xfb, 0x15, 0xcc, 0xe2, 0x24, 0xf5, 0x11,
  0x2b, 0xac, 0xf5, 0xc9, 0x3b, 0xf9, 0x15, 0xe3, 0x0d, 0x03, 0x22, 0xf8,
  0x2c, 0x1c, 0x0f, 0x1d, 0xe5, 0xe2, 0x11, 0x29, 0x02, 0xf9, 0x01, 0x23,
  0xfc, 0xf8, 0x0b, 0xcc, 0xf2, 0xd9, 0x3b, 0x02, 0x13, 0x05, 0x01, 0xf1,
  0xf7, 0x1f, 0x15, 0xef, 0x1c, 0x13, 0xfc, 0x1e, 0xfd, 0x08, 0xf2, 0xe5,
  0xaf, 0xf1, 0xe9, 0x21, 0xf7, 0x0b, 0xfb, 0xfe, 0x0b, 0x2e, 0x12, 0x0c,
  0xfc, 0xd6, 0xde, 0x13, 0x21, 0x9f, 0x14, 0xf7, 0x53, 0x11, 0x09, 0xf6,
  0xff, 0x38, 0x24, 0xee, 0x5b, 0xf5, 0x41, 0x27, 0x07, 0x18, 0x0d, 0xda,
  0xf0, 0x28, 0x0e, 0xf1, 0xea, 0x1d, 0xec, 0xc1, 0xf6, 0xe0, 0x0a, 0x11,
  0x1e, 0xcf, 0xe9, 0xf2, 0xf3, 0x0a, 0xe2, 0xa5, 0xfd, 0xef, 0xe4, 0xef,
  0xfd, 0x4a, 0xe5, 0xde, 0xeb, 0xee, 0xae, 0xc0, 0xc1, 0x95, 0x13, 0x39,
  0x2c, 0xfc, 0xff, 0x08, 0xfc, 0x13, 0xf9, 0x2b, 0x02, 0x54, 0x15, 0x15,
  0x27, 0x06, 0x09, 0xc0, 0xf4, 0x04, 0x04, 0x1f, 0x05, 0x0f, 0xe4, 0xf2,
  0xff, 0x05, 0x1b, 0x03, 0x0b, 0xf5, 0xf9, 0xfb, 0x05, 0xf9, 0x25, 0xef,
  0x1e, 0xe3, 0x18, 0x25, 0xdb, 0x38, 0x34, 0xe9, 0xeb, 0x03, 0xcb, 0xc3,
  0xf3, 0x11, 0x01, 0x28, 0xf3, 0xfc, 0xde, 0xf1, 0x08, 0x31, 0x35, 0xf6,
  0x00, 0xfc, 0x01, 0x1b, 0x1f, 0xf1, 0xc2, 0x41, 0xe8, 0xe2, 0x1e, 0x21,
  0x0e, 0x18, 0xf8, 0x13, 0x18, 0xf8, 0x03, 0xea, 0xff, 0xfa, 0xe3, 0xdf,
  0xf4, 0x1b, 0x1c, 0x32, 0xfe, 0xf5, 0x15, 0x01, 0x0a, 0xb9, 0x2f, 0x0a,
  0xda, 0x1a, 0xd7, 0x08, 0xfd, 0xde, 0x18, 0xea, 0x0c, 0x23, 0x4d, 0x02,
  0xff, 0xd5, 0xc4, 0x9b, 0xe5, 0xd7, 0x14, 0x34, 0xff, 0x29, 0xb5, 0xea,
  0x04, 0x19, 0xf3, 0x08, 0xf9, 0x07, 0xbe, 0xf4, 0xe0, 0xc9, 0x10, 0xd0,
  0x19, 0x07, 0x08, 0xf5, 0x25, 0xf0, 0xc6, 0x5c, 0xb3, 0xea, 0x04, 0xc6,
  0x09, 0x12, 0x23, 0x0c, 0xdd, 0x0c, 0x0a, 0x21, 0xf2, 0xf4, 0x04, 0x09,
  0xfd, 0xfa, 0x0c, 0xd1, 0x1b, 0x07, 0x05, 0x11, 0xf1, 0x17, 0x1a, 0xf2,
  0x2d, 0xb4, 0xdd, 0x12, 0xcd, 0xf5, 0x0f, 0xde, 0xf7, 0xe5, 0xe2, 0x04,
  0x57, 0xca, 0x15, 0xe3, 0x01, 0xdd, 0x08, 0xdf, 0xe5, 0x05, 0x0a, 0x10,
  0x17, 0xc8, 0xfd, 0x95, 0xd1, 0xf3, 0x1b, 0x21, 0xf1, 0xfc, 0xf2, 0x10,
  0xd9, 0x11, 0x15, 0x09, 0xec, 0x14, 0xef, 0x0a, 0x18, 0x12, 0x14, 0xca,
  0x19, 0x7f, 0xe5, 0xeb, 0x49, 0x24, 0xf5, 0xd8, 0x19, 0xf2, 0x34, 0x2d,
  0xf3, 0x12, 0x09, 0x1c, 0x14, 0xfb, 0x0f, 0x0b, 0xf1, 0x1e, 0xdf, 0x1f,
  0x13, 0x22, 0x0a, 0xfa, 0xfc, 0x2e, 0xea, 0x1f, 0x00, 0x0f, 0xdb, 0x00,
  0x1a, 0xe1, 0xd0, 0x07, 0xfd, 0xda, 0x0e, 0x3e, 0xda, 0x1f, 0x27, 0xce,
  0x08, 0xc3, 0xec, 0x37, 0x0e, 0xc9, 0x1f, 0x11, 0xf8, 0xbf, 0x0c, 0xfb,
  0xea, 0xfb, 0x13, 0xbf, 0xcd, 0x20, 0xaa, 0x43, 0x10, 0xbf, 0xe0, 0xdb,
  0x19, 0x31, 0x30, 0x33, 0x0c, 0x14, 0xec, 0x08, 0xf8, 0xa5, 0xd3, 0xdb,
  0xac, 0x14, 0x20, 0x0f, 0x1b, 0xe4, 0x60, 0xe4, 0xb2, 0xf9, 0x02, 0x23,
  0x1e, 0xcd, 0x25, 0x3d, 0x22, 0x81, 0xe5, 0xcf, 0x03, 0x9a, 0xff, 0xdc,
  0xf1, 0x29, 0x37, 0x23, 0x0d, 0x3a, 0x1e, 0x05, 0x0b, 0x32, 0x17, 0xfd,
  0x14, 0x2d, 0x04, 0x16, 0x0b, 0x13, 0xfd, 0x06, 0xfb, 0x08, 0x03, 0x37,
  0xfb, 0xea, 0xfa, 0x0f, 0x01, 0xf5, 0xd2, 0xa8, 0x03, 0xe2, 0xdd, 0x2b,
  0xfe, 0xf9, 0xf7, 0x15, 0x38, 0x83, 0x1b, 0xbf, 0x1a, 0x3b, 0x62, 0xec,
  0xd3, 0xf5, 0x0c, 0x12, 0xe3, 0xec, 0xde, 0xf7, 0x05, 0xe3, 0x2b, 0xec,
  0xf9, 0xe0, 0x3a, 0xce, 0x1b, 0x2f, 0x1b, 0x09, 0xdc, 0x0e, 0xe9, 0x06,
  0x6a, 0xd0, 0x1a, 0x3b, 0x07, 0x03, 0x25, 0xea, 0x16, 0xf9, 0x0c, 0x20,
  0x00, 0xda, 0x0f, 0x04, 0xdd, 0x39, 0x22, 0x06, 0xf4, 0x01, 0x10, 0xd2,
  0x3d, 0xaf, 0xd9, 0x12, 0x38, 0xf4, 0xf0, 0xfa, 0xec, 0xbf, 0x15, 0xd5,
  0x0f, 0xf4, 0x37, 0xfc, 0xfe, 0xdf, 0x49, 0x32, 0x22, 0x1b, 0x16, 0x03,
  0x09, 0x0e, 0x21, 0x0e, 0x26, 0x1b, 0xe7, 0xe4, 0xe0, 0x28, 0x49, 0xe5,
  0x2b, 0xbe, 0xee, 0x0e, 0x2f, 0xbd, 0x54, 0x30, 0x24, 0xce, 0x29, 0xf0,
  0x4d, 0xf5, 0x12, 0xb7, 0xd5, 0xc0, 0x13, 0x33, 0x11, 0x35, 0xd0, 0xc2,
  0x13, 0x0b, 0x36, 0x31, 0xfd, 0xd4, 0x2a, 0xf3, 0x30, 0xe8, 0x26, 0x2d,
  0xc4, 0x03, 0x56, 0x1c, 0x16, 0x49, 0xf2, 0xdb, 0xd7, 0x32, 0x0c, 0x40,
  0x00, 0xb3, 0x6f, 0x3a, 0x27, 0xec, 0x38, 0xe6, 0x07, 0x0d, 0x03, 0xdd,
  0xa1, 0xd9, 0x21, 0xd4, 0xfb, 0xc1, 0xbf, 0xfb, 0xf6, 0x02, 0xfc, 0xf8,
  0x13, 0xf3, 0xdc, 0xf7, 0xf0, 0xfa, 0x1a, 0x35, 0x12, 0xe3, 0xe4, 0xd6,
  0xf3, 0xf7, 0x0f, 0xd3, 0x18, 0x26, 0x35, 0x00, 0xe8, 0x1f, 0x16, 0xa9,
  0x04, 0xef, 0x2a, 0x18, 0xab, 0x23, 0xf9, 0x15, 0xe4, 0xbf, 0x48, 0x00,
  0xf1, 0xbd, 0xe2, 0xf5, 0x1a, 0xdf, 0x87, 0xe7, 0x01, 0xf5, 0xc6, 0x1c,
  0xc3, 0x0d, 0xe8, 0xcc, 0x9b, 0xf5, 0xec, 0x22, 0xfa, 0x1a, 0xd5, 0x0e,
  0x14, 0xd0, 0x07, 0xec, 0x08, 0x08, 0xdb, 0xef, 0x02, 0x18, 0x19, 0x35,
  0xf9, 0xe6, 0xe4, 0xef, 0xc2, 0x04, 0x0c, 0xd3, 0x15, 0xeb, 0x17, 0xff,
  0x05, 0xfb, 0x19, 0x9d, 0xd9, 0x02, 0xf4, 0x07, 0xa6, 0x12, 0x0e, 0xef,
  0x03, 0x11, 0x1d, 0x0a, 0x2f, 0xfc, 0xea, 0xde, 0xdf, 0xf4, 0x0f, 0xfe,
  0x0a, 0xce, 0xfb, 0x02, 0xf7, 0x20, 0xfc, 0xf2, 0xca, 0x12, 0xe2, 0x0f,
  0xf2, 0x1d, 0xab, 0xc3, 0x32, 0x12, 0x04, 0xda, 0xd0, 0xf7, 0x05, 0xf7,
  0xf1, 0x22, 0xe9, 0x32, 0x0a, 0x07, 0x01, 0xb3, 0xe3, 0xf3, 0x05, 0xdf,
  0xf7, 0xe2, 0x18, 0xf6, 0xde, 0x11, 0x2c, 0x00, 0x0d, 0x08, 0xff, 0x28,
  0xdc, 0xc5, 0xf5, 0xef, 0xff, 0x2f, 0xe7, 0x03, 0x22, 0x0a, 0x0b, 0xfc,
  0xdf, 0x0c, 0x00, 0xad, 0xfe, 0xed, 0xef, 0xf9, 0x0e, 0x15, 0x81, 0xd9,
  0xec, 0xf0, 0xfd, 0x00, 0xe8, 0xe4, 0xd3, 0xed, 0x09, 0xf4, 0x0d, 0x1c,
  0x0e, 0x04, 0xff, 0x11, 0xe9, 0x38, 0x11, 0x22, 0x02, 0xde, 0xe2, 0x2c,
  0x9e, 0x04, 0x2d, 0xda, 0x1b, 0xf4, 0x0d, 0xf2, 0x0b, 0xfe, 0x0e, 0x02,
  0x11, 0x02, 0xe3, 0x27, 0xfd, 0xed, 0x42, 0x18, 0x01, 0x08, 0xf5, 0xe9,
  0x03, 0xe8, 0x20, 0x13, 0x03, 0x1d, 0x09, 0xc8, 0xe1, 0xf0, 0xfc, 0xba,
  0x1d, 0xfb, 0xbe, 0xdd, 0xeb, 0xfa, 0x0a, 0xf9, 0x02, 0x06, 0x04, 0x0d,
  0x03, 0xec, 0x00, 0x03, 0xe5, 0xf7, 0xfa, 0xfb, 0x05, 0x21, 0xea, 0xf9,
  0xed, 0xfc, 0xe9, 0x01, 0xf7, 0x0b, 0x01, 0xe9, 0xf0, 0xce, 0xf7, 0x0b,
  0x07, 0xef, 0xff, 0x0b, 0x0e, 0x00, 0xf2, 0xf7, 0x00, 0xff, 0xfa, 0x12,
  0xfb, 0x01, 0x12, 0xf9, 0xe2, 0x0d, 0x0e, 0xe4, 0xdf, 0xf1, 0xda, 0x01,
  0x11, 0x00, 0x14, 0xee, 0xfc, 0x0c, 0x05, 0x1c, 0xf8, 0x0a, 0xd7, 0xee,
  0x10, 0x10, 0x0a, 0x0c, 0xf7, 0x0d, 0x02, 0xfb, 0x04, 0xf8, 0xee, 0x07,
  0xfc, 0x16, 0xf8, 0xef, 0x00, 0x0b, 0x00, 0x0f, 0x03, 0x0d, 0x04, 0xdb,
  0x06, 0xef, 0x0e, 0x10, 0xee, 0xf4, 0x0d, 0xf1, 0xfd, 0x09, 0xef, 0x00,
  0x14, 0x0b, 0xfb, 0x04, 0xe0, 0x08, 0x03, 0xee, 0xec, 0xde, 0x04, 0xf5,
  0x07, 0x03, 0x0b, 0x15, 0x0c, 0x04, 0xf1, 0xdd, 0x05, 0xf7, 0x02, 0x29,
  0xe9, 0x02, 0x01, 0xdd, 0xea, 0x00, 0x02, 0xf4, 0xdc, 0x0f, 0xf2, 0x0d,
  0xf9, 0xf5, 0xfc, 0x11, 0x0a, 0x0b, 0x02, 0x12, 0xd9, 0x10, 0x15, 0xf5,
  0x0a, 0x0b, 0x07, 0xec, 0xf2, 0x0d, 0xfc, 0x0d, 0x0c, 0x13, 0xfc, 0xf3,
  0x0d, 0xfa, 0x12, 0x10, 0xf1, 0x03, 0x00, 0x22, 0xf3, 0xf2, 0xf9, 0xfa,
  0xff, 0x00, 0xfa, 0xe5, 0xf4, 0xe8, 0x0a, 0x1e, 0x15, 0x0c, 0x02, 0x03,
  0xf9, 0xfc, 0x24, 0xef, 0xfc, 0x07, 0xfd, 0xef, 0x0a, 0xca, 0x15, 0x08,
  0x1d, 0x16, 0x12, 0x0a, 0x0f, 0xef, 0xf5, 0x0c, 0x10, 0x05, 0xf2, 0xed,
  0x81, 0x14, 0xf9, 0xf1, 0xfa, 0xfe, 0xe2, 0x08, 0xfc, 0x0e, 0xf5, 0xf4,
  0x19, 0xf8, 0xff, 0x18, 0xf1, 0xf0, 0xec, 0x09, 0x10, 0x0e, 0xd5, 0x0e,
  0xde, 0x0b, 0x08, 0x19, 0x08, 0x0e, 0xfe, 0x02, 0x00, 0xd7, 0x0a, 0x11,
  0x03, 0xf8, 0x1c, 0xdc, 0xdf, 0x01, 0x0c, 0xdb, 0x39, 0x1c, 0x0c, 0xe5,
  0x06, 0xb2, 0xee, 0x27, 0xe8, 0x4e, 0xf1, 0xf8, 0x0a, 0x09, 0xfb, 0x2c,
  0xfb, 0xf9, 0xff, 0xbd, 0xdf, 0xc7, 0x0b, 0xfb, 0xfb, 0x15, 0x06, 0x23,
  0x0d, 0x30, 0x1b, 0xee, 0xf8, 0x10, 0xff, 0xe8, 0x27, 0xbe, 0xe7, 0xf8,
  0xe2, 0x08, 0x00, 0x23, 0xe4, 0xf2, 0x00, 0xfb, 0x02, 0xd7, 0x02, 0x05,
  0xe4, 0xae, 0x46, 0xde, 0xd8, 0x01, 0xe1, 0x0d, 0xed, 0xff, 0xf8, 0x54,
  0x13, 0xf8, 0x29, 0xf5, 0x26, 0xed, 0x11, 0x0b, 0x15, 0xed, 0x22, 0xe3,
  0x0f, 0x24, 0x24, 0x24, 0x19, 0xd1, 0x01, 0xdc, 0x0c, 0x48, 0xe2, 0x08,
  0x0e, 0x0b, 0x1b, 0x1f, 0x0f, 0x07, 0xff, 0xce, 0xf9, 0xd9, 0xf9, 0x16,
  0x15, 0xee, 0xfd, 0xfc, 0x0f, 0x16, 0x0a, 0xc6, 0xe9, 0x41, 0x1c, 0xf0,
  0x1c, 0xe6, 0xea, 0xf6, 0xd7, 0x01, 0x12, 0xfc, 0xa4, 0xe2, 0x0b, 0x06,
  0xf7, 0x09, 0x03, 0x18, 0x14, 0x07, 0xdb, 0x07, 0x30, 0xf7, 0x18, 0xf3,
  0x19, 0x21, 0x0a, 0x0d, 0xe8, 0xf8, 0x09, 0x07, 0xec, 0x34, 0xf9, 0xd7,
  0x12, 0xc9, 0xef, 0x32, 0x81, 0xf7, 0x16, 0xef, 0xe3, 0x1b, 0x0a, 0xd4,
  0x22, 0xe6, 0x01, 0xd3, 0x16, 0x00, 0x14, 0x13, 0x10, 0x1c, 0x1b, 0x0c,
  0xbf, 0x02, 0xd9, 0x06, 0xe2, 0xe2, 0xff, 0xbc, 0xe5, 0x25, 0x08, 0x0d,
  0xbd, 0xd4, 0x04, 0x27, 0xf0, 0xfa, 0xfe, 0xfc, 0x16, 0x0f, 0x17, 0x20,
  0x2e, 0x87, 0x00, 0x1b, 0x00, 0x49, 0x14, 0xed, 0xe6, 0xf6, 0x0f, 0x29,
  0xe9, 0x16, 0x29, 0xfb, 0xc5, 0x16, 0x0a, 0x0d, 0xcc, 0x15, 0x1f, 0xfb,
  0x1e, 0xec, 0xd8, 0x35, 0xf1, 0xf0, 0x0e, 0x3c, 0xea, 0xbf, 0xc8, 0xdf,
  0xeb, 0x19, 0xce, 0xe0, 0xcf, 0xf7, 0xf4, 0x2e, 0xb9, 0x1b, 0xda, 0xbc,
  0xb9, 0xaf, 0x47, 0x16, 0xc4, 0xe6, 0x11, 0xdf, 0x0e, 0x13, 0xd9, 0xbf,
  0xe0, 0xc5, 0x11, 0x07, 0xc0, 0x36, 0xf7, 0xf4, 0x22, 0x0a, 0xfb, 0x10,
  0xff, 0x10, 0x07, 0x3a, 0x3a, 0x03, 0xdd, 0x26, 0x1f, 0xe3, 0xd2, 0x00,
  0x2d, 0xd2, 0xea, 0x06, 0x0c, 0x03, 0xed, 0xf6, 0xca, 0x18, 0x09, 0x09,
  0xd9, 0xc4, 0xc3, 0xfd, 0x27, 0xfe, 0xf7, 0x0a, 0x2b, 0x14, 0x1d, 0x9e,
  0x3b, 0xec, 0x32, 0xf2, 0x15, 0x06, 0x14, 0x29, 0x9a, 0xe2, 0x40, 0xed,
  0x44, 0x18, 0xcb, 0x29, 0xe5, 0xbf, 0x0b, 0x01, 0x08, 0x0a, 0x46, 0xfd,
  0xb3, 0xbe, 0xd6, 0xf2, 0xda, 0x27, 0x0d, 0x0d, 0x0e, 0xc6, 0xd8, 0x06,
  0x0a, 0x22, 0xda, 0x1c, 0x1b, 0xc9, 0x0c, 0x0c, 0xd0, 0xcd, 0xe2, 0xba,
  0xef, 0xfc, 0xdb, 0xf4, 0xe5, 0xe1, 0x00, 0x01, 0x35, 0x51, 0x1b, 0x07,
  0x0f, 0x02, 0x23, 0xfb, 0x02, 0x10, 0x12, 0xfc, 0x23, 0xe9, 0x18, 0xfb,
  0x21, 0x12, 0x15, 0x13, 0x0f, 0x03, 0xf7, 0x0c, 0x12, 0x00, 0xc0, 0xf8,
  0xef, 0x1b, 0xee, 0xfc, 0xd4, 0x00, 0xf6, 0xeb, 0xe8, 0x10, 0x08, 0x07,
  0xeb, 0xef, 0xda, 0xfa, 0x08, 0x43, 0x05, 0xa8, 0xe7, 0xc8, 0xe9, 0xf0,
  0x38, 0x14, 0x81, 0xe3, 0x05, 0x25, 0xe3, 0xf9, 0xe3, 0xf5, 0x39, 0xc6,
  0x0d, 0x31, 0x27, 0xf7, 0x0b, 0xfa, 0xed, 0xd7, 0x11, 0xd5, 0x25, 0xe0,
  0x34, 0x11, 0xed, 0xe5, 0x11, 0xd1, 0x0e, 0xf6, 0xef, 0x13, 0xd6, 0xea,
  0x0d, 0x0d, 0x28, 0xe5, 0x00, 0x3a, 0xe6, 0x07, 0xd3, 0x4b, 0x24, 0xfd,
  0xf7, 0x9f, 0x1a, 0xfb, 0xfe, 0xee, 0xd5, 0x0f, 0xdd, 0x15, 0x25, 0x09,
  0x30, 0xf6, 0xda, 0xde, 0x0c, 0x09, 0xd7, 0x4a, 0x0f, 0x29, 0xf4, 0x3a,
  0xf0, 0x1f, 0xc4, 0xae, 0x33, 0x1b, 0x44, 0xf7, 0xdd, 0x03, 0xe3, 0x0a,
  0xbc, 0xde, 0x1c, 0x12, 0x24, 0xa5, 0x32, 0xf6, 0x51, 0x04, 0x16, 0xdd,
  0x03, 0xf9, 0x04, 0xee, 0xf1, 0x03, 0xf2, 0xf1, 0x0c, 0xb2, 0xae, 0x05,
  0x97, 0xcc, 0x12, 0x19, 0xfe, 0x05, 0x06, 0x1b, 0xe6, 0xe0, 0xfe, 0xfc,
  0x06, 0xf7, 0x17, 0xef, 0xf4, 0xdf, 0x0c, 0x12, 0x1e, 0xe6, 0xbf, 0xdf,
  0x1d, 0x08, 0xe7, 0xd7, 0x2e, 0xa6, 0xc2, 0xb2, 0xbc, 0x20, 0xea, 0x84,
  0xf2, 0x1d, 0xd8, 0xfb, 0xff, 0x04, 0xca, 0xfe, 0xf6, 0xea, 0x45, 0xc1,
  0xff, 0xd9, 0x19, 0xf1, 0xfc, 0x0d, 0x8d, 0xe4, 0xfc, 0xf6, 0xda, 0x2a,
  0x03, 0xe3, 0xca, 0xce, 0x07, 0xda, 0x26, 0x08, 0xf9, 0x0a, 0x03, 0xc7,
  0x0b, 0x01, 0x01, 0xe5, 0x0d, 0xd8, 0x02, 0x06, 0xff, 0xeb, 0x0c, 0xf3,
  0x0d, 0x1f, 0x9e, 0xc8, 0x12, 0x0c, 0x10, 0xfc, 0xec, 0xd5, 0x10, 0x17,
  0x81, 0xa5, 0xf6, 0xb5, 0xdf, 0x14, 0xf7, 0x01, 0xe5, 0xe5, 0xc0, 0xe2,
  0x14, 0xe6, 0xf0, 0x31, 0x07, 0x1c, 0xdc, 0xe1, 0x0a, 0x04, 0xff, 0xbb,
  0x34, 0xe1, 0x1a, 0xf6, 0x1d, 0x03, 0xb3, 0xf9, 0xd6, 0xfb, 0x21, 0x9b,
  0x15, 0x0f, 0x0c, 0xe0, 0xed, 0x01, 0xfa, 0x42, 0xfd, 0xeb, 0xe7, 0x56,
  0x0f, 0xf9, 0x1c, 0xed, 0x19, 0x16, 0xb1, 0x19, 0x10, 0x05, 0xd6, 0xfc,
  0x04, 0x07, 0xa9, 0x16, 0xdc, 0x10, 0x15, 0xca, 0xf8, 0xde, 0x0f, 0xf2,
  0x0f, 0x9f, 0x05, 0xe8, 0xfc, 0xe7, 0x1e, 0xec, 0x03, 0xc2, 0xe5, 0xfb,
  0x25, 0x0a, 0x2b, 0xd5, 0x05, 0x08, 0x0b, 0xd2, 0xf0, 0xb0, 0xf9, 0x21,
  0x98, 0xec, 0x2b, 0xfb, 0xf3, 0x10, 0xe6, 0xe3, 0xea, 0x2e, 0x0c, 0xc9,
  0x07, 0x32, 0xd2, 0xfc, 0xe2, 0x06, 0x1e, 0xd9, 0x10, 0x02, 0xbc, 0x00,
  0x06, 0x1e, 0x0e, 0xbf, 0xf4, 0xd5, 0x34, 0x12, 0xf1, 0xfa, 0xfb, 0xf5,
  0x17, 0x25, 0x3c, 0xea, 0xf9, 0x32, 0xe0, 0xfe, 0x2e, 0xff, 0xb8, 0x15,
  0xf3, 0x9e, 0x0f, 0x0c, 0xfd, 0x01, 0x14, 0xd1, 0x25, 0x05, 0x69, 0xde,
  0xeb, 0xe3, 0xea, 0x0d, 0x15, 0xd0, 0x2a, 0xd6, 0xf6, 0xee, 0x05, 0x14,
  0xdc, 0xf1, 0x0f, 0xde, 0x0f, 0xbf, 0x14, 0x81, 0x13, 0x09, 0xfd, 0x0e,
  0x2d, 0xf9, 0xbc, 0xee, 0x47, 0x39, 0xf3, 0xa1, 0x39, 0xfa, 0x21, 0x0a,
  0x96, 0xf1, 0x47, 0x14, 0x14, 0xeb, 0x0b, 0xd1, 0xc2, 0xf6, 0x2d, 0xf5,
  0x20, 0x07, 0x2b, 0x1b, 0x43, 0x0b, 0x1a, 0x15, 0x19, 0x25, 0x9b, 0xe7,
  0x2b, 0xfc, 0x35, 0xd6, 0xea, 0xea, 0x9a, 0x0d, 0xad, 0x15, 0x1c, 0x04,
  0x0f, 0xff, 0x0e, 0x24, 0x08, 0x15, 0xfe, 0xe3, 0xe5, 0xb5, 0x0a, 0x0b,
  0x25, 0xe6, 0xe9, 0x1b, 0x0c, 0x1a, 0xeb, 0xf2, 0x36, 0x0f, 0xed, 0xcc,
  0x4d, 0xef, 0x47, 0xf8, 0x8c, 0xf3, 0x37, 0xf5, 0x02, 0x44, 0x0d, 0xe7,
  0xdb, 0x0c, 0x0e, 0xe7, 0xea, 0x26, 0x31, 0x1c, 0x1d, 0xee, 0x59, 0xe5,
  0xf4, 0x01, 0xf9, 0x2f, 0x28, 0xea, 0xe3, 0xb9, 0x44, 0xb5, 0x9b, 0xf7,
  0xc0, 0xc5, 0x1c, 0xe6, 0xba, 0xef, 0xc2, 0x38, 0x01, 0x17, 0x0c, 0xf1,
  0xe9, 0xf5, 0xfa, 0xe1, 0xfb, 0x2a, 0xe2, 0x30, 0xdf, 0x23, 0x1a, 0xd9,
  0x1d, 0xf8, 0x1e, 0x38, 0x06, 0xe6, 0x52, 0x9d, 0x8b, 0x16, 0x15, 0xd0,
  0xfb, 0x38, 0xeb, 0xf4, 0xcc, 0x32, 0x08, 0xc6, 0x0c, 0xcc, 0x47, 0xbc,
  0x0e, 0x00, 0x30, 0xf8, 0xf8, 0x10, 0xd7, 0x1d, 0x05, 0x11, 0xfd, 0xde,
  0xfa, 0x96, 0x0b, 0xf4, 0xff, 0xd0, 0x02, 0xe4, 0xce, 0xda, 0xf4, 0x17,
  0xfb, 0xe7, 0x09, 0x1b, 0xe3, 0x1e, 0x1e, 0xa5, 0xd9, 0x1f, 0x02, 0x41,
  0x05, 0x2c, 0xae, 0x01, 0xff, 0xea, 0x0c, 0x04, 0x09, 0x08, 0x45, 0xe4,
  0xf9, 0x9e, 0xe3, 0xc2, 0xec, 0x04, 0xca, 0xd2, 0xcf, 0xe1, 0x32, 0xd4,
  0x00, 0xaa, 0x6a, 0x8d, 0x04, 0x14, 0x34, 0xd0, 0x5c, 0xf6, 0xb9, 0x23,
  0x2c, 0xe4, 0xf8, 0xc4, 0x17, 0xe2, 0xff, 0x03, 0xc4, 0x81, 0xf1, 0xd7,
  0x0f, 0x03, 0xf3, 0x18, 0xf2, 0xf5, 0xfe, 0xef, 0x01, 0xa3, 0xef, 0xc5,
  0xec, 0x1f, 0x29, 0x35, 0xf6, 0x01, 0xe5, 0x06, 0x18, 0x13, 0x13, 0xda,
  0x12, 0x16, 0x29, 0x03, 0x96, 0x28, 0x22, 0x1d, 0xb9, 0xf1, 0x02, 0xee,
  0x13, 0x0b, 0xe7, 0x02, 0x0a, 0x02, 0xe1, 0xb7, 0x05, 0x12, 0xf3, 0xfc,
  0xb6, 0x0d, 0xe1, 0xb8, 0x09, 0xea, 0xfa, 0x18, 0xcd, 0x0c, 0xc4, 0xf0,
  0xd5, 0x06, 0x11, 0xfd, 0x10, 0x03, 0xf9, 0xf0, 0x0e, 0xf8, 0x04, 0xe9,
  0xff, 0xc6, 0xfd, 0xe3, 0xe3, 0x0a, 0x04, 0xf6, 0x0d, 0x18, 0xea, 0x07,
  0xf5, 0x0a, 0x19, 0x91, 0x30, 0xe4, 0x0c, 0xe1, 0x8e, 0xdd, 0x16, 0x06,
  0x11, 0xfd, 0xda, 0x06, 0xf9, 0xed, 0xfd, 0x08, 0x12, 0xe1, 0x13, 0x0e,
  0x26, 0xcb, 0xfd, 0xee, 0xe3, 0x04, 0xd2, 0xef, 0xe5, 0xf5, 0xfb, 0x28,
  0x19, 0x14, 0xc2, 0x1f, 0xb2, 0x9b, 0x17, 0xfe, 0xda, 0x0b, 0x27, 0xcb,
  0x11, 0xfa, 0xf6, 0xfa, 0xfa, 0xe8, 0x0c, 0x23, 0x07, 0xe2, 0xf9, 0x1d,
  0xeb, 0xeb, 0x08, 0xf3, 0xf3, 0x0d, 0x00, 0xec, 0x27, 0xf1, 0x05, 0x04,
  0xcb, 0xf3, 0x0e, 0xbd, 0xda, 0xff, 0x1c, 0xf8, 0xc2, 0xe9, 0xd9, 0xdd,
  0xe6, 0xf2, 0x24, 0x35, 0x25, 0x19, 0x17, 0xab, 0xf4, 0xf4, 0x24, 0xd9,
  0xfd, 0x17, 0x2b, 0x1d, 0xd5, 0xe7, 0xfa, 0x35, 0xe1, 0xef, 0x1a, 0xf1,
  0x0f, 0x1e, 0x2b, 0xcb, 0x0a, 0x0e, 0x0a, 0xf1, 0xdf, 0x0d, 0xfe, 0x00,
  0xf9, 0x0e, 0x14, 0x17, 0xf6, 0xd9, 0xbd, 0xff, 0x15, 0x03, 0x16, 0x20,
  0x13, 0xf8, 0x44, 0xe0, 0xde, 0xb8, 0xf5, 0xc3, 0xee, 0x08, 0x01, 0x29,
  0xfa, 0xf7, 0x07, 0x13, 0xe2, 0x20, 0x12, 0x09, 0x01, 0xed, 0xf4, 0xec,
  0x2b, 0x00, 0xf6, 0xff, 0xf7, 0xe4, 0x02, 0xea, 0xe3, 0x02, 0x2c, 0x2e,
  0xf4, 0xc3, 0x04, 0xed, 0xeb, 0xfd, 0xea, 0xe6, 0x39, 0xf9, 0xf3, 0xee,
  0xfa, 0xcf, 0xf0, 0xf7, 0x3a, 0xf6, 0xfb, 0x06, 0x1a, 0x01, 0xf0, 0x04,
  0xdd, 0x0b, 0x26, 0x53, 0xf9, 0x87, 0x0e, 0x12, 0xd1, 0xb6, 0xea, 0x25,
  0xfb, 0xe9, 0x52, 0xc8, 0xdd, 0xfa, 0x1b, 0xef, 0x1b, 0xed, 0xd1, 0x15,
  0xcb, 0xa7, 0xec, 0x00, 0x2a, 0xd7, 0x9c, 0x35, 0xc8, 0xea, 0xfc, 0xf3,
  0x15, 0xfb, 0x15, 0x24, 0xc6, 0xbf, 0xd3, 0x28, 0xd8, 0xfd, 0x04, 0x22,
  0x00, 0xdd, 0x17, 0x13, 0x21, 0xdf, 0x23, 0x21, 0x31, 0xe4, 0x07, 0xf2,
  0x06, 0xee, 0x0a, 0xec, 0xfe, 0xfb, 0xd6, 0xf7, 0x1c, 0xca, 0x0c, 0x06,
  0xc9, 0xfd, 0xff, 0xc5, 0x16, 0xee, 0x2e, 0xcc, 0xfa, 0x10, 0xf0, 0xf4,
  0x1f, 0xe3, 0x18, 0x08, 0x1c, 0x1e, 0x0d, 0xed, 0x15, 0xfd, 0xf2, 0xf4,
  0x12, 0x0f, 0xd9, 0xd6, 0xe0, 0x0d, 0xf1, 0x1b, 0xb5, 0xdd, 0xe7, 0x18,
  0xf7, 0x0e, 0x07, 0xed, 0xf4, 0xc6, 0xc5, 0xeb, 0x17, 0x0e, 0x24, 0xab,
  0x11, 0x01, 0xf4, 0x04, 0x06, 0xe9, 0xfd, 0xc7, 0xfb, 0xf9, 0xe2, 0xff,
  0xc7, 0x04, 0xe0, 0xcf, 0x03, 0x0a, 0xe4, 0x08, 0x04, 0xf7, 0xde, 0xa8,
  0x0d, 0xf2, 0x30, 0x01, 0x0c, 0xfc, 0xef, 0xfe, 0x31, 0x20, 0x02, 0x20,
  0xf4, 0xfc, 0xc1, 0x07, 0xfb, 0x00, 0xed, 0x00, 0xfb, 0x2e, 0x26, 0xe5,
  0xf1, 0xbc, 0x47, 0x26, 0x3c, 0xf1, 0x2a, 0xf0, 0x16, 0xed, 0xe2, 0xfe,
  0x12, 0xde, 0xe7, 0xd5, 0x1d, 0x05, 0x07, 0x03, 0x1f, 0x3e, 0x3b, 0xc2,
  0x02, 0x05, 0xfa, 0xe4, 0xfb, 0x1b, 0x81, 0xc9, 0x0c, 0x9a, 0x26, 0x04,
  0x32, 0x1b, 0xed, 0xe2, 0xcd, 0xcf, 0x0b, 0xc4, 0x29, 0x03, 0x51, 0x9b,
  0x25, 0xfa, 0x09, 0x20, 0x31, 0x14, 0x0b, 0xe5, 0x15, 0x00, 0x14, 0xee,
  0x07, 0x2b, 0xf3, 0xfe, 0x4d, 0x23, 0x0b, 0xfa, 0x12, 0x81, 0xf8, 0x30,
  0x07, 0xd3, 0xc5, 0xea, 0xc6, 0x24, 0x08, 0x01, 0x05, 0xfb, 0x11, 0xe8,
  0x18, 0xfc, 0x0d, 0x15, 0xf8, 0x02, 0xb2, 0x30, 0xf6, 0x1c, 0x4e, 0xdf,
  0x1f, 0x13, 0xea, 0x1b, 0x22, 0x04, 0x09, 0x08, 0xee, 0x01, 0xcd, 0xe9,
  0xc5, 0xfe, 0x0c, 0x17, 0x1c, 0xa4, 0xed, 0xdd, 0xdd, 0xdd, 0x19, 0xd5,
  0x11, 0x0a, 0x1d, 0xfc, 0x0c, 0x13, 0x31, 0x36, 0xe7, 0x12, 0xfb, 0x31,
  0xfc, 0xfc, 0x07, 0xcf, 0xf1, 0x14, 0xdc, 0xd8, 0xe5, 0xf2, 0xe6, 0x08,
  0xf8, 0x25, 0x07, 0x05, 0xc5, 0x03, 0x41, 0xf2, 0x63, 0xee, 0xf8, 0x16,
  0x28, 0x03, 0x39, 0xfc, 0x01, 0x23, 0xf6, 0x1b, 0x28, 0x06, 0x0a, 0xe8,
  0x0f, 0x10, 0x36, 0xbd, 0x8c, 0xcc, 0x17, 0x39, 0xfe, 0x06, 0x1d, 0x26,
  0x2b, 0x0b, 0xe7, 0x28, 0xf5, 0x91, 0xc2, 0x09, 0x0e, 0xd2, 0x13, 0x0a,
  0x1c, 0x02, 0xee, 0xd6, 0xc4, 0x03, 0xad, 0x10, 0xc1, 0x0f, 0x00, 0xe3,
  0x08, 0x24, 0x07, 0x25, 0xe0, 0x09, 0xfe, 0x03, 0x0d, 0x01, 0xda, 0xea,
  0x14, 0xce, 0x22, 0x0f, 0x08, 0xec, 0xc0, 0x1b, 0x11, 0x56, 0x05, 0xe8,
  0xaa, 0x0a, 0x12, 0xb7, 0xfb, 0xf3, 0xfa, 0x16, 0xd1, 0x37, 0xec, 0x5f,
  0xa7, 0xeb, 0xfe, 0x1d, 0x05, 0xd8, 0x28, 0x58, 0xe6, 0x02, 0xe5, 0x11,
  0x03, 0x47, 0x26, 0x0d, 0xf2, 0x46, 0xf6, 0x0b, 0xed, 0x10, 0x05, 0xee,
  0xca, 0x09, 0xdb, 0xe5, 0xac, 0x06, 0xe4, 0x2e, 0xef, 0x16, 0x42, 0xa6,
  0xee, 0x01, 0x3e, 0xf6, 0x39, 0xf2, 0xf3, 0x27, 0x06, 0xf3, 0xd7, 0x04,
  0xf3, 0x18, 0xef, 0x13, 0xec, 0xf3, 0x2f, 0xd2, 0xb9, 0x05, 0x16, 0xd1,
  0xfe, 0xe6, 0xfb, 0x0c, 0xcb, 0x25, 0x1a, 0x4b, 0x23, 0xbc, 0x00, 0xd8,
  0xe9, 0x21, 0xeb, 0xd8, 0x1a, 0xc2, 0xcd, 0x15, 0xe6, 0xa9, 0x03, 0xd8,
  0x16, 0xd1, 0xea, 0xf9, 0xe4, 0x19, 0xf2, 0xbc, 0xd0, 0xed, 0x0f, 0xf1,
  0xd4, 0x49, 0x39, 0x1f, 0xe8, 0xee, 0xf3, 0xf2, 0xe9, 0xdc, 0x12, 0xd4,
  0x10, 0xab, 0xd1, 0xb7, 0x81, 0x1f, 0x07, 0xe7, 0x18, 0xea, 0xf9, 0x02,
  0xde, 0xe6, 0xea, 0xe4, 0xd3, 0x35, 0x48, 0x03, 0xfc, 0xfb, 0x11, 0xb4,
  0xfb, 0x07, 0xd9, 0xf1, 0x0a, 0x02, 0xec, 0x25, 0x2e, 0xfa, 0xf6, 0x05,
  0x0b, 0xf7, 0x00, 0x27, 0xde, 0xf4, 0xec, 0x0e, 0xd7, 0x0e, 0xf7, 0x16,
  0xb0, 0x0c, 0xff, 0x39, 0x22, 0x1d, 0x1e, 0x1a, 0x02, 0x09, 0x13, 0xbb,
  0xd7, 0xda, 0xd7, 0x35, 0x21, 0x3e, 0x04, 0x00, 0xe9, 0xa5, 0x00, 0xcc,
  0xcb, 0xf5, 0x0b, 0xd6, 0xda, 0xee, 0x16, 0x01, 0xee, 0x2c, 0x0c, 0x4b,
  0x08, 0x27, 0xf4, 0xef, 0x17, 0xdd, 0xf2, 0xee, 0x07, 0xe5, 0x2b, 0x06,
  0xe6, 0xdc, 0xf1, 0x46, 0xb9, 0xe9, 0xdc, 0xfe, 0x14, 0x1d, 0x16, 0x16,
  0xf0, 0xe6, 0xec, 0xec, 0xd3, 0xee, 0x00, 0x0a, 0xca, 0xec, 0x03, 0x05,
  0x20, 0x37, 0xd3, 0xcc, 0x2e, 0x02, 0xf0, 0xc9, 0x2d, 0xeb, 0x21, 0x1a,
  0xf8, 0xf5, 0x30, 0xf0, 0xd7, 0xfa, 0x34, 0xde, 0x11, 0xe4, 0x20, 0x12,
  0xe9, 0xf5, 0xed, 0x06, 0x1c, 0xd8, 0x14, 0xe9, 0x13, 0xe5, 0x9c, 0x0b,
  0x22, 0x02, 0x10, 0x27, 0xeb, 0x14, 0xaf, 0x21, 0x17, 0xd2, 0x22, 0x1d,
  0xfe, 0x1a, 0x01, 0xd5, 0x15, 0x16, 0xe9, 0xb5, 0xf6, 0x2a, 0xf3, 0x2e,
  0x30, 0xf9, 0x16, 0x10, 0x33, 0x19, 0xed, 0xe2, 0x09, 0x03, 0xe5, 0xf1,
  0xbd, 0xeb, 0x2d, 0xf1, 0xbb, 0xf2, 0xdf, 0xf1, 0x17, 0x30, 0x02, 0x2b,
  0xe9, 0x3a, 0xd5, 0xd5, 0x09, 0xda, 0xf5, 0x01, 0xc0, 0x98, 0x10, 0x11,
  0xf6, 0x15, 0x1f, 0xfe, 0xfd, 0x21, 0x13, 0xea, 0x18, 0x30, 0x12, 0x1c,
  0xfb, 0x1c, 0xe7, 0xfa, 0xc8, 0x1d, 0x12, 0x05, 0x01, 0x1e, 0xe5, 0xfb,
  0x19, 0xd7, 0xd7, 0x0d, 0x10, 0x1f, 0xe5, 0xea, 0xeb, 0xe0, 0xbe, 0xfd,
  0x0b, 0xf7, 0x1c, 0x04, 0xe8, 0xe7, 0xf7, 0xfc, 0xf9, 0x0c, 0xfc, 0x11,
  0xe5, 0x04, 0x1c, 0x0a, 0xd9, 0x20, 0xfc, 0x0d, 0xd0, 0xf3, 0xed, 0x0e,
  0xe3, 0xf2, 0x37, 0xc8, 0x18, 0x2c, 0x0a, 0x05, 0xd8, 0x27, 0xd7, 0x0b,
  0x0e, 0x21, 0x04, 0x02, 0x15, 0xfd, 0x20, 0x09, 0x07, 0x06, 0xc7, 0x0b,
  0xe4, 0xfe, 0x01, 0xca, 0x2e, 0xf7, 0x16, 0xee, 0xd8, 0xd2, 0x25, 0xcc,
  0x15, 0xe8, 0xf1, 0xec, 0x1f, 0xef, 0xee, 0x1d, 0xe0, 0x10, 0xdf, 0x07,
  0x16, 0xf3, 0x0d, 0xe5, 0xe9, 0x0f, 0xe8, 0xea, 0x16, 0xf2, 0x17, 0xe4,
  0x06, 0x24, 0x20, 0x17, 0xe5, 0x0c, 0x0b, 0xe0, 0xd6, 0x13, 0x01, 0x2f,
  0x21, 0x08, 0xe9, 0x0a, 0x07, 0xe4, 0xfa, 0xf5, 0xba, 0x20, 0x0b, 0x08,
  0xe6, 0x0e, 0xe8, 0xfb, 0xe7, 0x13, 0xf1, 0xef, 0xf3, 0x9a, 0xfc, 0x01,
  0xe3, 0x2f, 0x0a, 0x08, 0xe0, 0x1e, 0x13, 0xd3, 0x00, 0x00, 0x0e, 0x09,
  0xe5, 0xfd, 0xe3, 0xeb, 0xfe, 0xe9, 0xd5, 0x07, 0xf9, 0xfc, 0x07, 0xf7,
  0xbb, 0x16, 0x14, 0xdf, 0x12, 0xed, 0xfd, 0x22, 0xeb, 0x24, 0xd6, 0x10,
  0xf0, 0x06, 0x0e, 0xd8, 0xf9, 0xda, 0x26, 0xf2, 0xff, 0xa1, 0xf6, 0xf3,
  0xf9, 0x28, 0x0e, 0x04, 0xf5, 0x17, 0xe7, 0x0b, 0xe6, 0x10, 0xf3, 0xfe,
  0xce, 0xf7, 0xfa, 0xed, 0xfa, 0xe9, 0xea, 0x0f, 0xdb, 0x1f, 0xde, 0x0c,
  0x09, 0xfa, 0x06, 0xf8, 0xf9, 0xf4, 0x10, 0x0f, 0xdc, 0xe4, 0xb6, 0x06,
  0xd7, 0xdd, 0xf7, 0x0f, 0x02, 0xae, 0x0c, 0xc4, 0x10, 0xa9, 0x46, 0x29,
  0xfe, 0xe2, 0xed, 0x03, 0xdf, 0x1a, 0x29, 0x7f, 0x04, 0x0a, 0x0f, 0xcb,
  0x2e, 0xb4, 0xe1, 0xe7, 0xd5, 0xee, 0xf6, 0xf2, 0xd4, 0xea, 0xe3, 0x14,
  0xcf, 0xd3, 0x1b, 0x20, 0x16, 0x9b, 0x25, 0x10, 0xdd, 0xd3, 0xd8, 0x0a,
  0x07, 0xf0, 0xe7, 0xd7, 0xf1, 0x16, 0x26, 0xff, 0xe6, 0xd3, 0xb9, 0xff,
  0x22, 0x2e, 0x32, 0x2d, 0xd5, 0x16, 0x20, 0xf7, 0xe8, 0xf9, 0x2f, 0xdd,
  0xf0, 0xdf, 0x0b, 0xdc, 0xc8, 0x16, 0xfd, 0xc8, 0x03, 0x23, 0x13, 0xfe,
  0x07, 0x1f, 0x11, 0x05, 0xe5, 0xd8, 0xf9, 0x23, 0xdb, 0x1f, 0x10, 0x0d,
  0x03, 0xd1, 0xe2, 0x12, 0xd7, 0xfc, 0x28, 0xea, 0x02, 0xe3, 0x0b, 0xe2,
  0xd7, 0xbe, 0x17, 0xe6, 0xfb, 0xe9, 0xed, 0x03, 0x23, 0x18, 0x0f, 0xe6,
  0x10, 0xda, 0xe3, 0x00, 0xf3, 0x16, 0x35, 0xf5, 0x25, 0xfc, 0x1a, 0x01,
  0xf2, 0x0d, 0x01, 0x00, 0x14, 0x16, 0x39, 0x0e, 0x00, 0xc0, 0xe1, 0xff,
  0x0b, 0x0d, 0xef, 0x29, 0xeb, 0x18, 0x26, 0xbe, 0x21, 0x98, 0xc6, 0xee,
  0xa1, 0xc5, 0xf9, 0xed, 0x04, 0xe6, 0xf1, 0x05, 0xde, 0xfc, 0xff, 0x23,
  0x08, 0xfd, 0xee, 0x10, 0x0c, 0xd2, 0x06, 0x01, 0x1b, 0x07, 0x04, 0xff,
  0x0f, 0x2e, 0x41, 0x34, 0x05, 0x0c, 0x0e, 0x00, 0x0b, 0xdf, 0xdd, 0x27,
  0x1c, 0x20, 0xdb, 0xfb, 0xf9, 0x06, 0x1f, 0xab, 0xde, 0xc4, 0xf4, 0x4e,
  0x22, 0x0c, 0xff, 0x19, 0x09, 0x03, 0xe7, 0x0b, 0x17, 0x05, 0x26, 0x0b,
  0x2c, 0x81, 0x27, 0x01, 0xf8, 0xfa, 0xf8, 0xfc, 0x0d, 0x04, 0x0e, 0x12,
  0x00, 0x09, 0x02, 0x31, 0x07, 0x92, 0xf5, 0x30, 0x2b, 0x10, 0x0d, 0x12,
  0xdb, 0x23, 0xe9, 0xcf, 0xff, 0x0b, 0x22, 0x17, 0x1e, 0xcf, 0xf6, 0xea,
  0x0b, 0x9c, 0x36, 0xe0, 0x17, 0x04, 0x1f, 0x02, 0x27, 0xe6, 0x0e, 0xd0,
  0xfc, 0xf1, 0x11, 0xf3, 0x1b, 0xd8, 0xf2, 0xe9, 0x0e, 0xee, 0xec, 0xd8,
  0x36, 0x13, 0x22, 0x40, 0x1b, 0xef, 0x36, 0x2f, 0x56, 0x4f, 0x08, 0xdc,
  0xda, 0xf5, 0x0e, 0x34, 0xf7, 0x2b, 0xde, 0xd2, 0xd8, 0x11, 0x22, 0xce,
  0x31, 0x4b, 0x24, 0xfd, 0x08, 0x12, 0x02, 0x0b, 0xf5, 0x16, 0x36, 0xf6,
  0x27, 0xe1, 0x4d, 0x2c, 0x39, 0xf5, 0xd9, 0x18, 0x15, 0xf3, 0x17, 0xfb,
  0xeb, 0x4d, 0xef, 0xc9, 0xed, 0x0b, 0x0a, 0x0f, 0xfe, 0x12, 0x02, 0x1b,
  0x3b, 0xd5, 0xdc, 0x16, 0x0c, 0x31, 0x15, 0x12, 0x28, 0x2a, 0x21, 0x1d,
  0xe9, 0x0c, 0x25, 0x0b, 0x22, 0xf6, 0x00, 0xc4, 0xf9, 0xf7, 0xf4, 0xd2,
  0x19, 0x09, 0xf3, 0x15, 0x56, 0x48, 0xef, 0x38, 0xfc, 0x1a, 0x0e, 0x37,
  0xd2, 0x07, 0x01, 0xc8, 0x17, 0x09, 0x4c, 0x02, 0x06, 0xd0, 0xf5, 0x7f,
  0x2e, 0x02, 0x16, 0xe3, 0x08, 0x24, 0xe3, 0xf5, 0x0e, 0x0c, 0x03, 0xff,
  0x1c, 0x16, 0x27, 0x09, 0x15, 0xea, 0xea, 0xfa, 0xf9, 0x02, 0x1b, 0xd5,
  0x22, 0xe3, 0xe4, 0x3e, 0xcb, 0x18, 0x01, 0xcb, 0x14, 0x2a, 0x2a, 0xfa,
  0x10, 0xda, 0x17, 0xd9, 0x07, 0x17, 0xf3, 0x32, 0xf8, 0x30, 0x1b, 0x36,
  0x23, 0x4d, 0x4f, 0x22, 0x08, 0x00, 0x0b, 0x35, 0x13, 0xdf, 0x07, 0x0b,
  0x14, 0x74, 0x00, 0xf7, 0x4f, 0xfe, 0x16, 0xf7, 0xed, 0xea, 0x28, 0x0b,
  0xf7, 0xff, 0x09, 0x0b, 0x1f, 0x30, 0xf8, 0x12, 0x27, 0xf8, 0xf2, 0xe2,
  0x37, 0x1d, 0x1c, 0x49, 0x0b, 0x0c, 0x27, 0x1b, 0x40, 0x5b, 0x18, 0xca,
  0x45, 0x1f, 0x04, 0x17, 0xe0, 0x06, 0x13, 0x08, 0x15, 0x61, 0xf4, 0xef,
  0x3d, 0x31, 0x42, 0x4b, 0x1c, 0xe3, 0x29, 0x22, 0x0e, 0xf7, 0x26, 0x2e,
  0xe6, 0xe8, 0x22, 0x1a, 0x46, 0x3c, 0x17, 0x32, 0x13, 0xf7, 0xf7, 0x5b,
  0x2b, 0x15, 0xe4, 0x1f, 0x0b, 0x30, 0x1b, 0xfc, 0xfc, 0x1d, 0xde, 0xd6,
  0x08, 0xff, 0x23, 0xfc, 0x1b, 0x05, 0x01, 0x03, 0xfc, 0xde, 0xf8, 0xf8,
  0x13, 0x19, 0x0c, 0x14, 0xe8, 0xec, 0xdb, 0x35, 0xe6, 0x07, 0xec, 0xf7,
  0xfb, 0x19, 0x09, 0x1a, 0x1c, 0x1f, 0x07, 0x05, 0x0c, 0x10, 0x29, 0x1d,
  0xe5, 0xf8, 0x06, 0xf5, 0x0e, 0xee, 0x2d, 0x00, 0x25, 0x28, 0x0a, 0x1f,
  0x19, 0x07, 0x15, 0xfb, 0x1e, 0x33, 0x06, 0xf4, 0x03, 0x13, 0x1d, 0x18,
  0xcc, 0x0c, 0x16, 0x28, 0x00, 0xef, 0x08, 0x7f, 0x1f, 0xfc, 0x09, 0x0a,
  0x00, 0x0f, 0x08, 0x05, 0x0f, 0xfb, 0xfd, 0x09, 0xf7, 0xef, 0xed, 0x0a,
  0xf1, 0x06, 0xd5, 0xdf, 0xf8, 0x1a, 0xea, 0xd9, 0x14, 0x03, 0x0e, 0x1a,
  0xdf, 0xf5, 0x11, 0xfc, 0xfa, 0xfd, 0x0c, 0xeb, 0xdf, 0x0d, 0x2e, 0xf5,
  0x24, 0xfd, 0xf9, 0xfd, 0x09, 0xf5, 0xed, 0xf6, 0x0e, 0x30, 0x11, 0xf2,
  0x12, 0xf1, 0x26, 0xf3, 0xf8, 0x15, 0xfe, 0xfd, 0x1b, 0xf4, 0xef, 0x1f,
  0xee, 0x13, 0x12, 0x09, 0x03, 0x29, 0xea, 0x03, 0x38, 0x25, 0x0e, 0x19,
  0xf3, 0xe5, 0x01, 0x0b, 0xed, 0xf9, 0x06, 0xfb, 0xe6, 0x20, 0x1d, 0x25,
  0x0e, 0xe7, 0xe5, 0xe9, 0x04, 0x04, 0x22, 0xfa, 0x06, 0xd5, 0x0e, 0xf0,
  0x02, 0x22, 0x14, 0xf6, 0x18, 0x2a, 0xf4, 0x0c, 0xed, 0x07, 0x08, 0x16,
  0xda, 0xf3, 0x0f, 0xf3, 0x0d, 0xfe, 0x1e, 0x09, 0x13, 0x0d, 0x23, 0xfc,
  0x28, 0xf3, 0xfd, 0x02, 0x2b, 0x07, 0x21, 0x1e, 0x01, 0x0c, 0xcf, 0x14,
  0xfc, 0x24, 0x26, 0x10, 0x00, 0x1a, 0xea, 0x28, 0xeb, 0x0b, 0x09, 0xde,
  0xc3, 0x0b, 0xf7, 0x0d, 0x05, 0xfb, 0x12, 0x04, 0xfd, 0xd7, 0x19, 0xda,
  0x05, 0x01, 0x03, 0x48, 0x08, 0xed, 0x3a, 0x18, 0xff, 0xda, 0x2d, 0x07,
  0x27, 0x1e, 0x0a, 0x10, 0xfc, 0x01, 0xf0, 0x0e, 0x08, 0x1f, 0x06, 0x35,
  0xff, 0x0a, 0xf9, 0x0a, 0xf8, 0xff, 0x1d, 0xf0, 0x0f, 0x08, 0x09, 0xd5,
  0x11, 0x26, 0xe0, 0x12, 0xf6, 0x1b, 0x13, 0x07, 0x08, 0xd3, 0x02, 0x24,
  0x20, 0xff, 0xfc, 0x0b, 0xd3, 0x0a, 0x16, 0x14, 0xd2, 0x3a, 0xfe, 0xeb,
  0x24, 0xff, 0x12, 0xf8, 0xfc, 0xd6, 0xf0, 0xfc, 0x0c, 0xeb, 0xef, 0xde,
  0x18, 0x20, 0xfe, 0x0c, 0xf0, 0x08, 0x1b, 0xf5, 0x1b, 0xd7, 0xc6, 0xfb,
  0xcf, 0xf2, 0x04, 0x05, 0xbf, 0xf2, 0xfc, 0xec, 0x07, 0x0f, 0xfb, 0xfc,
  0x03, 0x0a, 0x0c, 0x0a, 0x23, 0xf6, 0x02, 0xe9, 0x0b, 0x0e, 0xfb, 0x14,
  0xdb, 0x0b, 0xf6, 0xf8, 0x1e, 0x0c, 0x05, 0x0f, 0xd3, 0xc8, 0x0f, 0x14,
  0xfd, 0x0e, 0x08, 0xc4, 0xf0, 0x19, 0xc7, 0xd5, 0xf9, 0xed, 0x08, 0x0f,
  0x02, 0x0a, 0x21, 0x2a, 0x0c, 0x15, 0xf6, 0xf1, 0xf2, 0x13, 0x05, 0x27,
  0x21, 0x30, 0xc7, 0xed, 0xce, 0xe5, 0xfc, 0x0b, 0xf9, 0x08, 0xfe, 0xf5,
  0xe2, 0xe6, 0xbc, 0x3c, 0x19, 0xd1, 0x16, 0x02, 0x18, 0xc1, 0x10, 0x1c,
  0x0d, 0xe6, 0x0b, 0x12, 0xf9, 0x21, 0x0f, 0xfc, 0xfe, 0xf2, 0xfc, 0xf4,
  0xf0, 0x0f, 0x1b, 0xd4, 0x08, 0x00, 0x16, 0x95, 0xf4, 0x10, 0xee, 0xc9,
  0xfa, 0xdd, 0x04, 0x12, 0xfa, 0xae, 0x26, 0xff, 0x06, 0x0b, 0x04, 0xe5,
  0xbc, 0xdf, 0xd6, 0x49, 0x1f, 0xf7, 0x0d, 0xee, 0xfc, 0x14, 0x2e, 0xe4,
  0xfc, 0xe1, 0x0e, 0xf6, 0x07, 0xe1, 0xfb, 0x26, 0x01, 0x04, 0x02, 0x0c,
  0xff, 0x12, 0x3b, 0x00, 0x0c, 0x4a, 0x09, 0x0c, 0x06, 0x18, 0xfe, 0x1b,
  0xd6, 0x23, 0xf1, 0xdc, 0x05, 0x02, 0xe6, 0x1a, 0x2b, 0x0a, 0x34, 0xb5,
  0x0f, 0x24, 0x21, 0x08, 0xf4, 0x0f, 0xf5, 0xff, 0xfd, 0x81, 0x13, 0x19,
  0xdc, 0x16, 0x05, 0x06, 0x27, 0xf4, 0xf2, 0x1d, 0xd5, 0x20, 0xf6, 0x1b,
  0x06, 0x1c, 0x0a, 0x14, 0x14, 0xec, 0xe5, 0x0f, 0x18, 0xdf, 0x0e, 0xf9,
  0x34, 0xe5, 0x0b, 0xf0, 0xd5, 0x42, 0xd7, 0x16, 0xbb, 0xe6, 0xf8, 0x41,
  0xe6, 0x18, 0x3b, 0xd6, 0xe9, 0x95, 0xfd, 0xda, 0x08, 0x14, 0x16, 0xee,
  0x2d, 0x1f, 0xfe, 0x1d, 0x04, 0x12, 0xad, 0x10, 0xd9, 0x0e, 0x07, 0xeb,
  0x0d, 0xf0, 0x24, 0x00, 0xb4, 0xdf, 0x37, 0x08, 0x00, 0x16, 0x18, 0x01,
  0x30, 0xfb, 0xf8, 0xfb, 0x40, 0x3d, 0xe5, 0xf1, 0x29, 0xf9, 0x11, 0x06,
  0x28, 0x0e, 0x2a, 0x28, 0x30, 0xe4, 0x1d, 0x15, 0xfa, 0xd4, 0x14, 0x09,
  0xbb, 0x3e, 0xe8, 0x16, 0xfc, 0xea, 0x27, 0xf8, 0xf2, 0xfa, 0x0e, 0xdd,
  0x07, 0x1d, 0xb3, 0x09, 0x1a, 0xda, 0xfa, 0xf0, 0x29, 0x13, 0xe4, 0x0b,
  0x34, 0xfd, 0xf4, 0x07, 0xe2, 0xd9, 0xdb, 0xcf, 0xe6, 0x44, 0x1b, 0xee,
  0xce, 0xcd, 0x30, 0xf7, 0x0c, 0x2a, 0x18, 0x2d, 0x46, 0x12, 0x22, 0xb8,
  0x08, 0xdf, 0x0a, 0x34, 0x03, 0xf5, 0xfa, 0x3b, 0x45, 0xec, 0xe1, 0xed,
  0xbb, 0x54, 0x0a, 0xf4, 0xad, 0x07, 0x06, 0xe4, 0x0d, 0xee, 0x0c, 0x00,
  0x24, 0xe3, 0xec, 0x01, 0xf3, 0x13, 0x92, 0xb7, 0x4b, 0xd7, 0xa7, 0x04,
  0x24, 0x06, 0xf8, 0xd5, 0xe8, 0xf8, 0xf7, 0x07, 0xf3, 0x10, 0x0e, 0xea,
  0x3c, 0x07, 0xdd, 0xfa, 0x37, 0xff, 0xbb, 0xee, 0x08, 0x2d, 0xe9, 0x02,
  0x46, 0xef, 0xef, 0xc2, 0x01, 0xde, 0xd8, 0x26, 0x0a, 0xeb, 0xba, 0x37,
  0x38, 0xf7, 0xe9, 0xe5, 0x03, 0xf8, 0x0f, 0xf3, 0xf1, 0xb5, 0x05, 0x15,
  0xe2, 0xc3, 0x30, 0x0f, 0xf0, 0xef, 0xc0, 0xbb, 0xee, 0x03, 0x2e, 0xa7,
  0x1f, 0xfa, 0xd2, 0x01, 0xc1, 0xed, 0xb2, 0xf1, 0xfc, 0xdb, 0x07, 0xb8,
  0xf5, 0x15, 0x11, 0xa2, 0x1e, 0x21, 0xff, 0x0d, 0xd1, 0x0f, 0x2f, 0xcd,
  0xf2, 0xfd, 0x11, 0xf5, 0x1a, 0x02, 0x38, 0xb6, 0x50, 0x06, 0xef, 0x81,
  0x32, 0x01, 0xdf, 0x1d, 0x25, 0x0b, 0xfc, 0x26, 0xdc, 0x37, 0x3e, 0xe5,
  0x2d, 0x2e, 0x0b, 0x95, 0xcb, 0xd4, 0x29, 0x06, 0x10, 0x14, 0xe0, 0x46,
  0x02, 0x11, 0x08, 0x10, 0xc6, 0xf7, 0xec, 0xd2, 0xe5, 0xf1, 0xd1, 0x03,
  0xd2, 0xdc, 0x11, 0x05, 0x0f, 0x38, 0xce, 0x0b, 0x21, 0x06, 0x16, 0xf7,
  0x0f, 0x28, 0xf8, 0xec, 0x0a, 0x04, 0x5c, 0xfd, 0xf9, 0xc6, 0xce, 0x46,
  0x14, 0xf9, 0x21, 0x10, 0x3f, 0x11, 0xf9, 0x5a, 0x08, 0x0a, 0xdf, 0xea,
  0xf8, 0x0a, 0x37, 0x0e, 0x06, 0xe6, 0xd7, 0x0e, 0xf8, 0xf1, 0x01, 0xdd,
  0xd4, 0xd4, 0x10, 0x32, 0xef, 0x15, 0xef, 0x04, 0x03, 0x0a, 0x1f, 0x0a,
  0x08, 0x04, 0x38, 0x07, 0xe9, 0xfc, 0xe3, 0x12, 0xf4, 0xe0, 0xf2, 0xf7,
  0xa7, 0xfe, 0x2f, 0xe9, 0x10, 0x1c, 0xc3, 0xc8, 0x12, 0xc1, 0x3e, 0xda,
  0x12, 0xd2, 0xdc, 0x01, 0x13, 0xa5, 0x09, 0x1d, 0x27, 0xdc, 0xfd, 0x35,
  0xe3, 0x0e, 0x0b, 0x18, 0xf6, 0xe5, 0xff, 0x22, 0x0e, 0xcb, 0x96, 0xf8,
  0xe4, 0xfe, 0xea, 0x46, 0xdf, 0xf9, 0xec, 0x2f, 0xf8, 0xeb, 0xdd, 0xd4,
  0xf4, 0x40, 0x0e, 0xd2, 0xbe, 0x3d, 0x18, 0xff, 0x19, 0x00, 0xec, 0x09,
  0xd7, 0xeb, 0x05, 0xef, 0x2a, 0x11, 0x27, 0xcf, 0x04, 0x0f, 0xfa, 0xd8,
  0x0f, 0x13, 0x0e, 0x06, 0x19, 0x11, 0xfb, 0xe9, 0x0c, 0x00, 0xa8, 0xf6,
  0xfc, 0xeb, 0xba, 0x7f, 0x07, 0xfa, 0xf0, 0x42, 0xa8, 0xe6, 0x16, 0x0b,
  0x09, 0x10, 0xe6, 0xe3, 0x1f, 0x0c, 0xd7, 0x1c, 0x16, 0xb2, 0xf4, 0x52,
  0x14, 0x15, 0xd1, 0xd4, 0xb6, 0x29, 0xf3, 0xf9, 0xe2, 0x15, 0xc4, 0xf8,
  0xe3, 0x16, 0x1c, 0x1c, 0x0e, 0xf8, 0x14, 0xdd, 0x35, 0xc4, 0xf9, 0xdc,
  0x0a, 0xe8, 0xf4, 0xef, 0x2e, 0x17, 0x38, 0x16, 0x14, 0xe2, 0x34, 0xf3,
  0x13, 0xcc, 0xf2, 0xfa, 0x23, 0x01, 0xad, 0x78, 0x0c, 0xe3, 0xc7, 0x31,
  0x15, 0x5a, 0x01, 0xe6, 0x70, 0x3b, 0x29, 0x88, 0xfa, 0x10, 0x0c, 0x0b,
  0x13, 0x29, 0x01, 0x02, 0xe8, 0xed, 0x0a, 0xe6, 0xea, 0x0e, 0x13, 0xd8,
  0xd1, 0x01, 0xee, 0x9d, 0xfb, 0x0f, 0x41, 0x1c, 0xe0, 0xd0, 0x3f, 0xf3,
  0x1a, 0xcb, 0x1c, 0x0b, 0xf7, 0x02, 0xd7, 0xf7, 0x06, 0x05, 0x15, 0x1e,
  0xe8, 0xda, 0x1e, 0x01, 0x01, 0xf8, 0xd7, 0xb4, 0xdf, 0xe7, 0x11, 0x8c,
  0xad, 0xeb, 0xf2, 0xd5, 0xd4, 0xd5, 0xf3, 0xf2, 0xe4, 0x20, 0xfc, 0xdb,
  0xfc, 0x04, 0xf1, 0xeb, 0x12, 0x14, 0xdf, 0xeb, 0xf1, 0x06, 0xe4, 0xb1,
  0xfe, 0xeb, 0xe4, 0xe9, 0xfa, 0x0c, 0x11, 0xfc, 0xe0, 0x28, 0xf0, 0xee,
  0x0a, 0xd4, 0xb5, 0x17, 0xf3, 0xdd, 0xe9, 0x1c, 0x08, 0xca, 0xd4, 0xf7,
  0x01, 0x28, 0x11, 0x0b, 0x08, 0xdf, 0x81, 0x18, 0x08, 0xc1, 0xeb, 0x0c,
  0xee, 0xfe, 0x1b, 0xdc, 0xc2, 0x26, 0xf9, 0xee, 0x21, 0x0f, 0x0e, 0x18,
  0xdb, 0xec, 0x13, 0x07, 0x2f, 0xfa, 0x23, 0xe6, 0x06, 0x05, 0x07, 0x06,
  0xf4, 0x2d, 0xc9, 0x04, 0x1c, 0xc9, 0xea, 0xfd, 0xea, 0x03, 0x09, 0x09,
  0x12, 0x16, 0x18, 0xc8, 0x2a, 0xb9, 0xb6, 0x10, 0xb8, 0xeb, 0xeb, 0xf4,
  0x00, 0xf8, 0x0e, 0xc8, 0xff, 0xe4, 0xc9, 0xff, 0x00, 0xc8, 0x09, 0xf9,
  0x18, 0xc4, 0x0d, 0xfa, 0xc3, 0xee, 0xfc, 0x20, 0xff, 0x25, 0xdb, 0xe5,
  0xfb, 0xbf, 0xf2, 0xfc, 0xb6, 0x37, 0x00, 0xd0, 0x41, 0x1e, 0x23, 0x01,
  0x3f, 0x13, 0x13, 0x1d, 0xf0, 0x08, 0xeb, 0x2c, 0x1c, 0xb8, 0x29, 0xed,
  0xf4, 0x29, 0x17, 0xa5, 0x0e, 0x0a, 0xf7, 0xf2, 0x0c, 0x15, 0x9c, 0xf5,
  0x19, 0xf8, 0xfa, 0xd7, 0x1f, 0x13, 0x11, 0xfa, 0x1c, 0xdf, 0xfd, 0x26,
  0x2a, 0xea, 0xb6, 0x04, 0x27, 0xfb, 0x12, 0x26, 0xfd, 0xfc, 0xfb, 0xe2,
  0x19, 0x0d, 0xf5, 0x08, 0x02, 0xee, 0xe8, 0x17, 0x28, 0xd4, 0xef, 0xf1,
  0xf4, 0x10, 0x07, 0x02, 0x11, 0xfb, 0xdb, 0xf6, 0xfb, 0x25, 0x0b, 0x07,
  0x01, 0xf9, 0x12, 0xed, 0x0f, 0x00, 0xdb, 0xf2, 0x25, 0xf6, 0x2e, 0x11,
  0x0d, 0x0a, 0x08, 0x03, 0x10, 0x18, 0x13, 0xdf, 0xe7, 0x28, 0xe6, 0xd6,
  0x32, 0x1a, 0x11, 0xef, 0xdb, 0x06, 0x0d, 0xe6, 0xbf, 0x09, 0x15, 0x1e,
  0xf4, 0xf9, 0xc5, 0x32, 0x06, 0x02, 0xfe, 0xf0, 0x0f, 0x15, 0x03, 0x03,
  0x2a, 0xf7, 0x21, 0xac, 0xf1, 0x07, 0xfc, 0x13, 0x02, 0xec, 0xff, 0x17,
  0x0e, 0x17, 0x00, 0xe3, 0x08, 0xf4, 0xf8, 0xfc, 0xe9, 0x28, 0xc7, 0xed,
  0x03, 0xde, 0x20, 0x0c, 0xf4, 0x08, 0x2d, 0xee, 0x21, 0x0a, 0x0a, 0xe3,
  0xfa, 0x0c, 0xe8, 0x0b, 0xea, 0x2b, 0x03, 0xfb, 0x08, 0xf6, 0x01, 0xf4,
  0xf4, 0x05, 0xe2, 0xe8, 0x07, 0xea, 0xe4, 0xf6, 0x0f, 0x0c, 0x12, 0xcb,
  0xfc, 0xe7, 0xf1, 0x07, 0xf6, 0x28, 0x05, 0x1d, 0xe8, 0xf1, 0x18, 0x04,
  0xf0, 0x13, 0x18, 0xf1, 0xe6, 0xf2, 0x0c, 0x28, 0xf2, 0xfb, 0x0f, 0xea,
  0x07, 0x0c, 0xe9, 0x0e, 0x12, 0xed, 0x16, 0x01, 0x20, 0xd9, 0x03, 0x0a,
  0xf0, 0x1a, 0x04, 0xff, 0x13, 0xf8, 0xff, 0x0a, 0xc1, 0xe9, 0xfc, 0xea,
  0x08, 0xc5, 0xf0, 0x01, 0xeb, 0x12, 0x16, 0xe1, 0x10, 0x05, 0x0c, 0xd0,
  0x1a, 0x02, 0x20, 0xe1, 0x0d, 0x23, 0x06, 0x1d, 0xe6, 0x20, 0x17, 0x0f,
  0x09, 0xde, 0x17, 0x1d, 0xcf, 0x0b, 0xe5, 0x0a, 0xe7, 0x40, 0x19, 0x1f,
  0x1a, 0xf1, 0xe6, 0xef, 0xf0, 0xef, 0x19, 0x09, 0x03, 0xe0, 0x11, 0xfd,
  0x03, 0x81, 0xd4, 0xfa, 0xcc, 0x02, 0xec, 0x03, 0xfa, 0x14, 0x07, 0x08,
  0xcc, 0x15, 0x06, 0xfc, 0x05, 0xe6, 0x08, 0x13, 0xff, 0x01, 0x0a, 0xe9,
  0x03, 0x12, 0x24, 0xc5, 0x0e, 0x12, 0x31, 0x23, 0xdc, 0x07, 0xdc, 0x40,
  0x13, 0x1b, 0x11, 0x16, 0xe6, 0xe7, 0x07, 0x26, 0xc5, 0x06, 0xf5, 0xf0,
  0x47, 0x36, 0x07, 0xd6, 0x3b, 0x3f, 0x0d, 0x43, 0xfa, 0x32, 0x3f, 0x0f,
  0x1d, 0x22, 0xe2, 0xd3, 0x18, 0xe4, 0x24, 0xeb, 0x1a, 0xc9, 0x28, 0x05,
  0xf0, 0xf7, 0x49, 0xef, 0x13, 0xf3, 0xfd, 0xce, 0x10, 0x12, 0x33, 0x07,
  0x13, 0xe9, 0xce, 0xb3, 0x02, 0xec, 0x2a, 0xf5, 0x21, 0x12, 0x16, 0xfd,
  0x06, 0x05, 0xf2, 0x21, 0x22, 0x4c, 0xf1, 0xff, 0x06, 0xf0, 0x28, 0x0a,
  0xf3, 0x3d, 0xf5, 0x25, 0x00, 0x09, 0xd6, 0xdc, 0x19, 0x0b, 0x21, 0x23,
  0x25, 0x2f, 0xe9, 0x00, 0xee, 0x03, 0x04, 0x92, 0x12, 0x00, 0x2e, 0xee,
  0x28, 0x2d, 0xae, 0xf5, 0x0c, 0x11, 0x0c, 0x0a, 0xfb, 0x09, 0xd6, 0xf8,
  0x19, 0xe4, 0x26, 0xcc, 0x11, 0xd4, 0x01, 0x26, 0x1c, 0xfb, 0xb9, 0x07,
  0xf4, 0xef, 0x07, 0x00, 0xd5, 0x40, 0xba, 0xec, 0x17, 0xf6, 0xf5, 0x02,
  0xde, 0x24, 0xc6, 0xd3, 0xf0, 0xec, 0x1a, 0x19, 0xee, 0x13, 0xfb, 0x00,
  0xa0, 0x40, 0xfe, 0x17, 0x19, 0x19, 0x1b, 0xbc, 0xd1, 0xed, 0xf9, 0x10,
  0x1d, 0x29, 0x43, 0x0d, 0x0d, 0xf3, 0x15, 0x03, 0x25, 0xe3, 0x18, 0x15,
  0xfa, 0x9e, 0xf9, 0xc5, 0xee, 0x0c, 0xf3, 0xdf, 0x0f, 0xd3, 0xc6, 0xea,
  0x18, 0x00, 0xe2, 0xe7, 0x17, 0xd3, 0xfd, 0xff, 0x4c, 0x3b, 0xdd, 0x0e,
  0x7f, 0x4a, 0x2d, 0xd2, 0xd6, 0xda, 0x00, 0x3f, 0xcd, 0x0f, 0x14, 0xf3,
  0xf6, 0x07, 0x1f, 0x2e, 0x03, 0x4b, 0xed, 0x0a, 0x22, 0xfd, 0x11, 0x1b,
  0xf8, 0xe3, 0xf5, 0xd9, 0x07, 0xf2, 0x27, 0x0d, 0xf1, 0x25, 0x20, 0x17,
  0xf7, 0x02, 0x2f, 0x2d, 0xfa, 0x15, 0x21, 0x18, 0x03, 0x24, 0x6c, 0x08,
  0xfa, 0x97, 0x0e, 0xcd, 0x11, 0x1c, 0x0b, 0x01, 0x92, 0xf4, 0xff, 0xff,
  0x00, 0x00, 0x00, 0x09, 0x10, 0x00, 0x00, 0x00, 0x08, 0x00, 0x00, 0x00,
  0x1c, 0x00, 0x00, 0x00, 0x40, 0x00, 0x00, 0x00, 0x04, 0x00, 0x00, 0x00,
  0x18, 0x00, 0x00, 0x00, 0x04, 0x00, 0x00, 0x00, 0x02, 0x00, 0x00, 0x00,
  0x20, 0x00, 0x00, 0x00, 0x23, 0x00, 0x00, 0x00, 0x73, 0x65, 0x71, 0x75,
  0x65, 0x6e, 0x74, 0x69, 0x61, 0x6c, 0x5f, 0x36, 0x2f, 0x71, 0x75, 0x61,
  0x6e, 0x74, 0x5f, 0x63, 0x6f, 0x6e, 0x76, 0x32, 0x64, 0x5f, 0x32, 0x35,
  0x2f, 0x43, 0x6f, 0x6e, 0x76, 0x32, 0x44, 0x00, 0x98, 0xf5, 0xff, 0xff,
  0x08, 0x00, 0x00, 0x00, 0x68, 0x00, 0x00, 0x00, 0x18, 0x00, 0x00, 0x00,
  0x98, 0xd2, 0x51, 0x3c, 0xea, 0x04, 0x38, 0x3c, 0xeb, 0x8d, 0x75, 0x3c,
  0x94, 0x86, 0x1a, 0x3c, 0x76, 0x4a, 0x86, 0x3c, 0xc1, 0xdb, 0xe0, 0x3c,
  0xaf, 0xe7, 0x5b, 0x3c, 0x79, 0xbb, 0x38, 0x3c, 0xee, 0xa7, 0x6d, 0x3c,
  0xde, 0x59, 0x25, 0x3c, 0x47, 0xa6, 0x6a, 0x3c, 0xd2, 0x79, 0x66, 0x3c,
  0x9a, 0xed, 0x7f, 0x3c, 0x42, 0x22, 0x72, 0x3c, 0x11, 0x10, 0x70, 0x3c,
  0xb1, 0x89, 0x6d, 0x3c, 0x4f, 0x97, 0x0a, 0x3c, 0xc3, 0x3f, 0x85, 0x3c,
  0xf3, 0xb3, 0x8e, 0x3c, 0xa8, 0x19, 0x26, 0x3c, 0xe8, 0x58, 0x47, 0x3c,
  0xef, 0x80, 0x6d, 0x3c, 0x09, 0xc6, 0x8f, 0x3c, 0x67, 0xb0, 0x29, 0x3c,
  0x18, 0x00, 0x00, 0x00, 0x00, 0x00, 0x00, 0x00, 0x00, 0x00, 0x00, 0x00,
  0x00, 0x00, 0x00, 0x00, 0x00, 0x00, 0x00, 0x00, 0x00, 0x00, 0x00, 0x00,
  0x00, 0x00, 0x00, 0x00, 0x00, 0x00, 0x00, 0x00, 0x00, 0x00, 0x00, 0x00,
  0x00, 0x00, 0x00, 0x00, 0x00, 0x00, 0x00, 0x00, 0x00, 0x00, 0x00, 0x00,
  0x00, 0x00, 0x00, 0x00, 0x00, 0x00, 0x00, 0x00, 0x00, 0x00, 0x00, 0x00,
  0x00, 0x00, 0x00, 0x00, 0x00, 0x00, 0x00, 0x00, 0x00, 0x00, 0x00, 0x00,
  0x00, 0x00, 0x00, 0x00, 0x00, 0x00, 0x00, 0x00, 0x00, 0x00, 0x00, 0x00,
  0x00, 0x00, 0x00, 0x00, 0x00, 0x00, 0x00, 0x00, 0x00, 0x00, 0x00, 0x00,
  0x00, 0x00, 0x00, 0x00, 0x00, 0x00, 0x00, 0x00, 0x00, 0x00, 0x00, 0x00,
  0x00, 0x00, 0x00, 0x00, 0x00, 0x00, 0x00, 0x00, 0x00, 0x00, 0x00, 0x00,
  0x00, 0x00, 0x00, 0x00, 0x00, 0x00, 0x00, 0x00, 0x00, 0x00, 0x00, 0x00,
  0x00, 0x00, 0x00, 0x00, 0x00, 0x00, 0x00, 0x00, 0x00, 0x00, 0x00, 0x00,
  0x00, 0x00, 0x00, 0x00, 0x00, 0x00, 0x00, 0x00, 0x00, 0x00, 0x00, 0x00,
  0x00, 0x00, 0x00, 0x00, 0x00, 0x00, 0x00, 0x00, 0x00, 0x00, 0x00, 0x00,
  0x00, 0x00, 0x00, 0x00, 0x00, 0x00, 0x00, 0x00, 0x00, 0x00, 0x00, 0x00,
  0x00, 0x00, 0x00, 0x00, 0x00, 0x00, 0x00, 0x00, 0x00, 0x00, 0x00, 0x00,
  0x00, 0x00, 0x00, 0x00, 0x00, 0x00, 0x00, 0x00, 0x00, 0x00, 0x0e, 0x00,
  0x18, 0x00, 0x08, 0x00, 0x0c, 0x00, 0x10, 0x00, 0x07, 0x00, 0x14, 0x00,
  0x0e, 0x00, 0x00, 0x00, 0x00, 0x00, 0x00, 0x01, 0x01, 0x00, 0x00, 0x00,
  0x30, 0x00, 0x00, 0x00, 0x24, 0x00, 0x00, 0x00, 0x10, 0x00, 0x00, 0x00,
  0x0c, 0x00, 0x10, 0x00, 0x0e, 0x00, 0x04, 0x00, 0x08, 0x00, 0x0f, 0x00,
  0x0c, 0x00, 0x00, 0x00, 0x01, 0x00, 0x00, 0x00, 0x01, 0x00, 0x00, 0x00,
  0x00, 0x00, 0x01, 0x01, 0x01, 0x00, 0x00, 0x00, 0x06, 0x00, 0x00, 0x00,
  0x03, 0x00, 0x00, 0x00, 0x03, 0x00, 0x00, 0x00, 0x04, 0x00, 0x00, 0x00,
  0x05, 0x00, 0x00, 0x00, 0xb4, 0xf8, 0xff, 0xff, 0x03, 0x00, 0x00, 0x00,
  0x00, 0x00, 0x00, 0x03, 0x03, 0x00, 0x00, 0x00, 0xa8, 0xf8, 0xff, 0xff,
  0x00, 0x00, 0x00, 0x09, 0x14, 0x00, 0x00, 0x00, 0x07, 0x00, 0x00, 0x00,
  0x34, 0x00, 0x00, 0x00, 0xdc, 0x00, 0x00, 0x00, 0x18, 0x00, 0x00, 0x00,
  0x04, 0x00, 0x00, 0x00, 0x01, 0x00, 0x00, 0x00, 0x3b, 0x00, 0x00, 0x00,
  0x02, 0x00, 0x00, 0x00, 0x20, 0x00, 0x00, 0x00, 0x04, 0x00, 0x00, 0x00,
  0xff, 0xff, 0xff, 0xff, 0x3b, 0x00, 0x00, 0x00, 0x02, 0x00, 0x00, 0x00,
  0x20, 0x00, 0x00, 0x00, 0xa6, 0x00, 0x00, 0x00, 0x73, 0x65, 0x71, 0x75,
  0x65, 0x6e, 0x74, 0x69, 0x61, 0x6c, 0x5f, 0x36, 0x2f, 0x71, 0x75, 0x61,
  0x6e, 0x74, 0x5f, 0x72, 0x65, 0x5f, 0x6c, 0x75, 0x5f, 0x32, 0x34, 0x2f,
  0x52, 0x65, 0x6c, 0x75, 0x3b, 0x73, 0x65, 0x71, 0x75, 0x65, 0x6e, 0x74,
  0x69, 0x61, 0x6c, 0x5f, 0x36, 0x2f, 0x71, 0x75, 0x61, 0x6e, 0x74, 0x5f,
  0x63, 0x6f, 0x6e, 0x76, 0x32, 0x64, 0x5f, 0x32, 0x34, 0x2f, 0x42, 0x69,
  0x61, 0x73, 0x41, 0x64, 0x64, 0x3b, 0x73, 0x65, 0x71, 0x75, 0x65, 0x6e,
  0x74, 0x69, 0x61, 0x6c, 0x5f, 0x36, 0x2f, 0x71, 0x75, 0x61, 0x6e, 0x74,
  0x5f, 0x63, 0x6f, 0x6e, 0x76, 0x32, 0x64, 0x5f, 0x32, 0x34, 0x2f, 0x43,
  0x6f, 0x6e, 0x76, 0x32, 0x44, 0x3b, 0x73, 0x65, 0x71, 0x75, 0x65, 0x6e,
  0x74, 0x69, 0x61, 0x6c, 0x5f, 0x36, 0x2f, 0x71, 0x75, 0x61, 0x6e, 0x74,
  0x5f, 0x63, 0x6f, 0x6e, 0x76, 0x32, 0x64, 0x5f, 0x32, 0x34, 0x2f, 0x42,
  0x69, 0x61, 0x73, 0x41, 0x64, 0x64, 0x2f, 0x52, 0x65, 0x61, 0x64, 0x56,
  0x61, 0x72, 0x69, 0x61, 0x62, 0x6c, 0x65, 0x4f, 0x70, 0x2f, 0x72, 0x65,
  0x73, 0x6f, 0x75, 0x72, 0x63, 0x65, 0x00, 0x00, 0x2c, 0xf8, 0xff, 0xff,
  0x08, 0x00, 0x00, 0x00, 0x0c, 0x00, 0x00, 0x00, 0x01, 0x00, 0x00, 0x00,
  0x92, 0x38, 0x8b, 0x3b, 0x01, 0x00, 0x00, 0x00, 0x80, 0xff, 0xff, 0xff,
  0xff, 0xff, 0xff, 0xff, 0x00, 0x00, 0x00, 0x00, 0xba, 0xf7, 0xff, 0xff,
  0x04, 0x00, 0x00, 0x00, 0x80, 0x00, 0x00, 0x00, 0xf1, 0xf7, 0xff, 0xff,
  0x7a, 0xfb, 0xff, 0xff, 0x6f, 0xf3, 0xff, 0xff, 0x52, 0xdc, 0xff, 0xff,
  0x08, 0xed, 0xff, 0xff, 0x3b, 0xda, 0xff, 0xff, 0x23, 0xd2, 0xff, 0xff,
  0xbc, 0xdc, 0xff, 0xff, 0xe3, 0xc9, 0xff, 0xff, 0x40, 0xcb, 0xff, 0xff,
  0x47, 0xf9, 0xff, 0xff, 0x86, 0xd4, 0xff, 0xff, 0x2e, 0xf2, 0xff, 0xff,
  0x01, 0x04, 0x00, 0x00, 0x81, 0xe9, 0xff, 0xff, 0xa4, 0xe2, 0xff, 0xff,
  0x21, 0xfb, 0xff, 0xff, 0xf5, 0xf3, 0xff, 0xff, 0x20, 0xfe, 0xff, 0xff,
  0xd1, 0xf8, 0xff, 0xff, 0x27, 0xff, 0xff, 0xff, 0x8c, 0xdd, 0xff, 0xff,
  0xe4, 0xe4, 0xff, 0xff, 0x6c, 0xd4, 0xff, 0xff, 0xf3, 0xf1, 0xff, 0xff,
  0xb4, 0xd9, 0xff, 0xff, 0x3c, 0xfb, 0xff, 0xff, 0x3d, 0xed, 0xff, 0xff,
  0x92, 0xed, 0xff, 0xff, 0xdb, 0x04, 0x00, 0x00, 0xd3, 0xd8, 0xff, 0xff,
  0xd7, 0xd2, 0xff, 0xff, 0x2a, 0xf8, 0xff, 0xff, 0x00, 0x00, 0x00, 0x02,
  0x10, 0x00, 0x00, 0x00, 0x06, 0x00, 0x00, 0x00, 0x10, 0x00, 0x00, 0x00,
  0x50, 0x00, 0x00, 0x00, 0x01, 0x00, 0x00, 0x00, 0x20, 0x00, 0x00, 0x00,
  0x3c, 0x00, 0x00, 0x00, 0x73, 0x65, 0x71, 0x75, 0x65, 0x6e, 0x74, 0x69,
  0x61, 0x6c, 0x5f, 0x36, 0x2f, 0x71, 0x75, 0x61, 0x6e, 0x74, 0x5f, 0x63,
  0x6f, 0x6e, 0x76, 0x32, 0x64, 0x5f, 0x32, 0x34, 0x2f, 0x42, 0x69, 0x61,
  0x73, 0x41, 0x64, 0x64, 0x2f, 0x52, 0x65, 0x61, 0x64, 0x56, 0x61, 0x72,
  0x69, 0x61, 0x62, 0x6c, 0x65, 0x4f, 0x70, 0x2f, 0x72, 0x65, 0x73, 0x6f,
  0x75, 0x72, 0x63, 0x65, 0x00, 0x00, 0x00, 0x00, 0x40, 0xf9, 0xff, 0xff,
  0x08, 0x00, 0x00, 0x00, 0x88, 0x00, 0x00, 0x00, 0x20, 0x00, 0x00, 0x00,
  0x2a, 0xe0, 0x55, 0x37, 0x59, 0xf8, 0x40, 0x37, 0x2c, 0x46, 0x83, 0x37,
  0x14, 0x4f, 0x96, 0x37, 0x6e, 0xb4, 0x3f, 0x37, 0xdf, 0x48, 0xb1, 0x37,
  0xe1, 0xc1, 0x81, 0x37, 0x10, 0xdd, 0x4a, 0x37, 0x74, 0x95, 0x83, 0x37,
  0x1e, 0xbb, 0x99, 0x37, 0x25, 0x5f, 0x94, 0x37, 0x63, 0xeb, 0x6d, 0x37,
  0x81, 0xd2, 0x89, 0x37, 0x19, 0xa0, 0x71, 0x37, 0x6d, 0x64, 0x9a, 0x37,
  0x2a, 0x14, 0x76, 0x37, 0x04, 0x82, 0x86, 0x37, 0x90, 0x4d, 0x79, 0x37,
  0x4d, 0x62, 0x7f, 0x37, 0x4a, 0x59, 0x95, 0x37, 0xc4, 0x0e, 0x80, 0x37,
  0x2b, 0x65, 0x83, 0x37, 0x5e, 0x7e, 0xb5, 0x37, 0x8a, 0x2c, 0x7f, 0x37,
  0x6d, 0xa1, 0x9a, 0x37, 0x97, 0xa0, 0x7e, 0x37, 0x6d, 0x68, 0x81, 0x37,
  0x78, 0x18, 0xa0, 0x37, 0xba, 0xe0, 0x72, 0x37, 0x5f, 0xac, 0x91, 0x37,
  0xf1, 0xe7, 0x89, 0x37, 0xec, 0x63, 0xa4, 0x37, 0x20, 0x00, 0x00, 0x00,
  0x00, 0x00, 0x00, 0x00, 0x00, 0x00, 0x00, 0x00, 0x00, 0x00, 0x00, 0x00,
  0x00, 0x00, 0x00, 0x00, 0x00, 0x00, 0x00, 0x00, 0x00, 0x00, 0x00, 0x00,
  0x00, 0x00, 0x00, 0x00, 0x00, 0x00, 0x00, 0x00, 0x00, 0x00, 0x00, 0x00,
  0x00, 0x00, 0x00, 0x00, 0x00, 0x00, 0x00, 0x00, 0x00, 0x00, 0x00, 0x00,
  0x00, 0x00, 0x00, 0x00, 0x00, 0x00, 0x00, 0x00, 0x00, 0x00, 0x00, 0x00,
  0x00, 0x00, 0x00, 0x00, 0x00, 0x00, 0x00, 0x00, 0x00, 0x00, 0x00, 0x00,
  0x00, 0x00, 0x00, 0x00, 0x00, 0x00, 0x00, 0x00, 0x00, 0x00, 0x00, 0x00,
  0x00, 0x00, 0x00, 0x00, 0x00, 0x00, 0x00, 0x00, 0x00, 0x00, 0x00, 0x00,
  0x00, 0x00, 0x00, 0x00, 0x00, 0x00, 0x00, 0x00, 0x00, 0x00, 0x00, 0x00,
  0x00, 0x00, 0x00, 0x00, 0x00, 0x00, 0x00, 0x00, 0x00, 0x00, 0x00, 0x00,
  0x00, 0x00, 0x00, 0x00, 0x00, 0x00, 0x00, 0x00, 0x00, 0x00, 0x00, 0x00,
  0x00, 0x00, 0x00, 0x00, 0x00, 0x00, 0x00, 0x00, 0x00, 0x00, 0x00, 0x00,
  0x00, 0x00, 0x00, 0x00, 0x00, 0x00, 0x00, 0x00, 0x00, 0x00, 0x00, 0x00,
  0x00, 0x00, 0x00, 0x00, 0x00, 0x00, 0x00, 0x00, 0x00, 0x00, 0x00, 0x00,
  0x00, 0x00, 0x00, 0x00, 0x00, 0x00, 0x00, 0x00, 0x00, 0x00, 0x00, 0x00,
  0x00, 0x00, 0x00, 0x00, 0x00, 0x00, 0x00, 0x00, 0x00, 0x00, 0x00, 0x00,
  0x00, 0x00, 0x00, 0x00, 0x00, 0x00, 0x00, 0x00, 0x00, 0x00, 0x00, 0x00,
  0x00, 0x00, 0x00, 0x00, 0x00, 0x00, 0x00, 0x00, 0x00, 0x00, 0x00, 0x00,
  0x00, 0x00, 0x00, 0x00, 0x00, 0x00, 0x00, 0x00, 0x00, 0x00, 0x00, 0x00,
  0x00, 0x00, 0x00, 0x00, 0x00, 0x00, 0x00, 0x00, 0x00, 0x00, 0x00, 0x00,
  0x00, 0x00, 0x00, 0x00, 0x00, 0x00, 0x00, 0x00, 0x00, 0x00, 0x00, 0x00,
  0x00, 0x00, 0x00, 0x00, 0x00, 0x00, 0x00, 0x00, 0x42, 0xfa, 0xff, 0xff,
  0x04, 0x00, 0x00, 0x00, 0x80, 0x01, 0x00, 0x00, 0x5d, 0x7f, 0x2f, 0xb5,
  0xea, 0x19, 0xfa, 0xde, 0xaf, 0x1f, 0x7f, 0x1b, 0x99, 0x1e, 0xba, 0x20,
  0x3f, 0xe4, 0xbf, 0x0a, 0xad, 0x4a, 0x99, 0x7f, 0x1e, 0xd3, 0x19, 0x29,
  0xc7, 0xa2, 0xfb, 0xe3, 0x72, 0x81, 0xf9, 0x1a, 0x3b, 0x08, 0x1f, 0xfe,
  0xd4, 0x05, 0x33, 0xec, 0x17, 0xa4, 0xac, 0x81, 0xd9, 0x81, 0xb1, 0x6c,
  0xe2, 0x86, 0x3d, 0xb9, 0x6b, 0x5a, 0xbe, 0x4c, 0x7f, 0x12, 0x6e, 0x0b,
  0x22, 0x3f, 0xf6, 0xf6, 0xce, 0xfb, 0xa9, 0xda, 0x23, 0x7f, 0x29, 0xd0,
  0x4e, 0x30, 0xdc, 0x51, 0xfa, 0x84, 0xea, 0x5d, 0xba, 0x14, 0xfa, 0x5e,
  0x4d, 0x02, 0x7e, 0xc1, 0xc2, 0xaa, 0xfe, 0x7f, 0x7f, 0x09, 0xfa, 0x1a,
  0xc5, 0x51, 0x43, 0xff, 0xdd, 0x51, 0x94, 0xe1, 0xb8, 0x38, 0x2e, 0xcc,
  0x05, 0xd8, 0x2f, 0x26, 0x81, 0x36, 0x42, 0xe9, 0x36, 0x44, 0xff, 0x0a,
  0xfe, 0xf8, 0x07, 0xdb, 0x33, 0x13, 0xce, 0x7f, 0x81, 0xb2, 0xda, 0x0d,
  0x4b, 0x2a, 0x00, 0xea, 0x94, 0x02, 0x10, 0x19, 0xcd, 0x81, 0x28, 0xd1,
  0xf2, 0x26, 0x04, 0x08, 0x10, 0x6e, 0xfa, 0x79, 0x4a, 0xf9, 0x20, 0x7f,
  0x03, 0x12, 0xe5, 0x00, 0x4e, 0xe6, 0x1c, 0x8c, 0x4b, 0xeb, 0x44, 0x09,
  0xf1, 0x07, 0x16, 0x41, 0xe9, 0x25, 0x49, 0x7f, 0x9b, 0x4e, 0x09, 0xb5,
  0xec, 0x81, 0xdc, 0x40, 0x55, 0xaa, 0x42, 0xaf, 0x0f, 0x7e, 0x10, 0x7f,
  0x37, 0x7c, 0x0a, 0x6f, 0x1a, 0x65, 0x18, 0x66, 0x14, 0xa2, 0xf6, 0xc2,
  0x26, 0x8f, 0x0d, 0xab, 0xe1, 0x7f, 0x21, 0xf9, 0xec, 0x81, 0xe6, 0xd1,
  0xc4, 0x15, 0xee, 0x56, 0xb9, 0x2e, 0xbc, 0xab, 0x22, 0xf6, 0x56, 0x17,
  0x68, 0xdd, 0x7f, 0x25, 0x59, 0xdc, 0x68, 0x0e, 0x86, 0x6f, 0x83, 0x4d,
  0xf5, 0xf6, 0x31, 0xcb, 0x7f, 0x93, 0x4b, 0x8a, 0x2e, 0xbd, 0x50, 0x08,
  0x31, 0xb9, 0x1f, 0x21, 0xd0, 0xbe, 0xa4, 0x7f, 0xf8, 0x58, 0x25, 0x41,
  0xde, 0x81, 0xf2, 0x50, 0x30, 0x13, 0x11, 0x26, 0xbb, 0xe0, 0x28, 0x34,
  0x13, 0x05, 0xbf, 0xe7, 0xbd, 0xd1, 0x7f, 0x67, 0xd3, 0x24, 0x9f, 0xda,
  0xb9, 0xa9, 0x17, 0x36, 0x33, 0x29, 0x77, 0x7f, 0x7f, 0xe3, 0x3d, 0x89,
  0x98, 0xf7, 0xfe, 0x18, 0x2c, 0xf4, 0x0c, 0xd0, 0x26, 0xeb, 0x20, 0xd9,
  0x24, 0x1b, 0x1b, 0x0f, 0x08, 0x7f, 0x65, 0x97, 0x81, 0x0d, 0x65, 0x0f,
  0xf0, 0x0e, 0x3d, 0xed, 0x3c, 0xd8, 0xdd, 0xde, 0x0e, 0x87, 0x25, 0x05,
  0x56, 0x42, 0xde, 0x7f, 0xf5, 0x12, 0xb2, 0xe2, 0x7f, 0xbe, 0x1b, 0x06,
  0xf6, 0x20, 0xcf, 0xcc, 0xf4, 0x31, 0xce, 0xf8, 0xa4, 0xdb, 0xac, 0x16,
  0xe5, 0xfb, 0xcb, 0x16, 0x1f, 0xf9, 0x7f, 0xc0, 0xec, 0xe2, 0xf1, 0x7f,
  0x2e, 0x2d, 0xc3, 0x9a, 0xee, 0xa6, 0xe0, 0xf1, 0xb2, 0xfb, 0xff, 0xff,
  0x00, 0x00, 0x00, 0x09, 0x10, 0x00, 0x00, 0x00, 0x05, 0x00, 0x00, 0x00,
  0x1c, 0x00, 0x00, 0x00, 0x40, 0x00, 0x00, 0x00, 0x04, 0x00, 0x00, 0x00,
  0x20, 0x00, 0x00, 0x00, 0x06, 0x00, 0x00, 0x00, 0x02, 0x00, 0x00, 0x00,
  0x01, 0x00, 0x00, 0x00, 0x23, 0x00, 0x00, 0x00, 0x73, 0x65, 0x71, 0x75,
  0x65, 0x6e, 0x74, 0x69, 0x61, 0x6c, 0x5f, 0x36, 0x2f, 0x71, 0x75, 0x61,
  0x6e, 0x74, 0x5f, 0x63, 0x6f, 0x6e, 0x76, 0x32, 0x64, 0x5f, 0x32, 0x34,
  0x2f, 0x43, 0x6f, 0x6e, 0x76, 0x32, 0x44, 0x00, 0xb8, 0xfc, 0xff, 0xff,
  0x08, 0x00, 0x00, 0x00, 0x88, 0x00, 0x00, 0x00, 0x20, 0x00, 0x00, 0x00,
  0x4a, 0x0a, 0xd5, 0x3b, 0x61, 0x37, 0xc0, 0x3b, 0xe6, 0xc2, 0x02, 0x3c,
  0xc5, 0xb8, 0x15, 0x3c, 0xb9, 0xf4, 0xbe, 0x3b, 0x96, 0x97, 0x30, 0x3c,
  0x1f, 0x40, 0x01, 0x3c, 0x33, 0x12, 0xca, 0x3b, 0xdf, 0x11, 0x03, 0x3c,
  0x63, 0x21, 0x19, 0x3c, 0xc6, 0xca, 0x13, 0x3c, 0x78, 0xfd, 0xec, 0x3b,
  0xae, 0x48, 0x09, 0x3c, 0x79, 0xae, 0xf0, 0x3b, 0x09, 0xca, 0x19, 0x3c,
  0x16, 0x1e, 0xf5, 0x3b, 0x82, 0xfb, 0x05, 0x3c, 0x43, 0x54, 0xf8, 0x3b,
  0xeb, 0x62, 0xfe, 0x3b, 0xf1, 0xc3, 0x14, 0x3c, 0x6a, 0x1d, 0xff, 0x3b,
  0xc6, 0xe1, 0x02, 0x3c, 0xe0, 0xc8, 0x34, 0x3c, 0x5e, 0x2d, 0xfe, 0x3b,
  0xcc, 0x06, 0x1a, 0x3c, 0xf6, 0xa1, 0xfd, 0x3b, 0x05, 0xe7, 0x00, 0x3c,
  0x60, 0x78, 0x1f, 0x3c, 0xda, 0xed, 0xf1, 0x3b, 0xb2, 0x1a, 0x11, 0x3c,
  0x09, 0x5e, 0x09, 0x3c, 0x88, 0xbf, 0x23, 0x3c, 0x20, 0x00, 0x00, 0x00,
  0x00, 0x00, 0x00, 0x00, 0x00, 0x00, 0x00, 0x00, 0x00, 0x00, 0x00, 0x00,
  0x00, 0x00, 0x00, 0x00, 0x00, 0x00, 0x00, 0x00, 0x00, 0x00, 0x00, 0x00,
  0x00, 0x00, 0x00, 0x00, 0x00, 0x00, 0x00, 0x00, 0x00, 0x00, 0x00, 0x00,
  0x00, 0x00, 0x00, 0x00, 0x00, 0x00, 0x00, 0x00, 0x00, 0x00, 0x00, 0x00,
  0x00, 0x00, 0x00, 0x00, 0x00, 0x00, 0x00, 0x00, 0x00, 0x00, 0x00, 0x00,
  0x00, 0x00, 0x00, 0x00, 0x00, 0x00, 0x00, 0x00, 0x00, 0x00, 0x00, 0x00,
  0x00, 0x00, 0x00, 0x00, 0x00, 0x00, 0x00, 0x00, 0x00, 0x00, 0x00, 0x00,
  0x00, 0x00, 0x00, 0x00, 0x00, 0x00, 0x00, 0x00, 0x00, 0x00, 0x00, 0x00,
  0x00, 0x00, 0x00, 0x00, 0x00, 0x00, 0x00, 0x00, 0x00, 0x00, 0x00, 0x00,
  0x00, 0x00, 0x00, 0x00, 0x00, 0x00, 0x00, 0x00, 0x00, 0x00, 0x00, 0x00,
  0x00, 0x00, 0x00, 0x00, 0x00, 0x00, 0x00, 0x00, 0x00, 0x00, 0x00, 0x00,
  0x00, 0x00, 0x00, 0x00, 0x00, 0x00, 0x00, 0x00, 0x00, 0x00, 0x00, 0x00,
  0x00, 0x00, 0x00, 0x00, 0x00, 0x00, 0x00, 0x00, 0x00, 0x00, 0x00, 0x00,
  0x00, 0x00, 0x00, 0x00, 0x00, 0x00, 0x00, 0x00, 0x00, 0x00, 0x00, 0x00,
  0x00, 0x00, 0x00, 0x00, 0x00, 0x00, 0x00, 0x00, 0x00, 0x00, 0x00, 0x00,
  0x00, 0x00, 0x00, 0x00, 0x00, 0x00, 0x00, 0x00, 0x00, 0x00, 0x00, 0x00,
  0x00, 0x00, 0x00, 0x00, 0x00, 0x00, 0x00, 0x00, 0x00, 0x00, 0x00, 0x00,
  0x00, 0x00, 0x00, 0x00, 0x00, 0x00, 0x00, 0x00, 0x00, 0x00, 0x00, 0x00,
  0x00, 0x00, 0x00, 0x00, 0x00, 0x00, 0x00, 0x00, 0x00, 0x00, 0x00, 0x00,
  0x00, 0x00, 0x00, 0x00, 0x00, 0x00, 0x00, 0x00, 0x00, 0x00, 0x00, 0x00,
  0x00, 0x00, 0x00, 0x00, 0x00, 0x00, 0x00, 0x00, 0x00, 0x00, 0x00, 0x00,
  0x00, 0x00, 0x00, 0x00, 0x00, 0x00, 0x00, 0x00, 0x00, 0x00, 0x0a, 0x00,
  0x0c, 0x00, 0x00, 0x00, 0x04, 0x00, 0x08, 0x00, 0x0a, 0x00, 0x00, 0x00,
  0x10, 0x00, 0x00, 0x00, 0x04, 0x00, 0x00, 0x00, 0x01, 0x00, 0x00, 0x00,
  0x03, 0x00, 0x00, 0x00, 0x01, 0x00, 0x00, 0x00, 0x00, 0x00, 0x00, 0x00,
  0x0c, 0x00, 0x10, 0x00, 0x0b, 0x00, 0x00, 0x00, 0x0c, 0x00, 0x04, 0x00,
  0x0c, 0x00, 0x00, 0x00, 0x72, 0x00, 0x00, 0x00, 0x00, 0x00, 0x00, 0x72,
  0x01, 0x00, 0x00, 0x00, 0x14, 0x00, 0x1c, 0x00, 0x08, 0x00, 0x07, 0x00,
  0x0c, 0x00, 0x10, 0x00, 0x14, 0x00, 0x00, 0x00, 0x00, 0x00, 0x18, 0x00,
  0x14, 0x00, 0x00, 0x00, 0x00, 0x00, 0x00, 0x09, 0x14, 0x00, 0x00, 0x00,
  0x04, 0x00, 0x00, 0x00, 0x34, 0x00, 0x00, 0x00, 0x50, 0x01, 0x00, 0x00,
  0x18, 0x00, 0x00, 0x00, 0x04, 0x00, 0x00, 0x00, 0x01, 0x00, 0x00, 0x00,
  0x40, 0x00, 0x00, 0x00, 0x03, 0x00, 0x00, 0x00, 0x01, 0x00, 0x00, 0x00,
  0x04, 0x00, 0x00, 0x00, 0xff, 0xff, 0xff, 0xff, 0x40, 0x00, 0x00, 0x00,
  0x03, 0x00, 0x00, 0x00, 0x01, 0x00, 0x00, 0x00, 0x0c, 0x01, 0x00, 0x00,
  0x73, 0x65, 0x71, 0x75, 0x65, 0x6e, 0x74, 0x69, 0x61, 0x6c, 0x5f, 0x36,
  0x2f, 0x71, 0x75, 0x61, 0x6e, 0x74, 0x69, 0x7a, 0x65, 0x5f, 0x6c, 0x61,
  0x79, 0x65, 0x72, 0x5f, 0x31, 0x31, 0x2f, 0x41, 0x6c, 0x6c, 0x56, 0x61,
  0x6c, 0x75, 0x65, 0x73, 0x51, 0x75, 0x61, 0x6e, 0x74, 0x69, 0x7a, 0x65,
  0x2f, 0x46, 0x61, 0x6b, 0x65, 0x51, 0x75, 0x61, 0x6e, 0x74, 0x57, 0x69,
  0x74, 0x68, 0x4d, 0x69, 0x6e, 0x4d, 0x61, 0x78, 0x56, 0x61, 0x72, 0x73,
  0x3b, 0x73, 0x65, 0x71, 0x75, 0x65, 0x6e, 0x74, 0x69, 0x61, 0x6c, 0x5f,
  0x36, 0x2f, 0x71, 0x75, 0x61, 0x6e, 0x74, 0x69, 0x7a, 0x65, 0x5f, 0x6c,
  0x61, 0x79, 0x65, 0x72, 0x5f, 0x31, 0x31, 0x2f, 0x41, 0x6c, 0x6c, 0x56,
  0x61, 0x6c, 0x75, 0x65, 0x73, 0x51, 0x75, 0x61, 0x6e, 0x74, 0x69, 0x7a,
  0x65, 0x2f, 0x46, 0x61, 0x6b, 0x65, 0x51, 0x75, 0x61, 0x6e, 0x74, 0x57,
  0x69, 0x74, 0x68, 0x4d, 0x69, 0x6e, 0x4d, 0x61, 0x78, 0x56, 0x61, 0x72,
  0x73, 0x2f, 0x52, 0x65, 0x61, 0x64, 0x56, 0x61, 0x72, 0x69, 0x61, 0x62,
  0x6c, 0x65, 0x4f, 0x70, 0x2f, 0x72, 0x65, 0x73, 0x6f, 0x75, 0x72, 0x63,
  0x65, 0x3b, 0x73, 0x65, 0x71, 0x75, 0x65, 0x6e, 0x74, 0x69, 0x61, 0x6c,
  0x5f, 0x36, 0x2f, 0x71, 0x75, 0x61, 0x6e, 0x74, 0x69, 0x7a, 0x65, 0x5f,
  0x6c, 0x61, 0x79, 0x65, 0x72, 0x5f, 0x31, 0x31, 0x2f, 0x41, 0x6c, 0x6c,
  0x56, 0x61, 0x6c, 0x75, 0x65, 0x73, 0x51, 0x75, 0x61, 0x6e, 0x74, 0x69,
  0x7a, 0x65, 0x2f, 0x46, 0x61, 0x6b, 0x65, 0x51, 0x75, 0x61, 0x6e, 0x74,
  0x57, 0x69, 0x74, 0x68, 0x4d, 0x69, 0x6e, 0x4d, 0x61, 0x78, 0x56, 0x61,
  0x72, 0x73, 0x2f, 0x52, 0x65, 0x61, 0x64, 0x56, 0x61, 0x72, 0x69, 0x61,
  0x62, 0x6c, 0x65, 0x4f, 0x70, 0x5f, 0x31, 0x2f, 0x72, 0x65, 0x73, 0x6f,
  0x75, 0x72, 0x63, 0x65, 0x00, 0x00, 0x00, 0x00, 0x0c, 0x00, 0x0c, 0x00,
  0x00, 0x00, 0x00, 0x00, 0x04, 0x00, 0x08, 0x00, 0x0c, 0x00, 0x00, 0x00,
  0x08, 0x00, 0x00, 0x00, 0x0c, 0x00, 0x00, 0x00, 0x01, 0x00, 0x00, 0x00,
  0x81, 0x80, 0x00, 0x3b, 0x01, 0x00, 0x00, 0x00, 0x00, 0x00, 0x00, 0x00,
  0x00, 0x00, 0x00, 0x00, 0x00, 0x00, 0x00, 0x00, 0x9a, 0xff, 0xff, 0xff,
  0x04, 0x00, 0x00, 0x00, 0x08, 0x00, 0x00, 0x00, 0xff, 0xff, 0xff, 0xff,
  0x0c, 0x00, 0x00, 0x00, 0x92, 0xff, 0xff, 0xff, 0x00, 0x00, 0x00, 0x02,
  0x10, 0x00, 0x00, 0x00, 0x03, 0x00, 0x00, 0x00, 0x10, 0x00, 0x00, 0x00,
  0x38, 0x00, 0x00, 0x00, 0x01, 0x00, 0x00, 0x00, 0x02, 0x00, 0x00, 0x00,
  0x22, 0x00, 0x00, 0x00, 0x73, 0x65, 0x71, 0x75, 0x65, 0x6e, 0x74, 0x69,
  0x61, 0x6c, 0x5f, 0x36, 0x2f, 0x71, 0x75, 0x61, 0x6e, 0x74, 0x5f, 0x66,
  0x6c, 0x61, 0x74, 0x74, 0x65, 0x6e, 0x5f, 0x36, 0x2f, 0x43, 0x6f, 0x6e,
  0x73, 0x74, 0x00, 0x00, 0x04, 0x00, 0x06, 0x00, 0x04, 0x00, 0x00, 0x00,
  0x00, 0x00, 0x06, 0x00, 0x08, 0x00, 0x04, 0x00, 0x06, 0x00, 0x00, 0x00,
  0x04, 0x00, 0x00, 0x00, 0x08, 0x00, 0x00, 0x00, 0x01, 0x00, 0x00, 0x00,
  0x02, 0x00, 0x00, 0x00, 0x00, 0x00, 0x0e, 0x00, 0x18, 0x00, 0x08, 0x00,
  0x07, 0x00, 0x0c, 0x00, 0x10, 0x00, 0x14, 0x00, 0x0e, 0x00, 0x00, 0x00,
  0x00, 0x00, 0x00, 0x02, 0x10, 0x00, 0x00, 0x00, 0x02, 0x00, 0x00, 0x00,
  0x10, 0x00, 0x00, 0x00, 0x50, 0x00, 0x00, 0x00, 0x01, 0x00, 0x00, 0x00,
  0x02, 0x00, 0x00, 0x00, 0x3f, 0x00, 0x00, 0x00, 0x73, 0x65, 0x71, 0x75,
  0x65, 0x6e, 0x74, 0x69, 0x61, 0x6c, 0x5f, 0x36, 0x2f, 0x71, 0x75, 0x61,
  0x6e, 0x74, 0x5f, 0x67, 0x6c, 0x6f, 0x62, 0x61, 0x6c, 0x5f, 0x6d, 0x61,
  0x78, 0x5f, 0x70, 0x6f, 0x6f, 0x6c, 0x69, 0x6e, 0x67, 0x32, 0x64, 0x5f,
  0x36, 0x2f, 0x4d, 0x61, 0x78, 0x2f, 0x72, 0x65, 0x64, 0x75, 0x63, 0x74,
  0x69, 0x6f, 0x6e, 0x5f, 0x69, 0x6e, 0x64, 0x69, 0x63, 0x65, 0x73, 0x00,
  0x90, 0xff, 0xff, 0xff, 0x14, 0x00, 0x18, 0x00, 0x04, 0x00, 0x00, 0x00,
  0x08, 0x00, 0x0c, 0x00, 0x10, 0x00, 0x00, 0x00, 0x00, 0x00, 0x14, 0x00,
  0x14, 0x00, 0x00, 0x00, 0x14, 0x00, 0x00, 0x00, 0x01, 0x00, 0x00, 0x00,
  0x34, 0x00, 0x00, 0x00, 0x44, 0x00, 0x00, 0x00, 0x18, 0x00, 0x00, 0x00,
  0x04, 0x00, 0x00, 0x00, 0x01, 0x00, 0x00, 0x00, 0x40, 0x00, 0x00, 0x00,
  0x03, 0x00, 0x00, 0x00, 0x01, 0x00, 0x00, 0x00, 0x04, 0x00, 0x00, 0x00,
  0xff, 0xff, 0xff, 0xff, 0x40, 0x00, 0x00, 0x00, 0x03, 0x00, 0x00, 0x00,
  0x01, 0x00, 0x00, 0x00, 0x0f, 0x00, 0x00, 0x00, 0x63, 0x6f, 0x6e, 0x76,
  0x32, 0x64, 0x5f, 0x32, 0x34, 0x5f, 0x69, 0x6e, 0x70, 0x75, 0x74, 0x00,
  0xfc, 0xff, 0xff, 0xff, 0x04, 0x00, 0x04, 0x00, 0x04, 0x00, 0x00, 0x00
 
};

#endif // INCLUDE_MODEL

#endif //MODEL_14_TENSORFLOW_H