#ifndef MODEL_19_TENSORFLOW_H
#define MODEL_19_TENSORFLOW_H

#define APP_ACTIVITY_MODEL_NAME model_19_tensorflow
#define APP_ACTIVITY_RECOGNITION_PRECISION_FLOAT (0)
#define APP_ACTIVITY_RECOGNITION_SENSOR_SCALE (2)
#define APP_ACTIVITY_RECOGNITION_SENSOR_RESOLUTION (8)
#define APP_ACTIVITY_RECOGNITION_SAMPLING_FREQUENCY (10)
#define APP_ACTIVITY_RECOGNITION_FREQUENCY_DIVIDER (0)
#define APP_ACTIVITY_RECOGNITION_HIGHPASS_STAGES (2)
#define APP_ACTIVITY_RECOGNITION_INPUT_SIZE (192)
#define APP_ACTIVITY_RECOGNITION_STEP_SIZE (32)
#define APP_ACTIVITY_RECOGNITION_CLASS_COUNT (6)

#ifdef INCLUDE_MODEL
static const float highpass_coefficients[] = {0.2069928239055942f, -0.2069928239055942f, 0.0f, 0.2068179864931189f, -0.0f, 0.25f, -0.5f, 0.25f, 0.4490699651581907f, -0.2071676613180694f};
static const char* APP_ACTIVITY_RECOGNITION_CLASSES[] = {"jog","skip","stDown","stUp","stay","walk"};
static const size_t model_19_tensorflow_len = 18024;
static const uint8_t model_19_tensorflow[] = {
 0x1c, 0x00, 0x00, 0x00, 0x54, 0x46, 0x4c, 0x33, 0x14, 0x00, 0x20, 0x00,
  0x04, 0x00, 0x08, 0x00, 0x0c, 0x00, 0x10, 0x00, 0x14, 0x00, 0x00, 0x00,
  0x18, 0x00, 0x1c, 0x00, 0x14, 0x00, 0x00, 0x00, 0x03, 0x00, 0x00, 0x00,
  0x18, 0x00, 0x00, 0x00, 0x34, 0x00, 0x00, 0x00, 0xf4, 0x00, 0x00, 0x00,
  0x34, 0x00, 0x00, 0x00, 0x9c, 0x00, 0x00, 0x00, 0x94, 0x00, 0x00, 0x00,
  0x07, 0x00, 0x00, 0x00, 0x14, 0x43, 0x00, 0x00, 0x98, 0x3b, 0x00, 0x00,
  0x88, 0x06, 0x00, 0x00, 0xc4, 0x05, 0x00, 0x00, 0x20, 0x03, 0x00, 0x00,
  0x54, 0x02, 0x00, 0x00, 0xcc, 0x01, 0x00, 0x00, 0x01, 0x00, 0x00, 0x00,
  0xe4, 0x00, 0x00, 0x00, 0x19, 0x00, 0x00, 0x00, 0xfc, 0x45, 0x00, 0x00,
  0xf8, 0x45, 0x00, 0x00, 0xf8, 0x44, 0x00, 0x00, 0x88, 0x44, 0x00, 0x00,
  0xec, 0x45, 0x00, 0x00, 0x30, 0x3f, 0x00, 0x00, 0xa4, 0x3c, 0x00, 0x00,
  0xe0, 0x45, 0x00, 0x00, 0x04, 0x19, 0x00, 0x00, 0x78, 0x16, 0x00, 0x00,
  0xd4, 0x45, 0x00, 0x00, 0xe8, 0x0f, 0x00, 0x00, 0x5c, 0x0e, 0x00, 0x00,
  0xc8, 0x45, 0x00, 0x00, 0xa4, 0x09, 0x00, 0x00, 0x18, 0x08, 0x00, 0x00,
  0xbc, 0x45, 0x00, 0x00, 0xb8, 0x45, 0x00, 0x00, 0xb4, 0x45, 0x00, 0x00,
  0x14, 0x04, 0x00, 0x00, 0x6c, 0x03, 0x00, 0x00, 0xa8, 0x45, 0x00, 0x00,
  0xa4, 0x45, 0x00, 0x00, 0xa0, 0x45, 0x00, 0x00, 0x3c, 0x00, 0x00, 0x00,
  0x00, 0x00, 0x00, 0x00, 0x01, 0x00, 0x00, 0x00, 0x0c, 0x00, 0x00, 0x00,
  0x08, 0x00, 0x0c, 0x00, 0x04, 0x00, 0x08, 0x00, 0x08, 0x00, 0x00, 0x00,
  0x08, 0x00, 0x00, 0x00, 0x18, 0x00, 0x00, 0x00, 0x13, 0x00, 0x00, 0x00,
  0x6d, 0x69, 0x6e, 0x5f, 0x72, 0x75, 0x6e, 0x74, 0x69, 0x6d, 0x65, 0x5f,
  0x76, 0x65, 0x72, 0x73, 0x69, 0x6f, 0x6e, 0x00, 0xa2, 0xbb, 0xff, 0xff,
  0x04, 0x00, 0x00, 0x00, 0x10, 0x00, 0x00, 0x00, 0x31, 0x2e, 0x31, 0x34,
  0x2e, 0x30, 0x00, 0x00, 0x00, 0x00, 0x00, 0x00, 0x00, 0x00, 0x00, 0x00,
  0x0f, 0x00, 0x00, 0x00, 0x4d, 0x4c, 0x49, 0x52, 0x20, 0x43, 0x6f, 0x6e,
  0x76, 0x65, 0x72, 0x74, 0x65, 0x64, 0x2e, 0x00, 0x00, 0x00, 0x0e, 0x00,
  0x18, 0x00, 0x04, 0x00, 0x08, 0x00, 0x0c, 0x00, 0x10, 0x00, 0x14, 0x00,
  0x0e, 0x00, 0x00, 0x00, 0x14, 0x00, 0x00, 0x00, 0x70, 0x00, 0x00, 0x00,
  0x74, 0x00, 0x00, 0x00, 0x78, 0x00, 0x00, 0x00, 0xa0, 0x00, 0x00, 0x00,
  0x17, 0x00, 0x00, 0x00, 0xa8, 0x44, 0x00, 0x00, 0x28, 0x44, 0x00, 0x00,
  0xa8, 0x43, 0x00, 0x00, 0x0c, 0x42, 0x00, 0x00, 0xc8, 0x3f, 0x00, 0x00,
  0x3c, 0x3c, 0x00, 0x00, 0x74, 0x3a, 0x00, 0x00, 0x1c, 0x38, 0x00, 0x00,
  0x10, 0x16, 0x00, 0x00, 0x6c, 0x14, 0x00, 0x00, 0x00, 0x13, 0x00, 0x00,
  0xb4, 0x0d, 0x00, 0x00, 0x2c, 0x0c, 0x00, 0x00, 0xbc, 0x0a, 0x00, 0x00,
  0x70, 0x07, 0x00, 0x00, 0x0c, 0x06, 0x00, 0x00, 0x40, 0x05, 0x00, 0x00,
  0x7c, 0x04, 0x00, 0x00, 0x8c, 0x03, 0x00, 0x00, 0x9c, 0x02, 0x00, 0x00,
  0xd0, 0x01, 0x00, 0x00, 0x04, 0x01, 0x00, 0x00, 0x7c, 0x00, 0x00, 0x00,
  0x01, 0x00, 0x00, 0x00, 0x00, 0x00, 0x00, 0x00, 0x01, 0x00, 0x00, 0x00,
  0x16, 0x00, 0x00, 0x00, 0x0a, 0x00, 0x00, 0x00, 0x5c, 0x41, 0x00, 0x00,
  0xbc, 0x39, 0x00, 0x00, 0xd8, 0x13, 0x00, 0x00, 0xa0, 0x0b, 0x00, 0x00,
  0x88, 0x05, 0x00, 0x00, 0xbc, 0x04, 0x00, 0x00, 0x04, 0x04, 0x00, 0x00,
  0x50, 0x01, 0x00, 0x00, 0x88, 0x00, 0x00, 0x00, 0x10, 0x00, 0x00, 0x00,
  0x04, 0x00, 0x00, 0x00, 0x6d, 0x61, 0x69, 0x6e, 0x00, 0x00, 0x00, 0x00,
  0x22, 0xfc, 0xff, 0xff, 0x06, 0x00, 0x00, 0x00, 0x10, 0x00, 0x00, 0x00,
  0x04, 0x00, 0x00, 0x00, 0x01, 0x00, 0x00, 0x00, 0x16, 0x00, 0x00, 0x00,
  0x01, 0x00, 0x00, 0x00, 0x15, 0x00, 0x00, 0x00, 0xdc, 0xbe, 0xff, 0xff,
  0x06, 0x00, 0x00, 0x00, 0x00, 0x00, 0x00, 0x06, 0x02, 0x00, 0x00, 0x00,
  0x40, 0xbc, 0xff, 0xff, 0x14, 0x00, 0x00, 0x00, 0x17, 0x00, 0x00, 0x00,
  0x24, 0x00, 0x00, 0x00, 0x30, 0x00, 0x00, 0x00, 0x10, 0x00, 0x00, 0x00,
  0x02, 0x00, 0x00, 0x00, 0x01, 0x00, 0x00, 0x00, 0x06, 0x00, 0x00, 0x00,
  0x02, 0x00, 0x00, 0x00, 0xff, 0xff, 0xff, 0xff, 0x06, 0x00, 0x00, 0x00,
  0x08, 0x00, 0x00, 0x00, 0x49, 0x64, 0x65, 0x6e, 0x74, 0x69, 0x74, 0x79,
  0x00, 0x00, 0x00, 0x00, 0x14, 0xbc, 0xff, 0xff, 0xf6, 0xc6, 0xff, 0xff,
  0x00, 0x00, 0x00, 0x09, 0x05, 0x00, 0x00, 0x00, 0x1c, 0x00, 0x00, 0x00,
  0x10, 0x00, 0x00, 0x00, 0x04, 0x00, 0x00, 0x00, 0x2e, 0xbd, 0xff, 0xff,
  0x00, 0x00, 0x80, 0x3f, 0x01, 0x00, 0x00, 0x00, 0x15, 0x00, 0x00, 0x00,
  0x01, 0x00, 0x00, 0x00, 0x14, 0x00, 0x00, 0x00, 0x60, 0xbf, 0xff, 0xff,
  0x19, 0x00, 0x00, 0x00, 0x00, 0x00, 0x00, 0x19, 0x02, 0x00, 0x00, 0x00,
  0x54, 0xbf, 0xff, 0xff, 0x00, 0x00, 0x00, 0x09, 0x14, 0x00, 0x00, 0x00,
  0x16, 0x00, 0x00, 0x00, 0x24, 0x00, 0x00, 0x00, 0x4c, 0x00, 0x00, 0x00,
  0x10, 0x00, 0x00, 0x00, 0x02, 0x00, 0x00, 0x00, 0x01, 0x00, 0x00, 0x00,
  0x06, 0x00, 0x00, 0x00, 0x02, 0x00, 0x00, 0x00, 0xff, 0xff, 0xff, 0xff,
  0x06, 0x00, 0x00, 0x00, 0x24, 0x00, 0x00, 0x00, 0x73, 0x65, 0x71, 0x75,
  0x65, 0x6e, 0x74, 0x69, 0x61, 0x6c, 0x5f, 0x34, 0x2f, 0x71, 0x75, 0x61,
  0x6e, 0x74, 0x5f, 0x73, 0x6f, 0x66, 0x74, 0x6d, 0x61, 0x78, 0x5f, 0x34,
  0x2f, 0x53, 0x6f, 0x66, 0x74, 0x6d, 0x61, 0x78, 0x00, 0x00, 0x00, 0x00,
  0x4c, 0xbe, 0xff, 0xff, 0x08, 0x00, 0x00, 0x00, 0x0c, 0x00, 0x00, 0x00,
  0x01, 0x00, 0x00, 0x00, 0x00, 0x00, 0x80, 0x3b, 0x01, 0x00, 0x00, 0x00,
  0x80, 0xff, 0xff, 0xff, 0xff, 0xff, 0xff, 0xff, 0x00, 0x00, 0x00, 0x00,
  0xba, 0xc7, 0xff, 0xff, 0x00, 0x00, 0x00, 0x08, 0x04, 0x00, 0x00, 0x00,
  0x18, 0x00, 0x00, 0x00, 0x0c, 0x00, 0x00, 0x00, 0x04, 0x00, 0x00, 0x00,
  0xf4, 0xbc, 0xff, 0xff, 0x01, 0x00, 0x00, 0x00, 0x14, 0x00, 0x00, 0x00,
  0x03, 0x00, 0x00, 0x00, 0x11, 0x00, 0x00, 0x00, 0x12, 0x00, 0x00, 0x00,
  0x13, 0x00, 0x00, 0x00, 0x28, 0xc0, 0xff, 0xff, 0x09, 0x00, 0x00, 0x00,
  0x00, 0x00, 0x00, 0x09, 0x04, 0x00, 0x00, 0x00, 0x1c, 0xc0, 0xff, 0xff,
  0x00, 0x00, 0x00, 0x09, 0x14, 0x00, 0x00, 0x00, 0x15, 0x00, 0x00, 0x00,
  0x24, 0x00, 0x00, 0x00, 0x6c, 0x00, 0x00, 0x00, 0x10, 0x00, 0x00, 0x00,
  0x02, 0x00, 0x00, 0x00, 0x01, 0x00, 0x00, 0x00, 0x06, 0x00, 0x00, 0x00,
  0x02, 0x00, 0x00, 0x00, 0xff, 0xff, 0xff, 0xff, 0x06, 0x00, 0x00, 0x00,
  0x44, 0x00, 0x00, 0x00, 0x73, 0x65, 0x71, 0x75, 0x65, 0x6e, 0x74, 0x69,
  0x61, 0x6c, 0x5f, 0x34, 0x2f, 0x71, 0x75, 0x61, 0x6e, 0x74, 0x5f, 0x64,
  0x65, 0x6e, 0x73, 0x65, 0x5f, 0x34, 0x2f, 0x4d, 0x61, 0x74, 0x4d, 0x75,
  0x6c, 0x3b, 0x73, 0x65, 0x71, 0x75, 0x65, 0x6e, 0x74, 0x69, 0x61, 0x6c,
  0x5f, 0x34, 0x2f, 0x71, 0x75, 0x61, 0x6e, 0x74, 0x5f, 0x64, 0x65, 0x6e,
  0x73, 0x65, 0x5f, 0x34, 0x2f, 0x42, 0x69, 0x61, 0x73, 0x41, 0x64, 0x64,
  0x00, 0x00, 0x00, 0x00, 0x34, 0xbf, 0xff, 0xff, 0x08, 0x00, 0x00, 0x00,
  0x0c, 0x00, 0x00, 0x00, 0x01, 0x00, 0x00, 0x00, 0xec, 0x44, 0x70, 0x3e,
  0x01, 0x00, 0x00, 0x00, 0x4b, 0x00, 0x00, 0x00, 0x00, 0x00, 0x00, 0x00,
  0x00, 0x00, 0x00, 0x00, 0xc2, 0xbe, 0xff, 0xff, 0x04, 0x00, 0x00, 0x00,
  0x18, 0x00, 0x00, 0x00, 0x3a, 0xfe, 0xff, 0xff, 0x48, 0xfc, 0xff, 0xff,
  0xc2, 0xf3, 0xff, 0xff, 0x41, 0xfb, 0xff, 0xff, 0x4f, 0x15, 0x00, 0x00,
  0xb8, 0x05, 0x00, 0x00, 0xca, 0xbe, 0xff, 0xff, 0x00, 0x00, 0x00, 0x02,
  0x10, 0x00, 0x00, 0x00, 0x14, 0x00, 0x00, 0x00, 0x10, 0x00, 0x00, 0x00,
  0x4c, 0x00, 0x00, 0x00, 0x01, 0x00, 0x00, 0x00, 0x06, 0x00, 0x00, 0x00,
  0x3a, 0x00, 0x00, 0x00, 0x73, 0x65, 0x71, 0x75, 0x65, 0x6e, 0x74, 0x69,
  0x61, 0x6c, 0x5f, 0x34, 0x2f, 0x71, 0x75, 0x61, 0x6e, 0x74, 0x5f, 0x64,
  0x65, 0x6e, 0x73, 0x65, 0x5f, 0x34, 0x2f, 0x42, 0x69, 0x61, 0x73, 0x41,
  0x64, 0x64, 0x2f, 0x52, 0x65, 0x61, 0x64, 0x56, 0x61, 0x72, 0x69, 0x61,
  0x62, 0x6c, 0x65, 0x4f, 0x70, 0x2f, 0x72, 0x65, 0x73, 0x6f, 0x75, 0x72,
  0x63, 0x65, 0x00, 0x00, 0xdc, 0xbf, 0xff, 0xff, 0x08, 0x00, 0x00, 0x00,
  0x0c, 0x00, 0x00, 0x00, 0x01, 0x00, 0x00, 0x00, 0xd1, 0xd0, 0xfe, 0x39,
  0x01, 0x00, 0x00, 0x00, 0x00, 0x00, 0x00, 0x00, 0x00, 0x00, 0x00, 0x00,
  0x66, 0xbf, 0xff, 0xff, 0x04, 0x00, 0x00, 0x00, 0x60, 0x00, 0x00, 0x00,
  0xd2, 0x06, 0x0e, 0x12, 0xe8, 0x13, 0xd5, 0x12, 0xf1, 0xfa, 0xe0, 0xd3,
  0xeb, 0x12, 0xdc, 0xfd, 0xd5, 0xf1, 0x07, 0x0b, 0x0c, 0x07, 0xfd, 0x0b,
  0x12, 0x28, 0xdf, 0xdb, 0x13, 0x04, 0x11, 0xef, 0x09, 0x06, 0xea, 0xe5,
  0x09, 0x0f, 0x09, 0xe6, 0x0c, 0x05, 0x0c, 0x01, 0x0d, 0x0d, 0x00, 0x17,
  0x0b, 0xe7, 0xc9, 0xcb, 0x0f, 0xea, 0x0a, 0xc1, 0x13, 0xdd, 0x0a, 0x00,
  0x0f, 0xe9, 0x12, 0x0b, 0xbb, 0xbf, 0xdc, 0xe0, 0xc0, 0xd3, 0xa9, 0xd8,
  0xc7, 0x1b, 0xc0, 0x9c, 0xec, 0xd3, 0xf6, 0x81, 0x10, 0xd4, 0xe8, 0xed,
  0xe2, 0xd4, 0x0d, 0xe7, 0xe4, 0xe7, 0x10, 0x03, 0xbe, 0xd7, 0xbf, 0x07,
  0xb6, 0xbf, 0xff, 0xff, 0x00, 0x00, 0x00, 0x09, 0x10, 0x00, 0x00, 0x00,
  0x13, 0x00, 0x00, 0x00, 0x14, 0x00, 0x00, 0x00, 0x78, 0x00, 0x00, 0x00,
  0x02, 0x00, 0x00, 0x00, 0x06, 0x00, 0x00, 0x00, 0x10, 0x00, 0x00, 0x00,
  0x63, 0x00, 0x00, 0x00, 0x73, 0x65, 0x71, 0x75, 0x65, 0x6e, 0x74, 0x69,
  0x61, 0x6c, 0x5f, 0x34, 0x2f, 0x71, 0x75, 0x61, 0x6e, 0x74, 0x5f, 0x64,
  0x65, 0x6e, 0x73, 0x65, 0x5f, 0x34, 0x2f, 0x4d, 0x61, 0x74, 0x4d, 0x75,
  0x6c, 0x3b, 0x73, 0x65, 0x71, 0x75, 0x65, 0x6e, 0x74, 0x69, 0x61, 0x6c,
  0x5f, 0x34, 0x2f, 0x71, 0x75, 0x61, 0x6e, 0x74, 0x5f, 0x64, 0x65, 0x6e,
  0x73, 0x65, 0x5f, 0x34, 0x2f, 0x4c, 0x61, 0x73, 0x74, 0x56, 0x61, 0x6c,
  0x75, 0x65, 0x51, 0x75, 0x61, 0x6e, 0x74, 0x2f, 0x46, 0x61, 0x6b, 0x65,
  0x51, 0x75, 0x61, 0x6e, 0x74, 0x57, 0x69, 0x74, 0x68, 0x4d, 0x69, 0x6e,
  0x4d, 0x61, 0x78, 0x56, 0x61, 0x72, 0x73, 0x00, 0xf4, 0xc0, 0xff, 0xff,
  0x08, 0x00, 0x00, 0x00, 0x0c, 0x00, 0x00, 0x00, 0x01, 0x00, 0x00, 0x00,
  0xf4, 0x0f, 0xdb, 0x3c, 0x01, 0x00, 0x00, 0x00, 0x00, 0x00, 0x00, 0x00,
  0x00, 0x00, 0x00, 0x00, 0x00, 0x00, 0x0a, 0x00, 0x10, 0x00, 0x04, 0x00,
  0x08, 0x00, 0x0c, 0x00, 0x0a, 0x00, 0x00, 0x00, 0x03, 0x00, 0x00, 0x00,
  0x10, 0x00, 0x00, 0x00, 0x04, 0x00, 0x00, 0x00, 0x01, 0x00, 0x00, 0x00,
  0x11, 0x00, 0x00, 0x00, 0x02, 0x00, 0x00, 0x00, 0x10, 0x00, 0x00, 0x00,
  0x02, 0x00, 0x00, 0x00, 0xc8, 0xc2, 0xff, 0xff, 0x16, 0x00, 0x00, 0x00,
  0x00, 0x00, 0x00, 0x16, 0x01, 0x00, 0x00, 0x00, 0xbc, 0xc2, 0xff, 0xff,
  0x00, 0x00, 0x00, 0x09, 0x14, 0x00, 0x00, 0x00, 0x12, 0x00, 0x00, 0x00,
  0x24, 0x00, 0x00, 0x00, 0x4c, 0x00, 0x00, 0x00, 0x10, 0x00, 0x00, 0x00,
  0x02, 0x00, 0x00, 0x00, 0x01, 0x00, 0x00, 0x00, 0x10, 0x00, 0x00, 0x00,
  0x02, 0x00, 0x00, 0x00, 0xff, 0xff, 0xff, 0xff, 0x10, 0x00, 0x00, 0x00,
  0x24, 0x00, 0x00, 0x00, 0x73, 0x65, 0x71, 0x75, 0x65, 0x6e, 0x74, 0x69,
  0x61, 0x6c, 0x5f, 0x34, 0x2f, 0x71, 0x75, 0x61, 0x6e, 0x74, 0x5f, 0x66,
  0x6c, 0x61, 0x74, 0x74, 0x65, 0x6e, 0x5f, 0x34, 0x2f, 0x52, 0x65, 0x73,
  0x68, 0x61, 0x70, 0x65, 0x00, 0x00, 0x00, 0x00, 0xb4, 0xc1, 0xff, 0xff,
  0x08, 0x00, 0x00, 0x00, 0x0c, 0x00, 0x00, 0x00, 0x01, 0x00, 0x00, 0x00,
  0x19, 0xe4, 0x94, 0x3c, 0x01, 0x00, 0x00, 0x00, 0x80, 0xff, 0xff, 0xff,
  0xff, 0xff, 0xff, 0xff, 0x1e, 0xcb, 0xff, 0xff, 0x00, 0x00, 0x00, 0x1b,
  0x02, 0x00, 0x00, 0x00, 0x18, 0x00, 0x00, 0x00, 0x0c, 0x00, 0x00, 0x00,
  0x04, 0x00, 0x00, 0x00, 0x58, 0xc0, 0xff, 0xff, 0x01, 0x00, 0x00, 0x00,
  0x10, 0x00, 0x00, 0x00, 0x02, 0x00, 0x00, 0x00, 0x0f, 0x00, 0x00, 0x00,
  0x01, 0x00, 0x00, 0x00, 0x88, 0xc3, 0xff, 0xff, 0x52, 0x00, 0x00, 0x00,
  0x00, 0x00, 0x00, 0x52, 0x02, 0x00, 0x00, 0x00, 0x7c, 0xc3, 0xff, 0xff,
  0x00, 0x00, 0x00, 0x09, 0x14, 0x00, 0x00, 0x00, 0x11, 0x00, 0x00, 0x00,
  0x24, 0x00, 0x00, 0x00, 0x54, 0x00, 0x00, 0x00, 0x10, 0x00, 0x00, 0x00,
  0x02, 0x00, 0x00, 0x00, 0x01, 0x00, 0x00, 0x00, 0x10, 0x00, 0x00, 0x00,
  0x02, 0x00, 0x00, 0x00, 0xff, 0xff, 0xff, 0xff, 0x10, 0x00, 0x00, 0x00,
  0x2d, 0x00, 0x00, 0x00, 0x73, 0x65, 0x71, 0x75, 0x65, 0x6e, 0x74, 0x69,
  0x61, 0x6c, 0x5f, 0x34, 0x2f, 0x71, 0x75, 0x61, 0x6e, 0x74, 0x5f, 0x67,
  0x6c, 0x6f, 0x62, 0x61, 0x6c, 0x5f, 0x6d, 0x61, 0x78, 0x5f, 0x70, 0x6f,
  0x6f, 0x6c, 0x69, 0x6e, 0x67, 0x32, 0x64, 0x5f, 0x34, 0x2f, 0x4d, 0x61,
  0x78, 0x00, 0x00, 0x00, 0x7c, 0xc2, 0xff, 0xff, 0x08, 0x00, 0x00, 0x00,
  0x0c, 0x00, 0x00, 0x00, 0x01, 0x00, 0x00, 0x00, 0x19, 0xe4, 0x94, 0x3c,
  0x01, 0x00, 0x00, 0x00, 0x80, 0xff, 0xff, 0xff, 0xff, 0xff, 0xff, 0xff,
  0xe6, 0xcb, 0xff, 0xff, 0x00, 0x00, 0x00, 0x01, 0x01, 0x00, 0x00, 0x00,
  0x24, 0x00, 0x00, 0x00, 0x18, 0x00, 0x00, 0x00, 0x04, 0x00, 0x00, 0x00,
  0xd8, 0xcb, 0xff, 0xff, 0x01, 0x00, 0x00, 0x00, 0x01, 0x00, 0x00, 0x00,
  0x00, 0x00, 0x01, 0x01, 0x01, 0x00, 0x00, 0x00, 0x0f, 0x00, 0x00, 0x00,
  0x03, 0x00, 0x00, 0x00, 0x0c, 0x00, 0x00, 0x00, 0x0d, 0x00, 0x00, 0x00,
  0x0e, 0x00, 0x00, 0x00, 0x44, 0xc4, 0xff, 0xff, 0x00, 0x00, 0x00, 0x09,
  0x14, 0x00, 0x00, 0x00, 0x10, 0x00, 0x00, 0x00, 0x34, 0x00, 0x00, 0x00,
  0xdc, 0x00, 0x00, 0x00, 0x18, 0x00, 0x00, 0x00, 0x04, 0x00, 0x00, 0x00,
  0x01, 0x00, 0x00, 0x00, 0x36, 0x00, 0x00, 0x00, 0x01, 0x00, 0x00, 0x00,
  0x10, 0x00, 0x00, 0x00, 0x04, 0x00, 0x00, 0x00, 0xff, 0xff, 0xff, 0xff,
  0x36, 0x00, 0x00, 0x00, 0x01, 0x00, 0x00, 0x00, 0x10, 0x00, 0x00, 0x00,
  0xa6, 0x00, 0x00, 0x00, 0x73, 0x65, 0x71, 0x75, 0x65, 0x6e, 0x74, 0x69,
  0x61, 0x6c, 0x5f, 0x34, 0x2f, 0x71, 0x75, 0x61, 0x6e, 0x74, 0x5f, 0x72,
  0x65, 0x5f, 0x6c, 0x75, 0x5f, 0x31, 0x39, 0x2f, 0x52, 0x65, 0x6c, 0x75,
  0x3b, 0x73, 0x65, 0x71, 0x75, 0x65, 0x6e, 0x74, 0x69, 0x61, 0x6c, 0x5f,
  0x34, 0x2f, 0x71, 0x75, 0x61, 0x6e, 0x74, 0x5f, 0x63, 0x6f, 0x6e, 0x76,
  0x32, 0x64, 0x5f, 0x31, 0x39, 0x2f, 0x42, 0x69, 0x61, 0x73, 0x41, 0x64,
  0x64, 0x3b, 0x73, 0x65, 0x71, 0x75, 0x65, 0x6e, 0x74, 0x69, 0x61, 0x6c,
  0x5f, 0x34, 0x2f, 0x71, 0x75, 0x61, 0x6e, 0x74, 0x5f, 0x63, 0x6f, 0x6e,
  0x76, 0x32, 0x64, 0x5f, 0x31, 0x39, 0x2f, 0x43, 0x6f, 0x6e, 0x76, 0x32,
  0x44, 0x3b, 0x73, 0x65, 0x71, 0x75, 0x65, 0x6e, 0x74, 0x69, 0x61, 0x6c,
  0x5f, 0x34, 0x2f, 0x71, 0x75, 0x61, 0x6e, 0x74, 0x5f, 0x63, 0x6f, 0x6e,
  0x76, 0x32, 0x64, 0x5f, 0x31, 0x39, 0x2f, 0x42, 0x69, 0x61, 0x73, 0x41,
  0x64, 0x64, 0x2f, 0x52, 0x65, 0x61, 0x64, 0x56, 0x61, 0x72, 0x69, 0x61,
  0x62, 0x6c, 0x65, 0x4f, 0x70, 0x2f, 0x72, 0x65, 0x73, 0x6f, 0x75, 0x72,
  0x63, 0x65, 0x00, 0x00, 0xcc, 0xc3, 0xff, 0xff, 0x08, 0x00, 0x00, 0x00,
  0x0c, 0x00, 0x00, 0x00, 0x01, 0x00, 0x00, 0x00, 0x19, 0xe4, 0x94, 0x3c,
  0x01, 0x00, 0x00, 0x00, 0x80, 0xff, 0xff, 0xff, 0xff, 0xff, 0xff, 0xff,
  0x00, 0x00, 0x00, 0x00, 0x5a, 0xc3, 0xff, 0xff, 0x04, 0x00, 0x00, 0x00,
  0x40, 0x00, 0x00, 0x00, 0xbf, 0xff, 0xff, 0xff, 0xfc, 0xfd, 0xff, 0xff,
  0xc0, 0xf6, 0xff, 0xff, 0x36, 0xf9, 0xff, 0xff, 0x6c, 0xff, 0xff, 0xff,
  0x6f, 0xfe, 0xff, 0xff, 0x4e, 0x01, 0x00, 0x00, 0xaf, 0xf7, 0xff, 0xff,
  0x51, 0xfd, 0xff, 0xff, 0xc5, 0x00, 0x00, 0x00, 0xda, 0xff, 0xff, 0xff,
  0x8a, 0x02, 0x00, 0x00, 0xb7, 0xff, 0xff, 0xff, 0xda, 0xf8, 0xff, 0xff,
  0xd7, 0xff, 0xff, 0xff, 0x6b, 0xff, 0xff, 0xff, 0x8a, 0xc3, 0xff, 0xff,
  0x00, 0x00, 0x00, 0x02, 0x10, 0x00, 0x00, 0x00, 0x0f, 0x00, 0x00, 0x00,
  0x10, 0x00, 0x00, 0x00, 0x50, 0x00, 0x00, 0x00, 0x01, 0x00, 0x00, 0x00,
  0x10, 0x00, 0x00, 0x00, 0x3c, 0x00, 0x00, 0x00, 0x73, 0x65, 0x71, 0x75,
  0x65, 0x6e, 0x74, 0x69, 0x61, 0x6c, 0x5f, 0x34, 0x2f, 0x71, 0x75, 0x61,
  0x6e, 0x74, 0x5f, 0x63, 0x6f, 0x6e, 0x76, 0x32, 0x64, 0x5f, 0x31, 0x39,
  0x2f, 0x42, 0x69, 0x61, 0x73, 0x41, 0x64, 0x64, 0x2f, 0x52, 0x65, 0x61,
  0x64, 0x56, 0x61, 0x72, 0x69, 0x61, 0x62, 0x6c, 0x65, 0x4f, 0x70, 0x2f,
  0x72, 0x65, 0x73, 0x6f, 0x75, 0x72, 0x63, 0x65, 0x00, 0x00, 0x00, 0x00,
  0xa0, 0xc4, 0xff, 0xff, 0x08, 0x00, 0x00, 0x00, 0x48, 0x00, 0x00, 0x00,
  0x10, 0x00, 0x00, 0x00, 0xc9, 0x64, 0x9b, 0x39, 0xc8, 0x22, 0x6d, 0x39,
  0xae, 0x43, 0x35, 0x39, 0xe3, 0xdf, 0x82, 0x39, 0x49, 0x27, 0x49, 0x39,
  0x1f, 0x5b, 0x7d, 0x39, 0xe8, 0x21, 0x7e, 0x39, 0x97, 0x7a, 0x37, 0x39,
  0x75, 0x36, 0x26, 0x39, 0x03, 0xb1, 0xab, 0x39, 0xbd, 0x3a, 0x8b, 0x39,
  0x81, 0x7c, 0x9a, 0x39, 0xbd, 0x30, 0x7d, 0x39, 0xa6, 0xbd, 0x3b, 0x39,
  0x98, 0xe0, 0x7f, 0x39, 0xa4, 0x9b, 0x46, 0x39, 0x10, 0x00, 0x00, 0x00,
  0x00, 0x00, 0x00, 0x00, 0x00, 0x00, 0x00, 0x00, 0x00, 0x00, 0x00, 0x00,
  0x00, 0x00, 0x00, 0x00, 0x00, 0x00, 0x00, 0x00, 0x00, 0x00, 0x00, 0x00,
  0x00, 0x00, 0x00, 0x00, 0x00, 0x00, 0x00, 0x00, 0x00, 0x00, 0x00, 0x00,
  0x00, 0x00, 0x00, 0x00, 0x00, 0x00, 0x00, 0x00, 0x00, 0x00, 0x00, 0x00,
  0x00, 0x00, 0x00, 0x00, 0x00, 0x00, 0x00, 0x00, 0x00, 0x00, 0x00, 0x00,
  0x00, 0x00, 0x00, 0x00, 0x00, 0x00, 0x00, 0x00, 0x00, 0x00, 0x00, 0x00,
  0x00, 0x00, 0x00, 0x00, 0x00, 0x00, 0x00, 0x00, 0x00, 0x00, 0x00, 0x00,
  0x00, 0x00, 0x00, 0x00, 0x00, 0x00, 0x00, 0x00, 0x00, 0x00, 0x00, 0x00,
  0x00, 0x00, 0x00, 0x00, 0x00, 0x00, 0x00, 0x00, 0x00, 0x00, 0x00, 0x00,
  0x00, 0x00, 0x00, 0x00, 0x00, 0x00, 0x00, 0x00, 0x00, 0x00, 0x00, 0x00,
  0x00, 0x00, 0x00, 0x00, 0x00, 0x00, 0x00, 0x00, 0x00, 0x00, 0x00, 0x00,
  0xe2, 0xc4, 0xff, 0xff, 0x04, 0x00, 0x00, 0x00, 0x00, 0x02, 0x00, 0x00,
  0x01, 0x08, 0xf2, 0xd9, 0x22, 0x1b, 0xe5, 0xe1, 0xea, 0xec, 0xd9, 0xf7,
  0xf5, 0x2e, 0xaa, 0x97, 0x13, 0xc1, 0x81, 0xe1, 0xfd, 0x12, 0x0d, 0x15,
  0xe5, 0xc0, 0xc2, 0xf9, 0xd1, 0xe7, 0x32, 0x17, 0x3c, 0xfb, 0x13, 0x04,
  0x23, 0xda, 0x14, 0xa4, 0x08, 0xed, 0xb5, 0x23, 0x04, 0x0d, 0x0a, 0x21,
  0x03, 0x1c, 0x05, 0xee, 0x0c, 0xe9, 0xa4, 0xe4, 0x4e, 0xda, 0xbe, 0x01,
  0xcb, 0x81, 0xe0, 0x12, 0x1d, 0xff, 0x2d, 0xff, 0x28, 0x05, 0x17, 0xa9,
  0xc9, 0xcf, 0xd9, 0xde, 0x0a, 0x0d, 0x02, 0xf5, 0x19, 0x90, 0x19, 0x04,
  0xc2, 0xaa, 0xe6, 0x92, 0x34, 0xf5, 0x22, 0xf8, 0x14, 0x81, 0xc0, 0xeb,
  0x0a, 0xba, 0x0a, 0x16, 0xde, 0xcc, 0xe8, 0xe0, 0x0e, 0xf7, 0x24, 0x18,
  0x0c, 0x81, 0xc0, 0xfd, 0xf8, 0xed, 0xf1, 0xf0, 0x12, 0xe9, 0x03, 0xe1,
  0x12, 0x21, 0xfe, 0xf8, 0x0e, 0x0e, 0xd3, 0xfa, 0xff, 0x17, 0xd4, 0xf8,
  0xc8, 0xde, 0xf7, 0x06, 0xa6, 0xf6, 0x00, 0xfa, 0x0d, 0xff, 0x12, 0x31,
  0x1b, 0xac, 0xbe, 0x0b, 0xcd, 0x81, 0xff, 0x0b, 0xf9, 0x36, 0x60, 0x15,
  0xd4, 0x0f, 0x8d, 0x36, 0x25, 0x0d, 0x1c, 0xee, 0x0c, 0xf6, 0xfe, 0xe2,
  0xf7, 0xff, 0xd6, 0xfb, 0x1e, 0x02, 0xf5, 0x2f, 0xe4, 0x07, 0x15, 0x14,
  0x24, 0xeb, 0xbd, 0xc5, 0x35, 0xd2, 0xdd, 0xf3, 0xc2, 0x81, 0xd0, 0x1c,
  0x04, 0x81, 0xf7, 0x1f, 0xc1, 0x21, 0x13, 0xf3, 0xec, 0xfa, 0x39, 0x12,
  0xed, 0x11, 0xff, 0x07, 0x07, 0xef, 0x0a, 0xde, 0x24, 0x04, 0xf2, 0xfd,
  0x81, 0x13, 0xab, 0x14, 0xdb, 0x23, 0xdb, 0xcc, 0x19, 0x04, 0x26, 0x01,
  0x27, 0x09, 0x26, 0xb8, 0xdc, 0xe9, 0xea, 0x15, 0x12, 0xe2, 0xe2, 0x1a,
  0x0d, 0x81, 0x26, 0x01, 0xd9, 0xc7, 0xd5, 0xad, 0x1d, 0x0c, 0xc6, 0x2e,
  0xea, 0xb4, 0xac, 0x0d, 0x4d, 0x82, 0x9a, 0xc1, 0xd4, 0x9b, 0x0a, 0xdf,
  0xb9, 0x25, 0x7f, 0x05, 0xc3, 0x34, 0xaa, 0x60, 0x19, 0xe1, 0xde, 0xe2,
  0xcc, 0xda, 0xf1, 0xf9, 0x51, 0xfa, 0x41, 0xe0, 0x24, 0xe5, 0xc3, 0x03,
  0x08, 0xca, 0xf5, 0xe2, 0x81, 0x17, 0xd3, 0x1c, 0xce, 0xec, 0x18, 0x15,
  0x0e, 0xba, 0xbc, 0xe1, 0xf4, 0xc2, 0xc9, 0xd6, 0xc8, 0x13, 0x09, 0x23,
  0xc1, 0x1f, 0x07, 0xef, 0xff, 0x0e, 0xe0, 0x0f, 0xe7, 0xe3, 0x01, 0xea,
  0x1b, 0x18, 0xed, 0x07, 0xaa, 0x07, 0xe0, 0x08, 0xe8, 0x38, 0xc4, 0xa1,
  0x25, 0x15, 0x81, 0xff, 0x1f, 0x24, 0xf9, 0xf8, 0x19, 0xfb, 0xcf, 0x16,
  0xbe, 0x0f, 0x02, 0xd8, 0x07, 0xbb, 0xfd, 0xd1, 0xca, 0xfb, 0xfe, 0x01,
  0x19, 0x81, 0x34, 0x08, 0xb9, 0x15, 0xf3, 0xf8, 0x0b, 0x13, 0x11, 0xe5,
  0x27, 0x06, 0x01, 0x15, 0xe6, 0xc0, 0xd2, 0x1a, 0xcf, 0x1a, 0xe9, 0xb7,
  0x9f, 0x1b, 0x12, 0x40, 0x1a, 0x17, 0x81, 0xfb, 0x14, 0xdd, 0x21, 0x0c,
  0x08, 0xea, 0x0e, 0x2c, 0x10, 0xd3, 0x11, 0xaf, 0xf0, 0x0d, 0x9a, 0xec,
  0xee, 0x98, 0x37, 0x04, 0xed, 0xe4, 0x06, 0x04, 0x5f, 0x11, 0xf3, 0xd3,
  0x2e, 0xb0, 0x0c, 0x90, 0xfb, 0x1d, 0x0f, 0xf8, 0x10, 0x30, 0x07, 0x0e,
  0x35, 0x1d, 0xf7, 0x07, 0x03, 0xcf, 0xe1, 0x9c, 0x5b, 0xdf, 0xc2, 0x11,
  0xec, 0x81, 0xc7, 0x13, 0xb8, 0x16, 0x07, 0x35, 0xf6, 0x19, 0xa9, 0xf6,
  0xc4, 0xf2, 0x01, 0x03, 0xe0, 0xfc, 0x07, 0x1f, 0xab, 0xe7, 0xfa, 0x0a,
  0x90, 0x34, 0x81, 0xd7, 0xa2, 0xc8, 0x34, 0xfb, 0x14, 0xd4, 0xfe, 0x1e,
  0x1b, 0x42, 0xcf, 0xfe, 0x2f, 0x2a, 0xc0, 0x0a, 0x50, 0x20, 0x39, 0x24,
  0x81, 0xe4, 0xbd, 0xc8, 0xd6, 0xf4, 0xbe, 0xb9, 0x07, 0xb5, 0xf7, 0x10,
  0xf4, 0x8d, 0x55, 0x28, 0x00, 0x2e, 0x41, 0xef, 0xd2, 0xc6, 0xff, 0xff,
  0x00, 0x00, 0x00, 0x09, 0x10, 0x00, 0x00, 0x00, 0x0e, 0x00, 0x00, 0x00,
  0x1c, 0x00, 0x00, 0x00, 0x40, 0x00, 0x00, 0x00, 0x04, 0x00, 0x00, 0x00,
  0x10, 0x00, 0x00, 0x00, 0x02, 0x00, 0x00, 0x00, 0x01, 0x00, 0x00, 0x00,
  0x10, 0x00, 0x00, 0x00, 0x23, 0x00, 0x00, 0x00, 0x73, 0x65, 0x71, 0x75,
  0x65, 0x6e, 0x74, 0x69, 0x61, 0x6c, 0x5f, 0x34, 0x2f, 0x71, 0x75, 0x61,
  0x6e, 0x74, 0x5f, 0x63, 0x6f, 0x6e, 0x76, 0x32, 0x64, 0x5f, 0x31, 0x39,
  0x2f, 0x43, 0x6f, 0x6e, 0x76, 0x32, 0x44, 0x00, 0xd8, 0xc7, 0xff, 0xff,
  0x08, 0x00, 0x00, 0x00, 0x48, 0x00, 0x00, 0x00, 0x10, 0x00, 0x00, 0x00,
  0x19, 0xec, 0x54, 0x3c, 0x92, 0x76, 0x22, 0x3c, 0xde, 0x5e, 0xf8, 0x3b,
  0x6b, 0x53, 0x33, 0x3c, 0xb8, 0xcf, 0x09, 0x3c, 0x5d, 0x93, 0x2d, 0x3c,
  0x8d, 0x1b, 0x2e, 0x3c, 0xa6, 0x67, 0xfb, 0x3b, 0x22, 0xbf, 0xe3, 0x3b,
  0xef, 0x40, 0x6b, 0x3c, 0x18, 0xc6, 0x3e, 0x3c, 0xd3, 0xad, 0x53, 0x3c,
  0x54, 0x76, 0x2d, 0x3c, 0x51, 0x9f, 0x00, 0x3c, 0x94, 0x4d, 0x2f, 0x3c,
  0x47, 0x11, 0x08, 0x3c, 0x10, 0x00, 0x00, 0x00, 0x00, 0x00, 0x00, 0x00,
  0x00, 0x00, 0x00, 0x00, 0x00, 0x00, 0x00, 0x00, 0x00, 0x00, 0x00, 0x00,
  0x00, 0x00, 0x00, 0x00, 0x00, 0x00, 0x00, 0x00, 0x00, 0x00, 0x00, 0x00,
  0x00, 0x00, 0x00, 0x00, 0x00, 0x00, 0x00, 0x00, 0x00, 0x00, 0x00, 0x00,
  0x00, 0x00, 0x00, 0x00, 0x00, 0x00, 0x00, 0x00, 0x00, 0x00, 0x00, 0x00,
  0x00, 0x00, 0x00, 0x00, 0x00, 0x00, 0x00, 0x00, 0x00, 0x00, 0x00, 0x00,
  0x00, 0x00, 0x00, 0x00, 0x00, 0x00, 0x00, 0x00, 0x00, 0x00, 0x00, 0x00,
  0x00, 0x00, 0x00, 0x00, 0x00, 0x00, 0x00, 0x00, 0x00, 0x00, 0x00, 0x00,
  0x00, 0x00, 0x00, 0x00, 0x00, 0x00, 0x00, 0x00, 0x00, 0x00, 0x00, 0x00,
  0x00, 0x00, 0x00, 0x00, 0x00, 0x00, 0x00, 0x00, 0x00, 0x00, 0x00, 0x00,
  0x00, 0x00, 0x00, 0x00, 0x00, 0x00, 0x00, 0x00, 0x00, 0x00, 0x00, 0x00,
  0x00, 0x00, 0x00, 0x00, 0x00, 0x00, 0x00, 0x00, 0xfa, 0xd1, 0xff, 0xff,
  0x00, 0x00, 0x00, 0x01, 0x01, 0x00, 0x00, 0x00, 0x24, 0x00, 0x00, 0x00,
  0x18, 0x00, 0x00, 0x00, 0x04, 0x00, 0x00, 0x00, 0xec, 0xd1, 0xff, 0xff,
  0x01, 0x00, 0x00, 0x00, 0x01, 0x00, 0x00, 0x00, 0x00, 0x00, 0x01, 0x01,
  0x01, 0x00, 0x00, 0x00, 0x0c, 0x00, 0x00, 0x00, 0x03, 0x00, 0x00, 0x00,
  0x09, 0x00, 0x00, 0x00, 0x0a, 0x00, 0x00, 0x00, 0x0b, 0x00, 0x00, 0x00,
  0x58, 0xca, 0xff, 0xff, 0x00, 0x00, 0x00, 0x09, 0x14, 0x00, 0x00, 0x00,
  0x0d, 0x00, 0x00, 0x00, 0x34, 0x00, 0x00, 0x00, 0x00, 0x01, 0x00, 0x00,
  0x18, 0x00, 0x00, 0x00, 0x04, 0x00, 0x00, 0x00, 0x01, 0x00, 0x00, 0x00,
  0x37, 0x00, 0x00, 0x00, 0x01, 0x00, 0x00, 0x00, 0x10, 0x00, 0x00, 0x00,
  0x04, 0x00, 0x00, 0x00, 0xff, 0xff, 0xff, 0xff, 0x37, 0x00, 0x00, 0x00,
  0x01, 0x00, 0x00, 0x00, 0x10, 0x00, 0x00, 0x00, 0xca, 0x00, 0x00, 0x00,
  0x73, 0x65, 0x71, 0x75, 0x65, 0x6e, 0x74, 0x69, 0x61, 0x6c, 0x5f, 0x34,
  0x2f, 0x71, 0x75, 0x61, 0x6e, 0x74, 0x5f, 0x72, 0x65, 0x5f, 0x6c, 0x75,
  0x5f, 0x31, 0x38, 0x2f, 0x52, 0x65, 0x6c, 0x75, 0x3b, 0x73, 0x65, 0x71,
  0x75, 0x65, 0x6e, 0x74, 0x69, 0x61, 0x6c, 0x5f, 0x34, 0x2f, 0x71, 0x75,
  0x61, 0x6e, 0x74, 0x5f, 0x63, 0x6f, 0x6e, 0x76, 0x32, 0x64, 0x5f, 0x31,
  0x38, 0x2f, 0x42, 0x69, 0x61, 0x73, 0x41, 0x64, 0x64, 0x3b, 0x73, 0x65,
  0x71, 0x75, 0x65, 0x6e, 0x74, 0x69, 0x61, 0x6c, 0x5f, 0x34, 0x2f, 0x71,
  0x75, 0x61, 0x6e, 0x74, 0x5f, 0x63, 0x6f, 0x6e, 0x76, 0x32, 0x64, 0x5f,
  0x31, 0x39, 0x2f, 0x43, 0x6f, 0x6e, 0x76, 0x32, 0x44, 0x3b, 0x73, 0x65,
  0x71, 0x75, 0x65, 0x6e, 0x74, 0x69, 0x61, 0x6c, 0x5f, 0x34, 0x2f, 0x71,
  0x75, 0x61, 0x6e, 0x74, 0x5f, 0x63, 0x6f, 0x6e, 0x76, 0x32, 0x64, 0x5f,
  0x31, 0x38, 0x2f, 0x43, 0x6f, 0x6e, 0x76, 0x32, 0x44, 0x3b, 0x73, 0x65,
  0x71, 0x75, 0x65, 0x6e, 0x74, 0x69, 0x61, 0x6c, 0x5f, 0x34, 0x2f, 0x71,
  0x75, 0x61, 0x6e, 0x74, 0x5f, 0x63, 0x6f, 0x6e, 0x76, 0x32, 0x64, 0x5f,
  0x31, 0x38, 0x2f, 0x42, 0x69, 0x61, 0x73, 0x41, 0x64, 0x64, 0x2f, 0x52,
  0x65, 0x61, 0x64, 0x56, 0x61, 0x72, 0x69, 0x61, 0x62, 0x6c, 0x65, 0x4f,
  0x70, 0x2f, 0x72, 0x65, 0x73, 0x6f, 0x75, 0x72, 0x63, 0x65, 0x00, 0x00,
  0x04, 0xca, 0xff, 0xff, 0x08, 0x00, 0x00, 0x00, 0x0c, 0x00, 0x00, 0x00,
  0x01, 0x00, 0x00, 0x00, 0x1b, 0xd5, 0xba, 0x3c, 0x01, 0x00, 0x00, 0x00,
  0x80, 0xff, 0xff, 0xff, 0xff, 0xff, 0xff, 0xff, 0x00, 0x00, 0x00, 0x00,
  0x92, 0xc9, 0xff, 0xff, 0x04, 0x00, 0x00, 0x00, 0x40, 0x00, 0x00, 0x00,
  0x6e, 0x01, 0x00, 0x00, 0x3c, 0x02, 0x00, 0x00, 0xde, 0xeb, 0xff, 0xff,
  0xf7, 0xf8, 0xff, 0xff, 0x03, 0xfe, 0xff, 0xff, 0x09, 0x09, 0x00, 0x00,
  0xa3, 0x05, 0x00, 0x00, 0xdb, 0x07, 0x00, 0x00, 0xd2, 0x00, 0x00, 0x00,
  0x87, 0xf5, 0xff, 0xff, 0x5b, 0x06, 0x00, 0x00, 0xc0, 0xe7, 0xff, 0xff,
  0x79, 0xee, 0xff, 0xff, 0x1c, 0x06, 0x00, 0x00, 0x81, 0x07, 0x00, 0x00,
  0xdb, 0x06, 0x00, 0x00, 0xc2, 0xc9, 0xff, 0xff, 0x00, 0x00, 0x00, 0x02,
  0x10, 0x00, 0x00, 0x00, 0x0c, 0x00, 0x00, 0x00, 0x10, 0x00, 0x00, 0x00,
  0x50, 0x00, 0x00, 0x00, 0x01, 0x00, 0x00, 0x00, 0x10, 0x00, 0x00, 0x00,
  0x3c, 0x00, 0x00, 0x00, 0x73, 0x65, 0x71, 0x75, 0x65, 0x6e, 0x74, 0x69,
  0x61, 0x6c, 0x5f, 0x34, 0x2f, 0x71, 0x75, 0x61, 0x6e, 0x74, 0x5f, 0x63,
  0x6f, 0x6e, 0x76, 0x32, 0x64, 0x5f, 0x31, 0x38, 0x2f, 0x42, 0x69, 0x61,
  0x73, 0x41, 0x64, 0x64, 0x2f, 0x52, 0x65, 0x61, 0x64, 0x56, 0x61, 0x72,
  0x69, 0x61, 0x62, 0x6c, 0x65, 0x4f, 0x70, 0x2f, 0x72, 0x65, 0x73, 0x6f,
  0x75, 0x72, 0x63, 0x65, 0x00, 0x00, 0x00, 0x00, 0xd8, 0xca, 0xff, 0xff,
  0x08, 0x00, 0x00, 0x00, 0x48, 0x00, 0x00, 0x00, 0x10, 0x00, 0x00, 0x00,
  0x4d, 0xdf, 0xab, 0x38, 0xfc, 0xf6, 0xbc, 0x38, 0x8f, 0x89, 0x89, 0x38,
  0xc0, 0xbb, 0xe4, 0x38, 0x81, 0x2b, 0xb9, 0x38, 0x09, 0x8b, 0xf5, 0x38,
  0xe8, 0xab, 0xdb, 0x38, 0xa3, 0x0f, 0xda, 0x38, 0x4e, 0x9b, 0xf6, 0x38,
  0x58, 0xce, 0xd3, 0x38, 0x1c, 0xa3, 0x43, 0x39, 0x04, 0x31, 0x10, 0x38,
  0xef, 0x8a, 0x84, 0x38, 0x2f, 0x19, 0x05, 0x39, 0x55, 0x01, 0xcf, 0x38,
  0xb8, 0x95, 0xd8, 0x38, 0x10, 0x00, 0x00, 0x00, 0x00, 0x00, 0x00, 0x00,
  0x00, 0x00, 0x00, 0x00, 0x00, 0x00, 0x00, 0x00, 0x00, 0x00, 0x00, 0x00,
  0x00, 0x00, 0x00, 0x00, 0x00, 0x00, 0x00, 0x00, 0x00, 0x00, 0x00, 0x00,
  0x00, 0x00, 0x00, 0x00, 0x00, 0x00, 0x00, 0x00, 0x00, 0x00, 0x00, 0x00,
  0x00, 0x00, 0x00, 0x00, 0x00, 0x00, 0x00, 0x00, 0x00, 0x00, 0x00, 0x00,
  0x00, 0x00, 0x00, 0x00, 0x00, 0x00, 0x00, 0x00, 0x00, 0x00, 0x00, 0x00,
  0x00, 0x00, 0x00, 0x00, 0x00, 0x00, 0x00, 0x00, 0x00, 0x00, 0x00, 0x00,
  0x00, 0x00, 0x00, 0x00, 0x00, 0x00, 0x00, 0x00, 0x00, 0x00, 0x00, 0x00,
  0x00, 0x00, 0x00, 0x00, 0x00, 0x00, 0x00, 0x00, 0x00, 0x00, 0x00, 0x00,
  0x00, 0x00, 0x00, 0x00, 0x00, 0x00, 0x00, 0x00, 0x00, 0x00, 0x00, 0x00,
  0x00, 0x00, 0x00, 0x00, 0x00, 0x00, 0x00, 0x00, 0x00, 0x00, 0x00, 0x00,
  0x00, 0x00, 0x00, 0x00, 0x00, 0x00, 0x00, 0x00, 0x1a, 0xcb, 0xff, 0xff,
  0x04, 0x00, 0x00, 0x00, 0x00, 0x04, 0x00, 0x00, 0xde, 0xf9, 0x26, 0x15,
  0xd1, 0xd9, 0xcf, 0xdb, 0x05, 0xea, 0xa6, 0x00, 0xf6, 0x9c, 0xab, 0x8d,
  0xdd, 0x18, 0xec, 0x11, 0xa9, 0xfe, 0xfa, 0x4a, 0xcb, 0xb4, 0xf1, 0x56,
  0xee, 0xdb, 0x2c, 0x2f, 0xac, 0x99, 0x19, 0x35, 0xb4, 0x0a, 0x32, 0xc5,
  0xf9, 0xf6, 0x05, 0xf6, 0x11, 0xf8, 0x8b, 0x94, 0xf5, 0x5b, 0x16, 0x1f,
  0x04, 0x09, 0x7f, 0x2a, 0xe1, 0x85, 0x18, 0x1c, 0xec, 0x0b, 0xf0, 0x18,
  0x54, 0xef, 0x16, 0x36, 0x14, 0x00, 0x05, 0xdf, 0xf1, 0x34, 0x10, 0xf1,
  0xe7, 0x31, 0x17, 0x35, 0xf2, 0x2e, 0x1e, 0x02, 0x5e, 0xff, 0x18, 0xf2,
  0xeb, 0x06, 0xea, 0x20, 0xe0, 0x05, 0xc9, 0x97, 0xd0, 0x08, 0xc3, 0x54,
  0x15, 0xfb, 0xd1, 0xfb, 0xcd, 0x1e, 0x0b, 0xf4, 0xd1, 0x7f, 0x0a, 0x12,
  0xdb, 0xe7, 0x2a, 0x00, 0x14, 0xe0, 0x5f, 0x14, 0x0c, 0xf4, 0xe6, 0x5c,
  0x0a, 0xd2, 0x54, 0xcb, 0x40, 0x2a, 0x4c, 0x2c, 0xd7, 0x36, 0x3f, 0xf8,
  0x51, 0x03, 0x57, 0xe5, 0xdd, 0x07, 0x0c, 0xf6, 0x1d, 0xd0, 0xd4, 0x0b,
  0xfa, 0x31, 0x96, 0x38, 0x22, 0xf0, 0xde, 0x1e, 0x0e, 0x3c, 0xf9, 0xdc,
  0x19, 0x21, 0xd6, 0x53, 0x27, 0x2c, 0x61, 0xd3, 0x46, 0x38, 0x81, 0x0b,
  0x19, 0x39, 0x1a, 0x38, 0x43, 0x74, 0x04, 0xde, 0xc7, 0xfe, 0xfa, 0x10,
  0x70, 0x8e, 0x21, 0x00, 0x31, 0x1d, 0x5e, 0xc1, 0x7f, 0xf3, 0xff, 0xeb,
  0x11, 0x37, 0xe0, 0xfe, 0x26, 0xe7, 0xbd, 0xf2, 0xf8, 0x0b, 0xd6, 0x10,
  0x0d, 0x08, 0x22, 0xfe, 0xee, 0x17, 0xc2, 0xf0, 0xfd, 0xd4, 0x1f, 0x19,
  0x2f, 0x1a, 0x33, 0xf8, 0x29, 0xf3, 0x02, 0x2d, 0xc9, 0xc1, 0x2b, 0xef,
  0x22, 0x16, 0xde, 0xfd, 0xcf, 0x00, 0x26, 0x1c, 0x08, 0xfb, 0x33, 0x00,
  0x26, 0xed, 0xea, 0x21, 0x42, 0x1c, 0xe4, 0x50, 0x02, 0xf7, 0x06, 0xcc,
  0xe3, 0x04, 0x3b, 0xe7, 0x40, 0x5b, 0xde, 0xd3, 0x81, 0x27, 0x46, 0x18,
  0x4d, 0x20, 0x14, 0x5b, 0xd7, 0x04, 0x25, 0xfa, 0xdc, 0x03, 0xde, 0xe2,
  0x21, 0xda, 0x1d, 0xd2, 0xc7, 0xf3, 0xc0, 0xfc, 0xfd, 0x31, 0xcc, 0xc3,
  0x3a, 0x19, 0xb1, 0xc1, 0xbb, 0x3e, 0xde, 0x06, 0x33, 0x6b, 0x17, 0x40,
  0xeb, 0xcb, 0x0b, 0xfd, 0xfe, 0x0c, 0x1e, 0xd1, 0xce, 0xfe, 0x10, 0xd9,
  0xcb, 0xc7, 0x75, 0x11, 0x1b, 0xfb, 0xce, 0x0a, 0x26, 0x0c, 0x81, 0x3a,
  0x0e, 0x07, 0xb9, 0xf6, 0x28, 0xaf, 0x24, 0x18, 0xd2, 0xc1, 0x1d, 0xee,
  0xdd, 0x0a, 0x87, 0x02, 0x2c, 0x1c, 0xc9, 0x0d, 0x07, 0xd0, 0x0a, 0xe8,
  0xcd, 0x1b, 0xd9, 0x00, 0x08, 0x17, 0xac, 0x14, 0xd3, 0x03, 0xb4, 0xfe,
  0xfd, 0xe4, 0x3d, 0x20, 0xce, 0xe9, 0x07, 0xec, 0x0c, 0xe4, 0x19, 0x18,
  0xf0, 0x03, 0xeb, 0xf0, 0xfd, 0x10, 0xd0, 0x12, 0xcb, 0x44, 0xec, 0xe7,
  0xb8, 0x0b, 0xed, 0xef, 0xdf, 0x1a, 0x37, 0x03, 0xce, 0xbd, 0x04, 0xf4,
  0x17, 0xe6, 0x36, 0xf5, 0x07, 0x31, 0x16, 0xcc, 0x03, 0x11, 0x42, 0xb7,
  0xf9, 0xf2, 0x0a, 0x21, 0x26, 0x33, 0x20, 0xe8, 0x11, 0x2f, 0x95, 0x14,
  0xd1, 0x03, 0x43, 0xf4, 0x31, 0xba, 0xfc, 0x13, 0xeb, 0x81, 0x41, 0x06,
  0x19, 0x41, 0x12, 0xd5, 0x09, 0x0c, 0x2d, 0xd4, 0x0e, 0x19, 0xe1, 0xec,
  0xfa, 0x00, 0xe3, 0xcd, 0xfa, 0xf9, 0xe7, 0xf3, 0xdf, 0x07, 0x8a, 0x12,
  0x2d, 0xd7, 0x1a, 0xeb, 0xb9, 0xfd, 0x0b, 0xee, 0xeb, 0x18, 0xc4, 0x13,
  0x05, 0x28, 0x28, 0x81, 0x08, 0x04, 0xe5, 0x24, 0x02, 0x0f, 0xf0, 0xa1,
  0xeb, 0xb1, 0xd8, 0xf0, 0xfa, 0x06, 0xf4, 0xf2, 0x14, 0xbb, 0x0e, 0x1c,
  0xea, 0xe9, 0x01, 0xfa, 0x09, 0xf2, 0x0b, 0x1b, 0x08, 0x40, 0x07, 0xe4,
  0xd4, 0x16, 0xf3, 0xe9, 0x33, 0x20, 0x81, 0x1c, 0x32, 0x07, 0x40, 0xd6,
  0xe0, 0x20, 0xd0, 0xf5, 0x2f, 0x4a, 0xdd, 0x1e, 0xba, 0xea, 0xd5, 0xff,
  0x1e, 0xf8, 0x04, 0xcf, 0xb5, 0xbd, 0xe8, 0xd8, 0xd9, 0x01, 0x34, 0xbe,
  0x37, 0xef, 0x1c, 0xdd, 0x31, 0x32, 0x61, 0xe2, 0xc3, 0xf3, 0x43, 0xf7,
  0xc4, 0x5b, 0xf9, 0x25, 0xe3, 0x19, 0xf0, 0x01, 0x35, 0xf5, 0x25, 0x11,
  0x3b, 0x07, 0x18, 0x28, 0x00, 0x0c, 0x3e, 0x0c, 0x14, 0xfd, 0x13, 0x11,
  0x12, 0xce, 0x44, 0xca, 0xf4, 0xf3, 0x27, 0xf9, 0xc0, 0xee, 0xcc, 0xfc,
  0x11, 0x7f, 0xe5, 0xff, 0xfc, 0x19, 0x46, 0xfd, 0xff, 0xbd, 0x1e, 0xe1,
  0x27, 0xf9, 0x0f, 0xfc, 0xee, 0x05, 0x2a, 0x14, 0xde, 0x1d, 0xd0, 0x0f,
  0x15, 0x11, 0x2f, 0x08, 0xf7, 0x19, 0xbb, 0x20, 0xd6, 0xfc, 0x05, 0xe8,
  0x4f, 0x06, 0xdd, 0x14, 0x18, 0x60, 0x01, 0x27, 0x31, 0x23, 0xd4, 0x01,
  0xcc, 0x03, 0x18, 0xf9, 0xb1, 0xd1, 0xe8, 0xfe, 0x0b, 0xc7, 0xeb, 0x0d,
  0xdf, 0xb2, 0x22, 0x81, 0x1e, 0x1e, 0xd6, 0xf4, 0xd6, 0x17, 0x30, 0xe3,
  0x10, 0x14, 0x1c, 0xf9, 0x02, 0xd7, 0x01, 0x00, 0xe5, 0x01, 0x2a, 0x0a,
  0x0a, 0xfd, 0x02, 0x1c, 0xfc, 0xd2, 0x14, 0xf6, 0x23, 0xf3, 0x06, 0xae,
  0xee, 0x0d, 0xf4, 0x09, 0xc4, 0xe4, 0xd2, 0xee, 0x17, 0x21, 0xce, 0xec,
  0x00, 0x01, 0xcf, 0x19, 0x2f, 0xef, 0xd9, 0x08, 0xf9, 0x81, 0x1e, 0x1b,
  0xc2, 0x01, 0x0b, 0x4d, 0x28, 0x3a, 0x03, 0xae, 0xe3, 0xee, 0x0a, 0xf1,
  0xcf, 0xba, 0xfe, 0x95, 0xbb, 0xa5, 0x9d, 0xb3, 0xe3, 0x92, 0xd4, 0x1a,
  0x27, 0xea, 0x35, 0xc7, 0x99, 0x2a, 0x15, 0x0f, 0xaa, 0xb3, 0x41, 0xdd,
  0xb5, 0x2a, 0xa4, 0xd9, 0xd7, 0xc3, 0x95, 0x49, 0xc2, 0x95, 0xeb, 0xe1,
  0x22, 0xcb, 0x0a, 0x88, 0xda, 0xee, 0xca, 0x04, 0x1e, 0x24, 0x5a, 0x28,
  0xc6, 0x36, 0x7f, 0xc8, 0x2b, 0x61, 0x70, 0xe8, 0xd0, 0xf8, 0xf7, 0x5b,
  0x32, 0x1d, 0x26, 0xe4, 0x03, 0xf6, 0xc8, 0x1d, 0x3b, 0xf9, 0x31, 0xba,
  0x3b, 0x51, 0x0e, 0x64, 0x29, 0x3f, 0xf4, 0x0d, 0x08, 0xe7, 0xe6, 0x0d,
  0x4d, 0x5d, 0xc2, 0x13, 0xe6, 0xcf, 0xe1, 0xf5, 0xbc, 0x4c, 0x21, 0xe0,
  0x50, 0x39, 0xc8, 0x4b, 0xd9, 0xaa, 0x59, 0x02, 0x09, 0x33, 0xef, 0xac,
  0xb0, 0x1b, 0x19, 0xec, 0x28, 0x1f, 0xe6, 0x33, 0xde, 0xed, 0xcb, 0x11,
  0xf0, 0xd1, 0xf7, 0xe1, 0x19, 0x1d, 0xfa, 0x0b, 0xd8, 0x1f, 0x38, 0xf8,
  0x18, 0xd3, 0x05, 0x1a, 0x08, 0xd1, 0xff, 0xe0, 0x0e, 0x1a, 0x02, 0xb1,
  0x24, 0x0f, 0xbf, 0x30, 0xea, 0x0f, 0x30, 0x11, 0x7f, 0xd8, 0x1f, 0x01,
  0xdd, 0x9a, 0x38, 0xf7, 0xce, 0xf8, 0xf9, 0xf4, 0x08, 0x2e, 0xf3, 0xfa,
  0xa8, 0x2c, 0xe0, 0xe3, 0x03, 0x12, 0x81, 0xca, 0xb6, 0x22, 0x0b, 0xc8,
  0xa9, 0x26, 0xda, 0x06, 0xf9, 0x12, 0x29, 0xe8, 0xa9, 0xaa, 0x22, 0xec,
  0x37, 0x08, 0x0d, 0x00, 0xcf, 0x05, 0xf9, 0x32, 0xe2, 0x81, 0xd2, 0x61,
  0x97, 0x4c, 0xec, 0xdd, 0x12, 0x12, 0xb0, 0x0c, 0xf8, 0x0e, 0xcb, 0x0a,
  0x98, 0xdb, 0x1c, 0xce, 0x0b, 0x9c, 0x1e, 0x11, 0x39, 0x5d, 0xe2, 0xb3,
  0x49, 0xfe, 0x1f, 0x02, 0xa5, 0xbd, 0xa2, 0xfb, 0x52, 0xe0, 0x3b, 0x0a,
  0x00, 0xe3, 0x08, 0xaf, 0xe3, 0xdb, 0x6b, 0xf2, 0xeb, 0xa8, 0x45, 0x8c,
  0x39, 0x2c, 0xc5, 0x04, 0x05, 0x21, 0x2f, 0xf3, 0x08, 0x0c, 0x27, 0xfd,
  0xcf, 0xc9, 0xdd, 0x1d, 0x19, 0x10, 0x10, 0xea, 0xeb, 0xb1, 0x46, 0xff,
  0x0d, 0x00, 0x30, 0x05, 0xe6, 0x51, 0x20, 0xd1, 0x12, 0xfa, 0xf9, 0xe6,
  0x04, 0xff, 0x20, 0x81, 0x1c, 0x18, 0x0b, 0x01, 0xdf, 0xf3, 0xa6, 0x2b,
  0x0a, 0xcf, 0xff, 0xff, 0x00, 0x00, 0x00, 0x09, 0x10, 0x00, 0x00, 0x00,
  0x0b, 0x00, 0x00, 0x00, 0x1c, 0x00, 0x00, 0x00, 0x40, 0x00, 0x00, 0x00,
  0x04, 0x00, 0x00, 0x00, 0x10, 0x00, 0x00, 0x00, 0x02, 0x00, 0x00, 0x00,
  0x01, 0x00, 0x00, 0x00, 0x20, 0x00, 0x00, 0x00, 0x23, 0x00, 0x00, 0x00,
  0x73, 0x65, 0x71, 0x75, 0x65, 0x6e, 0x74, 0x69, 0x61, 0x6c, 0x5f, 0x34,
  0x2f, 0x71, 0x75, 0x61, 0x6e, 0x74, 0x5f, 0x63, 0x6f, 0x6e, 0x76, 0x32,
  0x64, 0x5f, 0x31, 0x38, 0x2f, 0x43, 0x6f, 0x6e, 0x76, 0x32, 0x44, 0x00,
  0x10, 0xd0, 0xff, 0xff, 0x08, 0x00, 0x00, 0x00, 0x48, 0x00, 0x00, 0x00,
  0x10, 0x00, 0x00, 0x00, 0x37, 0xbc, 0xf3, 0x3b, 0xba, 0xfc, 0x05, 0x3c,
  0x53, 0x0b, 0xc3, 0x3b, 0x7e, 0x2f, 0x22, 0x3c, 0xe4, 0x4b, 0x03, 0x3c,
  0xc7, 0x1a, 0x2e, 0x3c, 0x96, 0xc2, 0x1b, 0x3c, 0x44, 0x9e, 0x1a, 0x3c,
  0xd5, 0xdb, 0x2e, 0x3c, 0xda, 0x2e, 0x16, 0x3c, 0xe4, 0xb7, 0x8a, 0x3c,
  0x06, 0x7b, 0x4c, 0x3b, 0x15, 0xf6, 0xbb, 0x3b, 0xcf, 0xbf, 0x3c, 0x3c,
  0x69, 0xc7, 0x12, 0x3c, 0x4c, 0x92, 0x19, 0x3c, 0x10, 0x00, 0x00, 0x00,
  0x00, 0x00, 0x00, 0x00, 0x00, 0x00, 0x00, 0x00, 0x00, 0x00, 0x00, 0x00,
  0x00, 0x00, 0x00, 0x00, 0x00, 0x00, 0x00, 0x00, 0x00, 0x00, 0x00, 0x00,
  0x00, 0x00, 0x00, 0x00, 0x00, 0x00, 0x00, 0x00, 0x00, 0x00, 0x00, 0x00,
  0x00, 0x00, 0x00, 0x00, 0x00, 0x00, 0x00, 0x00, 0x00, 0x00, 0x00, 0x00,
  0x00, 0x00, 0x00, 0x00, 0x00, 0x00, 0x00, 0x00, 0x00, 0x00, 0x00, 0x00,
  0x00, 0x00, 0x00, 0x00, 0x00, 0x00, 0x00, 0x00, 0x00, 0x00, 0x00, 0x00,
  0x00, 0x00, 0x00, 0x00, 0x00, 0x00, 0x00, 0x00, 0x00, 0x00, 0x00, 0x00,
  0x00, 0x00, 0x00, 0x00, 0x00, 0x00, 0x00, 0x00, 0x00, 0x00, 0x00, 0x00,
  0x00, 0x00, 0x00, 0x00, 0x00, 0x00, 0x00, 0x00, 0x00, 0x00, 0x00, 0x00,
  0x00, 0x00, 0x00, 0x00, 0x00, 0x00, 0x00, 0x00, 0x00, 0x00, 0x00, 0x00,
  0x00, 0x00, 0x00, 0x00, 0x00, 0x00, 0x00, 0x00, 0x2e, 0xda, 0xff, 0xff,
  0x00, 0x00, 0x00, 0x01, 0x01, 0x00, 0x00, 0x00, 0x24, 0x00, 0x00, 0x00,
  0x18, 0x00, 0x00, 0x00, 0x04, 0x00, 0x00, 0x00, 0x20, 0xda, 0xff, 0xff,
  0x01, 0x00, 0x00, 0x00, 0x01, 0x00, 0x00, 0x00, 0x00, 0x00, 0x01, 0x01,
  0x01, 0x00, 0x00, 0x00, 0x09, 0x00, 0x00, 0x00, 0x03, 0x00, 0x00, 0x00,
  0x06, 0x00, 0x00, 0x00, 0x07, 0x00, 0x00, 0x00, 0x08, 0x00, 0x00, 0x00,
  0x8c, 0xd2, 0xff, 0xff, 0x00, 0x00, 0x00, 0x09, 0x14, 0x00, 0x00, 0x00,
  0x0a, 0x00, 0x00, 0x00, 0x34, 0x00, 0x00, 0x00, 0xdc, 0x00, 0x00, 0x00,
  0x18, 0x00, 0x00, 0x00, 0x04, 0x00, 0x00, 0x00, 0x01, 0x00, 0x00, 0x00,
  0x38, 0x00, 0x00, 0x00, 0x01, 0x00, 0x00, 0x00, 0x20, 0x00, 0x00, 0x00,
  0x04, 0x00, 0x00, 0x00, 0xff, 0xff, 0xff, 0xff, 0x38, 0x00, 0x00, 0x00,
  0x01, 0x00, 0x00, 0x00, 0x20, 0x00, 0x00, 0x00, 0xa6, 0x00, 0x00, 0x00,
  0x73, 0x65, 0x71, 0x75, 0x65, 0x6e, 0x74, 0x69, 0x61, 0x6c, 0x5f, 0x34,
  0x2f, 0x71, 0x75, 0x61, 0x6e, 0x74, 0x5f, 0x72, 0x65, 0x5f, 0x6c, 0x75,
  0x5f, 0x31, 0x37, 0x2f, 0x52, 0x65, 0x6c, 0x75, 0x3b, 0x73, 0x65, 0x71,
  0x75, 0x65, 0x6e, 0x74, 0x69, 0x61, 0x6c, 0x5f, 0x34, 0x2f, 0x71, 0x75,
  0x61, 0x6e, 0x74, 0x5f, 0x63, 0x6f, 0x6e, 0x76, 0x32, 0x64, 0x5f, 0x31,
  0x37, 0x2f, 0x42, 0x69, 0x61, 0x73, 0x41, 0x64, 0x64, 0x3b, 0x73, 0x65,
  0x71, 0x75, 0x65, 0x6e, 0x74, 0x69, 0x61, 0x6c, 0x5f, 0x34, 0x2f, 0x71,
  0x75, 0x61, 0x6e, 0x74, 0x5f, 0x63, 0x6f, 0x6e, 0x76, 0x32, 0x64, 0x5f,
  0x31, 0x37, 0x2f, 0x43, 0x6f, 0x6e, 0x76, 0x32, 0x44, 0x3b, 0x73, 0x65,
  0x71, 0x75, 0x65, 0x6e, 0x74, 0x69, 0x61, 0x6c, 0x5f, 0x34, 0x2f, 0x71,
  0x75, 0x61, 0x6e, 0x74, 0x5f, 0x63, 0x6f, 0x6e, 0x76, 0x32, 0x64, 0x5f,
  0x31, 0x37, 0x2f, 0x42, 0x69, 0x61, 0x73, 0x41, 0x64, 0x64, 0x2f, 0x52,
  0x65, 0x61, 0x64, 0x56, 0x61, 0x72, 0x69, 0x61, 0x62, 0x6c, 0x65, 0x4f,
  0x70, 0x2f, 0x72, 0x65, 0x73, 0x6f, 0x75, 0x72, 0x63, 0x65, 0x00, 0x00,
  0x14, 0xd2, 0xff, 0xff, 0x08, 0x00, 0x00, 0x00, 0x0c, 0x00, 0x00, 0x00,
  0x01, 0x00, 0x00, 0x00, 0x59, 0x85, 0x34, 0x3c, 0x01, 0x00, 0x00, 0x00,
  0x80, 0xff, 0xff, 0xff, 0xff, 0xff, 0xff, 0xff, 0x00, 0x00, 0x00, 0x00,
  0xa2, 0xd1, 0xff, 0xff, 0x04, 0x00, 0x00, 0x00, 0x80, 0x00, 0x00, 0x00,
  0xe8, 0x0a, 0x00, 0x00, 0xd3, 0xfc, 0xff, 0xff, 0x96, 0x01, 0x00, 0x00,
  0x98, 0xea, 0xff, 0xff, 0x3d, 0xfc, 0xff, 0xff, 0x1b, 0xfe, 0xff, 0xff,
  0x58, 0x04, 0x00, 0x00, 0xbc, 0x06, 0x00, 0x00, 0xbe, 0x98, 0xff, 0xff,
  0xaa, 0xfc, 0xff, 0xff, 0x05, 0xe9, 0xff, 0xff, 0xc1, 0xdb, 0xff, 0xff,
  0xc7, 0xf5, 0xff, 0xff, 0xac, 0xfe, 0xff, 0xff, 0x82, 0x12, 0x00, 0x00,
  0x9c, 0x06, 0x00, 0x00, 0xd1, 0xff, 0xff, 0xff, 0xef, 0xb9, 0xff, 0xff,
  0xa8, 0xff, 0xff, 0xff, 0x2c, 0xce, 0xff, 0xff, 0x56, 0x02, 0x00, 0x00,
  0xe9, 0xfb, 0xff, 0xff, 0xc3, 0xf8, 0xff, 0xff, 0xe7, 0xb5, 0xff, 0xff,
  0x82, 0xfe, 0xff, 0xff, 0xee, 0x20, 0x00, 0x00, 0x06, 0xfe, 0xff, 0xff,
  0x74, 0xfb, 0xff, 0xff, 0x25, 0x9d, 0xff, 0xff, 0xb1, 0xce, 0xff, 0xff,
  0x47, 0x09, 0x00, 0x00, 0x12, 0x10, 0x00, 0x00, 0x12, 0xd2, 0xff, 0xff,
  0x00, 0x00, 0x00, 0x02, 0x10, 0x00, 0x00, 0x00, 0x09, 0x00, 0x00, 0x00,
  0x10, 0x00, 0x00, 0x00, 0x50, 0x00, 0x00, 0x00, 0x01, 0x00, 0x00, 0x00,
  0x20, 0x00, 0x00, 0x00, 0x3c, 0x00, 0x00, 0x00, 0x73, 0x65, 0x71, 0x75,
  0x65, 0x6e, 0x74, 0x69, 0x61, 0x6c, 0x5f, 0x34, 0x2f, 0x71, 0x75, 0x61,
  0x6e, 0x74, 0x5f, 0x63, 0x6f, 0x6e, 0x76, 0x32, 0x64, 0x5f, 0x31, 0x37,
  0x2f, 0x42, 0x69, 0x61, 0x73, 0x41, 0x64, 0x64, 0x2f, 0x52, 0x65, 0x61,
  0x64, 0x56, 0x61, 0x72, 0x69, 0x61, 0x62, 0x6c, 0x65, 0x4f, 0x70, 0x2f,
  0x72, 0x65, 0x73, 0x6f, 0x75, 0x72, 0x63, 0x65, 0x00, 0x00, 0x00, 0x00,
  0x28, 0xd3, 0xff, 0xff, 0x08, 0x00, 0x00, 0x00, 0x88, 0x00, 0x00, 0x00,
  0x20, 0x00, 0x00, 0x00, 0x0e, 0x2c, 0x27, 0x38, 0x15, 0x7b, 0xe6, 0x37,
  0xde, 0xa6, 0x1f, 0x38, 0x63, 0xbd, 0xd4, 0x37, 0x8d, 0x3d, 0x0a, 0x38,
  0xcf, 0xa6, 0x17, 0x38, 0xa8, 0x4d, 0x2a, 0x38, 0x2a, 0x88, 0x25, 0x38,
  0x1b, 0x6e, 0xb5, 0x37, 0xa0, 0x7d, 0x22, 0x38, 0xee, 0x5e, 0x10, 0x38,
  0x65, 0x94, 0xa1, 0x36, 0xdc, 0x83, 0xcd, 0x37, 0x23, 0x01, 0x34, 0x38,
  0xad, 0xd4, 0x0f, 0x38, 0x2d, 0x44, 0x51, 0x38, 0x35, 0xc9, 0x09, 0x38,
  0x3e, 0xe3, 0x1b, 0x38, 0xfc, 0xee, 0xe3, 0x37, 0xa2, 0xd9, 0xa4, 0x36,
  0x3c, 0xa6, 0x33, 0x38, 0xb2, 0x15, 0xea, 0x37, 0x7e, 0x8a, 0x10, 0x38,
  0x2a, 0x29, 0xad, 0x37, 0x39, 0x0d, 0xf2, 0x37, 0xa8, 0xed, 0xd7, 0x37,
  0x87, 0x2f, 0xec, 0x37, 0x89, 0xfb, 0x32, 0x38, 0xab, 0x7a, 0xa6, 0x37,
  0xc0, 0xcc, 0xbc, 0x37, 0x64, 0x68, 0x23, 0x38, 0x69, 0xdd, 0x1d, 0x38,
  0x20, 0x00, 0x00, 0x00, 0x00, 0x00, 0x00, 0x00, 0x00, 0x00, 0x00, 0x00,
  0x00, 0x00, 0x00, 0x00, 0x00, 0x00, 0x00, 0x00, 0x00, 0x00, 0x00, 0x00,
  0x00, 0x00, 0x00, 0x00, 0x00, 0x00, 0x00, 0x00, 0x00, 0x00, 0x00, 0x00,
  0x00, 0x00, 0x00, 0x00, 0x00, 0x00, 0x00, 0x00, 0x00, 0x00, 0x00, 0x00,
  0x00, 0x00, 0x00, 0x00, 0x00, 0x00, 0x00, 0x00, 0x00, 0x00, 0x00, 0x00,
  0x00, 0x00, 0x00, 0x00, 0x00, 0x00, 0x00, 0x00, 0x00, 0x00, 0x00, 0x00,
  0x00, 0x00, 0x00, 0x00, 0x00, 0x00, 0x00, 0x00, 0x00, 0x00, 0x00, 0x00,
  0x00, 0x00, 0x00, 0x00, 0x00, 0x00, 0x00, 0x00, 0x00, 0x00, 0x00, 0x00,
  0x00, 0x00, 0x00, 0x00, 0x00, 0x00, 0x00, 0x00, 0x00, 0x00, 0x00, 0x00,
  0x00, 0x00, 0x00, 0x00, 0x00, 0x00, 0x00, 0x00, 0x00, 0x00, 0x00, 0x00,
  0x00, 0x00, 0x00, 0x00, 0x00, 0x00, 0x00, 0x00, 0x00, 0x00, 0x00, 0x00,
  0x00, 0x00, 0x00, 0x00, 0x00, 0x00, 0x00, 0x00, 0x00, 0x00, 0x00, 0x00,
  0x00, 0x00, 0x00, 0x00, 0x00, 0x00, 0x00, 0x00, 0x00, 0x00, 0x00, 0x00,
  0x00, 0x00, 0x00, 0x00, 0x00, 0x00, 0x00, 0x00, 0x00, 0x00, 0x00, 0x00,
  0x00, 0x00, 0x00, 0x00, 0x00, 0x00, 0x00, 0x00, 0x00, 0x00, 0x00, 0x00,
  0x00, 0x00, 0x00, 0x00, 0x00, 0x00, 0x00, 0x00, 0x00, 0x00, 0x00, 0x00,
  0x00, 0x00, 0x00, 0x00, 0x00, 0x00, 0x00, 0x00, 0x00, 0x00, 0x00, 0x00,
  0x00, 0x00, 0x00, 0x00, 0x00, 0x00, 0x00, 0x00, 0x00, 0x00, 0x00, 0x00,
  0x00, 0x00, 0x00, 0x00, 0x00, 0x00, 0x00, 0x00, 0x00, 0x00, 0x00, 0x00,
  0x00, 0x00, 0x00, 0x00, 0x00, 0x00, 0x00, 0x00, 0x00, 0x00, 0x00, 0x00,
  0x00, 0x00, 0x00, 0x00, 0x00, 0x00, 0x00, 0x00, 0x00, 0x00, 0x00, 0x00,
  0x00, 0x00, 0x00, 0x00, 0x00, 0x00, 0x00, 0x00, 0x00, 0x00, 0x00, 0x00,
  0x2a, 0xd4, 0xff, 0xff, 0x04, 0x00, 0x00, 0x00, 0x00, 0x20, 0x00, 0x00,
  0x07, 0x02, 0x27, 0x36, 0xef, 0xde, 0xe3, 0xfa, 0xed, 0x37, 0xed, 0x0f,
  0x08, 0xe4, 0x1b, 0x18, 0x4a, 0xb8, 0x0b, 0x0b, 0xa1, 0x12, 0xd6, 0xf7,
  0xf2, 0xee, 0xec, 0xee, 0x00, 0x08, 0xe4, 0x0b, 0xfd, 0x0a, 0xbf, 0x09,
  0xcf, 0x14, 0xf4, 0xdd, 0xe2, 0x47, 0x20, 0xf9, 0xf0, 0x44, 0xf9, 0x10,
  0xfc, 0x12, 0x26, 0x13, 0x41, 0x11, 0x0c, 0xcd, 0xec, 0xfe, 0xf7, 0x05,
  0x1e, 0x05, 0x0d, 0x0e, 0xc8, 0xf3, 0xe6, 0x09, 0x32, 0x0a, 0x0a, 0x0f,
  0x05, 0xe5, 0x1c, 0xf1, 0x0c, 0x1d, 0xff, 0x11, 0x11, 0xe5, 0xfb, 0xe8,
  0xf7, 0xff, 0x11, 0xd8, 0x0d, 0xcc, 0xfa, 0x1f, 0xcd, 0xd0, 0xf4, 0x21,
  0xdd, 0x05, 0xcb, 0xf4, 0xe6, 0xf5, 0xe4, 0xfa, 0x2a, 0xe3, 0xee, 0x35,
  0xf1, 0xf4, 0x01, 0xeb, 0xaf, 0xa9, 0x0a, 0x02, 0xfb, 0xf1, 0xfe, 0xf2,
  0xe8, 0xfc, 0x11, 0x17, 0x18, 0xfa, 0xde, 0xeb, 0xaf, 0xc6, 0x96, 0x08,
  0xf2, 0xc6, 0x0b, 0x02, 0x0a, 0x2b, 0xf9, 0xe9, 0x17, 0xd1, 0xe6, 0x17,
  0xb4, 0x02, 0x2b, 0xf5, 0xdd, 0xd6, 0x05, 0x16, 0xd7, 0x03, 0xde, 0x39,
  0xf9, 0xc0, 0xea, 0xee, 0x13, 0x0d, 0xb5, 0xf0, 0xf7, 0x0e, 0xf1, 0xf5,
  0x0f, 0x81, 0x00, 0x2e, 0x14, 0x05, 0x07, 0x08, 0xf2, 0x83, 0xfb, 0x01,
  0xd5, 0xd3, 0x10, 0x20, 0xfa, 0x00, 0xaf, 0xf7, 0xfe, 0x02, 0x07, 0x14,
  0xed, 0x0f, 0xc9, 0x11, 0xf9, 0xf3, 0x1f, 0x14, 0x21, 0xf6, 0xe1, 0xf0,
  0x02, 0x12, 0xe8, 0x00, 0x00, 0xe3, 0x12, 0x0d, 0x20, 0x00, 0xcf, 0xff,
  0xcc, 0xe7, 0xf2, 0x4a, 0xf0, 0x16, 0x29, 0xdc, 0x00, 0xce, 0xf8, 0x0e,
  0x9b, 0x1d, 0xd6, 0x22, 0xf7, 0xf0, 0x8a, 0x02, 0x00, 0x00, 0x0d, 0xf8,
  0xea, 0x9e, 0xd9, 0xe9, 0xe7, 0x03, 0x15, 0xfb, 0xe8, 0x07, 0xf6, 0xe7,
  0xde, 0xdc, 0xff, 0x22, 0xfa, 0x04, 0xfa, 0x04, 0xeb, 0xfd, 0x27, 0xf7,
  0x0d, 0x1b, 0xde, 0x46, 0x0c, 0x17, 0x3f, 0x2a, 0xd9, 0xb4, 0x07, 0x17,
  0x01, 0xea, 0xd6, 0x0e, 0xf3, 0x25, 0xfe, 0xed, 0x40, 0xfe, 0xe7, 0x2d,
  0x63, 0xe2, 0xd6, 0x81, 0xc4, 0x08, 0x36, 0x3c, 0x30, 0x11, 0x62, 0x1f,
  0xe9, 0x4a, 0x23, 0x14, 0x6b, 0xe7, 0xfb, 0x0d, 0x15, 0x0c, 0x01, 0x0b,
  0xf2, 0x18, 0x18, 0x16, 0xe8, 0x09, 0x44, 0xf9, 0xec, 0xfc, 0x09, 0x03,
  0xc6, 0xf5, 0x1e, 0xe5, 0x06, 0x09, 0x01, 0xec, 0xf5, 0x08, 0x11, 0x0f,
  0xd8, 0xc1, 0x2b, 0x1c, 0xfe, 0x1e, 0xa1, 0xde, 0x1d, 0xf8, 0x1d, 0xaf,
  0x34, 0x34, 0xe4, 0xe3, 0x03, 0x9d, 0x22, 0xc8, 0xc5, 0x05, 0xf9, 0x3b,
  0x08, 0xe5, 0x48, 0x0f, 0x09, 0xf6, 0x0c, 0xe2, 0x06, 0xe9, 0xfa, 0xea,
  0xf5, 0x09, 0x29, 0xd8, 0xcc, 0x03, 0x1f, 0x17, 0xda, 0x0b, 0x10, 0xbf,
  0xe4, 0xd8, 0xce, 0x06, 0xea, 0xf4, 0x43, 0x1b, 0x30, 0xd9, 0x0d, 0x1e,
  0xe5, 0x30, 0xfe, 0xdf, 0xe2, 0xa0, 0x0f, 0xf6, 0x52, 0x0d, 0xf4, 0x10,
  0xe8, 0xd2, 0x20, 0xfd, 0x27, 0xde, 0x1b, 0xe1, 0xf1, 0xc6, 0xe8, 0xd5,
  0xc7, 0x15, 0xe2, 0xfd, 0x21, 0xe0, 0x5f, 0xce, 0x11, 0x1a, 0xf4, 0x17,
  0x11, 0xdc, 0xfa, 0xff, 0xf8, 0x07, 0x1c, 0x0a, 0xcb, 0xc3, 0xec, 0x23,
  0xee, 0x49, 0xf1, 0xe3, 0xd9, 0xd6, 0xf2, 0x08, 0xe9, 0x38, 0x09, 0x00,
  0x37, 0xc9, 0x1a, 0x21, 0xf1, 0x19, 0x15, 0xed, 0xda, 0xf3, 0x2b, 0x31,
  0x0b, 0x1b, 0xf8, 0xc6, 0x13, 0x2c, 0x1a, 0x11, 0x35, 0xb9, 0x0b, 0x04,
  0x32, 0xdb, 0xa4, 0xfe, 0x3a, 0xe3, 0xf6, 0x6e, 0x25, 0xc1, 0x2f, 0x81,
  0x08, 0x32, 0x28, 0x70, 0xd8, 0xe5, 0x0b, 0xf3, 0x65, 0x02, 0xe2, 0x30,
  0xf7, 0x05, 0x28, 0x1f, 0x0d, 0x30, 0x37, 0x30, 0x2e, 0xc9, 0x20, 0x14,
  0xe9, 0xf1, 0xd9, 0x1b, 0x01, 0xbd, 0x28, 0x13, 0xe2, 0xbc, 0xfe, 0x1c,
  0xbb, 0xec, 0xf9, 0xeb, 0xda, 0x1c, 0xf7, 0xc7, 0x28, 0xfb, 0x05, 0x2c,
  0x16, 0xfe, 0x07, 0xef, 0xb0, 0x19, 0x1c, 0x04, 0xf0, 0x22, 0x03, 0xf1,
  0xf7, 0xdf, 0xcd, 0xba, 0x11, 0x21, 0xf2, 0x08, 0xb7, 0xf1, 0x10, 0x13,
  0x1e, 0xff, 0xdf, 0xbf, 0x02, 0x16, 0xf3, 0xdd, 0x38, 0xb6, 0xe6, 0xe7,
  0xac, 0xdd, 0x29, 0xb9, 0x2d, 0x15, 0xc2, 0x28, 0x21, 0x16, 0x13, 0xbd,
  0x19, 0x14, 0x11, 0xfe, 0xd3, 0x14, 0x0d, 0x0c, 0x08, 0x04, 0x21, 0xe2,
  0x38, 0xc8, 0xd9, 0x29, 0xd5, 0xba, 0x20, 0xf4, 0xb6, 0x07, 0x42, 0x00,
  0xd4, 0x12, 0x29, 0xf0, 0xcd, 0x2d, 0x29, 0xeb, 0xb7, 0x1a, 0x10, 0x1c,
  0x08, 0x17, 0xe3, 0x09, 0xf8, 0x1e, 0x18, 0xfa, 0x0b, 0xe4, 0xda, 0x21,
  0x05, 0xe4, 0xe6, 0x15, 0xab, 0xee, 0x16, 0xef, 0x36, 0xf7, 0x2c, 0xaa,
  0x0b, 0x02, 0xac, 0xf4, 0x22, 0xd1, 0xfa, 0xef, 0x04, 0x16, 0x1c, 0x17,
  0xe6, 0x03, 0x00, 0x22, 0x35, 0xeb, 0xde, 0xef, 0xca, 0xdf, 0xfe, 0xf2,
  0x81, 0xd3, 0x55, 0xec, 0x1a, 0xf7, 0x20, 0xe9, 0x10, 0xf6, 0x05, 0x08,
  0xe6, 0xeb, 0xee, 0xfe, 0x1a, 0x0f, 0xd4, 0xe7, 0xd9, 0x20, 0xf4, 0x0d,
  0xca, 0xc0, 0xa1, 0x13, 0xbe, 0xde, 0x05, 0x9e, 0x0d, 0xff, 0x06, 0xdb,
  0xef, 0xf1, 0x0a, 0xef, 0xca, 0x0a, 0xe4, 0x13, 0x09, 0xf2, 0xc6, 0xf8,
  0x19, 0xfc, 0x2b, 0x20, 0xe4, 0x18, 0xfe, 0xf3, 0xf3, 0xde, 0xe0, 0xed,
  0xf0, 0xd0, 0xaf, 0xda, 0x09, 0x0f, 0x92, 0xe1, 0x05, 0x2f, 0xe4, 0xbc,
  0xe0, 0x1b, 0xfd, 0x34, 0x02, 0xc4, 0xf8, 0x03, 0xd0, 0x21, 0xd3, 0x0a,
  0x0e, 0x1a, 0xf8, 0xf7, 0xa0, 0xf8, 0xeb, 0xe5, 0xf4, 0x0e, 0xb8, 0xe1,
  0xfe, 0xd9, 0xd9, 0xaf, 0xff, 0xfe, 0x10, 0x39, 0xe5, 0x1e, 0x07, 0xee,
  0x04, 0x06, 0xa3, 0x25, 0x3d, 0x03, 0xda, 0xe8, 0x2b, 0xe3, 0x1d, 0x14,
  0x1e, 0xd1, 0x00, 0x16, 0x16, 0x05, 0x0f, 0x15, 0x2a, 0xd4, 0xce, 0xda,
  0xf3, 0x0d, 0x13, 0x9c, 0x10, 0xf6, 0xcb, 0xd8, 0x25, 0x2e, 0x5b, 0xe9,
  0x81, 0xfc, 0xb1, 0xf3, 0x63, 0x0e, 0xc8, 0xfa, 0x10, 0x09, 0xe3, 0x15,
  0x0f, 0x0c, 0x15, 0xaa, 0xf9, 0xe0, 0x0f, 0x20, 0x2d, 0xf1, 0xe2, 0xee,
  0xe5, 0x59, 0x14, 0x3f, 0x0e, 0xd6, 0xde, 0xdd, 0x50, 0x1c, 0x22, 0xfa,
  0xfc, 0xd9, 0xf7, 0xba, 0x08, 0xfc, 0xf8, 0x48, 0x14, 0x2f, 0x0e, 0x08,
  0xe3, 0xd7, 0xae, 0x06, 0xec, 0x10, 0xed, 0xfd, 0x07, 0x24, 0xf3, 0xf3,
  0xe0, 0x34, 0xfc, 0x3b, 0x2d, 0x3f, 0xe1, 0xfa, 0x5b, 0xf5, 0xef, 0xff,
  0x16, 0x21, 0xcb, 0x05, 0xe3, 0xac, 0x0f, 0xdb, 0x09, 0x2d, 0x09, 0xe2,
  0x42, 0xd6, 0xdf, 0x2e, 0x04, 0xfc, 0x13, 0x21, 0xf0, 0x96, 0x01, 0x1a,
  0x07, 0xf8, 0x06, 0xe3, 0xeb, 0xf8, 0xb5, 0xfe, 0x0a, 0x3d, 0xf3, 0x45,
  0x24, 0x12, 0xfb, 0x44, 0x35, 0xf0, 0xee, 0x9c, 0x1f, 0x0b, 0x04, 0xe3,
  0x03, 0x39, 0xc7, 0x15, 0xf7, 0xcf, 0x21, 0xe7, 0x18, 0xf8, 0x13, 0x2a,
  0x4a, 0x1e, 0xdd, 0xdd, 0xfb, 0x13, 0xe6, 0xe6, 0xf4, 0x90, 0xd4, 0xca,
  0x37, 0x31, 0x2e, 0x1b, 0x4b, 0xda, 0xe3, 0x26, 0xd8, 0x19, 0xfd, 0xee,
  0x0b, 0xdd, 0xe9, 0x1a, 0x8b, 0xfa, 0xf0, 0xd1, 0xfa, 0x93, 0xb7, 0xfd,
  0x2d, 0xf8, 0x0a, 0x1c, 0xf1, 0xc6, 0x16, 0xf5, 0x02, 0x54, 0x36, 0xd7,
  0x1d, 0xe4, 0x0e, 0xf1, 0x41, 0xf4, 0xbb, 0x05, 0x2e, 0xfd, 0xf8, 0xff,
  0xe6, 0x9f, 0x27, 0x4a, 0x05, 0x2f, 0xc7, 0xf8, 0x28, 0xcf, 0x97, 0x09,
  0x25, 0xf0, 0x1e, 0xd3, 0xef, 0xe8, 0xfa, 0x36, 0xd9, 0x0f, 0x1c, 0x3a,
  0x23, 0xfd, 0x12, 0xb8, 0xee, 0x13, 0x07, 0x20, 0x04, 0xc8, 0x07, 0x0a,
  0x69, 0x01, 0xd5, 0x06, 0x0c, 0xcc, 0x18, 0x1b, 0x26, 0xe2, 0x0a, 0xdb,
  0xfb, 0x8a, 0xc8, 0x09, 0x9d, 0x25, 0xf6, 0xfb, 0xfa, 0xf5, 0x0e, 0xf5,
  0x13, 0x43, 0xe5, 0x14, 0xc9, 0xc2, 0xe7, 0x11, 0xd8, 0x27, 0xed, 0xcd,
  0xe8, 0x15, 0xff, 0xea, 0xdc, 0x2b, 0x2a, 0xd7, 0xca, 0xae, 0xd2, 0x48,
  0x04, 0x18, 0x2a, 0x14, 0x25, 0xb0, 0x20, 0xe4, 0x10, 0x18, 0x31, 0xb0,
  0x05, 0xd1, 0x1f, 0xe4, 0x1e, 0xf7, 0xe7, 0xce, 0x09, 0xfc, 0x17, 0x1f,
  0x09, 0xdc, 0x0f, 0xe1, 0x84, 0xbe, 0xdc, 0x28, 0x35, 0x04, 0x15, 0x24,
  0x24, 0x97, 0x22, 0x11, 0x2a, 0x15, 0x9f, 0xd6, 0x05, 0xde, 0x12, 0xf7,
  0x2c, 0xf8, 0x07, 0x1b, 0xf2, 0xd7, 0x14, 0x26, 0x1f, 0x31, 0x0a, 0xa9,
  0x1e, 0xdf, 0xa1, 0x19, 0xf3, 0xe0, 0x40, 0x19, 0x2e, 0xb2, 0xe0, 0x1d,
  0xf3, 0x02, 0x0f, 0x1b, 0xe8, 0xee, 0x32, 0xfd, 0xe2, 0x0a, 0xfb, 0x30,
  0xf4, 0x09, 0x08, 0x33, 0x13, 0xc9, 0x0c, 0x19, 0x0f, 0x0f, 0x81, 0xb8,
  0x11, 0xe8, 0x1c, 0x29, 0x09, 0xaf, 0x3a, 0x3b, 0x05, 0xfe, 0x03, 0xfd,
  0x41, 0xbe, 0xfb, 0xff, 0x0a, 0xff, 0xec, 0x1b, 0x1b, 0x19, 0x85, 0xfd,
  0x28, 0x31, 0x1c, 0xfe, 0x1e, 0xe9, 0xd6, 0xcd, 0xd1, 0x12, 0x27, 0x11,
  0x31, 0xd8, 0xdc, 0xd4, 0xfc, 0xf0, 0x11, 0x0f, 0xe7, 0xe8, 0x23, 0xdd,
  0x29, 0xfb, 0x94, 0xdf, 0x13, 0xf9, 0xca, 0x45, 0x00, 0x2a, 0xd8, 0xfb,
  0x1f, 0x89, 0xc6, 0x04, 0xd3, 0xfb, 0xee, 0x14, 0xe9, 0xa0, 0xc1, 0x35,
  0x2a, 0xd8, 0x16, 0xfe, 0x34, 0x01, 0xba, 0xd1, 0x28, 0x15, 0x1f, 0xca,
  0xf6, 0x04, 0xf1, 0xe7, 0xe1, 0xd5, 0xbb, 0x20, 0x0e, 0xb2, 0xbf, 0x56,
  0xcf, 0x05, 0x2f, 0xcc, 0x18, 0xe7, 0x11, 0xe9, 0xf6, 0xfd, 0x2f, 0xf8,
  0xec, 0xed, 0xe2, 0x07, 0x4b, 0x0a, 0xe3, 0xca, 0xe9, 0x9d, 0xef, 0xfe,
  0x0d, 0xf0, 0xf1, 0xef, 0xdc, 0xdb, 0xd5, 0x01, 0xec, 0xf1, 0x20, 0x1e,
  0x08, 0xc4, 0x24, 0x00, 0x19, 0xfb, 0xd0, 0x40, 0x7f, 0xef, 0x02, 0x05,
  0xfb, 0x17, 0xf7, 0x3e, 0xe1, 0xc0, 0x06, 0xf6, 0x15, 0x00, 0xde, 0xdc,
  0x07, 0xce, 0xcc, 0xd9, 0xe4, 0xf6, 0x3c, 0x37, 0x16, 0xec, 0x22, 0x06,
  0x07, 0xf9, 0x01, 0x33, 0xd9, 0xc0, 0x0a, 0xf3, 0x12, 0x09, 0xec, 0x26,
  0xd8, 0xfb, 0xd0, 0x11, 0x04, 0xf8, 0xf6, 0xff, 0x3b, 0xd2, 0xdd, 0x03,
  0x2e, 0x1d, 0x04, 0x1b, 0xfb, 0xdb, 0x3a, 0x42, 0x28, 0x13, 0x0d, 0x08,
  0x17, 0xf2, 0xf4, 0xff, 0x03, 0xfb, 0x1a, 0xf7, 0xe9, 0x16, 0x1a, 0x0a,
  0x03, 0x36, 0x06, 0xaa, 0x07, 0xdf, 0xea, 0x16, 0xdb, 0xd8, 0xdc, 0x14,
  0x3c, 0xc9, 0xf8, 0x15, 0x03, 0x0e, 0xf0, 0x06, 0xe2, 0xe3, 0x14, 0xe5,
  0xe5, 0xfb, 0xfd, 0xc1, 0x27, 0xe0, 0xda, 0xf9, 0x13, 0xfe, 0x26, 0xf3,
  0x09, 0xe3, 0x00, 0xf9, 0xa2, 0xe3, 0x19, 0x3a, 0x2e, 0xa9, 0x31, 0x19,
  0x29, 0x18, 0x19, 0xf7, 0x33, 0xfe, 0xfb, 0xff, 0x0b, 0x12, 0xf0, 0x17,
  0xfe, 0xd9, 0xeb, 0x22, 0x1f, 0x1a, 0x22, 0x00, 0x21, 0xa2, 0xda, 0x02,
  0xd7, 0x01, 0x01, 0x2b, 0xf6, 0xe6, 0xe8, 0xf2, 0xfe, 0xd5, 0xff, 0x22,
  0xdc, 0x0e, 0x01, 0xc0, 0x0f, 0xfb, 0xc8, 0xe0, 0xef, 0x0a, 0xf7, 0x08,
  0x19, 0xfe, 0xd5, 0xdc, 0x15, 0xf8, 0xd2, 0x16, 0xe4, 0xe3, 0x09, 0x09,
  0xf8, 0xb8, 0x13, 0xe5, 0x40, 0xf0, 0x2d, 0xfa, 0x13, 0xce, 0x2a, 0x1a,
  0xf5, 0x07, 0x0b, 0x11, 0x01, 0xf2, 0xcd, 0x0a, 0x11, 0xf1, 0xa2, 0x05,
  0x31, 0xff, 0x16, 0xd1, 0x0c, 0xe8, 0xfb, 0xbb, 0x10, 0x08, 0x1b, 0xfe,
  0xcc, 0xdc, 0x17, 0x09, 0x1c, 0xdc, 0xaf, 0xec, 0xf2, 0x08, 0x03, 0xf9,
  0xf7, 0x34, 0x01, 0x0d, 0xd2, 0xf6, 0x0b, 0x02, 0xd0, 0xe9, 0xd1, 0xe6,
  0xf3, 0x04, 0x0d, 0xec, 0x1c, 0x1c, 0xf7, 0x0f, 0xf1, 0x25, 0xc9, 0x10,
  0x1d, 0xa6, 0x09, 0xf6, 0x2e, 0xf1, 0xfa, 0xde, 0xfa, 0x0c, 0x0f, 0x17,
  0x24, 0x10, 0x09, 0x10, 0x81, 0xbf, 0xc4, 0x09, 0x29, 0x09, 0xf5, 0x00,
  0x19, 0x18, 0xc7, 0xf3, 0xfe, 0x0e, 0xca, 0x00, 0x0d, 0xe2, 0xdd, 0xef,
  0x1c, 0xe0, 0x02, 0xf7, 0x08, 0xf5, 0xfa, 0x0b, 0x0d, 0xf2, 0x20, 0xbf,
  0xcb, 0xfa, 0xe9, 0x9f, 0x0b, 0xfc, 0x0c, 0x36, 0x1a, 0x09, 0x14, 0x1a,
  0x11, 0xda, 0xdd, 0xf1, 0x05, 0xd8, 0xe4, 0xef, 0x13, 0x02, 0xd4, 0xff,
  0x18, 0xf0, 0xc1, 0x0f, 0x0b, 0x46, 0x0a, 0xc0, 0xf6, 0xf1, 0xea, 0xf5,
  0x20, 0x05, 0x2f, 0x13, 0xf0, 0x0d, 0xf0, 0xed, 0x02, 0xfc, 0x0b, 0xee,
  0xd6, 0xb3, 0xfc, 0xeb, 0xf8, 0xdd, 0xcf, 0x17, 0x14, 0x27, 0x08, 0xf6,
  0xe9, 0xe1, 0x0f, 0xe6, 0xff, 0xd5, 0xbd, 0x27, 0x25, 0x1e, 0x0b, 0x19,
  0x08, 0xf2, 0x4d, 0x1b, 0x17, 0x15, 0x0f, 0xe7, 0x27, 0xc3, 0xcc, 0xe4,
  0x47, 0x07, 0x0a, 0xdf, 0xf5, 0x07, 0xea, 0xda, 0x0d, 0x15, 0x18, 0x50,
  0x8f, 0x0d, 0x9e, 0xff, 0xd3, 0x1c, 0x07, 0xec, 0x38, 0x14, 0xf6, 0x23,
  0x0d, 0x2d, 0xd6, 0xf7, 0x0f, 0xe0, 0xa7, 0x0d, 0x3e, 0x07, 0xae, 0x08,
  0xfd, 0x37, 0xf1, 0x20, 0x0a, 0x07, 0x39, 0xef, 0xbc, 0xe1, 0x20, 0x24,
  0xde, 0x2d, 0x0e, 0xfb, 0x60, 0x00, 0xe7, 0x19, 0x43, 0xd8, 0xaa, 0xf9,
  0xf5, 0x13, 0xc3, 0xeb, 0x16, 0x06, 0x00, 0xf9, 0x2c, 0x18, 0x0e, 0xf3,
  0x19, 0xf0, 0x1a, 0xe3, 0x47, 0xdf, 0xf4, 0xef, 0xf4, 0x05, 0x07, 0x0a,
  0xfc, 0xe1, 0x1b, 0x14, 0xfb, 0xfe, 0x17, 0x0c, 0x2a, 0xd4, 0xf7, 0xea,
  0xfe, 0xf4, 0xe8, 0x2c, 0xdf, 0xfe, 0xb2, 0x14, 0xc4, 0xfa, 0xf4, 0x1a,
  0x27, 0x0c, 0xe0, 0xda, 0xd9, 0xda, 0x27, 0x26, 0xfd, 0xc2, 0xff, 0xe7,
  0xea, 0x28, 0xee, 0x16, 0x0f, 0xda, 0xfb, 0xe3, 0x00, 0xd9, 0xd1, 0xee,
  0x03, 0x07, 0xe2, 0xe8, 0x1a, 0xb5, 0x12, 0xfa, 0x33, 0xbf, 0x2e, 0x00,
  0xbd, 0xf7, 0xee, 0x20, 0xf2, 0xea, 0x06, 0xeb, 0xff, 0x07, 0xfd, 0x26,
  0xea, 0x16, 0x0e, 0xfa, 0xcb, 0x18, 0xdd, 0xc0, 0x14, 0xe1, 0xf5, 0xf5,
  0xeb, 0xd8, 0x00, 0xf9, 0x01, 0xcf, 0x0b, 0xef, 0xe6, 0xe0, 0x00, 0xef,
  0x0d, 0xef, 0x4f, 0xe3, 0x17, 0x08, 0x03, 0x20, 0xed, 0xfb, 0xf0, 0x08,
  0xf6, 0xe4, 0xfe, 0x05, 0xf5, 0x10, 0xf6, 0x2c, 0xd4, 0x0d, 0x31, 0xfa,
  0x19, 0x00, 0x1d, 0xf0, 0xec, 0x0b, 0x09, 0xfc, 0x08, 0x1d, 0x08, 0xfd,
  0xf8, 0x0d, 0xb8, 0x01, 0xe5, 0x34, 0x1e, 0x08, 0xf3, 0xfb, 0x0c, 0xfc,
  0x0a, 0xf4, 0x08, 0xf4, 0x07, 0x0a, 0x08, 0x1a, 0x08, 0xc5, 0x21, 0x14,
  0xef, 0x1b, 0xfd, 0xb5, 0x11, 0x14, 0x14, 0x16, 0x0d, 0xf5, 0x07, 0xe3,
  0x02, 0x09, 0xed, 0x24, 0xed, 0xfc, 0x15, 0xf5, 0xfb, 0xd0, 0xfd, 0x03,
  0xe2, 0x10, 0xfd, 0x16, 0x14, 0xe1, 0x05, 0x0b, 0xda, 0xfb, 0x17, 0xf6,
  0x18, 0xd4, 0x24, 0xf9, 0xe4, 0x18, 0x81, 0xec, 0xff, 0x43, 0xdf, 0xda,
  0x18, 0xfd, 0x09, 0xc5, 0xf3, 0xe1, 0xfb, 0x1b, 0xef, 0x22, 0x27, 0x0e,
  0x43, 0xd6, 0xda, 0x02, 0x12, 0xdb, 0x2a, 0x15, 0x09, 0xd6, 0x2e, 0xec,
  0xc6, 0x0a, 0xfb, 0xe6, 0xe7, 0xe9, 0xed, 0xe9, 0x0e, 0x0b, 0xe8, 0x00,
  0xc4, 0xb2, 0xe1, 0x26, 0x1f, 0xc9, 0xf1, 0x0d, 0x38, 0x2f, 0x5a, 0x4d,
  0x2f, 0x35, 0xed, 0x22, 0x12, 0xf6, 0x1c, 0xd2, 0x13, 0x48, 0xe5, 0x10,
  0x3f, 0x22, 0x09, 0x04, 0x2f, 0xcf, 0xbb, 0x17, 0x19, 0xe5, 0x33, 0x08,
  0x0e, 0x51, 0x24, 0x52, 0x20, 0x04, 0x29, 0x38, 0x3c, 0xe7, 0xfd, 0xf4,
  0xff, 0x37, 0x0d, 0x25, 0x11, 0x17, 0x02, 0xfa, 0x7f, 0x36, 0x17, 0xfd,
  0x2c, 0xeb, 0x02, 0x1e, 0x05, 0xbe, 0xfa, 0x1d, 0x1a, 0xfc, 0x05, 0x45,
  0x21, 0x09, 0x37, 0x13, 0xd6, 0x30, 0xef, 0x26, 0x08, 0xf8, 0x26, 0x32,
  0xe0, 0xee, 0xe3, 0x17, 0xdd, 0x25, 0xff, 0x0a, 0xed, 0xdf, 0xfb, 0xf4,
  0x14, 0xf5, 0x24, 0x13, 0x07, 0xf5, 0xf5, 0x49, 0x37, 0xda, 0x45, 0xf4,
  0xea, 0xeb, 0xf1, 0xea, 0xe7, 0x13, 0x4a, 0xe7, 0x2c, 0x0b, 0x15, 0xf6,
  0x6d, 0x44, 0xea, 0xdf, 0x11, 0xc0, 0xd8, 0x16, 0xf0, 0x01, 0x16, 0xf2,
  0xdb, 0x07, 0x05, 0x14, 0xff, 0xe4, 0xb5, 0x13, 0x09, 0x1e, 0x35, 0xe4,
  0x01, 0x20, 0xfb, 0x42, 0xf3, 0x41, 0xd6, 0xe4, 0xfd, 0x10, 0xfa, 0xff,
  0xfb, 0xe3, 0x14, 0xfd, 0xd0, 0x00, 0x4b, 0xef, 0xf9, 0x22, 0xf7, 0x5b,
  0x0c, 0x13, 0x25, 0x01, 0x30, 0x00, 0x05, 0xe5, 0x01, 0x29, 0xf5, 0x10,
  0x16, 0x19, 0x04, 0xf8, 0x54, 0x2e, 0xf6, 0xea, 0x1d, 0xeb, 0x17, 0x1b,
  0xf3, 0x00, 0xce, 0x02, 0xe2, 0xe5, 0xe5, 0x19, 0x38, 0xcf, 0xfa, 0x29,
  0x06, 0x07, 0xef, 0x70, 0x01, 0xe0, 0x1c, 0x16, 0x27, 0x15, 0xf5, 0x55,
  0xa1, 0x2d, 0xe4, 0xcd, 0x13, 0xb6, 0x05, 0x40, 0x12, 0x2e, 0x0b, 0x41,
  0xf8, 0xc1, 0xfd, 0x5f, 0x4b, 0x03, 0x0e, 0x10, 0x3d, 0xe8, 0xe9, 0x3a,
  0xe9, 0x1b, 0x06, 0xe4, 0xf6, 0xb9, 0x1f, 0x05, 0x17, 0x02, 0xfe, 0x08,
  0xfb, 0xf8, 0xdd, 0xf1, 0xf8, 0xe6, 0xf5, 0x0c, 0xf0, 0x2f, 0x24, 0x03,
  0x81, 0x13, 0x02, 0xf7, 0x33, 0xff, 0x1e, 0x07, 0x19, 0xe9, 0xfb, 0x24,
  0x0d, 0x06, 0xe2, 0xef, 0x24, 0x97, 0x11, 0x1d, 0x2b, 0x14, 0xfe, 0xdd,
  0x2e, 0xdc, 0x18, 0x12, 0x28, 0x43, 0x10, 0xc6, 0xca, 0x01, 0xdb, 0xfc,
  0x10, 0xf3, 0x0c, 0xe9, 0x08, 0xfd, 0xeb, 0x1e, 0x03, 0x31, 0x0b, 0xfb,
  0xfc, 0xe8, 0xf8, 0x10, 0x23, 0x03, 0x12, 0x0f, 0xed, 0xf7, 0xe3, 0xea,
  0xd7, 0x3e, 0xe8, 0x1a, 0xe3, 0x18, 0xfe, 0x1c, 0x0f, 0x1d, 0x13, 0xff,
  0x05, 0x0a, 0xd2, 0x13, 0x36, 0xf9, 0x0e, 0x00, 0x22, 0xbb, 0x0a, 0x29,
  0x15, 0x08, 0xf3, 0x05, 0x0e, 0x12, 0x07, 0x03, 0x1a, 0xee, 0xf0, 0xef,
  0xdd, 0x01, 0xdc, 0xe6, 0xfc, 0x05, 0x2c, 0x1a, 0x0e, 0xd8, 0xd0, 0x05,
  0x32, 0x0a, 0x0f, 0x06, 0xcb, 0x00, 0xee, 0xee, 0x28, 0x04, 0x0a, 0x28,
  0xf6, 0x2c, 0xdc, 0xf0, 0xe1, 0xd1, 0xfc, 0xea, 0x2c, 0xfe, 0xee, 0xdc,
  0x03, 0xf1, 0xef, 0x05, 0xf0, 0xf8, 0x03, 0x06, 0x1c, 0xce, 0x20, 0xe6,
  0x14, 0xcc, 0x03, 0x0b, 0xcf, 0x02, 0xe6, 0x1b, 0xf1, 0x03, 0xde, 0xfd,
  0x1d, 0x0d, 0xdb, 0x13, 0x1f, 0x0f, 0xc2, 0xf7, 0xe3, 0x0b, 0xf9, 0xd6,
  0x00, 0xd1, 0xd8, 0xea, 0x24, 0x17, 0x09, 0xf2, 0xff, 0xee, 0x09, 0x09,
  0xcb, 0x04, 0x11, 0xfd, 0xed, 0x23, 0xf3, 0xe8, 0x08, 0x00, 0xff, 0xe6,
  0xda, 0x14, 0x05, 0xe4, 0x2d, 0x05, 0x08, 0x1f, 0xfd, 0xfa, 0x00, 0xf3,
  0x04, 0xb8, 0x2b, 0xfe, 0x09, 0xee, 0x12, 0x1b, 0x0b, 0xfd, 0x00, 0xf6,
  0x01, 0x0a, 0xfa, 0x08, 0x0b, 0x06, 0x05, 0x1b, 0x08, 0xfe, 0xca, 0xe9,
  0xc6, 0xfa, 0xfd, 0xf9, 0x17, 0xff, 0x13, 0x01, 0x09, 0x19, 0x21, 0x06,
  0x37, 0xf3, 0xf8, 0x15, 0x20, 0x11, 0x14, 0xf9, 0x11, 0xb6, 0x10, 0x0c,
  0xfb, 0x08, 0x34, 0xff, 0xe9, 0x14, 0x17, 0x07, 0x17, 0xef, 0x13, 0x10,
  0xef, 0x08, 0x12, 0x17, 0xd5, 0x11, 0xdc, 0x07, 0x39, 0xe9, 0x0d, 0x0a,
  0x3a, 0xda, 0x07, 0x45, 0x01, 0x10, 0x19, 0x17, 0x02, 0xdf, 0xcc, 0x06,
  0x31, 0x09, 0x01, 0x05, 0x24, 0xd8, 0xd1, 0xef, 0x13, 0xb3, 0xfb, 0xf0,
  0xf8, 0x41, 0xfa, 0x12, 0x50, 0xc8, 0x08, 0xfc, 0x52, 0xec, 0xfc, 0xe0,
  0xf7, 0x5b, 0x1d, 0x0c, 0x11, 0x18, 0x33, 0xd8, 0x04, 0xb0, 0xc2, 0xca,
  0x03, 0xee, 0xf7, 0x19, 0x15, 0x1c, 0x2b, 0xfb, 0x19, 0x22, 0xeb, 0x39,
  0x1e, 0xee, 0xa2, 0x06, 0x15, 0xe2, 0x19, 0x29, 0xf0, 0x09, 0xf4, 0xef,
  0xde, 0x42, 0x27, 0x0b, 0xf5, 0x28, 0x26, 0xfe, 0x08, 0x27, 0x2a, 0x08,
  0xe7, 0x14, 0x06, 0x11, 0xd3, 0x75, 0x00, 0x17, 0x2d, 0xfd, 0xfb, 0x0b,
  0x1d, 0x0a, 0xd5, 0x99, 0xe7, 0x00, 0xfe, 0xc2, 0xce, 0x24, 0x0a, 0x35,
  0xc7, 0xfa, 0x13, 0xf1, 0x30, 0xe1, 0xf2, 0xeb, 0xfa, 0x32, 0x12, 0x0c,
  0x01, 0xdf, 0xe0, 0xdf, 0x33, 0xf0, 0xf0, 0x07, 0xf7, 0x0c, 0xda, 0xf9,
  0x20, 0x04, 0xd5, 0x00, 0x07, 0x10, 0xfc, 0x81, 0xbe, 0x04, 0xfe, 0x2b,
  0x33, 0x17, 0xfa, 0xcf, 0x29, 0x1d, 0xf4, 0x07, 0xed, 0x07, 0xb6, 0x06,
  0x1d, 0x03, 0xf3, 0x02, 0x08, 0xf9, 0x05, 0x0d, 0xf9, 0xe4, 0x17, 0x1b,
  0xe8, 0x3c, 0xeb, 0xf5, 0xe5, 0xa4, 0xb6, 0xf3, 0xe6, 0xc9, 0xb9, 0x0b,
  0x1e, 0xbf, 0xfc, 0xd7, 0xf6, 0xff, 0xed, 0x1c, 0x9d, 0x1c, 0xf0, 0xb8,
  0x1d, 0xe2, 0xe2, 0x15, 0xf6, 0x18, 0xf3, 0x1a, 0xe8, 0xea, 0x38, 0xd7,
  0x0b, 0xe9, 0xf2, 0xbf, 0x07, 0x14, 0x1a, 0xf2, 0x0c, 0xd3, 0xf8, 0xf1,
  0x04, 0x1b, 0x21, 0xb5, 0xe8, 0xd8, 0xd8, 0xf1, 0xfd, 0xd4, 0xee, 0x14,
  0xfd, 0xee, 0xe8, 0x02, 0xf4, 0xe0, 0x01, 0xef, 0x27, 0xe6, 0x07, 0x2d,
  0xee, 0xcb, 0x16, 0x9a, 0xeb, 0xad, 0xf8, 0x24, 0xf4, 0x3c, 0xc1, 0x21,
  0xb5, 0x0a, 0xbe, 0xf2, 0xc7, 0x01, 0x30, 0x28, 0xe6, 0x30, 0xf3, 0xf8,
  0x9b, 0xc9, 0xfc, 0xf0, 0x2b, 0xd6, 0x07, 0xe3, 0xdf, 0x9d, 0xb7, 0x23,
  0xd0, 0xb2, 0xa7, 0xf0, 0xb9, 0xe6, 0xd0, 0xf6, 0xbb, 0xce, 0xde, 0xdc,
  0xb0, 0xd0, 0x16, 0xfb, 0xd4, 0x33, 0xc6, 0xe9, 0xa5, 0xdf, 0xed, 0xe3,
  0x1e, 0xcc, 0x33, 0x23, 0xdd, 0xcf, 0x11, 0x3b, 0xe6, 0xb4, 0x20, 0xfa,
  0xb0, 0xcb, 0xf5, 0xd8, 0x2c, 0x9e, 0xe7, 0xe5, 0x04, 0x81, 0x18, 0x27,
  0xfe, 0x00, 0x19, 0xbb, 0xa7, 0xf7, 0xf1, 0x08, 0x27, 0xdf, 0x05, 0xf2,
  0xf4, 0xf4, 0xd9, 0xb7, 0xbe, 0x27, 0xcd, 0x1e, 0xf8, 0x1a, 0xc6, 0x8d,
  0xe3, 0x29, 0x26, 0xc7, 0x1e, 0xee, 0x3a, 0xdf, 0x08, 0xc2, 0xf8, 0x33,
  0x1b, 0x08, 0xbf, 0x0f, 0xdc, 0xc0, 0xcf, 0xb7, 0xdd, 0xa5, 0x06, 0x1d,
  0xd9, 0x2b, 0xe7, 0xa6, 0xfd, 0x09, 0xb6, 0x2f, 0x33, 0xf6, 0xef, 0xb9,
  0xb9, 0xd0, 0xda, 0xe3, 0xfb, 0xf4, 0x43, 0x1c, 0xe5, 0xd5, 0xb6, 0x19,
  0xe0, 0x03, 0xe0, 0xf5, 0x08, 0x1f, 0x24, 0xfb, 0x3a, 0xd6, 0xe0, 0x17,
  0xd8, 0x34, 0xac, 0xb5, 0x12, 0x05, 0x16, 0xfc, 0x0b, 0xe2, 0x94, 0x30,
  0xb0, 0x3d, 0xe8, 0xe2, 0x1d, 0xfe, 0xd4, 0x3e, 0xd5, 0xf8, 0xdb, 0x12,
  0x0e, 0xdb, 0xf9, 0x13, 0x08, 0x18, 0xb2, 0x3f, 0xeb, 0xd7, 0xcc, 0xca,
  0x3b, 0xe9, 0x12, 0xc5, 0xc7, 0xdd, 0x97, 0xf2, 0xd1, 0xab, 0x01, 0xb5,
  0xbf, 0xbe, 0x0b, 0xe8, 0x49, 0xee, 0x45, 0x0d, 0xea, 0xd2, 0xf6, 0xfe,
  0xdf, 0x18, 0x1c, 0xc3, 0x12, 0xbd, 0xa6, 0xd7, 0xdd, 0xf4, 0xa9, 0x10,
  0xc7, 0xbf, 0xc4, 0x0a, 0x0c, 0xd8, 0xa5, 0xad, 0x0b, 0x12, 0x2e, 0xcd,
  0x23, 0x27, 0xce, 0x07, 0xbe, 0xe3, 0x26, 0xdf, 0xe9, 0x0d, 0xfa, 0x3c,
  0xf3, 0x18, 0x27, 0x18, 0xfd, 0xe5, 0x88, 0x02, 0xc1, 0x0a, 0x43, 0xcc,
  0xf9, 0xfe, 0xab, 0x1a, 0x1b, 0xff, 0xfc, 0xf9, 0xe5, 0xff, 0xbc, 0xe5,
  0x14, 0x14, 0xcc, 0x23, 0x29, 0xbd, 0xe7, 0xe6, 0x57, 0xc3, 0xfb, 0x05,
  0xc4, 0xe5, 0xca, 0xd6, 0x3d, 0xe3, 0x19, 0x55, 0xf1, 0x3f, 0xf0, 0x07,
  0xf4, 0x43, 0x15, 0xce, 0xf0, 0xcb, 0x19, 0x07, 0xf4, 0x43, 0xb7, 0xd1,
  0xfd, 0xf9, 0x19, 0x54, 0x43, 0x29, 0xf6, 0xfa, 0x09, 0xec, 0x26, 0xf1,
  0x14, 0xe5, 0x11, 0xef, 0x08, 0xd1, 0xf9, 0xf0, 0xe2, 0xbd, 0xe1, 0xd6,
  0xe3, 0xe0, 0xbc, 0xf4, 0x22, 0xd9, 0xf0, 0x1a, 0x19, 0xd6, 0xdd, 0xb2,
  0x20, 0xf5, 0x29, 0x24, 0x93, 0x39, 0xe5, 0xee, 0x36, 0xba, 0xea, 0x08,
  0xf8, 0x7f, 0x05, 0xf6, 0x28, 0x57, 0x3b, 0x9b, 0x14, 0x81, 0xff, 0xee,
  0xa7, 0x08, 0x25, 0xe1, 0xe1, 0x29, 0xf2, 0x79, 0xda, 0xf7, 0xb3, 0xd1,
  0x43, 0x32, 0x0c, 0xf6, 0x29, 0x0b, 0xc9, 0x20, 0xb1, 0x02, 0xe1, 0xea,
  0xeb, 0x36, 0xfe, 0x18, 0x01, 0x07, 0xa5, 0xdd, 0xd8, 0xb3, 0xc7, 0xea,
  0xe2, 0xfb, 0xa9, 0xc9, 0x12, 0x0f, 0xf5, 0x34, 0xd9, 0x2f, 0xf1, 0xf3,
  0xb4, 0x88, 0xf2, 0xf3, 0xe7, 0x45, 0xb8, 0xee, 0xf4, 0x06, 0x00, 0xba,
  0xa7, 0xc5, 0x3a, 0x26, 0x1b, 0x33, 0x45, 0x26, 0xe5, 0x1a, 0x0c, 0x12,
  0xc8, 0xed, 0x8c, 0x01, 0xfa, 0x1e, 0xf1, 0xb8, 0xf9, 0xf3, 0xeb, 0x22,
  0xef, 0x3d, 0x15, 0x24, 0x16, 0x52, 0xbf, 0x3f, 0x2f, 0xdc, 0xff, 0x14,
  0xdf, 0xeb, 0xb9, 0xc1, 0x0c, 0xb5, 0x06, 0x0d, 0x13, 0x30, 0xf2, 0x14,
  0x22, 0x00, 0xfe, 0x09, 0x2a, 0xe7, 0xc0, 0xe9, 0xe5, 0xfd, 0x27, 0x14,
  0xff, 0xb9, 0x28, 0xff, 0xc9, 0x0a, 0x0d, 0x37, 0x10, 0xf3, 0xe9, 0xd8,
  0x09, 0x2b, 0x0a, 0xfa, 0x04, 0xec, 0xe8, 0xe0, 0x2a, 0xf5, 0x0d, 0x0c,
  0x10, 0x02, 0xfe, 0x33, 0x02, 0xe5, 0x17, 0x0d, 0x10, 0xe1, 0x00, 0xbb,
  0xa3, 0xbc, 0xb7, 0x2a, 0x10, 0x10, 0x17, 0x0d, 0x12, 0x12, 0xcf, 0x31,
  0x17, 0x39, 0xea, 0x23, 0xd3, 0xf8, 0xeb, 0xea, 0xf9, 0x18, 0x01, 0x0d,
  0xd2, 0x24, 0x12, 0xf3, 0x08, 0x0c, 0xfd, 0x19, 0xcb, 0xd9, 0xde, 0x1d,
  0xea, 0xf8, 0x05, 0x11, 0x04, 0xdf, 0xfa, 0xe3, 0x2f, 0x0f, 0xee, 0xf8,
  0x28, 0xfb, 0x1b, 0xee, 0xd4, 0x09, 0xde, 0x12, 0xf4, 0x3f, 0xf7, 0x0c,
  0xfd, 0x06, 0xfc, 0x18, 0x00, 0x21, 0x93, 0xfc, 0xde, 0xe8, 0xf4, 0xe7,
  0xfc, 0xc6, 0xee, 0x0d, 0x09, 0xe0, 0x04, 0xf0, 0xe8, 0xd1, 0x0f, 0x05,
  0xc7, 0xe3, 0xdf, 0x0d, 0xee, 0xc6, 0xef, 0xea, 0xf1, 0xe2, 0xde, 0xf1,
  0xbf, 0xe8, 0x95, 0x2a, 0xf2, 0xfb, 0xff, 0x0e, 0x0b, 0xec, 0xe2, 0xf3,
  0x00, 0x07, 0xfc, 0x08, 0xb7, 0x1b, 0x0f, 0x01, 0xee, 0xed, 0xe2, 0xf5,
  0xd7, 0xd7, 0xf9, 0x1e, 0x0c, 0xe5, 0xec, 0x0d, 0x1f, 0x0c, 0xdc, 0x07,
  0xd2, 0x27, 0xf1, 0x0d, 0xe1, 0x8d, 0x99, 0xf5, 0x25, 0xe1, 0x0b, 0xec,
  0x3e, 0x81, 0xd4, 0x06, 0x03, 0x0c, 0xe3, 0x17, 0xf9, 0xe9, 0xc3, 0xd7,
  0xf5, 0x32, 0xf5, 0xe1, 0x1c, 0x08, 0xe0, 0x02, 0xe5, 0xda, 0x24, 0x0c,
  0x26, 0xdf, 0xe5, 0xe6, 0x07, 0x01, 0xff, 0xfe, 0xeb, 0x0b, 0x1c, 0x16,
  0x00, 0x01, 0xc4, 0xea, 0xf6, 0xe8, 0xf0, 0x2c, 0x1b, 0x0e, 0x1c, 0xe1,
  0x0a, 0xc9, 0x1d, 0x2a, 0x03, 0x15, 0xb6, 0xf3, 0xed, 0xf1, 0xf4, 0x21,
  0xef, 0x1a, 0xf6, 0xe7, 0xd1, 0x9c, 0xda, 0xa1, 0x29, 0xe9, 0x2e, 0xdd,
  0x14, 0x03, 0x13, 0x09, 0xce, 0xd6, 0xf1, 0xe9, 0xc8, 0xf4, 0xa9, 0xe0,
  0xdb, 0xff, 0xed, 0x03, 0xfd, 0xda, 0xf6, 0x13, 0xe7, 0x03, 0xf5, 0xe9,
  0xcb, 0x0c, 0x09, 0xf9, 0xb7, 0x07, 0x25, 0x87, 0x15, 0xdf, 0xff, 0xf3,
  0x04, 0xab, 0x04, 0xdd, 0xff, 0xf1, 0xf6, 0xd5, 0xe4, 0xff, 0x10, 0x4b,
  0x1d, 0xf6, 0x25, 0xe1, 0x21, 0xb8, 0x06, 0x01, 0x1b, 0x14, 0xf5, 0x21,
  0x05, 0x34, 0x08, 0x1c, 0x16, 0xed, 0x12, 0x0f, 0x17, 0x1c, 0xec, 0xb6,
  0x08, 0x1b, 0x15, 0xda, 0xe9, 0xee, 0xeb, 0xed, 0x01, 0xf6, 0x06, 0x42,
  0xfb, 0x27, 0xf7, 0xe9, 0xf2, 0x14, 0x1e, 0x22, 0xfb, 0x11, 0x19, 0xee,
  0xf0, 0xee, 0xfe, 0x10, 0x02, 0xe1, 0xe9, 0xe4, 0x03, 0xe8, 0xf8, 0xd2,
  0xe0, 0x01, 0xf1, 0x55, 0xef, 0x3c, 0x0e, 0x09, 0xf8, 0xf0, 0x0b, 0x03,
  0x1d, 0xfd, 0x08, 0x0f, 0xf8, 0x36, 0xff, 0xf8, 0xed, 0x2a, 0xf1, 0xff,
  0xeb, 0xe8, 0x1c, 0xef, 0xfb, 0xed, 0x0e, 0xf4, 0x10, 0x0f, 0xd5, 0xec,
  0xfe, 0xe1, 0xfb, 0xfd, 0xeb, 0xdf, 0x03, 0x08, 0xda, 0xfe, 0x0e, 0x0b,
  0xea, 0x15, 0xfa, 0xe1, 0x01, 0x81, 0xdf, 0x07, 0x10, 0xca, 0xd8, 0xd1,
  0xf3, 0xec, 0xf0, 0xf1, 0x02, 0xe0, 0xe4, 0x35, 0x0a, 0x10, 0x1e, 0xd9,
  0xec, 0xe2, 0xf9, 0x32, 0x00, 0x22, 0x0f, 0xe9, 0x09, 0x21, 0x0b, 0xf1,
  0x09, 0xfa, 0x26, 0x03, 0xf8, 0xb3, 0x16, 0xd2, 0x25, 0xee, 0xe5, 0xdc,
  0x1b, 0xf8, 0xee, 0x16, 0xe9, 0xda, 0x02, 0xba, 0xf8, 0x10, 0x1e, 0x11,
  0xbe, 0xcc, 0x20, 0x1e, 0xf5, 0x10, 0xd2, 0x0d, 0xe6, 0xcf, 0xef, 0xe6,
  0x12, 0xc2, 0xf5, 0x9e, 0x04, 0x01, 0xf0, 0xff, 0xef, 0x05, 0xf9, 0x33,
  0x3c, 0xe1, 0x5b, 0xe5, 0xcc, 0xf5, 0x18, 0x4d, 0x0e, 0x15, 0x16, 0x14,
  0xf7, 0x13, 0xed, 0xe4, 0xf9, 0x19, 0x02, 0xff, 0xf9, 0xad, 0x16, 0x0a,
  0xc1, 0x00, 0xf5, 0x17, 0xf7, 0x34, 0x0f, 0x06, 0xfb, 0x13, 0xfa, 0x12,
  0xe8, 0x17, 0xde, 0xe1, 0xfa, 0xf0, 0x3f, 0x1d, 0x05, 0x12, 0xdb, 0x1a,
  0xff, 0x1d, 0x1e, 0xde, 0x04, 0x06, 0x07, 0xcc, 0x81, 0xf2, 0xdd, 0x1b,
  0xe7, 0x0f, 0x25, 0xf3, 0xf1, 0xfe, 0xe2, 0x31, 0xe9, 0x32, 0xf2, 0x0d,
  0x12, 0x04, 0xe8, 0x19, 0xef, 0x12, 0xf6, 0xec, 0xef, 0xf7, 0x03, 0xe6,
  0xf8, 0x21, 0xf3, 0x36, 0x02, 0xcd, 0xeb, 0x08, 0x02, 0x0f, 0x06, 0x0e,
  0x09, 0xc8, 0xfb, 0x04, 0x40, 0xe5, 0xc4, 0x20, 0x24, 0xe4, 0x07, 0xf6,
  0xf4, 0x13, 0xe1, 0xf0, 0xf5, 0xcf, 0x13, 0x04, 0x1b, 0xde, 0x0c, 0xe1,
  0xed, 0x00, 0xce, 0xe6, 0x14, 0x04, 0x08, 0x14, 0xec, 0xdb, 0xd9, 0x09,
  0x09, 0xe3, 0x10, 0xf9, 0xc9, 0x12, 0x09, 0xfa, 0x03, 0x0a, 0xf8, 0x09,
  0x12, 0xd3, 0xe9, 0xf4, 0xf9, 0xf6, 0xe5, 0xfa, 0x03, 0x04, 0xeb, 0x16,
  0x19, 0xfb, 0x14, 0x14, 0x06, 0xef, 0xf3, 0x0f, 0x1c, 0x25, 0xfe, 0xf6,
  0xe0, 0xdc, 0xec, 0x05, 0xf1, 0xfb, 0xfb, 0xf4, 0xe4, 0x11, 0xf7, 0x32,
  0x11, 0x00, 0xff, 0x2e, 0x18, 0xf7, 0xe3, 0xfd, 0xff, 0x22, 0xd8, 0xd4,
  0xd9, 0xd8, 0xf9, 0xf6, 0x33, 0xf1, 0x0e, 0xf6, 0x37, 0xd8, 0xf4, 0x01,
  0xfd, 0xf0, 0x11, 0x21, 0x1c, 0x04, 0x1b, 0xe3, 0xf2, 0x01, 0xeb, 0xd7,
  0x1c, 0xf1, 0x04, 0x06, 0xdc, 0x12, 0x21, 0xf6, 0x19, 0x04, 0xfb, 0x01,
  0x0d, 0x27, 0x10, 0x06, 0x09, 0xfc, 0xc6, 0xda, 0xf5, 0xff, 0xfe, 0xfb,
  0xdc, 0x17, 0xcb, 0x2e, 0xf3, 0x19, 0xfe, 0x11, 0x0e, 0xe7, 0xf9, 0x01,
  0xd8, 0x16, 0x08, 0xe7, 0xd8, 0x0a, 0xfe, 0x26, 0x1a, 0xf1, 0xee, 0xfc,
  0x11, 0xf8, 0x01, 0xf5, 0xd3, 0x02, 0x20, 0x12, 0x0e, 0xe3, 0x00, 0xfa,
  0xdc, 0xfb, 0xc9, 0xe6, 0x56, 0xe2, 0x33, 0xdc, 0x36, 0xd9, 0xbc, 0x11,
  0xe2, 0xbc, 0x2a, 0x05, 0xca, 0xff, 0xff, 0x03, 0xd2, 0xf9, 0x0d, 0xf0,
  0xea, 0xd9, 0xf0, 0xeb, 0x15, 0x37, 0xcc, 0x21, 0x1d, 0xce, 0xc0, 0x21,
  0x1e, 0xe5, 0x3f, 0x22, 0xe7, 0x19, 0xf2, 0xea, 0xb5, 0x02, 0x9e, 0x81,
  0xfe, 0x00, 0x01, 0x3b, 0xde, 0xc7, 0x0d, 0xf1, 0x0f, 0x03, 0xe1, 0xf9,
  0xf5, 0x0e, 0xfa, 0xb4, 0x3f, 0x18, 0xf0, 0x04, 0x48, 0x0a, 0x37, 0x06,
  0x29, 0xf7, 0xed, 0x29, 0x1a, 0x00, 0x21, 0xf9, 0xe5, 0xc4, 0x1d, 0x2a,
  0x8e, 0x08, 0x29, 0xea, 0xf8, 0x0c, 0xe4, 0x23, 0x2d, 0x49, 0xf8, 0x0f,
  0xb9, 0x13, 0x01, 0x12, 0x4f, 0x11, 0x33, 0x09, 0x0e, 0x15, 0xf2, 0x09,
  0xe3, 0xc0, 0xf5, 0xba, 0xe6, 0x12, 0xf9, 0x01, 0xfc, 0xf9, 0xfe, 0x18,
  0x2a, 0x1c, 0xcc, 0xc3, 0xf1, 0xcd, 0xe2, 0xf1, 0x1d, 0xdf, 0xeb, 0xed,
  0xc2, 0xe7, 0x29, 0x1d, 0xdb, 0x1d, 0xd1, 0x0b, 0xfd, 0x15, 0xfd, 0xd8,
  0x0c, 0x07, 0x2c, 0xc2, 0xdd, 0x01, 0x1c, 0x01, 0x06, 0xf5, 0x3a, 0xf2,
  0x27, 0xc2, 0x0b, 0xe4, 0xc7, 0xd6, 0x05, 0x2b, 0xb2, 0xca, 0xff, 0x32,
  0xdf, 0xfb, 0x0f, 0xa4, 0xce, 0x17, 0x0c, 0xe9, 0x8b, 0x00, 0x0f, 0x09,
  0x27, 0x45, 0xf7, 0xcc, 0xd6, 0x00, 0x07, 0xcd, 0x04, 0xe4, 0xec, 0x28,
  0xee, 0xe8, 0x18, 0x0b, 0xc8, 0xf6, 0x0e, 0xf4, 0x11, 0x19, 0x0e, 0xd4,
  0x0e, 0x04, 0xf2, 0xb3, 0x2f, 0x1a, 0xd1, 0x84, 0x06, 0x33, 0x2f, 0x1c,
  0xf6, 0xfd, 0x08, 0x11, 0x26, 0x25, 0x16, 0xe0, 0x0b, 0xf9, 0xfb, 0xf6,
  0xf4, 0xca, 0x18, 0x08, 0xb0, 0x1f, 0x1b, 0x03, 0xc4, 0xf5, 0x08, 0x01,
  0xdc, 0xb6, 0xcd, 0x10, 0x36, 0x11, 0xcc, 0x0e, 0xcd, 0xec, 0xf9, 0x2d,
  0x8c, 0xa7, 0xde, 0xcd, 0xa6, 0x12, 0xd3, 0xf3, 0x47, 0xce, 0x21, 0x0a,
  0x09, 0x0b, 0x16, 0xee, 0x09, 0x11, 0xf2, 0x1c, 0x10, 0x19, 0x0c, 0x05,
  0xf7, 0x0b, 0xed, 0xde, 0x00, 0xdb, 0x2f, 0x14, 0xf0, 0x7f, 0x08, 0x02,
  0x02, 0xeb, 0xea, 0x2d, 0x19, 0x08, 0xdd, 0x0c, 0xf5, 0xe9, 0xf7, 0x24,
  0x0a, 0x13, 0x34, 0xfa, 0x03, 0xe9, 0x06, 0x16, 0x59, 0x16, 0xea, 0xfe,
  0x1a, 0x03, 0xe9, 0x1f, 0xdf, 0xf8, 0x05, 0x03, 0xe9, 0xff, 0xf5, 0xc8,
  0x3a, 0xff, 0x0d, 0x0c, 0x0d, 0x1c, 0xf4, 0x18, 0x1c, 0xf9, 0xfe, 0x13,
  0x15, 0x1d, 0x0d, 0x0b, 0xd0, 0xe7, 0xe8, 0xd1, 0x10, 0xc7, 0x08, 0x46,
  0xfb, 0x4d, 0x0b, 0x1d, 0x0b, 0xc6, 0x20, 0x07, 0x2b, 0xf8, 0xfc, 0xe5,
  0x1a, 0xe2, 0xed, 0x01, 0x18, 0xf5, 0x08, 0xe9, 0x04, 0x0f, 0xef, 0x0d,
  0x49, 0xfb, 0x00, 0xf5, 0x1e, 0xf2, 0xc9, 0xfa, 0xea, 0x1e, 0xe7, 0x08,
  0x11, 0x20, 0x1c, 0xdd, 0x09, 0x27, 0x5a, 0x14, 0xf9, 0xee, 0xec, 0x17,
  0xe1, 0x25, 0x01, 0xea, 0xfc, 0x31, 0xfb, 0x2b, 0xd1, 0x18, 0x04, 0x15,
  0x15, 0xe8, 0xf6, 0xfe, 0x12, 0x38, 0xf6, 0xfc, 0x07, 0x0c, 0x10, 0x19,
  0xf5, 0x04, 0x06, 0x07, 0x01, 0xf4, 0xd7, 0x19, 0xe8, 0xcc, 0x0b, 0xe4,
  0x19, 0x39, 0xfa, 0x0f, 0x0b, 0xfa, 0xf8, 0x0c, 0xe6, 0xed, 0x15, 0xb3,
  0xff, 0x0e, 0xe5, 0xff, 0xe5, 0x15, 0x13, 0x34, 0x0d, 0x1b, 0x00, 0x36,
  0x08, 0x1d, 0xfa, 0xe7, 0xf3, 0x2b, 0xfe, 0x19, 0x21, 0x2c, 0xcf, 0xdf,
  0x17, 0xff, 0x1b, 0x0f, 0x12, 0xf6, 0xfe, 0xfe, 0xf8, 0xf2, 0xf1, 0xec,
  0x17, 0x2b, 0xff, 0x25, 0xa5, 0x04, 0x00, 0x23, 0xc8, 0x0f, 0xf0, 0xf5,
  0x02, 0x0b, 0xf9, 0x22, 0x49, 0xf0, 0xcd, 0xf8, 0x63, 0x29, 0xdd, 0xf8,
  0x22, 0xed, 0x2a, 0xf5, 0xe5, 0x05, 0xf3, 0x00, 0xcc, 0x58, 0xff, 0x25,
  0xc9, 0xc8, 0x3a, 0x1b, 0x3d, 0x20, 0x07, 0xec, 0x28, 0xbe, 0x12, 0x34,
  0xdf, 0x21, 0x2d, 0xb4, 0x81, 0x26, 0x0d, 0x00, 0x1d, 0xf7, 0xdd, 0x1e,
  0x11, 0x97, 0x32, 0x0f, 0x25, 0xbe, 0x28, 0xc5, 0x02, 0xf2, 0x0b, 0xf9,
  0x1d, 0xdd, 0x12, 0xf4, 0x23, 0xe4, 0x2a, 0xec, 0xe5, 0x56, 0xbe, 0xfc,
  0x1d, 0xa4, 0x27, 0x1a, 0x2e, 0xec, 0xbe, 0xf0, 0xe8, 0xea, 0x2f, 0x05,
  0x05, 0xbf, 0x0c, 0xe9, 0xe8, 0xe4, 0x25, 0xf0, 0x00, 0x3b, 0x30, 0x38,
  0xf9, 0xd1, 0xe0, 0xe8, 0xff, 0xdf, 0xc8, 0xfa, 0xdd, 0x06, 0x0a, 0x10,
  0x4e, 0x08, 0xc3, 0x05, 0x32, 0x1d, 0x1e, 0xd8, 0x2c, 0x33, 0x27, 0x20,
  0x29, 0xcd, 0x5b, 0xd6, 0x1b, 0xef, 0xf3, 0xec, 0xdf, 0xc6, 0xf4, 0x28,
  0xff, 0xfe, 0xf3, 0xf0, 0x14, 0xcf, 0xf0, 0xff, 0xca, 0x0c, 0x12, 0xf2,
  0xfe, 0x28, 0xf8, 0xd6, 0x0b, 0xcb, 0x24, 0x25, 0xf7, 0xa6, 0x14, 0x02,
  0xd4, 0xe0, 0xfd, 0xef, 0xde, 0xd8, 0x07, 0x5e, 0xf7, 0xd5, 0x15, 0xf3,
  0xeb, 0x00, 0xe2, 0xc3, 0xe2, 0x07, 0xd2, 0xeb, 0x1c, 0xd9, 0xf7, 0xbe,
  0xf1, 0x17, 0x9d, 0x07, 0xec, 0x05, 0xfa, 0x08, 0xee, 0x98, 0xea, 0x3b,
  0x0a, 0xb8, 0x2b, 0xbe, 0xfd, 0x04, 0x17, 0xed, 0xc8, 0xfb, 0xfe, 0xfb,
  0x11, 0xe1, 0xf2, 0xd4, 0x1c, 0xc4, 0xf7, 0xf7, 0x2c, 0xce, 0x21, 0x0d,
  0x88, 0xa4, 0x12, 0x1f, 0xff, 0x0f, 0xe6, 0x26, 0xea, 0xfb, 0xe6, 0x15,
  0x14, 0xb7, 0x14, 0x36, 0xef, 0x19, 0xe3, 0xcd, 0x1b, 0xe5, 0xff, 0xfa,
  0x3b, 0x0d, 0x13, 0x20, 0x17, 0xd0, 0xfa, 0xc6, 0x0e, 0xed, 0xd3, 0xc2,
  0xd4, 0x9b, 0x01, 0x2d, 0xe9, 0xe4, 0x21, 0xd5, 0x1d, 0xd7, 0x4f, 0x07,
  0xca, 0xe4, 0x18, 0x46, 0xfc, 0xf9, 0xad, 0xf3, 0x1b, 0xcf, 0xef, 0x1b,
  0xfc, 0xfe, 0xd5, 0x58, 0x1d, 0xd9, 0xf3, 0xa5, 0xba, 0xd9, 0xcb, 0xaf,
  0x90, 0xe2, 0xf3, 0x36, 0x9b, 0x0b, 0x19, 0x2e, 0xd2, 0xe7, 0xb8, 0x25,
  0x3d, 0x0e, 0xf6, 0x0a, 0xa7, 0xc1, 0x0d, 0xd8, 0xf6, 0xa9, 0x90, 0x0f,
  0x9f, 0xe3, 0x1e, 0xb2, 0x26, 0x97, 0xf5, 0xfa, 0x38, 0xc1, 0xc8, 0x1b,
  0xf2, 0x0e, 0x09, 0xc5, 0xe2, 0xe1, 0xdc, 0x16, 0xfb, 0xd6, 0xd5, 0xb9,
  0x03, 0xd7, 0x26, 0xc9, 0x2a, 0xbe, 0xed, 0x95, 0x37, 0xcd, 0x48, 0xb1,
  0xd2, 0xae, 0xbf, 0xe3, 0x06, 0xa9, 0x1c, 0xfb, 0xba, 0x20, 0xa0, 0xea,
  0x23, 0xa9, 0xe2, 0x02, 0x27, 0x95, 0xad, 0xc9, 0x11, 0xb8, 0x30, 0xe5,
  0xe2, 0x10, 0xc5, 0x43, 0x1e, 0xa2, 0x02, 0xa6, 0x29, 0xa5, 0x1a, 0x81,
  0xdd, 0xb5, 0x21, 0xc6, 0x02, 0xb0, 0xcb, 0xcb, 0x35, 0x38, 0x19, 0xf3,
  0xc7, 0xb5, 0x00, 0x2c, 0x9c, 0xd3, 0x03, 0x1c, 0x0e, 0x18, 0x21, 0x25,
  0x22, 0xa4, 0xd6, 0xc0, 0xb3, 0xbb, 0xd6, 0xed, 0xe8, 0xea, 0xee, 0xf5,
  0xdc, 0xc4, 0xaf, 0xa4, 0xb6, 0x0d, 0xa6, 0xa9, 0x2e, 0xb9, 0xbc, 0xc8,
  0xb0, 0x18, 0xf1, 0xe2, 0x3e, 0x3b, 0x37, 0xb5, 0xbf, 0xf0, 0xe2, 0xef,
  0x59, 0xe4, 0xee, 0xf2, 0xe1, 0x23, 0xe4, 0xcb, 0x3d, 0xef, 0xed, 0xc5,
  0x0b, 0x46, 0xad, 0xd4, 0x16, 0xdd, 0x0e, 0xb0, 0xae, 0x3e, 0xec, 0xd1,
  0x21, 0x1e, 0x2e, 0xfe, 0xb3, 0xec, 0xc2, 0xfe, 0x33, 0xe9, 0xec, 0xb4,
  0x06, 0x11, 0xba, 0x9e, 0x40, 0x2d, 0xb5, 0xbf, 0x84, 0x0d, 0x07, 0xbc,
  0xc8, 0x10, 0xb1, 0x3b, 0x27, 0xa2, 0xe4, 0x24, 0xb5, 0x2c, 0xd6, 0xd6,
  0x0f, 0xab, 0xe2, 0x8f, 0x25, 0xef, 0xd5, 0xcf, 0xf9, 0xb2, 0xa5, 0xed,
  0x3c, 0xd9, 0xac, 0x26, 0x12, 0xd0, 0xbb, 0xc8, 0xc8, 0x96, 0x2a, 0x03,
  0xe5, 0xba, 0xda, 0x1a, 0x40, 0xfc, 0x45, 0xb9, 0x04, 0xe5, 0xd5, 0x38,
  0xf9, 0xf7, 0x0d, 0xe7, 0x0e, 0x4f, 0x1b, 0xd2, 0xfe, 0xcb, 0xe8, 0x22,
  0xf8, 0xff, 0xf6, 0xfb, 0xff, 0x02, 0x10, 0x33, 0xec, 0x36, 0x1f, 0x13,
  0xbe, 0xf0, 0x27, 0xe9, 0xc0, 0x04, 0xda, 0xf2, 0xf7, 0xe4, 0x11, 0x0a,
  0x14, 0xf3, 0xce, 0x25, 0xfb, 0x07, 0xdd, 0x0b, 0xa4, 0xe7, 0xf9, 0xe7,
  0xda, 0xee, 0x01, 0x0d, 0x00, 0xe5, 0x0f, 0x03, 0x0e, 0xe9, 0xf7, 0x33,
  0xf8, 0xb7, 0x81, 0xf1, 0xf5, 0xdd, 0xfe, 0x09, 0x1c, 0x09, 0x08, 0xec,
  0x22, 0xeb, 0x08, 0x0f, 0xf4, 0xf9, 0xfa, 0x00, 0xc9, 0xf9, 0x19, 0x0a,
  0xfc, 0x0f, 0x0e, 0x0f, 0xff, 0x03, 0xfa, 0xed, 0xf6, 0x04, 0xec, 0xbd,
  0xf8, 0x19, 0xf3, 0xe6, 0x0e, 0xa1, 0xe9, 0x27, 0x16, 0xf9, 0x04, 0xb8,
  0x9b, 0xca, 0x03, 0x0e, 0xf1, 0xe0, 0xf2, 0xe8, 0x0d, 0xc9, 0xe3, 0xef,
  0x0a, 0xff, 0xde, 0xda, 0xfc, 0x0e, 0xa4, 0x22, 0x1e, 0xff, 0x27, 0x14,
  0x09, 0xf3, 0xe7, 0xe1, 0x1b, 0x11, 0x08, 0xfa, 0x1e, 0xea, 0xfb, 0x00,
  0x1a, 0x0f, 0xef, 0x0a, 0xfb, 0xee, 0x12, 0x1e, 0x15, 0xf9, 0x14, 0x18,
  0x20, 0x1d, 0xf3, 0x22, 0x0b, 0x49, 0xea, 0x18, 0xfc, 0xd4, 0xbb, 0x25,
  0x49, 0xe3, 0x00, 0x06, 0xe9, 0x8f, 0xff, 0x26, 0x0a, 0x2b, 0x03, 0x14,
  0x13, 0x05, 0xc7, 0xf8, 0x0b, 0xe1, 0x08, 0xcd, 0x05, 0x10, 0xc1, 0xda,
  0xec, 0xf4, 0x25, 0x21, 0xfc, 0x13, 0x00, 0x10, 0x19, 0x0c, 0x08, 0x07,
  0xf1, 0xdf, 0xe3, 0xee, 0xf0, 0xff, 0xb2, 0x2c, 0xe9, 0x27, 0x2b, 0x17,
  0x05, 0x0d, 0xfd, 0x9d, 0xd5, 0x22, 0x11, 0x22, 0xd1, 0x33, 0xdf, 0xdf,
  0xf6, 0xf5, 0xf0, 0x13, 0x40, 0xe1, 0xd3, 0xe6, 0xf0, 0xcb, 0x10, 0x0a,
  0xdc, 0x2e, 0x25, 0xee, 0xe2, 0x19, 0x08, 0x02, 0xe6, 0xe9, 0x0e, 0xd9,
  0x15, 0x04, 0x02, 0x0a, 0x06, 0xfb, 0xed, 0xf3, 0x04, 0xec, 0x0d, 0x24,
  0xd9, 0x09, 0xf2, 0x09, 0xdc, 0xb9, 0xf1, 0x10, 0xfe, 0x0b, 0xfa, 0xcb,
  0x23, 0xe8, 0x12, 0x0e, 0x43, 0x01, 0x03, 0x2f, 0x1e, 0x15, 0x28, 0xc0,
  0x05, 0x1c, 0x0f, 0x20, 0xfe, 0x35, 0x01, 0x81, 0xf2, 0xeb, 0x03, 0x19,
  0xde, 0x1d, 0x41, 0x33, 0x06, 0x1a, 0xf0, 0xf9, 0xff, 0x20, 0x15, 0x0a,
  0x1d, 0xd9, 0x0d, 0xd2, 0x0b, 0x3d, 0xf1, 0xd6, 0x1f, 0xe5, 0x51, 0x21,
  0x02, 0x28, 0x14, 0xd8, 0xef, 0x17, 0x04, 0x08, 0xf0, 0xe7, 0x0d, 0xf3,
  0x24, 0x10, 0xf7, 0x1d, 0x1a, 0x35, 0x08, 0xda, 0x08, 0x4c, 0xed, 0x09,
  0x39, 0x1a, 0x2d, 0x08, 0xec, 0x02, 0xde, 0x4d, 0x25, 0xea, 0x17, 0xe9,
  0x10, 0x5f, 0xf9, 0x06, 0xe5, 0xf8, 0x1e, 0x0c, 0x12, 0xf4, 0xfe, 0xe5,
  0x23, 0x0b, 0x21, 0x27, 0x4a, 0x0c, 0x1d, 0x1f, 0xe7, 0xea, 0xf8, 0xea,
  0x96, 0xff, 0x0d, 0xc8, 0x0d, 0x48, 0x18, 0x34, 0xf9, 0xfb, 0x2b, 0xc5,
  0xfa, 0xfc, 0x11, 0x05, 0x25, 0x28, 0x28, 0x19, 0xf9, 0x1c, 0x11, 0xeb,
  0xdd, 0xf3, 0x14, 0x21, 0xff, 0xe1, 0x0b, 0x06, 0xef, 0xeb, 0x22, 0xd7,
  0xf6, 0x19, 0x4d, 0xd8, 0xeb, 0x2d, 0xe8, 0x35, 0x14, 0x30, 0x0c, 0xe2,
  0x12, 0xf2, 0x2a, 0x0a, 0x00, 0x25, 0xff, 0x58, 0xed, 0x17, 0x0e, 0xed,
  0xd8, 0x1a, 0xa3, 0xfe, 0xe7, 0x21, 0xfe, 0xfa, 0x26, 0x0a, 0xf3, 0x37,
  0x1e, 0xd4, 0x1e, 0xb4, 0xdc, 0xf1, 0xed, 0x43, 0xe9, 0x24, 0xff, 0x1b,
  0xe8, 0x11, 0x19, 0xe3, 0xea, 0xc1, 0xf7, 0x08, 0xfe, 0xd7, 0xe4, 0x06,
  0x22, 0x16, 0xfb, 0x5f, 0xe6, 0x4b, 0x19, 0xf3, 0x0e, 0x05, 0xcc, 0x6a,
  0xf9, 0xe4, 0xe2, 0xf9, 0x17, 0xe6, 0x1e, 0x17, 0xe1, 0xb0, 0x1f, 0xe4,
  0xfd, 0x5f, 0x10, 0x0b, 0x28, 0xbc, 0xf7, 0x42, 0xe7, 0x03, 0xe6, 0xec,
  0xe6, 0xe1, 0x23, 0xed, 0x06, 0xc4, 0xe7, 0xeb, 0xfb, 0xb5, 0x16, 0xf4,
  0xc9, 0x15, 0x0a, 0xf9, 0x17, 0x5a, 0x21, 0x11, 0x34, 0xe7, 0x30, 0xec,
  0x07, 0x92, 0xe9, 0x09, 0xdb, 0x0e, 0x0f, 0xea, 0x14, 0x97, 0xd4, 0xea,
  0x2a, 0xd6, 0xf9, 0x17, 0x92, 0xed, 0x09, 0xb5, 0xee, 0xeb, 0x01, 0x34,
  0xab, 0xf8, 0x0e, 0x09, 0xec, 0xdc, 0xe5, 0xd0, 0xda, 0xc4, 0xbb, 0x35,
  0x3a, 0xf1, 0x06, 0x2e, 0x1f, 0x13, 0x3d, 0xff, 0x02, 0xc1, 0xdf, 0x12,
  0x19, 0xba, 0x48, 0x19, 0xff, 0x1a, 0x11, 0x42, 0xf5, 0xf9, 0x0a, 0x24,
  0x05, 0xf7, 0xd3, 0xf0, 0x31, 0x0b, 0xe9, 0xda, 0xff, 0x28, 0xe2, 0x0f,
  0xf4, 0x81, 0x11, 0x05, 0x0a, 0xf0, 0x02, 0xcb, 0x01, 0xa2, 0xfc, 0x05,
  0x01, 0xe6, 0x23, 0xff, 0xfc, 0xc1, 0xeb, 0xf6, 0x16, 0x26, 0xe6, 0xd3,
  0x09, 0xf8, 0xc2, 0xdb, 0xef, 0x20, 0xf4, 0x11, 0x26, 0xaf, 0x10, 0xc4,
  0xf8, 0xfc, 0x13, 0x00, 0xa3, 0x0c, 0x06, 0x0e, 0x07, 0xf3, 0x39, 0xf4,
  0x0c, 0xdc, 0xfc, 0x2c, 0x0d, 0xe3, 0x18, 0xf5, 0xf9, 0xe0, 0x20, 0xfc,
  0xe7, 0x0b, 0x01, 0x05, 0xcf, 0xe4, 0x10, 0x2d, 0x1d, 0x03, 0x0e, 0x02,
  0x1a, 0x16, 0xeb, 0xfb, 0x01, 0x0f, 0xfc, 0xef, 0x11, 0xe3, 0xf6, 0x15,
  0xe6, 0xef, 0xd8, 0x02, 0x10, 0x10, 0x0b, 0xe3, 0xf8, 0xff, 0x24, 0x01,
  0x0d, 0x1a, 0xed, 0xb7, 0x03, 0xf8, 0x03, 0x15, 0x0e, 0x24, 0xe8, 0x19,
  0xdc, 0x15, 0xec, 0x03, 0xb9, 0xf6, 0xe5, 0xfb, 0x0a, 0x14, 0xcf, 0xe8,
  0xc0, 0xdf, 0x1d, 0x2a, 0x05, 0x0b, 0xd4, 0xc9, 0x03, 0x2c, 0xee, 0x21,
  0x0b, 0xac, 0xe3, 0xeb, 0x05, 0x23, 0x07, 0xd6, 0xcd, 0xd3, 0x1e, 0x21,
  0x0a, 0xde, 0xee, 0xff, 0xd7, 0xfc, 0xb9, 0xa4, 0xfd, 0x54, 0x7f, 0x45,
  0xf9, 0xd7, 0x16, 0x21, 0xd6, 0xfc, 0x2d, 0x3a, 0xf2, 0xdb, 0x0b, 0x24,
  0x21, 0x31, 0x1a, 0xd3, 0xdf, 0xeb, 0xdb, 0x25, 0x19, 0xd6, 0x1f, 0x16,
  0x1f, 0x5e, 0x08, 0x2b, 0xf5, 0xeb, 0x3a, 0x06, 0xf2, 0xc5, 0x06, 0xe9,
  0xe4, 0xf6, 0x01, 0x1b, 0xed, 0x08, 0x0a, 0xf6, 0x41, 0x27, 0x14, 0xdf,
  0x0c, 0xf0, 0x47, 0xf3, 0xee, 0xc2, 0xd2, 0x15, 0xe2, 0x39, 0xd9, 0xf7,
  0xf0, 0x59, 0xd5, 0x09, 0x31, 0x19, 0xfd, 0xf7, 0x2e, 0x19, 0x33, 0x64,
  0xc6, 0x18, 0x15, 0xeb, 0xbc, 0x34, 0x15, 0x14, 0x14, 0xda, 0x14, 0xf2,
  0x4b, 0xe1, 0x29, 0x32, 0x52, 0xbe, 0x0c, 0x5e, 0x1e, 0x1c, 0x14, 0x05,
  0x36, 0xcc, 0x14, 0xd4, 0xf3, 0x00, 0xff, 0xdf, 0xef, 0x16, 0x18, 0xf7,
  0x07, 0x3f, 0x0f, 0xe3, 0x3a, 0xbd, 0x14, 0xfa, 0xfa, 0x91, 0xfe, 0x01,
  0x09, 0xf2, 0x13, 0x08, 0x25, 0x1c, 0xe4, 0x1b, 0x3c, 0x39, 0x4f, 0x05,
  0x2a, 0x2c, 0xe5, 0x48, 0x10, 0x04, 0x02, 0x10, 0x0f, 0x05, 0x19, 0x09,
  0x02, 0xf2, 0x08, 0x5c, 0x2f, 0x40, 0x3d, 0x18, 0x47, 0xa8, 0xd9, 0x4f,
  0x27, 0xa1, 0x0e, 0x00, 0x3b, 0xed, 0x0f, 0xee, 0x14, 0xe3, 0xd5, 0xd0,
  0x0d, 0x0d, 0xee, 0xfe, 0xd6, 0x1f, 0xf5, 0xd8, 0x05, 0xd0, 0xec, 0x16,
  0xd1, 0x3e, 0xc7, 0xc9, 0x00, 0xa6, 0xbb, 0x26, 0x4a, 0x53, 0x53, 0xff,
  0x33, 0x39, 0x35, 0x0e, 0xe6, 0x24, 0x1a, 0x05, 0x0b, 0x0f, 0x2e, 0xd8,
  0x57, 0x12, 0x0f, 0x5f, 0x99, 0x0f, 0xc6, 0x39, 0xd1, 0x31, 0x19, 0x1b,
  0xf0, 0x4f, 0xd5, 0x7a, 0x36, 0x16, 0xf8, 0x40, 0xef, 0xec, 0xf2, 0xfb,
  0xdc, 0x55, 0xed, 0x21, 0xee, 0xdf, 0xc9, 0xe0, 0x32, 0x3c, 0xfb, 0xd3,
  0xd9, 0xd7, 0x1f, 0x9c, 0xc8, 0x2a, 0xee, 0xf6, 0x9e, 0x04, 0x37, 0x6d,
  0xe2, 0x00, 0xf0, 0xe2, 0x0e, 0xfe, 0xed, 0xe3, 0xe9, 0xc2, 0x25, 0xb7,
  0xc5, 0x07, 0x10, 0xf8, 0x83, 0x13, 0xe1, 0xef, 0x1a, 0x00, 0xd3, 0xe2,
  0x53, 0x08, 0x01, 0x10, 0x0d, 0xb5, 0x04, 0x2e, 0x01, 0x0d, 0x4b, 0xdb,
  0xc3, 0x05, 0x04, 0xf6, 0x2e, 0xbb, 0x05, 0xd5, 0xdf, 0xe3, 0xe6, 0x2b,
  0x02, 0x29, 0x10, 0x11, 0xe0, 0x0a, 0xc7, 0xb7, 0xf9, 0x0c, 0xfb, 0x2f,
  0x29, 0xd8, 0x18, 0x9d, 0x81, 0xd1, 0x0e, 0x0d, 0x03, 0x06, 0xd2, 0xfd,
  0x10, 0x1e, 0x11, 0x2e, 0x07, 0x18, 0x0c, 0xfa, 0xb8, 0x2a, 0x19, 0xfc,
  0x1b, 0x0f, 0x09, 0xf0, 0x42, 0x1a, 0x14, 0xff, 0x1a, 0x03, 0x18, 0x9e,
  0x22, 0xf8, 0x1a, 0x17, 0xf8, 0x29, 0xeb, 0x27, 0x26, 0xc0, 0x56, 0xd3,
  0x0a, 0x02, 0xe5, 0x16, 0x31, 0x03, 0x09, 0x29, 0x0a, 0x14, 0x0e, 0xf3,
  0x26, 0x02, 0xfa, 0x15, 0x0e, 0x10, 0x0a, 0xcc, 0xe3, 0x02, 0x07, 0xe1,
  0xb0, 0xe1, 0xdb, 0xf4, 0x14, 0xf6, 0xe1, 0x26, 0x17, 0xc6, 0x20, 0xdb,
  0x94, 0xf2, 0x20, 0x11, 0x11, 0x13, 0xf3, 0x29, 0x35, 0x40, 0x11, 0xea,
  0x0f, 0xad, 0x19, 0xdf, 0xe6, 0xe2, 0x15, 0xfd, 0x27, 0xf0, 0x16, 0x1e,
  0x02, 0x02, 0x2c, 0xef, 0xcb, 0xbc, 0xdd, 0x1d, 0x5d, 0xfb, 0x06, 0xc8,
  0x70, 0x48, 0xe1, 0xfd, 0xff, 0x0e, 0xd5, 0x14, 0x0e, 0xea, 0x47, 0xe0,
  0xe4, 0x0d, 0xd0, 0xc7, 0x07, 0x22, 0xe5, 0xb3, 0xeb, 0xe3, 0xf3, 0xf6,
  0xf9, 0x3d, 0xd3, 0x14, 0xee, 0x1e, 0xdf, 0xf2, 0x35, 0xf6, 0xde, 0xcc,
  0x0a, 0xd0, 0x07, 0xe2, 0xec, 0xfa, 0xeb, 0xa4, 0xda, 0x1e, 0xff, 0xbc,
  0xe1, 0x01, 0xd3, 0xd6, 0xd7, 0xbe, 0x1c, 0x08, 0x24, 0x16, 0xfa, 0xfb,
  0xe9, 0x11, 0xff, 0x34, 0xdb, 0x0d, 0xdf, 0x20, 0xac, 0x14, 0xd9, 0xc3,
  0xee, 0x10, 0xc4, 0xbf, 0xfa, 0xc3, 0x97, 0x2c, 0x22, 0x04, 0x2a, 0xf3,
  0x0a, 0xab, 0xdd, 0xe4, 0xeb, 0x18, 0xc1, 0xe2, 0xc9, 0xf8, 0x0e, 0xef,
  0xc1, 0x2a, 0x0c, 0x0c, 0xe6, 0x1a, 0x15, 0x0c, 0x0c, 0x1a, 0x2c, 0xac,
  0xee, 0x1f, 0x2f, 0xd5, 0x4d, 0x33, 0x09, 0x04, 0x41, 0x17, 0x2e, 0xa3,
  0x2a, 0x02, 0x00, 0x81, 0xf2, 0xc7, 0x0c, 0x2a, 0x0f, 0x24, 0xc5, 0xf1,
  0x02, 0xc5, 0xb6, 0x3b, 0x0a, 0xe3, 0xdf, 0xd0, 0x0f, 0xdb, 0x06, 0xd4,
  0x8f, 0xbd, 0xee, 0x27, 0x03, 0xc7, 0x02, 0x0a, 0x14, 0x19, 0x03, 0xfc,
  0xc9, 0xfd, 0x09, 0xfc, 0xe9, 0xf5, 0xf3, 0xdf, 0xf9, 0xe3, 0xcd, 0xf9,
  0xf4, 0xa7, 0x29, 0xdd, 0x30, 0xcb, 0xf1, 0x30, 0xca, 0x0e, 0xfe, 0x1f,
  0x08, 0x39, 0x0f, 0x03, 0xb9, 0x1c, 0x2a, 0xf3, 0x27, 0x02, 0xf4, 0xae,
  0xf9, 0x18, 0x00, 0xfb, 0xb7, 0xde, 0xe5, 0x15, 0xd2, 0xf8, 0x53, 0x19,
  0xe1, 0xed, 0x13, 0xba, 0x23, 0xe1, 0xe6, 0xd1, 0x27, 0x10, 0xe6, 0x02,
  0xe2, 0xe3, 0xe7, 0x02, 0xcb, 0x1a, 0xfd, 0xf1, 0x54, 0x10, 0xdd, 0xb6,
  0xf3, 0xc2, 0xa1, 0x1c, 0x1a, 0xfd, 0x27, 0xe6, 0x1e, 0xaa, 0x14, 0x28,
  0xe5, 0x16, 0xf3, 0x24, 0xc8, 0xfb, 0x28, 0x05, 0xa6, 0xb4, 0x1d, 0x09,
  0x44, 0x1d, 0xef, 0xa0, 0xce, 0xf8, 0x26, 0xee, 0x1d, 0xce, 0xe8, 0xbf,
  0xfd, 0xf6, 0xee, 0x38, 0x12, 0xdd, 0x1d, 0xdb, 0xbf, 0xea, 0x62, 0xd4,
  0xfb, 0xaa, 0x1b, 0x1e, 0x04, 0xe9, 0xdc, 0xcd, 0xc1, 0xe9, 0x04, 0xfa,
  0xe9, 0x05, 0x23, 0x3a, 0xd1, 0x81, 0xc7, 0x06, 0xd1, 0xce, 0x04, 0xf3,
  0xa1, 0xa9, 0xe3, 0xd0, 0xe9, 0xeb, 0x2b, 0x0b, 0x16, 0xeb, 0xf2, 0x10,
  0xc7, 0x13, 0xf2, 0x26, 0xe6, 0x16, 0xf6, 0xc9, 0x02, 0xfa, 0xca, 0x44,
  0x9b, 0x05, 0xfe, 0x15, 0xd3, 0xbb, 0x01, 0x0c, 0x67, 0xf0, 0x1d, 0xdd,
  0x4d, 0xe7, 0xd6, 0x0b, 0xe5, 0x1c, 0x15, 0xe0, 0xc4, 0xe3, 0x0b, 0x1e,
  0x18, 0xd9, 0xf4, 0x0f, 0xfc, 0x0e, 0x1a, 0xd5, 0x20, 0x4c, 0xc0, 0x2a,
  0x26, 0x17, 0xee, 0x1c, 0xea, 0x2a, 0x43, 0xbf, 0xd8, 0xbc, 0x07, 0x0d,
  0xec, 0x31, 0xe8, 0x81, 0xda, 0xb1, 0xfe, 0x0f, 0xe2, 0x20, 0x2f, 0xf7,
  0x38, 0xe9, 0x22, 0x26, 0xed, 0xef, 0x19, 0x0b, 0x26, 0xcd, 0xf1, 0xe6,
  0x24, 0x23, 0x1a, 0xf5, 0x3b, 0xec, 0xd3, 0xf4, 0x0d, 0x1c, 0x22, 0x06,
  0xdc, 0xdf, 0x1c, 0x02, 0x0e, 0xe2, 0x03, 0xf5, 0xfe, 0x26, 0x2f, 0xd0,
  0x1b, 0x2c, 0x14, 0x04, 0xc5, 0xc2, 0xee, 0x33, 0xff, 0x24, 0xf5, 0xc4,
  0xfa, 0x16, 0xfc, 0xe4, 0x34, 0xf8, 0xd1, 0x98, 0x03, 0x2e, 0xf7, 0xdb,
  0xcd, 0x0d, 0x02, 0xeb, 0x35, 0xcb, 0x1a, 0xe5, 0x11, 0x2a, 0xd1, 0x27,
  0x1a, 0x95, 0x11, 0xf7, 0xcc, 0x12, 0x33, 0x08, 0x00, 0xd1, 0xc8, 0x1a,
  0xcb, 0x39, 0x06, 0xce, 0xf1, 0xbc, 0xfe, 0xbf, 0xfa, 0x04, 0x45, 0x14,
  0xf5, 0x0d, 0x3b, 0x16, 0x2a, 0xe2, 0xda, 0xd7, 0x11, 0xf6, 0xdb, 0xfe,
  0x0b, 0xd5, 0x0e, 0x01, 0x07, 0xd3, 0x0c, 0x98, 0xd6, 0x12, 0x20, 0xd8,
  0x92, 0x06, 0x1b, 0x23, 0x47, 0x08, 0xff, 0xa9, 0xab, 0x02, 0x10, 0xeb,
  0x13, 0x21, 0xc1, 0x14, 0xe5, 0x28, 0xc2, 0xf0, 0xa3, 0x1a, 0xb4, 0xf9,
  0xe9, 0x20, 0x1c, 0x0a, 0xed, 0xff, 0xfa, 0xda, 0x31, 0x0d, 0xe6, 0xbe,
  0xf4, 0xe9, 0x11, 0x27, 0x05, 0xfb, 0x1d, 0x3a, 0xeb, 0x18, 0x2d, 0xbc,
  0xd7, 0xd1, 0xe4, 0x22, 0xb7, 0xbd, 0xeb, 0x24, 0xd0, 0x2a, 0xfc, 0x22,
  0x84, 0xf6, 0x1f, 0x1b, 0x03, 0x1a, 0xf2, 0x26, 0xe7, 0xea, 0xb5, 0xf5,
  0xd0, 0xd6, 0x03, 0xff, 0xbb, 0xaa, 0xee, 0xd1, 0xc0, 0x5d, 0xbd, 0x00,
  0xf9, 0x17, 0x06, 0xd8, 0xf3, 0xcf, 0xbf, 0x20, 0xe1, 0xff, 0x16, 0xc0,
  0xe3, 0xd2, 0xb5, 0xfc, 0x38, 0xb9, 0x1f, 0x04, 0xec, 0x03, 0x13, 0xe9,
  0xfc, 0xc1, 0x05, 0xf8, 0xfd, 0x27, 0xf0, 0xf0, 0x1e, 0xd5, 0xd2, 0x13,
  0xea, 0xd4, 0x04, 0xde, 0x0d, 0xfd, 0xd8, 0xf9, 0x1b, 0xf2, 0x14, 0x00,
  0xa5, 0x21, 0xb4, 0x15, 0x08, 0x1e, 0x11, 0x07, 0xf2, 0x11, 0x0b, 0x11,
  0x07, 0x1b, 0xef, 0xc6, 0xfb, 0xfd, 0x14, 0x09, 0xce, 0xdf, 0x02, 0x10,
  0xd0, 0xd7, 0xf1, 0x24, 0xf7, 0x05, 0xf9, 0xdc, 0x2b, 0xe3, 0x17, 0x07,
  0xc0, 0x13, 0x18, 0xdc, 0x03, 0xc9, 0xef, 0xcc, 0x04, 0x48, 0xf0, 0x06,
  0x0d, 0x06, 0x04, 0xcd, 0xff, 0x0e, 0x34, 0xbd, 0xe9, 0x13, 0x0f, 0x03,
  0x0a, 0xf0, 0x07, 0x15, 0x14, 0x1d, 0xc5, 0xee, 0x2d, 0xf4, 0x07, 0x17,
  0x10, 0xf4, 0xde, 0xf6, 0xd7, 0x14, 0xe0, 0x91, 0xc9, 0x23, 0x2f, 0xdc,
  0x3d, 0xdf, 0xd7, 0x2b, 0xb7, 0xc3, 0x01, 0xef, 0xfb, 0xc6, 0xf1, 0x10,
  0xdc, 0x12, 0x11, 0xe0, 0xee, 0x16, 0xfa, 0xe2, 0x0b, 0xc5, 0xc2, 0x17,
  0x14, 0xff, 0xb0, 0xf8, 0x0d, 0xee, 0x19, 0x06, 0xfd, 0x1d, 0xdb, 0xe2,
  0xbd, 0x36, 0x9a, 0xfd, 0x0f, 0xf8, 0x0a, 0x08, 0xf9, 0xc4, 0x00, 0xed,
  0xf2, 0x10, 0x01, 0x01, 0x04, 0x02, 0x12, 0xd6, 0xfa, 0xb1, 0xe9, 0xd4,
  0xa8, 0xfd, 0xf4, 0x10, 0xf1, 0xff, 0x07, 0x14, 0xed, 0xc2, 0x1b, 0xe8,
  0x01, 0xd6, 0xe6, 0x0a, 0xd8, 0x1a, 0x17, 0xce, 0x00, 0xda, 0xd1, 0xfd,
  0x01, 0xd1, 0x1f, 0x0b, 0x14, 0x0d, 0xf6, 0xdf, 0xe9, 0x1e, 0x10, 0x12,
  0x25, 0x0b, 0xef, 0xf1, 0x2f, 0x81, 0x19, 0x30, 0xe1, 0x08, 0xdc, 0xd0,
  0xef, 0xa1, 0x13, 0x06, 0x0a, 0xf0, 0xf9, 0x06, 0x21, 0xc8, 0xf7, 0x07,
  0x29, 0xc3, 0x09, 0x14, 0x17, 0x2c, 0x47, 0x33, 0x22, 0xfc, 0x4d, 0x2d,
  0x17, 0xd2, 0xfb, 0x0b, 0x36, 0x1e, 0xe5, 0x0c, 0x09, 0x05, 0xf2, 0xe3,
  0x3d, 0xbb, 0xf6, 0x35, 0x2d, 0x06, 0x41, 0xf6, 0x15, 0x25, 0x0c, 0x2a,
  0xe0, 0xed, 0x14, 0x02, 0x1f, 0x13, 0x00, 0xed, 0x2f, 0xda, 0x05, 0x2c,
  0x39, 0x30, 0xf2, 0xf8, 0xf7, 0xee, 0xdb, 0xf0, 0x44, 0xc7, 0xf2, 0x32,
  0xe1, 0xd6, 0xd3, 0x21, 0xf1, 0xcf, 0xf9, 0x1e, 0x43, 0x27, 0xfc, 0x21,
  0x2e, 0x2c, 0x2d, 0x1e, 0x06, 0x07, 0x0d, 0x36, 0xfc, 0x28, 0x0e, 0xec,
  0x47, 0x0d, 0x09, 0x37, 0xf7, 0x05, 0xc0, 0x21, 0xdd, 0x4b, 0x13, 0x1b,
  0x09, 0x5c, 0xea, 0x66, 0x35, 0xe4, 0x01, 0x0c, 0xf5, 0x1a, 0xd3, 0xfd,
  0x81, 0x54, 0x28, 0x0a, 0x22, 0x22, 0xfe, 0x32, 0x52, 0x1b, 0xcf, 0xf5,
  0xa8, 0x0d, 0x0b, 0xd3, 0xea, 0x21, 0x0b, 0xd3, 0xfb, 0x2e, 0xfa, 0x2a,
  0x25, 0x25, 0x31, 0x26, 0xf5, 0x3f, 0x1a, 0x32, 0x27, 0xcc, 0xf6, 0x54,
  0x12, 0x1f, 0x11, 0x36, 0xf3, 0x2f, 0xd8, 0x18, 0x11, 0x1b, 0xf6, 0x1c,
  0x34, 0x41, 0x30, 0x0f, 0x1d, 0x13, 0x22, 0x58, 0x27, 0xfa, 0x18, 0xff,
  0x0e, 0x26, 0xed, 0xfe, 0x0e, 0xeb, 0x0c, 0x00, 0x55, 0x26, 0xec, 0xf7,
  0x02, 0x0c, 0xd9, 0x10, 0x38, 0x0d, 0xd9, 0x34, 0xeb, 0xfa, 0x01, 0x12,
  0xe4, 0xe8, 0x13, 0x17, 0x47, 0xff, 0x09, 0x48, 0x3e, 0x43, 0x10, 0x19,
  0xf6, 0x0f, 0xf7, 0x40, 0x4e, 0x0d, 0x1d, 0x0c, 0xe4, 0x33, 0x0c, 0xf4,
  0x28, 0xbc, 0x28, 0x30, 0x13, 0x30, 0x35, 0x3b, 0x13, 0x07, 0x17, 0x57,
  0x41, 0x0e, 0x08, 0x27, 0x46, 0xe2, 0xc8, 0x2a, 0x14, 0x38, 0xc7, 0x2c,
  0x52, 0x0f, 0x1e, 0x22, 0x24, 0xe2, 0x0f, 0xfa, 0xe8, 0xc6, 0x07, 0x1e,
  0x43, 0x08, 0xd2, 0x1d, 0x25, 0x42, 0x08, 0xc9, 0xec, 0x42, 0x14, 0x1f,
  0x0c, 0x16, 0x0f, 0xd7, 0xe3, 0x30, 0x07, 0x46, 0x25, 0x1e, 0xee, 0xf4,
  0x11, 0x51, 0xd6, 0xea, 0x37, 0x1b, 0x14, 0x3e, 0x06, 0x16, 0x06, 0x0e,
  0xf6, 0x7f, 0x24, 0xd0, 0xd3, 0xf3, 0x45, 0x06, 0x6c, 0xee, 0x09, 0xed,
  0x2e, 0xec, 0xd7, 0x20, 0xe2, 0xfc, 0xe4, 0xd5, 0x35, 0xf9, 0x02, 0xd9,
  0x6e, 0xc8, 0x10, 0x25, 0x25, 0xb8, 0x19, 0x43, 0x07, 0xca, 0x48, 0xf6,
  0xea, 0x07, 0x18, 0xfa, 0x08, 0x01, 0x17, 0x12, 0x2e, 0xe1, 0x3b, 0x41,
  0x28, 0xf5, 0x1c, 0x10, 0xde, 0x2c, 0x04, 0xfa, 0x0d, 0xe1, 0x13, 0x20,
  0x1b, 0xb1, 0xf9, 0x52, 0xee, 0xcf, 0x1e, 0x1b, 0xf7, 0xdf, 0x34, 0x0f,
  0x36, 0xf1, 0x1d, 0xf9, 0x10, 0xe4, 0xe4, 0xde, 0x15, 0x12, 0x15, 0x03,
  0xaf, 0xe9, 0xeb, 0x1b, 0x2e, 0xbf, 0xe4, 0x31, 0xf1, 0x1e, 0x13, 0xdf,
  0xf6, 0xde, 0x15, 0xd5, 0xf3, 0x09, 0x83, 0x04, 0x07, 0x0f, 0x20, 0xc1,
  0x33, 0xee, 0x08, 0x05, 0xf9, 0xcb, 0xfc, 0xe5, 0xfc, 0xd4, 0xf8, 0x0c,
  0xfc, 0xe6, 0xf1, 0x17, 0xa2, 0x2c, 0xf0, 0x07, 0x19, 0x1b, 0x17, 0x29,
  0x20, 0xce, 0xcd, 0x1f, 0xe0, 0xd7, 0xf1, 0xeb, 0x2f, 0x11, 0xcc, 0x13,
  0x23, 0xc9, 0x01, 0x09, 0xf3, 0xe9, 0xd4, 0xa9, 0x0e, 0xbe, 0x01, 0x1b,
  0xeb, 0x15, 0xf0, 0x02, 0xda, 0xc1, 0x06, 0xf5, 0x09, 0x04, 0x1a, 0xed,
  0xa4, 0x38, 0x2c, 0x2e, 0x07, 0xdb, 0x39, 0xd4, 0x1d, 0x06, 0x0b, 0x0c,
  0x0b, 0x12, 0xf6, 0x43, 0xfb, 0x10, 0xe4, 0x62, 0xf0, 0x48, 0x19, 0x25,
  0x17, 0xeb, 0x1d, 0x21, 0x22, 0xb7, 0xcb, 0xd5, 0x19, 0xe1, 0x14, 0x47,
  0xff, 0x16, 0xbc, 0xda, 0xeb, 0x04, 0xdc, 0x5a, 0x86, 0x36, 0xd8, 0xa7,
  0xb5, 0xc6, 0xe6, 0xd7, 0x04, 0x52, 0x05, 0xed, 0xf9, 0xca, 0xef, 0xfa,
  0xf3, 0x1e, 0x1e, 0x43, 0x19, 0x0d, 0x30, 0x22, 0x0e, 0x42, 0xaf, 0x17,
  0x0f, 0x16, 0xd9, 0x00, 0x12, 0x07, 0x22, 0x20, 0x2e, 0xfd, 0xe1, 0x2c,
  0x1b, 0x1a, 0x12, 0xfb, 0x17, 0x05, 0x18, 0x07, 0x05, 0xd4, 0x09, 0xe4,
  0xd3, 0xf0, 0xfb, 0x1d, 0xfe, 0xec, 0xf9, 0x0d, 0xfb, 0xdd, 0xe6, 0x13,
  0xca, 0x13, 0xf0, 0x0c, 0x2e, 0x1b, 0xe2, 0xdb, 0xfe, 0x12, 0xd7, 0x02,
  0xf4, 0x17, 0x00, 0xcb, 0x11, 0x17, 0x02, 0x2b, 0x14, 0x03, 0x04, 0xce,
  0xee, 0x0b, 0x0c, 0x2d, 0xe3, 0x10, 0xfd, 0x02, 0x1b, 0x18, 0x0f, 0x17,
  0xd7, 0x0f, 0xdd, 0xe8, 0xe2, 0x1e, 0x24, 0xf8, 0xfe, 0xff, 0x1c, 0x0f,
  0xb3, 0x07, 0xfc, 0x0a, 0xe5, 0xf5, 0x0a, 0xe3, 0x18, 0x15, 0xfd, 0x1b,
  0x16, 0xd1, 0xaa, 0x00, 0x07, 0xf2, 0x21, 0x19, 0x04, 0x25, 0xfe, 0xf7,
  0x0a, 0x1f, 0xf5, 0x01, 0x04, 0xf5, 0xf0, 0xe2, 0xd2, 0xff, 0x0c, 0xfd,
  0xe2, 0xe5, 0x32, 0x16, 0x09, 0x05, 0xed, 0x0e, 0x28, 0xe5, 0xbc, 0x05,
  0x13, 0x15, 0xcb, 0x1a, 0x04, 0x0d, 0x21, 0x26, 0x12, 0x20, 0xf1, 0x1c,
  0x0a, 0x01, 0x01, 0xed, 0xb8, 0xf0, 0xe5, 0xc6, 0xfd, 0xd9, 0x09, 0x11,
  0x0b, 0x07, 0xf3, 0x0e, 0xf1, 0xe9, 0xa4, 0xc7, 0xfe, 0xc3, 0xf4, 0xfa,
  0x24, 0xf4, 0x14, 0x07, 0xff, 0xc4, 0xc4, 0xfe, 0x0d, 0xfd, 0x10, 0xf4,
  0x0a, 0xee, 0xda, 0x02, 0xf2, 0xd9, 0x2a, 0xf8, 0x19, 0x2b, 0xc0, 0x1b,
  0x07, 0x0e, 0xfb, 0xef, 0xb7, 0xe5, 0x06, 0xed, 0x0e, 0xec, 0x1a, 0xf9,
  0x30, 0xf6, 0x1f, 0x2d, 0x05, 0x17, 0x23, 0x0c, 0xdf, 0xe9, 0x81, 0x24,
  0x0f, 0xef, 0x12, 0x23, 0x19, 0xdd, 0xfb, 0x31, 0x2d, 0xec, 0xf4, 0xfc,
  0xf3, 0xb2, 0xcc, 0xdf, 0x37, 0xf6, 0x17, 0x1f, 0x0e, 0x14, 0xec, 0xf9,
  0xfe, 0x15, 0x0e, 0x54, 0xee, 0x35, 0xeb, 0xfa, 0x0d, 0x18, 0x27, 0xc9,
  0x00, 0x19, 0xb0, 0x07, 0xdf, 0x01, 0xf5, 0xea, 0x1c, 0x10, 0x1c, 0x11,
  0xc6, 0x06, 0x02, 0xb1, 0x00, 0x1b, 0xf6, 0xe5, 0x02, 0x45, 0x01, 0x00,
  0xed, 0xe9, 0x03, 0x00, 0xe1, 0xcf, 0xf7, 0xf5, 0x03, 0x1c, 0x15, 0x19,
  0x38, 0xb4, 0x00, 0x01, 0x48, 0x23, 0xae, 0xcf, 0xcf, 0x05, 0x1c, 0x19,
  0xdd, 0x00, 0x08, 0x22, 0xc6, 0xc7, 0xbf, 0x2d, 0xea, 0x32, 0x2d, 0xe3,
  0x15, 0x07, 0xe5, 0x09, 0xfc, 0x0a, 0xd7, 0xff, 0xca, 0xba, 0xea, 0xf4,
  0xf1, 0x1a, 0x19, 0x1c, 0xe9, 0xff, 0x37, 0x0e, 0xe7, 0xd0, 0xfc, 0xfd,
  0x03, 0xf6, 0xed, 0x08, 0x0d, 0x17, 0x0b, 0xaf, 0x02, 0x02, 0x15, 0x26,
  0xe5, 0x50, 0xf9, 0xe3, 0xd3, 0x94, 0x1b, 0x11, 0x20, 0xe4, 0x0a, 0x11,
  0xdc, 0x0d, 0xdb, 0xc0, 0xd5, 0xe0, 0x0e, 0x1b, 0x10, 0xed, 0xf0, 0xcf,
  0x13, 0x5c, 0x0a, 0xf4, 0x05, 0x27, 0xda, 0x13, 0xd8, 0x1d, 0xfd, 0xcb,
  0xf3, 0xcf, 0xfd, 0xff, 0x81, 0xf0, 0x10, 0x07, 0xec, 0x03, 0x00, 0xd7,
  0x22, 0xdf, 0x13, 0xd9, 0x20, 0xd2, 0xc7, 0xcc, 0xfb, 0x0b, 0xed, 0xf0,
  0xea, 0x29, 0xf6, 0x26, 0x1b, 0x48, 0x03, 0x0a, 0x1b, 0xcc, 0x10, 0xf2,
  0xd8, 0xe4, 0x02, 0x0e, 0xe5, 0x0d, 0xe8, 0x36, 0x06, 0xe3, 0x35, 0x1f,
  0x0d, 0x2b, 0x04, 0x21, 0xe7, 0x25, 0xfd, 0x10, 0xc5, 0x12, 0x25, 0xef,
  0x00, 0xdb, 0x15, 0x1a, 0x30, 0xf4, 0x23, 0xfb, 0xbb, 0xfd, 0x05, 0x04,
  0xcb, 0x0c, 0x32, 0x38, 0xff, 0x12, 0x03, 0xf3, 0x04, 0xfc, 0xc1, 0xe0,
  0xf6, 0xff, 0xf9, 0x10, 0xf4, 0x16, 0x22, 0xc8, 0x16, 0x3c, 0x07, 0x0c,
  0x0d, 0xf7, 0xff, 0xe1, 0x10, 0xfd, 0x0c, 0xf7, 0xd1, 0x02, 0x13, 0x0d,
  0x1f, 0x00, 0x0c, 0x3a, 0xe1, 0xe0, 0xe3, 0xd2, 0x1a, 0xf4, 0xff, 0xff,
  0x00, 0x00, 0x00, 0x09, 0x10, 0x00, 0x00, 0x00, 0x08, 0x00, 0x00, 0x00,
  0x1c, 0x00, 0x00, 0x00, 0x40, 0x00, 0x00, 0x00, 0x04, 0x00, 0x00, 0x00,
  0x20, 0x00, 0x00, 0x00, 0x04, 0x00, 0x00, 0x00, 0x02, 0x00, 0x00, 0x00,
  0x20, 0x00, 0x00, 0x00, 0x23, 0x00, 0x00, 0x00, 0x73, 0x65, 0x71, 0x75,
  0x65, 0x6e, 0x74, 0x69, 0x61, 0x6c, 0x5f, 0x34, 0x2f, 0x71, 0x75, 0x61,
  0x6e, 0x74, 0x5f, 0x63, 0x6f, 0x6e, 0x76, 0x32, 0x64, 0x5f, 0x31, 0x37,
  0x2f, 0x43, 0x6f, 0x6e, 0x76, 0x32, 0x44, 0x00, 0x20, 0xf5, 0xff, 0xff,
  0x08, 0x00, 0x00, 0x00, 0x88, 0x00, 0x00, 0x00, 0x20, 0x00, 0x00, 0x00,
  0x50, 0xf8, 0x39, 0x3c, 0xe1, 0x32, 0x00, 0x3c, 0xa5, 0x9a, 0x31, 0x3c,
  0x5e, 0xa9, 0xec, 0x3b, 0xfa, 0xc8, 0x19, 0x3c, 0x4b, 0xb4, 0x28, 0x3c,
  0x0d, 0x74, 0x3d, 0x3c, 0x35, 0x25, 0x38, 0x3c, 0xcd, 0xd4, 0xc9, 0x3b,
  0x1f, 0xc3, 0x34, 0x3c, 0xd3, 0x9a, 0x20, 0x3c, 0xab, 0xbf, 0xb3, 0x3a,
  0xde, 0x9f, 0xe4, 0x3b, 0xcb, 0x3e, 0x48, 0x3c, 0x06, 0x01, 0x20, 0x3c,
  0x2b, 0xcc, 0x68, 0x3c, 0x8c, 0x47, 0x19, 0x3c, 0xaa, 0x6a, 0x2d, 0x3c,
  0x56, 0x90, 0xfd, 0x3b, 0x0d, 0x63, 0xb7, 0x3a, 0xaa, 0xd9, 0x47, 0x3c,
  0x0f, 0x34, 0x02, 0x3c, 0x4a, 0xcb, 0x20, 0x3c, 0xd1, 0xa1, 0xc0, 0x3b,
  0x7e, 0xa2, 0x06, 0x3c, 0x6d, 0x35, 0xf0, 0x3b, 0x36, 0x5f, 0x03, 0x3c,
  0xc6, 0x1b, 0x47, 0x3c, 0xfb, 0x32, 0xb9, 0x3b, 0x97, 0x07, 0xd2, 0x3b,
  0x4a, 0xc8, 0x35, 0x3c, 0xbf, 0x9d, 0x2f, 0x3c, 0x20, 0x00, 0x00, 0x00,
  0x00, 0x00, 0x00, 0x00, 0x00, 0x00, 0x00, 0x00, 0x00, 0x00, 0x00, 0x00,
  0x00, 0x00, 0x00, 0x00, 0x00, 0x00, 0x00, 0x00, 0x00, 0x00, 0x00, 0x00,
  0x00, 0x00, 0x00, 0x00, 0x00, 0x00, 0x00, 0x00, 0x00, 0x00, 0x00, 0x00,
  0x00, 0x00, 0x00, 0x00, 0x00, 0x00, 0x00, 0x00, 0x00, 0x00, 0x00, 0x00,
  0x00, 0x00, 0x00, 0x00, 0x00, 0x00, 0x00, 0x00, 0x00, 0x00, 0x00, 0x00,
  0x00, 0x00, 0x00, 0x00, 0x00, 0x00, 0x00, 0x00, 0x00, 0x00, 0x00, 0x00,
  0x00, 0x00, 0x00, 0x00, 0x00, 0x00, 0x00, 0x00, 0x00, 0x00, 0x00, 0x00,
  0x00, 0x00, 0x00, 0x00, 0x00, 0x00, 0x00, 0x00, 0x00, 0x00, 0x00, 0x00,
  0x00, 0x00, 0x00, 0x00, 0x00, 0x00, 0x00, 0x00, 0x00, 0x00, 0x00, 0x00,
  0x00, 0x00, 0x00, 0x00, 0x00, 0x00, 0x00, 0x00, 0x00, 0x00, 0x00, 0x00,
  0x00, 0x00, 0x00, 0x00, 0x00, 0x00, 0x00, 0x00, 0x00, 0x00, 0x00, 0x00,
  0x00, 0x00, 0x00, 0x00, 0x00, 0x00, 0x00, 0x00, 0x00, 0x00, 0x00, 0x00,
  0x00, 0x00, 0x00, 0x00, 0x00, 0x00, 0x00, 0x00, 0x00, 0x00, 0x00, 0x00,
  0x00, 0x00, 0x00, 0x00, 0x00, 0x00, 0x00, 0x00, 0x00, 0x00, 0x00, 0x00,
  0x00, 0x00, 0x00, 0x00, 0x00, 0x00, 0x00, 0x00, 0x00, 0x00, 0x00, 0x00,
  0x00, 0x00, 0x00, 0x00, 0x00, 0x00, 0x00, 0x00, 0x00, 0x00, 0x00, 0x00,
  0x00, 0x00, 0x00, 0x00, 0x00, 0x00, 0x00, 0x00, 0x00, 0x00, 0x00, 0x00,
  0x00, 0x00, 0x00, 0x00, 0x00, 0x00, 0x00, 0x00, 0x00, 0x00, 0x00, 0x00,
  0x00, 0x00, 0x00, 0x00, 0x00, 0x00, 0x00, 0x00, 0x00, 0x00, 0x00, 0x00,
  0x00, 0x00, 0x00, 0x00, 0x00, 0x00, 0x00, 0x00, 0x00, 0x00, 0x00, 0x00,
  0x00, 0x00, 0x00, 0x00, 0x00, 0x00, 0x00, 0x00, 0x00, 0x00, 0x00, 0x00,
  0x00, 0x00, 0x00, 0x00, 0x00, 0x00, 0x0e, 0x00, 0x18, 0x00, 0x08, 0x00,
  0x0c, 0x00, 0x10, 0x00, 0x07, 0x00, 0x14, 0x00, 0x0e, 0x00, 0x00, 0x00,
  0x00, 0x00, 0x00, 0x01, 0x01, 0x00, 0x00, 0x00, 0x30, 0x00, 0x00, 0x00,
  0x24, 0x00, 0x00, 0x00, 0x10, 0x00, 0x00, 0x00, 0x0c, 0x00, 0x10, 0x00,
  0x0e, 0x00, 0x04, 0x00, 0x08, 0x00, 0x0f, 0x00, 0x0c, 0x00, 0x00, 0x00,
  0x01, 0x00, 0x00, 0x00, 0x01, 0x00, 0x00, 0x00, 0x00, 0x00, 0x01, 0x01,
  0x01, 0x00, 0x00, 0x00, 0x06, 0x00, 0x00, 0x00, 0x03, 0x00, 0x00, 0x00,
  0x03, 0x00, 0x00, 0x00, 0x04, 0x00, 0x00, 0x00, 0x05, 0x00, 0x00, 0x00,
  0x94, 0xf8, 0xff, 0xff, 0x03, 0x00, 0x00, 0x00, 0x00, 0x00, 0x00, 0x03,
  0x03, 0x00, 0x00, 0x00, 0x88, 0xf8, 0xff, 0xff, 0x00, 0x00, 0x00, 0x09,
  0x14, 0x00, 0x00, 0x00, 0x07, 0x00, 0x00, 0x00, 0x34, 0x00, 0x00, 0x00,
  0x00, 0x01, 0x00, 0x00, 0x18, 0x00, 0x00, 0x00, 0x04, 0x00, 0x00, 0x00,
  0x01, 0x00, 0x00, 0x00, 0x3b, 0x00, 0x00, 0x00, 0x02, 0x00, 0x00, 0x00,
  0x20, 0x00, 0x00, 0x00, 0x04, 0x00, 0x00, 0x00, 0xff, 0xff, 0xff, 0xff,
  0x3b, 0x00, 0x00, 0x00, 0x02, 0x00, 0x00, 0x00, 0x20, 0x00, 0x00, 0x00,
  0xca, 0x00, 0x00, 0x00, 0x73, 0x65, 0x71, 0x75, 0x65, 0x6e, 0x74, 0x69,
  0x61, 0x6c, 0x5f, 0x34, 0x2f, 0x71, 0x75, 0x61, 0x6e, 0x74, 0x5f, 0x72,
  0x65, 0x5f, 0x6c, 0x75, 0x5f, 0x31, 0x36, 0x2f, 0x52, 0x65, 0x6c, 0x75,
  0x3b, 0x73, 0x65, 0x71, 0x75, 0x65, 0x6e, 0x74, 0x69, 0x61, 0x6c, 0x5f,
  0x34, 0x2f, 0x71, 0x75, 0x61, 0x6e, 0x74, 0x5f, 0x63, 0x6f, 0x6e, 0x76,
  0x32, 0x64, 0x5f, 0x31, 0x36, 0x2f, 0x42, 0x69, 0x61, 0x73, 0x41, 0x64,
  0x64, 0x3b, 0x73, 0x65, 0x71, 0x75, 0x65, 0x6e, 0x74, 0x69, 0x61, 0x6c,
  0x5f, 0x34, 0x2f, 0x71, 0x75, 0x61, 0x6e, 0x74, 0x5f, 0x63, 0x6f, 0x6e,
  0x76, 0x32, 0x64, 0x5f, 0x31, 0x37, 0x2f, 0x43, 0x6f, 0x6e, 0x76, 0x32,
  0x44, 0x3b, 0x73, 0x65, 0x71, 0x75, 0x65, 0x6e, 0x74, 0x69, 0x61, 0x6c,
  0x5f, 0x34, 0x2f, 0x71, 0x75, 0x61, 0x6e, 0x74, 0x5f, 0x63, 0x6f, 0x6e,
  0x76, 0x32, 0x64, 0x5f, 0x31, 0x36, 0x2f, 0x43, 0x6f, 0x6e, 0x76, 0x32,
  0x44, 0x3b, 0x73, 0x65, 0x71, 0x75, 0x65, 0x6e, 0x74, 0x69, 0x61, 0x6c,
  0x5f, 0x34, 0x2f, 0x71, 0x75, 0x61, 0x6e, 0x74, 0x5f, 0x63, 0x6f, 0x6e,
  0x76, 0x32, 0x64, 0x5f, 0x31, 0x36, 0x2f, 0x42, 0x69, 0x61, 0x73, 0x41,
  0x64, 0x64, 0x2f, 0x52, 0x65, 0x61, 0x64, 0x56, 0x61, 0x72, 0x69, 0x61,
  0x62, 0x6c, 0x65, 0x4f, 0x70, 0x2f, 0x72, 0x65, 0x73, 0x6f, 0x75, 0x72,
  0x63, 0x65, 0x00, 0x00, 0x34, 0xf8, 0xff, 0xff, 0x08, 0x00, 0x00, 0x00,
  0x0c, 0x00, 0x00, 0x00, 0x01, 0x00, 0x00, 0x00, 0x9c, 0x1f, 0x66, 0x3b,
  0x01, 0x00, 0x00, 0x00, 0x80, 0xff, 0xff, 0xff, 0xff, 0xff, 0xff, 0xff,
  0x00, 0x00, 0x00, 0x00, 0xc2, 0xf7, 0xff, 0xff, 0x04, 0x00, 0x00, 0x00,
  0x80, 0x00, 0x00, 0x00, 0x0b, 0xed, 0xff, 0xff, 0xf3, 0xed, 0xff, 0xff,
  0x8e, 0xe7, 0xff, 0xff, 0x20, 0xcc, 0xff, 0xff, 0xf7, 0xdf, 0xff, 0xff,
  0xca, 0xf4, 0xff, 0xff, 0x71, 0xe8, 0xff, 0xff, 0x8b, 0xed, 0xff, 0xff,
  0x74, 0xff, 0xff, 0xff, 0x05, 0xdd, 0xff, 0xff, 0xeb, 0xf8, 0xff, 0xff,
  0x3b, 0xdd, 0xff, 0xff, 0x08, 0xfc, 0xff, 0xff, 0x77, 0xe4, 0xff, 0xff,
  0xd4, 0xff, 0xff, 0xff, 0xb5, 0xf8, 0xff, 0xff, 0x99, 0xe9, 0xff, 0xff,
  0xce, 0xe4, 0xff, 0xff, 0xe3, 0x02, 0x00, 0x00, 0x5b, 0x02, 0x00, 0x00,
  0xd1, 0xda, 0xff, 0xff, 0xf3, 0x02, 0x00, 0x00, 0xf3, 0xf2, 0xff, 0xff,
  0x10, 0xdc, 0xff, 0xff, 0x03, 0x01, 0x00, 0x00, 0x95, 0xdc, 0xff, 0xff,
  0x1c, 0xfa, 0xff, 0xff, 0x69, 0x03, 0x00, 0x00, 0xe7, 0xfa, 0xff, 0xff,
  0xb3, 0xcf, 0xff, 0xff, 0x08, 0xe7, 0xff, 0xff, 0x1c, 0xd0, 0xff, 0xff,
  0x32, 0xf8, 0xff, 0xff, 0x00, 0x00, 0x00, 0x02, 0x10, 0x00, 0x00, 0x00,
  0x06, 0x00, 0x00, 0x00, 0x10, 0x00, 0x00, 0x00, 0x50, 0x00, 0x00, 0x00,
  0x01, 0x00, 0x00, 0x00, 0x20, 0x00, 0x00, 0x00, 0x3c, 0x00, 0x00, 0x00,
  0x73, 0x65, 0x71, 0x75, 0x65, 0x6e, 0x74, 0x69, 0x61, 0x6c, 0x5f, 0x34,
  0x2f, 0x71, 0x75, 0x61, 0x6e, 0x74, 0x5f, 0x63, 0x6f, 0x6e, 0x76, 0x32,
  0x64, 0x5f, 0x31, 0x36, 0x2f, 0x42, 0x69, 0x61, 0x73, 0x41, 0x64, 0x64,
  0x2f, 0x52, 0x65, 0x61, 0x64, 0x56, 0x61, 0x72, 0x69, 0x61, 0x62, 0x6c,
  0x65, 0x4f, 0x70, 0x2f, 0x72, 0x65, 0x73, 0x6f, 0x75, 0x72, 0x63, 0x65,
  0x00, 0x00, 0x00, 0x00, 0x48, 0xf9, 0xff, 0xff, 0x08, 0x00, 0x00, 0x00,
  0x88, 0x00, 0x00, 0x00, 0x20, 0x00, 0x00, 0x00, 0xa8, 0x5e, 0x93, 0x37,
  0x4a, 0xc4, 0x84, 0x37, 0xa4, 0xbc, 0x6b, 0x37, 0x20, 0x25, 0x38, 0x37,
  0xa2, 0xcb, 0x61, 0x37, 0xa8, 0x87, 0x68, 0x37, 0x09, 0x0b, 0x3e, 0x37,
  0x19, 0xf4, 0x76, 0x37, 0xf8, 0x0c, 0x47, 0x37, 0xfb, 0x20, 0x5b, 0x37,
  0xe1, 0x01, 0xaa, 0x37, 0x3b, 0xab, 0x40, 0x37, 0xc0, 0x55, 0x50, 0x37,
  0xbe, 0xe7, 0x7c, 0x37, 0x18, 0xb4, 0x95, 0x37, 0x0b, 0x13, 0xa2, 0x37,
  0x4c, 0x96, 0xc1, 0x37, 0x20, 0xfc, 0x4a, 0x37, 0x8d, 0xd1, 0x3a, 0x37,
  0x79, 0x0e, 0x65, 0x37, 0x22, 0xab, 0x4f, 0x37, 0x27, 0xb3, 0x56, 0x37,
  0x5b, 0xed, 0x52, 0x37, 0x16, 0x83, 0x15, 0x37, 0x26, 0xbf, 0x59, 0x37,
  0x71, 0xbc, 0x4d, 0x37, 0xa3, 0xc9, 0x66, 0x37, 0xe9, 0x2c, 0x48, 0x37,
  0x35, 0x53, 0x54, 0x37, 0x46, 0x81, 0x4a, 0x37, 0xb8, 0xef, 0x2c, 0x37,
  0xc8, 0xc0, 0x52, 0x37, 0x20, 0x00, 0x00, 0x00, 0x00, 0x00, 0x00, 0x00,
